{
  "version": "1.0",
  "truncation": null,
  "padding": null,
  "added_tokens": [
    {
      "id": 0,
      "content": "<|bos|>",
      "single_word": false,
      "lstrip": false,
      "rstrip": false,
      "normalized": false,
      "special": true
    },
    {
      "id": 1,
      "content": "<|user_start|>",
      "single_word": false,
      "lstrip": false,
      "rstrip": false,
      "normalized": false,
      "special": true
    },
    {
      "id": 2,
      "content": "<|user_end|>",
      "single_word": false,
      "lstrip": false,
      "rstrip": false,
      "normalized": false,
      "special": true
    },
    {
      "id": 3,
      "content": "<|assistant_start|>",
      "single_word": false,
      "lstrip": false,
      "rstrip": false,
      "normalized": false,
      "special": true
    },
    {
      "id": 4,
      "content": "<|assistant_end|>",
      "single_word": false,
      "lstrip": false,
      "rstrip": false,
      "normalized": false,
      "special": true
    },
    {
      "id": 5,
      "content": "<|python_start|>",
      "single_word": false,
      "lstrip": false,
      "rstrip": false,
      "normalized": false,
      "special": true
    },
    {
      "id": 6,
      "content": "<|python_end|>",
      "single_word": false,
      "lstrip": false,
      "rstrip": false,
      "normalized": false,
      "special": true
    },
    {
      "id": 7,
      "content": "<|output_start|>",
      "single_word": false,
      "lstrip": false,
      "rstrip": false,
      "normalized": false,
      "special": true
    },
    {
      "id": 8,
      "content": "<|output_end|>",
      "single_word": false,
      "lstrip": false,
      "rstrip": false,
      "normalized": false,
      "special": true
    },
    {
      "id": 9,
      "content": "<|unk|>",
      "single_word": false,
      "lstrip": false,
      "rstrip": false,
      "normalized": false,
      "special": true
    }
  ],
  "normalizer": null,
  "pre_tokenizer": {
    "type": "Sequence",
    "pretokenizers": [
      {
        "type": "Split",
        "pattern": {
          "Regex": "'(?i:[sdmt]|ll|ve|re)|[^\\r\\n\\p{L}\\p{N}]?+\\p{L}+|\\p{N}{1,2}| ?[^\\s\\p{L}\\p{N}]++[\\r\\n]*|\\s*[\\r\\n]|\\s+(?!\\S)|\\s+"
        },
        "behavior": "Isolated",
        "invert": false
      },
      {
        "type": "ByteLevel",
        "add_prefix_space": false,
        "trim_offsets": true,
        "use_regex": false
      }
    ]
  },
  "post_processor": {
    "type": "TemplateProcessing",
    "single": [
      {
        "Sequence": {
          "id": "A",
          "type_id": 0
        }
      }
    ],
    "pair": [
      {
        "Sequence": {
          "id": "A",
          "type_id": 0
        }
      },
      {
        "Sequence": {
          "id": "B",
          "type_id": 1
        }
      }
    ],
    "special_tokens": {}
  },
  "decoder": null,
  "model": {
    "type": "Unigram",
    "unk_id": 9,
    "vocab": [
      [
        "<|bos|>",
        0.0
      ],
      [
        "<|user_start|>",
        0.0
      ],
      [
        "<|user_end|>",
        0.0
      ],
      [
        "<|assistant_start|>",
        0.0
      ],
      [
        "<|assistant_end|>",
        0.0
      ],
      [
        "<|python_start|>",
        0.0
      ],
      [
        "<|python_end|>",
        0.0
      ],
      [
        "<|output_start|>",
        0.0
      ],
      [
        "<|output_end|>",
        0.0
      ],
      [
        "<|unk|>",
        0.0
      ],
      [
        "Ġ",
        -2.091214797388872
      ],
      [
        "s",
        -3.145119023227995
      ],
      [
        ",",
        -3.566760325273906
      ],
      [
        "Ġthe",
        -3.6106959731027097
      ],
      [
        ".",
        -3.821094253305821
      ],
      [
        "a",
        -4.0072281427364835
      ],
      [
        "Ġof",
        -4.317381192117729
      ],
      [
        "t",
        -4.398935661812356
      ],
      [
        "Ġand",
        -4.461253106134421
      ],
      [
        "Ġto",
        -4.507196757986987
      ],
      [
        "d",
        -4.5314551247753805
      ],
      [
        "e",
        -4.556762991467565
      ],
      [
        "o",
        -4.55844706246104
      ],
      [
        "ing",
        -4.716606803966041
      ],
      [
        "Ġin",
        -4.8639137853871635
      ],
      [
        "y",
        -4.924209386790604
      ],
      [
        "i",
        -4.945337965870635
      ],
      [
        "'",
        -5.029483810346999
      ],
      [
        "and",
        -5.062254869446244
      ],
      [
        "Ċ",
        -5.064322786538604
      ],
      [
        "0",
        -5.162789663207013
      ],
      [
        "n",
        -5.180113306845515
      ],
      [
        "Ġthat",
        -5.185680401590298
      ],
      [
        "Ġfor",
        -5.23317528787916
      ],
      [
        "1",
        -5.317109018934275
      ],
      [
        ":",
        -5.330337673316636
      ],
      [
        ".ĊĊ",
        -5.402478713954219
      ],
      [
        "Ġwith",
        -5.440716067091197
      ],
      [
        "Ġyou",
        -5.462329274915135
      ],
      [
        "2",
        -5.527377160793355
      ],
      [
        "is",
        -5.5292158743207445
      ],
      [
        "ly",
        -5.596688210059096
      ],
      [
        ".Ċ",
        -5.631835993159704
      ],
      [
        "r",
        -5.6538946490747755
      ],
      [
        "Ġcan",
        -5.708630912280761
      ],
      [
        "f",
        -5.737872338269849
      ],
      [
        "Ġbe",
        -5.740379760755312
      ],
      [
        "Ġare",
        -5.7827899726239185
      ],
      [
        "the",
        -5.806548836293761
      ],
      [
        "-",
        -5.856417502503849
      ],
      [
        "Ġis",
        -5.876315138692593
      ],
      [
        "Ġyour",
        -5.890451421782906
      ],
      [
        "ĊĊ",
        -5.898778205765364
      ],
      [
        "on",
        -5.947714761431877
      ],
      [
        "(",
        -5.964756277651807
      ],
      [
        "to",
        -5.965860362949284
      ],
      [
        "Ġfrom",
        -6.0470579002919465
      ],
      [
        "\"",
        -6.053498045725313
      ],
      [
        "Ġhave",
        -6.063329582098916
      ],
      [
        "in",
        -6.090765410030631
      ],
      [
        "I",
        -6.095926396502861
      ],
      [
        ")",
        -6.099324139518004
      ],
      [
        "ed",
        -6.123365398484763
      ],
      [
        "ĠThe",
        -6.159850192701805
      ],
      [
        "3",
        -6.184543209196342
      ],
      [
        "?",
        -6.195025555130167
      ],
      [
        "5",
        -6.208807898163197
      ],
      [
        "of",
        -6.270802594380829
      ],
      [
        "Ġby",
        -6.289864141511286
      ],
      [
        "Ġthis",
        -6.306556194074442
      ],
      [
        "l",
        -6.320222537837083
      ],
      [
        "Ġnot",
        -6.342284674178739
      ],
      [
        "The",
        -6.346667211298502
      ],
      [
        "Ġtheir",
        -6.351438580293067
      ],
      [
        "Ġwill",
        -6.377430524099735
      ],
      [
        "4",
        -6.382464986157542
      ],
      [
        "are",
        -6.414337097011437
      ],
      [
        "Ġa",
        -6.4358777085548
      ],
      [
        "it",
        -6.442683348201371
      ],
      [
        "9",
        -6.463906446030482
      ],
      [
        "Ġor",
        -6.5223862501758205
      ],
      [
        "Ġthey",
        -6.534946519025219
      ],
      [
        "or",
        -6.536136392946569
      ],
      [
        "ĠI",
        -6.549962904454443
      ],
      [
        "m",
        -6.55407002925249
      ],
      [
        "Ġwas",
        -6.563683671340984
      ],
      [
        "Ġan",
        -6.600994467076497
      ],
      [
        "Ġmore",
        -6.608857890249668
      ],
      [
        "6",
        -6.658298642635769
      ],
      [
        "Question",
        -6.667071896897836
      ],
      [
        "Ġbut",
        -6.669197278909266
      ],
      [
        "Ġwhich",
        -6.695963891498291
      ],
      [
        "8",
        -6.702289319878375
      ],
      [
        "A",
        -6.712311951534414
      ],
      [
        "Ġas",
        -6.7394859157165286
      ],
      [
        "ĠAnswer",
        -6.762419786240173
      ],
      [
        "Ġalso",
        -6.764318413713347
      ],
      [
        "7",
        -6.782558945009233
      ],
      [
        "Ġhas",
        -6.804582906554922
      ],
      [
        "c",
        -6.847727956382217
      ],
      [
        "Ġabout",
        -6.84915862119778
      ],
      [
        "Ġwe",
        -6.853279619058533
      ],
      [
        "h",
        -6.90347856949783
      ],
      [
        "Ġwhen",
        -6.913477576364885
      ],
      [
        "Ġthem",
        -7.000780052753145
      ],
      [
        "g",
        -7.007505843094851
      ],
      [
        "Ġtime",
        -7.011891156596159
      ],
      [
        "Ġmay",
        -7.0190880976473515
      ],
      [
        "Ġlike",
        -7.063505745171611
      ],
      [
        "Ġinto",
        -7.080981398470497
      ],
      [
        "Ġother",
        -7.082660257568753
      ],
      [
        "an",
        -7.089832329204764
      ],
      [
        "Ġall",
        -7.124589897399991
      ],
      [
        "ĠThis",
        -7.1404065516571045
      ],
      [
        "Ġsome",
        -7.141942518658791
      ],
      [
        "u",
        -7.1434717234807845
      ],
      [
        "Ġhow",
        -7.149787117532048
      ],
      [
        "Ġout",
        -7.168168551988376
      ],
      [
        "Ġwhat",
        -7.173939121800698
      ],
      [
        "Ġup",
        -7.177798531482589
      ],
      [
        "Ġthere",
        -7.1791999029416065
      ],
      [
        "one",
        -7.1794681913396
      ],
      [
        "Ġthese",
        -7.194043797607744
      ],
      [
        "Ġwater",
        -7.216028522726788
      ],
      [
        "Ġit",
        -7.268370536426215
      ],
      [
        "ĠWhat",
        -7.277907585176779
      ],
      [
        "Ġthan",
        -7.278119503424621
      ],
      [
        "ĠIt",
        -7.283689445937517
      ],
      [
        "Ġsuch",
        -7.284438822408779
      ],
      [
        "Ġuse",
        -7.285738176714153
      ],
      [
        "Ġmake",
        -7.288433372299888
      ],
      [
        "Ġpeople",
        -7.293247063716116
      ],
      [
        "Ġneed",
        -7.322483212222327
      ],
      [
        "Ġbeen",
        -7.323784170524402
      ],
      [
        "Ġwere",
        -7.326724704421828
      ],
      [
        "Ġhelp",
        -7.367531866899572
      ],
      [
        "/",
        -7.369221493842856
      ],
      [
        "b",
        -7.372157547431206
      ],
      [
        "Ġshould",
        -7.375405324410499
      ],
      [
        "ĠIn",
        -7.381881460489627
      ],
      [
        "Ġmost",
        -7.388161741028961
      ],
      [
        "Ġwould",
        -7.395473455786941
      ],
      [
        "our",
        -7.397178051100116
      ],
      [
        "ies",
        -7.407525684194301
      ],
      [
        "Ġnew",
        -7.407990567715924
      ],
      [
        "Ġonly",
        -7.41338424937384
      ],
      [
        "Ġused",
        -7.413560434436871
      ],
      [
        "as",
        -7.414676443155882
      ],
      [
        "Ġwho",
        -7.431173298717152
      ],
      [
        "Ġdo",
        -7.433341446153465
      ],
      [
        "at",
        -7.438746047961526
      ],
      [
        ";",
        -7.4504076522955405
      ],
      [
        "ĠA",
        -7.454497333370139
      ],
      [
        "Ġany",
        -7.456832956311754
      ],
      [
        "Ġjust",
        -7.457968257862532
      ],
      [
        "Ġover",
        -7.505502505164129
      ],
      [
        "What",
        -7.506897269081479
      ],
      [
        "Ġget",
        -7.527896247724209
      ],
      [
        "able",
        -7.543446885782906
      ],
      [
        "Ġfirst",
        -7.547852206139863
      ],
      [
        "Ġmany",
        -7.563961527298135
      ],
      [
        "Ġdifferent",
        -7.564111586341454
      ],
      [
        "Ġ(",
        -7.564409870494705
      ],
      [
        "Ġthrough",
        -7.568744043268376
      ],
      [
        "Ġbetween",
        -7.57351821927354
      ],
      [
        "Ġhigh",
        -7.592624253733037
      ],
      [
        "Ġcould",
        -7.601213021868768
      ],
      [
        "Ġwhere",
        -7.602251621198441
      ],
      [
        "w",
        -7.614712587744496
      ],
      [
        "re",
        -7.637753145587757
      ],
      [
        "Ġtake",
        -7.642398194317215
      ],
      [
        "Ġwork",
        -7.644532554413077
      ],
      [
        "Ġbecause",
        -7.647295954924097
      ],
      [
        "?Ċ",
        -7.655324325009312
      ],
      [
        "Ġon",
        -7.661068221415553
      ],
      [
        "for",
        -7.661740793167153
      ],
      [
        "Ġmy",
        -7.692181002266825
      ],
      [
        "!",
        -7.6976795683621475
      ],
      [
        "Ġtwo",
        -7.702449474507912
      ],
      [
        "S",
        -7.721020427673571
      ],
      [
        "p",
        -7.722375007614195
      ],
      [
        "while",
        -7.725346346405402
      ],
      [
        "Ġmuch",
        -7.730080048687743
      ],
      [
        "Ġsystem",
        -7.730637291171458
      ],
      [
        "Ġwell",
        -7.731522697868241
      ],
      [
        "Ġprovide",
        -7.7320026385482095
      ],
      [
        "?ĊĊ",
        -7.737383442161049
      ],
      [
        "out",
        -7.751046238965765
      ],
      [
        "Ġfood",
        -7.764240839883163
      ],
      [
        "ever",
        -7.770364596156016
      ],
      [
        "Ġknow",
        -7.771937070735298
      ],
      [
        "Ġchange",
        -7.775949715816243
      ],
      [
        "Ġeven",
        -7.782200907868747
      ],
      [
        "Ġwant",
        -7.7835756129333085
      ],
      [
        "Ġdoes",
        -7.7850893143846704
      ],
      [
        "Ġgood",
        -7.792208929577544
      ],
      [
        "Ġimportant",
        -7.792928111116071
      ],
      [
        "Ġyears",
        -7.794426291889351
      ],
      [
        "How",
        -7.800507904592237
      ],
      [
        "Ġway",
        -7.803029438152338
      ],
      [
        "This",
        -7.804909434203264
      ],
      [
        "Ġi",
        -7.831053076444956
      ],
      [
        "Ġlong",
        -7.834617713848488
      ],
      [
        "Ġprocess",
        -7.841185294679191
      ],
      [
        "Ġusing",
        -7.848242247040897
      ],
      [
        "Ġafter",
        -7.855742394858762
      ],
      [
        "ĠThey",
        -7.864644757664131
      ],
      [
        "Ġgo",
        -7.865387210273182
      ],
      [
        "Ġbeing",
        -7.868345011880649
      ],
      [
        "Ġhealth",
        -7.872564505119428
      ],
      [
        "during",
        -7.876902941694475
      ],
      [
        "ĠYou",
        -7.881883893317971
      ],
      [
        "Ġevery",
        -7.883541974729725
      ],
      [
        ").",
        -7.886027651164538
      ],
      [
        "C",
        -7.903457837318779
      ],
      [
        "by",
        -7.905685196460507
      ],
      [
        "all",
        -7.907716339252056
      ],
      [
        "Ġlife",
        -7.917419413068163
      ],
      [
        "In",
        -7.925667006576447
      ],
      [
        "Ġworld",
        -7.928278845805945
      ],
      [
        "Ġsame",
        -7.930732395778545
      ],
      [
        "Ġlarge",
        -7.931549967395798
      ],
      [
        "Ġone",
        -7.93449572808624
      ],
      [
        "Ġbefore",
        -7.944627742578097
      ],
      [
        "Ġboth",
        -7.9475650048679345
      ],
      [
        "Ġthose",
        -7.952993945054372
      ],
      [
        "Ġaround",
        -7.957025329335155
      ],
      [
        "Ġarea",
        -7.968093524885882
      ],
      [
        "D",
        -7.973774886017042
      ],
      [
        "Ġfound",
        -7.975340094109228
      ],
      [
        "ve",
        -7.979056540527166
      ],
      [
        "Ġvery",
        -7.989559450928681
      ],
      [
        "Ġsmall",
        -7.991613029091722
      ],
      [
        "Ġcreate",
        -7.995284673705257
      ],
      [
        "Ġdata",
        -7.99701393235368
      ],
      [
        "Ġoften",
        -8.00079446840693
      ],
      [
        "Ġlook",
        -8.004696210931229
      ],
      [
        "%",
        -8.008227407422481
      ],
      [
        "Ġits",
        -8.008897661701365
      ],
      [
        "T",
        -8.011116349525793
      ],
      [
        "Ġbest",
        -8.011276909938292
      ],
      [
        "Ġsee",
        -8.01487037001847
      ],
      [
        "Ġpart",
        -8.026005230385245
      ],
      [
        "><",
        -8.032746028933486
      ],
      [
        "Ġenergy",
        -8.034672279279897
      ],
      [
        "he",
        -8.034860359325116
      ],
      [
        "Ġcommon",
        -8.035882156810535
      ],
      [
        "Ġbody",
        -8.036292850809476
      ],
      [
        "Ġdown",
        -8.050140893228365
      ],
      [
        "Ġback",
        -8.053331267233938
      ],
      [
        "Ġfind",
        -8.054454270419491
      ],
      [
        "Ġcause",
        -8.056386162792691
      ],
      [
        "its",
        -8.063570292923302
      ],
      [
        "Ġincrease",
        -8.064125377559069
      ],
      [
        "Ġyear",
        -8.064219710825153
      ],
      [
        "Ġinformation",
        -8.070324221950758
      ],
      [
        "Ġdon",
        -8.07848657313315
      ],
      [
        "Ġinclude",
        -8.082782170494404
      ],
      [
        "Ġhad",
        -8.085698452265236
      ],
      [
        "us",
        -8.089311063942695
      ],
      [
        "ĠFor",
        -8.089722428054603
      ],
      [
        "Ġnumber",
        -8.093390718047539
      ],
      [
        "Ġlight",
        -8.096255840288098
      ],
      [
        "Ġhis",
        -8.1035404598454
      ],
      [
        "ĠHow",
        -8.10650982729666
      ],
      [
        "ĠWe",
        -8.114841306215808
      ],
      [
        "Ġexperience",
        -8.121317972454793
      ],
      [
        "Ġno",
        -8.12259258713546
      ],
      [
        "Ġsaid",
        -8.12340646136979
      ],
      [
        "âĢĵ",
        -8.135912927293635
      ],
      [
        "Ġstudy",
        -8.139131973028897
      ],
      [
        "Ġbetter",
        -8.142059188329876
      ],
      [
        "ĠIf",
        -8.142178761339153
      ],
      [
        "Ġplace",
        -8.144712136419393
      ],
      [
        "Ġresearch",
        -8.151350413704721
      ],
      [
        "Ġdesign",
        -8.151677680232428
      ],
      [
        "Ġhome",
        -8.155115030398482
      ],
      [
        "be",
        -8.155382780613147
      ],
      [
        "Ġright",
        -8.16282752037549
      ],
      [
        "Ġmight",
        -8.163206500250386
      ],
      [
        "Ġday",
        -8.17203466767321
      ],
      [
        "Ġplant",
        -8.185313795443005
      ],
      [
        "can",
        -8.187247495081296
      ],
      [
        "Ġpower",
        -8.187736812235173
      ],
      [
        "Ġspecies",
        -8.193067342472967
      ],
      [
        "Ġstudents",
        -8.19548856874118
      ],
      [
        "Ġunder",
        -8.19840184128064
      ],
      [
        "al",
        -8.205504915218164
      ],
      [
        "es",
        -8.208181155700178
      ],
      [
        "Ġmade",
        -8.22103224652291
      ],
      [
        "more",
        -8.224208987342184
      ],
      [
        "Ġshow",
        -8.225144204737264
      ],
      [
        "When",
        -8.22939058174193
      ],
      [
        "Ġlead",
        -8.230074114511519
      ],
      [
        "Ġstill",
        -8.234296391785103
      ],
      [
        "),",
        -8.235825777891165
      ],
      [
        "less",
        -8.236103916161028
      ],
      [
        "Ġsupport",
        -8.237887608670835
      ],
      [
        "Ġincluding",
        -8.239377003058696
      ],
      [
        "use",
        -8.245079265948032
      ],
      [
        "Ġgrow",
        -8.246058622841817
      ],
      [
        "ĠThese",
        -8.25022441520371
      ],
      [
        ":ĊĊ",
        -8.250886372762645
      ],
      [
        "Ġdog",
        -8.251760378638881
      ],
      [
        "ally",
        -8.253260894008099
      ],
      [
        "B",
        -8.254841801730583
      ],
      [
        "Ġfew",
        -8.255618704074555
      ],
      [
        "Ġgreat",
        -8.25792835490711
      ],
      [
        "Ġexample",
        -8.259112803494839
      ],
      [
        "that",
        -8.263944564117876
      ],
      [
        "if",
        -8.266186229454922
      ],
      [
        "Ġcontrol",
        -8.267349012741168
      ],
      [
        "Ġplants",
        -8.26818919660421
      ],
      [
        "Ġthink",
        -8.272546836669527
      ],
      [
        "Ġat",
        -8.273978690947922
      ],
      [
        "Ġchildren",
        -8.277186534869193
      ],
      [
        "x",
        -8.286346259903372
      ],
      [
        "Ġindividual",
        -8.291285600026203
      ],
      [
        "Ġallow",
        -8.29202542500294
      ],
      [
        "ness",
        -8.295032842430167
      ],
      [
        "ĠâĢĵ",
        -8.295177597627669
      ],
      [
        "Ġmethod",
        -8.29994647166425
      ],
      [
        "Ġoff",
        -8.301600756716416
      ],
      [
        "ity",
        -8.310678171770228
      ],
      [
        "Ġhuman",
        -8.314732980028737
      ],
      [
        "Ġgive",
        -8.315904408209347
      ],
      [
        "each",
        -8.31877139407069
      ],
      [
        "ĠTo",
        -8.328524930697139
      ],
      [
        "ĠB",
        -8.32953655283617
      ],
      [
        "ĠC",
        -8.329962473916947
      ],
      [
        "k",
        -8.33071516567137
      ],
      [
        "âĢĻ",
        -8.331312018118027
      ],
      [
        "Ġschool",
        -8.334146228487665
      ],
      [
        "Ġmust",
        -8.33439501367207
      ],
      [
        "other",
        -8.335045522451423
      ],
      [
        "Ġgroup",
        -8.340945322596134
      ],
      [
        "Ġreduce",
        -8.341476341601947
      ],
      [
        "Ġthree",
        -8.343678869728636
      ],
      [
        "Ġtype",
        -8.3462233295553
      ],
      [
        "Ġpotential",
        -8.349898402219473
      ],
      [
        "Ġkeep",
        -8.353150738120558
      ],
      [
        "ĠBut",
        -8.361309750279798
      ],
      [
        "Ġstart",
        -8.367367562275923
      ],
      [
        "Ġher",
        -8.368729395373773
      ],
      [
        "Ġmodel",
        -8.368919981850155
      ],
      [
        "Ġensure",
        -8.377138616133365
      ],
      [
        "ability",
        -8.380981503829139
      ],
      [
        "Ġspecific",
        -8.38130166188186
      ],
      [
        "Ġnatural",
        -8.39277376434048
      ],
      [
        "ll",
        -8.393124185344506
      ],
      [
        "Ġresult",
        -8.395775072390917
      ],
      [
        "Ġprevent",
        -8.400127604935443
      ],
      [
        "...",
        -8.403144226574268
      ],
      [
        "Ġcar",
        -8.404698542948587
      ],
      [
        "Ġknown",
        -8.408166958044696
      ],
      [
        "Ġvarious",
        -8.41050954578768
      ],
      [
        "Ġair",
        -8.416024757868904
      ],
      [
        "Ġbecome",
        -8.416547883683808
      ],
      [
        "You",
        -8.423314990246432
      ],
      [
        "Ġour",
        -8.424338825325163
      ],
      [
        "Ġform",
        -8.425889271398153
      ],
      [
        "Ġblood",
        -8.430680388289414
      ],
      [
        "Ġsurface",
        -8.431121007855214
      ],
      [
        "Ġcurrent",
        -8.431981914663439
      ],
      [
        "!Ċ",
        -8.434248565111792
      ],
      [
        "Ġwhy",
        -8.438538271580608
      ],
      [
        "Ġsoil",
        -8.443751869349096
      ],
      [
        "Ġcalled",
        -8.444507911308808
      ],
      [
        "Ġsize",
        -8.446749610958943
      ],
      [
        "Ġper",
        -8.448019817478393
      ],
      [
        "Ġspace",
        -8.449156672188035
      ],
      [
        "Ġmaking",
        -8.449502966977118
      ],
      [
        "Ġfollowing",
        -8.450125293587877
      ],
      [
        "Ġenvironment",
        -8.457921566611889
      ],
      [
        "Ġlevel",
        -8.46030733385307
      ],
      [
        "you",
        -8.460484445608756
      ],
      [
        "ĠAnd",
        -8.46366855304343
      ],
      [
        "Ġcells",
        -8.46388135423414
      ],
      [
        "Ġreally",
        -8.46640319855442
      ],
      [
        "Ġthings",
        -8.467264873797685
      ],
      [
        "this",
        -8.468117014391183
      ],
      [
        "Ġeach",
        -8.468621952185817
      ],
      [
        "Ġbenefit",
        -8.472736720210616
      ],
      [
        "Ġamount",
        -8.472748963047241
      ],
      [
        "Ġcost",
        -8.473805998769853
      ],
      [
        "Ġimpact",
        -8.476026599497667
      ],
      [
        "Ġwithin",
        -8.479487291275277
      ],
      [
        "Ġrisk",
        -8.485151943478519
      ],
      [
        "Ġdisease",
        -8.486576556940696
      ],
      [
        "Ġlittle",
        -8.493952094800688
      ],
      [
        "=",
        -8.495541424286696
      ],
      [
        "Ġsomething",
        -8.49619596579856
      ],
      [
        "with",
        -8.498698605724615
      ],
      [
        "If",
        -8.499721088952285
      ],
      [
        "Ġanother",
        -8.501532790124635
      ],
      [
        "Ġrequire",
        -8.5018345438205
      ],
      [
        "used",
        -8.503589089772575
      ],
      [
        "Ġmeans",
        -8.50770346140354
      ],
      [
        "Ġmain",
        -8.512884628858412
      ],
      [
        "Ġweek",
        -8.521079097424611
      ],
      [
        "Ġplay",
        -8.524545005191788
      ],
      [
        "Ġcome",
        -8.528065323506391
      ],
      [
        "Ġpossible",
        -8.528550057486338
      ],
      [
        "Ġdue",
        -8.53024687977818
      ],
      [
        "Ġb",
        -8.530924101518135
      ],
      [
        "ul",
        -8.533651944620342
      ],
      [
        "Ġt",
        -8.537468380020616
      ],
      [
        ":Ċ",
        -8.541419155149546
      ],
      [
        "Ġcolor",
        -8.541612984221846
      ],
      [
        "Ġnow",
        -8.54211640134077
      ],
      [
        "Ġlearning",
        -8.54398380305798
      ],
      [
        "Ġalways",
        -8.547184656538747
      ],
      [
        "Ġlearn",
        -8.548626744265109
      ],
      [
        "Ġneeds",
        -8.55105963669095
      ],
      [
        "Ġimprove",
        -8.551220524726403
      ],
      [
        "Ġproblem",
        -8.555316920165087
      ],
      [
        "There",
        -8.555352874886886
      ],
      [
        "Ġdevelopment",
        -8.555973963793669
      ],
      [
        "v",
        -8.561220430722136
      ],
      [
        "not",
        -8.561785582342
      ],
      [
        "âĢĶ",
        -8.563120005644445
      ],
      [
        "Ġusually",
        -8.565328805400629
      ],
      [
        "Ġcare",
        -8.569928664420225
      ],
      [
        "Ġpressure",
        -8.571051501031857
      ],
      [
        "Ġdevice",
        -8.573092767495327
      ],
      [
        "Ġseveral",
        -8.58128362678518
      ],
      [
        "Ġth",
        -8.582401606227712
      ],
      [
        "Ġpoint",
        -8.584169447913542
      ],
      [
        "Ġfish",
        -8.586786829000006
      ],
      [
        "Ġperson",
        -8.587583794929962
      ],
      [
        "Ġessential",
        -8.590424955769134
      ],
      [
        "th",
        -8.59129093032309
      ],
      [
        "Ġso",
        -8.592167707966727
      ],
      [
        "Ġtest",
        -8.598250906816956
      ],
      [
        "Ġclose",
        -8.5982657327809
      ],
      [
        "early",
        -8.600982217066925
      ],
      [
        "Ġtemperature",
        -8.601841212502446
      ],
      [
        "Ġrange",
        -8.604324778699311
      ],
      [
        "Ġactual",
        -8.605676372423225
      ],
      [
        "Ġavailable",
        -8.605727992437668
      ],
      [
        "Ġleave",
        -8.60733094354438
      ],
      [
        "Ġgeneral",
        -8.609542168954981
      ],
      [
        "technology",
        -8.610794821236066
      ],
      [
        "Ġsignificant",
        -8.61319866455558
      ],
      [
        "Ġlevels",
        -8.613260450911959
      ],
      [
        "Ġheat",
        -8.613460644562238
      ],
      [
        "has",
        -8.616287139250886
      ],
      [
        "Ġstate",
        -8.625428196719497
      ],
      [
        "Ġcontain",
        -8.62704439392067
      ],
      [
        "Ġoption",
        -8.628763832190177
      ],
      [
        "Ġme",
        -8.629331793634993
      ],
      [
        "Ġunderstand",
        -8.63175891306583
      ],
      [
        "Ġdiet",
        -8.63437497124932
      ],
      [
        "Ġenough",
        -8.639279764868764
      ],
      [
        "Ġtext",
        -8.64621987065339
      ],
      [
        "Ġuntil",
        -8.648187399141069
      ],
      [
        "Ġlive",
        -8.651573285983266
      ],
      [
        "Ġfeel",
        -8.651697221733134
      ],
      [
        "Ġconditions",
        -8.653278739650155
      ],
      [
        "Ġmaterial",
        -8.660274143404465
      ],
      [
        "ĠSo",
        -8.661525842000424
      ],
      [
        "your",
        -8.662119362885864
      ],
      [
        "way",
        -8.663111019301468
      ],
      [
        "ĠThere",
        -8.666359087312934
      ],
      [
        "up",
        -8.668076086731924
      ],
      [
        "Ġdid",
        -8.671410251218003
      ],
      [
        "Ġopen",
        -8.671570948463152
      ],
      [
        "Ġeffective",
        -8.67335452718369
      ],
      [
        "Ġtreatment",
        -8.674554865483568
      ],
      [
        "Ġcertain",
        -8.677984913081774
      ],
      [
        "from",
        -8.680533676571804
      ],
      [
        "Ġquality",
        -8.686537183377805
      ],
      [
        "Ġlocal",
        -8.686625365945904
      ],
      [
        "Ġconsider",
        -8.694050557827943
      ],
      [
        "um",
        -8.69447956764359
      ],
      [
        "Ġfamily",
        -8.696273197899792
      ],
      [
        "Ġhard",
        -8.696780461749242
      ],
      [
        "W",
        -8.69785940993209
      ],
      [
        "Ġprogram",
        -8.69794904195232
      ],
      [
        "ar",
        -8.698199652825707
      ],
      [
        "Ġend",
        -8.699228722041077
      ],
      [
        "have",
        -8.699727203578428
      ],
      [
        "Ġproject",
        -8.700787372227165
      ],
      [
        "Ġfield",
        -8.70145436570309
      ],
      [
        "Ġbased",
        -8.701622617538717
      ],
      [
        "Ġanimals",
        -8.702131550296944
      ],
      [
        "Ġorder",
        -8.704738280116878
      ],
      [
        "Ġteam",
        -8.707824070711274
      ],
      [
        "Ġpatient",
        -8.707960929770568
      ],
      [
        "Ġtypes",
        -8.7100261971796
      ],
      [
        "than",
        -8.71073889594264
      ],
      [
        "Ġsystems",
        -8.711724786201422
      ],
      [
        "well",
        -8.712343753129527
      ],
      [
        "Ġfunction",
        -8.713388148911772
      ],
      [
        "For",
        -8.716007803608484
      ],
      [
        "Ġgarden",
        -8.716845375115955
      ],
      [
        "Ġtogether",
        -8.716900786855074
      ],
      [
        "Ġsince",
        -8.717571997229236
      ],
      [
        "Ġmaterials",
        -8.722151994541875
      ],
      [
        "Ġproblems",
        -8.724037708093785
      ],
      [
        "Ġweight",
        -8.726492604004058
      ],
      [
        "Ġresults",
        -8.726536518270333
      ],
      [
        "Ġcomplete",
        -8.728146518912835
      ],
      [
        "which",
        -8.728193709064364
      ],
      [
        "ĠS",
        -8.729691998196955
      ],
      [
        "ĠWhich",
        -8.729727581135734
      ],
      [
        "most",
        -8.729831772290485
      ],
      [
        "Ġcourse",
        -8.732182122489007
      ],
      [
        "F",
        -8.736040473065415
      ],
      [
        "Ġname",
        -8.739198568664827
      ],
      [
        "Ġhigher",
        -8.741505253932718
      ],
      [
        "Ġfree",
        -8.743526497399781
      ],
      [
        "having",
        -8.743970950770699
      ],
      [
        "Ġown",
        -8.749238242043486
      ],
      [
        "[",
        -8.751205208049434
      ],
      [
        "how",
        -8.75203442319491
      ],
      [
        "Ġvalue",
        -8.752248889711957
      ],
      [
        "Ġwide",
        -8.754345213707694
      ],
      [
        "Ġadd",
        -8.754624787004948
      ],
      [
        "Ġkey",
        -8.755665361241944
      ],
      [
        "ĠUniversity",
        -8.755690999590371
      ],
      [
        "Ġsolution",
        -8.75611487446616
      ],
      [
        "ĠAs",
        -8.75843451490637
      ],
      [
        "Ġsure",
        -8.758455008230658
      ],
      [
        "P",
        -8.75910103900586
      ],
      [
        "Ġoffer",
        -8.7603511929385
      ],
      [
        "thing",
        -8.764833266192602
      ],
      [
        "Ġlow",
        -8.766244888227327
      ],
      [
        "ĠWith",
        -8.77125947095291
      ],
      [
        "Ġobject",
        -8.772262138138045
      ],
      [
        "Ġchild",
        -8.77368787268937
      ],
      [
        "Ġmakes",
        -8.7775835181581
      ],
      [
        "very",
        -8.777821271547356
      ],
      [
        "$",
        -8.780015845923712
      ],
      [
        "Ġprotect",
        -8.780686401979837
      ],
      [
        "Ġgrowth",
        -8.782075263144648
      ],
      [
        "Ġaway",
        -8.783283541456207
      ],
      [
        "M",
        -8.784173976129754
      ],
      [
        "Ġside",
        -8.784756299545347
      ],
      [
        "Ġsay",
        -8.786568198704082
      ],
      [
        "Ġdamage",
        -8.786761075141822
      ],
      [
        "H",
        -8.792349940728574
      ],
      [
        "ĠHe",
        -8.793271594930342
      ],
      [
        "some",
        -8.793708957388606
      ],
      [
        "Ġsimple",
        -8.79451696112535
      ],
      [
        "Ġshe",
        -8.797442006059805
      ],
      [
        "using",
        -8.797696682008816
      ],
      [
        "Ġcheck",
        -8.799759910634346
      ],
      [
        "Ġseem",
        -8.800315325420243
      ],
      [
        "Ġfuture",
        -8.800440663617886
      ],
      [
        "Ġlikely",
        -8.800481850468199
      ],
      [
        "ĠWhen",
        -8.802738835915758
      ],
      [
        "Ġrole",
        -8.802776590470536
      ],
      [
        "Ġnext",
        -8.80352325281574
      ],
      [
        "Ġput",
        -8.803684191036396
      ],
      [
        "Ġunique",
        -8.806507086298481
      ],
      [
        "Ġdoesn",
        -8.81027910184424
      ],
      [
        "Ġtimes",
        -8.812047411800272
      ],
      [
        "Ġpopulation",
        -8.813469424605934
      ],
      [
        "Ġeasy",
        -8.816559056108833
      ],
      [
        "ĠBy",
        -8.818312218561474
      ],
      [
        "Ġvariet",
        -8.819858237676435
      ],
      [
        "Ġremain",
        -8.819880303273386
      ],
      [
        "ation",
        -8.822273689732008
      ],
      [
        "Ġalong",
        -8.823046480010206
      ],
      [
        "Ġcase",
        -8.827330055112176
      ],
      [
        "Ġpresent",
        -8.829505693547905
      ],
      [
        "age",
        -8.829955649023077
      ],
      [
        "Ġworking",
        -8.83328470551696
      ],
      [
        "Ġproduce",
        -8.834661960066619
      ],
      [
        "Ġhand",
        -8.837562784188941
      ],
      [
        "&",
        -8.838741589555932
      ],
      [
        "Ġaffect",
        -8.839094786027413
      ],
      [
        "Ġproducts",
        -8.839855401313764
      ],
      [
        ",\"",
        -8.844822757635923
      ],
      [
        "Ġacross",
        -8.845666310073238
      ],
      [
        "E",
        -8.84568565394655
      ],
      [
        "Ġphysical",
        -8.846011964346737
      ],
      [
        "like",
        -8.847078026788273
      ],
      [
        "Ġkind",
        -8.849759706249655
      ],
      [
        "Ġabove",
        -8.852001510162822
      ],
      [
        "Ġnon",
        -8.85550037396432
      ],
      [
        "Ġleast",
        -8.856085117613388
      ],
      [
        "Ġtop",
        -8.85650830599338
      ],
      [
        "Ġset",
        -8.857462899758898
      ],
      [
        "Ġvideo",
        -8.858504841624676
      ],
      [
        "Ġfocus",
        -8.860006695731439
      ],
      [
        "ĠThat",
        -8.86164905122656
      ],
      [
        "Ġless",
        -8.861934171622632
      ],
      [
        "Ġsecond",
        -8.862147734254942
      ],
      [
        "Ġdogs",
        -8.863348838497295
      ],
      [
        "Ġanimal",
        -8.863419395873848
      ],
      [
        "Ġdifficult",
        -8.867624905848432
      ],
      [
        "Ġreal",
        -8.86851057145649
      ],
      [
        "Ġfull",
        -8.870622629589143
      ],
      [
        "Ġsocial",
        -8.870765238908213
      ],
      [
        "Ġclear",
        -8.872250484035039
      ],
      [
        "Ġrecommend",
        -8.874105233856415
      ],
      [
        "Ġnever",
        -8.874164524527522
      ],
      [
        "Ġstep",
        -8.875014016522613
      ],
      [
        "Ġfactors",
        -8.875097467345608
      ],
      [
        "Ġhealthy",
        -8.875655604785146
      ],
      [
        "Ġsafe",
        -8.876732918601665
      ],
      [
        "Ġmarket",
        -8.878455975907823
      ],
      [
        "O",
        -8.879213237134671
      ],
      [
        "Ġwhite",
        -8.882412654016996
      ],
      [
        "Ġsimilar",
        -8.883618643647392
      ],
      [
        "Ġeye",
        -8.885176876049012
      ],
      [
        "ĠM",
        -8.885435014923996
      ],
      [
        "We",
        -8.885591161509815
      ],
      [
        "Ġpaper",
        -8.887026922282605
      ],
      [
        "Ġshort",
        -8.889572088054578
      ],
      [
        "Ġremove",
        -8.890447802269613
      ],
      [
        "Ġissues",
        -8.891598413877766
      ],
      [
        "Ġstructure",
        -8.895460657035702
      ],
      [
        "Ġmillion",
        -8.89611181539833
      ],
      [
        "Ġnecessar",
        -8.898039569190697
      ],
      [
        "Ġeffects",
        -8.901665928720332
      ],
      [
        "Ġsource",
        -8.904919344579785
      ],
      [
        "Ġagain",
        -8.908793969172397
      ],
      [
        "Ġhere",
        -8.910389228581147
      ],
      [
        "Ġcomes",
        -8.911431215748124
      ],
      [
        "Ġimage",
        -8.913524379231761
      ],
      [
        "ĠNew",
        -8.914801349873134
      ],
      [
        "Ġmean",
        -8.917157918183012
      ],
      [
        "+",
        -8.917205684758763
      ],
      [
        "Ġaddition",
        -8.918687573224899
      ],
      [
        "Ġsingle",
        -8.921332859200191
      ],
      [
        "Ġspeed",
        -8.922398348589113
      ],
      [
        "Ġaccording",
        -8.92409850973833
      ],
      [
        "Ġdifference",
        -8.927338721494007
      ],
      [
        "er",
        -8.929057573098712
      ],
      [
        "Ġturn",
        -8.930167445987482
      ],
      [
        "They",
        -8.931726350568862
      ],
      [
        ">",
        -8.934239061861813
      ],
      [
        "two",
        -8.936482675337283
      ],
      [
        "Ġproduction",
        -8.93717197684894
      ],
      [
        "Ġespecial",
        -8.93859038444764
      ],
      [
        "Ġlove",
        -8.942019055365286
      ],
      [
        "Ġblack",
        -8.943436209356562
      ],
      [
        "Ġtoday",
        -8.943448125317463
      ],
      [
        "where",
        -8.944846524173084
      ],
      [
        "Ġcell",
        -8.94487652581406
      ],
      [
        "Ġdays",
        -8.94756394777992
      ],
      [
        "Ġheart",
        -8.950997945320085
      ],
      [
        "Ġproduct",
        -8.951169375443515
      ],
      [
        "Ġquestion",
        -8.953710020519829
      ],
      [
        "his",
        -8.953943440607521
      ],
      [
        "Ġamong",
        -8.958824777647878
      ],
      [
        "Ġgiven",
        -8.959404703206136
      ],
      [
        "Ġground",
        -8.963303956507744
      ],
      [
        "Ġmachine",
        -8.963650690286757
      ],
      [
        "Ġstrong",
        -8.964965412234172
      ],
      [
        "Ġlooking",
        -8.969788700992112
      ],
      [
        "Ġlast",
        -8.972442814302058
      ],
      [
        "Ġavoid",
        -8.97336479575437
      ],
      [
        "Ġfurther",
        -8.97497143783921
      ],
      [
        "Ġstore",
        -8.975270946957588
      ],
      [
        "Ġrun",
        -8.976868161733549
      ],
      [
        "Ġperiod",
        -8.978938387631938
      ],
      [
        "*",
        -8.980149810548777
      ],
      [
        "Ġdepend",
        -8.981503909985996
      ],
      [
        "ĠD",
        -8.981646993017662
      ],
      [
        "Ġinterest",
        -8.982805060905324
      ],
      [
        "Ġbelieve",
        -8.984535981358633
      ],
      [
        "Ġcancer",
        -8.984688672214169
      ],
      [
        "Ġnature",
        -8.98548819589433
      ],
      [
        "Ġclimate",
        -8.985798889509123
      ],
      [
        "Ġfour",
        -8.987447014604882
      ],
      [
        "Ġtoo",
        -8.987648849236408
      ],
      [
        "Ġpublic",
        -8.990381104319788
      ],
      [
        "Ġperformance",
        -8.990537481613552
      ],
      [
        "Ġfact",
        -8.991956731019833
      ],
      [
        "Answer",
        -8.992945325060944
      ],
      [
        "own",
        -8.993357668916818
      ],
      [
        "Ġcomputer",
        -8.993678252444093
      ],
      [
        "says",
        -8.994995857290457
      ],
      [
        "Ġskills",
        -8.99721221436209
      ],
      [
        "Ġparent",
        -9.000399810524428
      ],
      [
        "Ġeffect",
        -9.00062383355588
      ],
      [
        "Ġcondition",
        -9.001304587378701
      ],
      [
        "Ġclean",
        -9.002405307346988
      ],
      [
        "but",
        -9.003912790638523
      ],
      [
        "already",
        -9.004632035066821
      ],
      [
        "Ġskin",
        -9.004988568060885
      ],
      [
        ")ĊĊ",
        -9.006031417298393
      ],
      [
        "Ġleft",
        -9.007160535192739
      ],
      [
        "Ġdevelop",
        -9.008448678034306
      ],
      [
        "we",
        -9.00930249991601
      ],
      [
        "Ġwarm",
        -9.01187389767668
      ],
      [
        "ĠP",
        -9.013027659554542
      ],
      [
        "Ġinside",
        -9.013443317148088
      ],
      [
        "Ġwomen",
        -9.014247086628204
      ],
      [
        "ĠNo",
        -9.014744788957069
      ],
      [
        "Ġothers",
        -9.016395602076525
      ],
      [
        "N",
        -9.016462962348577
      ],
      [
        "Ġapproach",
        -9.018437950920609
      ],
      [
        "Ġchallenge",
        -9.018444594403416
      ],
      [
        "Ġmove",
        -9.019529775504456
      ],
      [
        "Ġgame",
        -9.019540965355889
      ],
      [
        "Ġenjoy",
        -9.020132033555852
      ],
      [
        "Ġline",
        -9.020133170981971
      ],
      [
        "Ġreason",
        -9.020602499364546
      ],
      [
        "Ġcontent",
        -9.020697747740972
      ],
      [
        "Ġbook",
        -9.02075189447906
      ],
      [
        "Ġhead",
        -9.020764473538652
      ],
      [
        "Ġlanguage",
        -9.022329317135648
      ],
      [
        "Ġunderstanding",
        -9.023111266346728
      ],
      [
        "gainst",
        -9.023824684264516
      ],
      [
        "ion",
        -9.02394378337563
      ],
      [
        "Ġdry",
        -9.024711279238876
      ],
      [
        "Ġbehavior",
        -9.025409564688072
      ],
      [
        "Ġclass",
        -9.02558275984353
      ],
      [
        "Ġsymptoms",
        -9.026940280119089
      ],
      [
        "Ġfollow",
        -9.027779870342524
      ],
      [
        "Ġthought",
        -9.0282567569288
      ],
      [
        "Ġmatter",
        -9.028430896490418
      ],
      [
        "Ġoil",
        -9.03197378636143
      ],
      [
        "Ġeither",
        -9.032126249515116
      ],
      [
        "Ġlower",
        -9.035249463568864
      ],
      [
        "Ġaccess",
        -9.036400877252005
      ],
      [
        "Ġfar",
        -9.038265379596147
      ],
      [
        "Ġgas",
        -9.03829283821026
      ],
      [
        "Ġcontinue",
        -9.038455596814272
      ],
      [
        "Ġappear",
        -9.038772963669032
      ],
      [
        "Ġgetting",
        -9.042196445315676
      ],
      [
        ").Ċ",
        -9.042502565968777
      ],
      [
        "Ġscience",
        -9.044066048431567
      ],
      [
        "Ġrecent",
        -9.045758287663478
      ],
      [
        "ĠSome",
        -9.04724334128946
      ],
      [
        "Why",
        -9.04733109851734
      ],
      [
        "Ġpain",
        -9.047955302141617
      ],
      [
        "Ġtypical",
        -9.048056367009076
      ],
      [
        "Ġactivity",
        -9.048215750392735
      ],
      [
        "ĠYour",
        -9.049484093888022
      ],
      [
        "taking",
        -9.049574042184847
      ],
      [
        "Ġsugar",
        -9.050056910214254
      ],
      [
        "Ġwhether",
        -9.051215795630686
      ],
      [
        "Ġbig",
        -9.051401336043652
      ],
      [
        "Ġmajor",
        -9.05198552371612
      ],
      [
        "Ġyoung",
        -9.052527830852888
      ],
      [
        "Ġassociate",
        -9.053030683503245
      ],
      [
        "Ġservice",
        -9.053278403108294
      ],
      [
        "Ġmoney",
        -9.054245622484515
      ],
      [
        "Ġlot",
        -9.055626189568928
      ],
      [
        "Ġcompare",
        -9.059632664717668
      ],
      [
        "Ġactivities",
        -9.060896002389002
      ],
      [
        "Ġreceive",
        -9.062993329777294
      ],
      [
        "online",
        -9.064707096337838
      ],
      [
        "Ġfruit",
        -9.06629822619596
      ],
      [
        "Ġstudie",
        -9.066606237964676
      ],
      [
        "Ġhours",
        -9.066832294646094
      ],
      [
        "Ġplan",
        -9.067197333899523
      ],
      [
        "Ġbalance",
        -9.067626904656766
      ],
      [
        "Ġread",
        -9.0696002030308
      ],
      [
        "Ġindustry",
        -9.070927834976324
      ],
      [
        "Ġrequired",
        -9.07132275770471
      ],
      [
        "Ġdoing",
        -9.072481623841435
      ],
      [
        "Ġbusiness",
        -9.07613357028553
      ],
      [
        "Ġmention",
        -9.076311504651636
      ],
      [
        "le",
        -9.07800736168048
      ],
      [
        "Ġfeatures",
        -9.078033703292263
      ],
      [
        "Ġun",
        -9.078928164580278
      ],
      [
        "Ġcool",
        -9.081035453730925
      ],
      [
        "Ġtoward",
        -9.0815982186339
      ],
      [
        "Ġcontact",
        -9.083526598978512
      ],
      [
        "Ġidea",
        -9.08466182946631
      ],
      [
        "Ġflower",
        -9.085681914952918
      ],
      [
        "Ġbasic",
        -9.08921197899346
      ],
      [
        "Ġpast",
        -9.089541813607962
      ],
      [
        "Ġtraining",
        -9.090011214485642
      ],
      [
        "Ġwhole",
        -9.090073429103034
      ],
      [
        "Ġliving",
        -9.091272183056176
      ],
      [
        "Ġbrain",
        -9.091521357781248
      ],
      [
        "Ġroom",
        -9.093937071132776
      ],
      [
        "Ġanswer",
        -9.094354790942644
      ],
      [
        "Ġenvironmental",
        -9.094948817176853
      ],
      [
        "Ġadult",
        -9.09797007397578
      ],
      [
        "Ġbelow",
        -9.098041316263137
      ],
      [
        "time",
        -9.099216439318056
      ],
      [
        "Ġpopular",
        -9.101363298692904
      ],
      [
        "Ġloss",
        -9.10265728810094
      ],
      [
        "Ġcommunity",
        -9.103078056602891
      ],
      [
        "Ġstress",
        -9.10426219549974
      ],
      [
        "Ġarticle",
        -9.104850525471596
      ],
      [
        "Ġlayer",
        -9.107563922521498
      ],
      [
        "Ġhouse",
        -9.110911660104303
      ],
      [
        "rying",
        -9.112681383503215
      ],
      [
        ".\"ĊĊ",
        -9.113852064640746
      ],
      [
        "Ġentire",
        -9.115335262131977
      ],
      [
        "about",
        -9.119740742945275
      ],
      [
        "Ġsignal",
        -9.12031880501221
      ],
      [
        "Ġcrucial",
        -9.120524786171352
      ],
      [
        "Ġeasily",
        -9.120781949740437
      ],
      [
        "Ġoverall",
        -9.12084827557309
      ],
      [
        "Ġtry",
        -9.12120853661012
      ],
      [
        "Ġknowledge",
        -9.121412550099528
      ],
      [
        "Ġresearchers",
        -9.122482015110492
      ],
      [
        "Ġtools",
        -9.123096050835745
      ],
      [
        "Ġlonger",
        -9.124133470771016
      ],
      [
        "L",
        -9.124249818942396
      ],
      [
        "Ġmonths",
        -9.1247016893442
      ],
      [
        "Ġnormal",
        -9.12884872878885
      ],
      [
        "Ġbring",
        -9.128950365716465
      ],
      [
        "Ġgreen",
        -9.128969813919383
      ],
      [
        "get",
        -9.130570667367715
      ],
      [
        "Ġshape",
        -9.130812830550129
      ],
      [
        "Ġwild",
        -9.133374342392028
      ],
      [
        "Ġreport",
        -9.13376362199093
      ],
      [
        "Ġthough",
        -9.134726680151571
      ],
      [
        ".\"Ċ",
        -9.135070857374174
      ],
      [
        "Ġpost",
        -9.13566938647648
      ],
      [
        "Ġexist",
        -9.136237462279317
      ],
      [
        "Ġcarbon",
        -9.136681370127366
      ],
      [
        "ng",
        -9.139267975847654
      ],
      [
        "Ġca",
        -9.13936530116789
      ],
      [
        "Ġchoose",
        -9.140457019613242
      ],
      [
        "Ġperfect",
        -9.141519752998494
      ],
      [
        "R",
        -9.142975114189433
      ],
      [
        "Ġmeasure",
        -9.143119205047908
      ],
      [
        "z",
        -9.145482978086113
      ],
      [
        "Ġaverage",
        -9.147679744431835
      ],
      [
        "Ġprofessional",
        -9.147846654734636
      ],
      [
        "Ġcomplex",
        -9.148879247194408
      ],
      [
        "]",
        -9.149206631706054
      ],
      [
        "Ġforce",
        -9.14949756314646
      ],
      [
        "Ġengine",
        -9.151976779840382
      ],
      [
        "Ġcold",
        -9.153757911634084
      ],
      [
        "But",
        -9.154429588760298
      ],
      [
        "Ġcompany",
        -9.15490915184096
      ],
      [
        "Ġdescribe",
        -9.15497735098426
      ],
      [
        "Ġpractice",
        -9.155132142106275
      ],
      [
        "Ġeyes",
        -9.1556524836677
      ],
      [
        "Ġtreat",
        -9.15739917453513
      ],
      [
        "Ġbuilding",
        -9.159904780014458
      ],
      [
        "Ġsense",
        -9.160633070711183
      ],
      [
        "ver",
        -9.160753170489288
      ],
      [
        "Ġsound",
        -9.162308674217776
      ],
      [
        "what",
        -9.16241369591068
      ],
      [
        "Ġuser",
        -9.162521694082406
      ],
      [
        "Ġfuel",
        -9.162644820319318
      ],
      [
        "Ġmanagement",
        -9.162855573705349
      ],
      [
        "Ġhistor",
        -9.16374856847662
      ],
      [
        "ather",
        -9.164803703404356
      ],
      [
        "Ġparts",
        -9.165660946026446
      ],
      [
        "Ġbuild",
        -9.16571920397693
      ],
      [
        "Ġglobal",
        -9.166129583152356
      ],
      [
        "Ġseason",
        -9.166830828326944
      ],
      [
        "Ġbegin",
        -9.167799700286958
      ],
      [
        "Ġpersonal",
        -9.167941609499277
      ],
      [
        "Ġresponse",
        -9.167982408959706
      ],
      [
        "Ġhappen",
        -9.16865159973694
      ],
      [
        "Ġitem",
        -9.171057531252991
      ],
      [
        "U",
        -9.1722525075387
      ],
      [
        "Ġselect",
        -9.173672360586536
      ],
      [
        "Ġsuggest",
        -9.174024864195465
      ],
      [
        "Ġquickly",
        -9.174083940201816
      ],
      [
        "Ġself",
        -9.176245740541088
      ],
      [
        "Ġstay",
        -9.176425494136986
      ],
      [
        "Ġopportunit",
        -9.177467834658875
      ],
      [
        "Ġpositive",
        -9.17834347579831
      ],
      [
        "Ġmind",
        -9.178972009976004
      ],
      [
        "Ġdesigne",
        -9.180125548428702
      ],
      [
        "Ġtechniques",
        -9.180381896151726
      ],
      [
        "Ġminutes",
        -9.18071519996028
      ],
      [
        "Ġdeep",
        -9.181637616531445
      ],
      [
        "Ġthroughout",
        -9.182230477646485
      ],
      [
        "One",
        -9.18472649543991
      ],
      [
        "Ġconsidered",
        -9.18619449883327
      ],
      [
        "Ġachieve",
        -9.18910957657662
      ],
      [
        "Whil",
        -9.189542684115274
      ],
      [
        "ĠAmerican",
        -9.190719488189645
      ],
      [
        "Ġface",
        -9.1931010292293
      ],
      [
        "her",
        -9.193431701388867
      ],
      [
        "ic",
        -9.194120027763452
      ],
      [
        "any",
        -9.194322295666126
      ],
      [
        "Ġtraditional",
        -9.19530207805506
      ],
      [
        "Ġflow",
        -9.196046558417937
      ],
      [
        "Ġnear",
        -9.198348340590451
      ],
      [
        "ĠOne",
        -9.19889769880837
      ],
      [
        "Ġmaintain",
        -9.199078943190331
      ],
      [
        "Ġbit",
        -9.200421139615637
      ],
      [
        "Ġinvolve",
        -9.200668234500334
      ],
      [
        "Ġrelease",
        -9.201667904653796
      ],
      [
        "Ġmetal",
        -9.202910565973848
      ],
      [
        "many",
        -9.203891263381651
      ],
      [
        "Ġissue",
        -9.20408665869896
      ],
      [
        "now",
        -9.204117393010208
      ],
      [
        "Ġtree",
        -9.20559862396965
      ],
      [
        "Ġcamera",
        -9.206108494085615
      ],
      [
        "Ġmovement",
        -9.209042970601196
      ],
      [
        "Ġdetermine",
        -9.209847566586909
      ],
      [
        "Ġspecial",
        -9.210505294302376
      ],
      [
        "Ġwalk",
        -9.212239507695504
      ],
      [
        "Ġpet",
        -9.212397565139105
      ],
      [
        "_",
        -9.21341939523947
      ],
      [
        "Ġauthor",
        -9.214393819721822
      ],
      [
        "Ġquestions",
        -9.21589637529387
      ],
      [
        "Ġhelps",
        -9.21621289996044
      ],
      [
        "Ġbreak",
        -9.217803582264777
      ],
      [
        "Ġtalk",
        -9.22288875948747
      ],
      [
        "It",
        -9.22298893944312
      ],
      [
        ")Ċ",
        -9.22385063614987
      ],
      [
        "Ġprimary",
        -9.224062330847628
      ],
      [
        "resources",
        -9.224403498185032
      ],
      [
        "Ġwaste",
        -9.229977460573725
      ],
      [
        "With",
        -9.231516566318083
      ],
      [
        "Ġshare",
        -9.231707064301602
      ],
      [
        "rate",
        -9.232482766608175
      ],
      [
        "Ġrelationship",
        -9.23493678798708
      ],
      [
        "Ġyourself",
        -9.235052783775505
      ],
      [
        "Ġprovid",
        -9.23560320794686
      ],
      [
        "Ġsoftware",
        -9.235867123795844
      ],
      [
        "Ġstop",
        -9.236304912226128
      ],
      [
        "Ġwebsite",
        -9.236445259798202
      ],
      [
        "Ġdecision",
        -9.236586318409175
      ],
      [
        "Ġwinter",
        -9.237511956805951
      ],
      [
        "Ġmedical",
        -9.238959787422178
      ],
      [
        "Ġequipment",
        -9.241575275633853
      ],
      [
        "Ġoutside",
        -9.241655917864406
      ],
      [
        "Ġo",
        -9.243556377253594
      ],
      [
        "Ġattention",
        -9.245335414179904
      ],
      [
        "Ġwall",
        -9.245719188593178
      ],
      [
        "Ġhim",
        -9.249522064889362
      ],
      [
        "Ġexplore",
        -9.252714556368996
      ],
      [
        "Ġcountry",
        -9.253226744456082
      ],
      [
        "ce",
        -9.253392562408369
      ],
      [
        "will",
        -9.25392467007388
      ],
      [
        "Ġvisit",
        -9.254740658235525
      ],
      [
        "Ġhe",
        -9.256367319323388
      ],
      [
        "Ġthing",
        -9.257141719092283
      ],
      [
        "Ġmultiple",
        -9.257472578233916
      ],
      [
        "Ġcases",
        -9.257543360013669
      ],
      [
        "Ġprobabl",
        -9.25757845845564
      ],
      [
        "ĠU",
        -9.258120042204215
      ],
      [
        "Ġcat",
        -9.258526727446387
      ],
      [
        "omeone",
        -9.259709846398078
      ],
      [
        "Ġnetwork",
        -9.26030396792333
      ],
      [
        "ities",
        -9.261771866117812
      ],
      [
        "was",
        -9.262914727657932
      ],
      [
        "These",
        -9.264286565019006
      ],
      [
        "Ġar",
        -9.264391587008795
      ],
      [
        "ment",
        -9.264717988800346
      ],
      [
        "-base",
        -9.266847198999027
      ],
      [
        "Ġpercent",
        -9.270849012102063
      ],
      [
        "Ġprotein",
        -9.271369485086169
      ],
      [
        "Ġelements",
        -9.272511336115048
      ],
      [
        "Ġregard",
        -9.272520555046984
      ],
      [
        "Ġmodern",
        -9.273139720289253
      ],
      [
        "Ġweather",
        -9.273879321163909
      ],
      [
        "Ġaddress",
        -9.27421301144004
      ],
      [
        "Ġlength",
        -9.275384068403644
      ],
      [
        "Ġbirds",
        -9.27645420962769
      ],
      [
        "Ġhalf",
        -9.276591143527064
      ],
      [
        "Ġthemselves",
        -9.279249264743738
      ],
      [
        "Ġidentify",
        -9.279630792346804
      ],
      [
        "Ġtotal",
        -9.279704806249809
      ],
      [
        "Ġtrees",
        -9.28161872663982
      ],
      [
        "Ġcut",
        -9.281877249638296
      ],
      [
        "ĠE",
        -9.286464215407335
      ],
      [
        "simply",
        -9.286723232993063
      ],
      [
        "Ġsetting",
        -9.287677368675247
      ],
      [
        "Ġparticular",
        -9.290742227351622
      ],
      [
        "Ġextreme",
        -9.291234217335765
      ],
      [
        "Ġmonitor",
        -9.29290481171521
      ],
      [
        "ĠAI",
        -9.293778671341611
      ],
      [
        "Ġreach",
        -9.297980585626016
      ],
      [
        "Ġchoice",
        -9.298317351770994
      ],
      [
        "Ġtravel",
        -9.298431706747955
      ],
      [
        "Ġglass",
        -9.299480311723446
      ],
      [
        "Ġanything",
        -9.300929904504894
      ],
      [
        "also",
        -9.300972072284182
      ],
      [
        "ĠUnite",
        -9.30281974418518
      ],
      [
        "Ġdaily",
        -9.302827140991612
      ],
      [
        "made",
        -9.30502055332311
      ],
      [
        "Ġrepresent",
        -9.305098040936368
      ],
      [
        "Ġregular",
        -9.305123159879578
      ],
      [
        "Ġsummer",
        -9.30521381224176
      ],
      [
        "ĠNational",
        -9.305327197057498
      ],
      [
        "Ġtool",
        -9.305978727271048
      ],
      [
        "Ġincreasing",
        -9.307505867796069
      ],
      [
        "Ġinfection",
        -9.307956393128862
      ],
      [
        "Ġinput",
        -9.309038175646908
      ],
      [
        "Ġdeveloped",
        -9.30917044367489
      ],
      [
        "Ġfall",
        -9.312765810508177
      ],
      [
        "Ġacid",
        -9.316648037572334
      ],
      [
        "V",
        -9.317910062044202
      ],
      [
        "Ġcreat",
        -9.318285459473309
      ],
      [
        "Ġfive",
        -9.31873758623012
      ],
      [
        "Ġinstead",
        -9.319715240467556
      ],
      [
        "Ġitself",
        -9.320419926066634
      ],
      [
        "Ġeducation",
        -9.321204757813536
      ],
      [
        "ĠT",
        -9.321377740488964
      ],
      [
        "water",
        -9.324147547726216
      ],
      [
        "Ġadditional",
        -9.325273537266357
      ],
      [
        "Ġbattery",
        -9.330006814060097
      ],
      [
        "Ġcall",
        -9.330690596564724
      ],
      [
        "Ġdistance",
        -9.331975685095852
      ],
      [
        "even",
        -9.332837144419608
      ],
      [
        "sure",
        -9.33575163040678
      ],
      [
        "body",
        -9.338617756501428
      ],
      [
        "Ġsometime",
        -9.33888079514182
      ],
      [
        "quite",
        -9.339877546420356
      ],
      [
        "âĢ¦",
        -9.340913532053314
      ],
      [
        "Ġplastic",
        -9.341582865644543
      ],
      [
        "Ġrelated",
        -9.342787297199733
      ],
      [
        "Ġproper",
        -9.343126993461432
      ],
      [
        "Ġha",
        -9.343130242765572
      ],
      [
        "almos",
        -9.346345495137363
      ],
      [
        "Ġcustomer",
        -9.346446828239497
      ],
      [
        "Ġtarget",
        -9.347959131859092
      ],
      [
        "Ġorganic",
        -9.348999291171832
      ],
      [
        "Ġmilk",
        -9.349733185750662
      ],
      [
        "Ġwear",
        -9.350316340764191
      ],
      [
        "Ġbehin",
        -9.35052415445936
      ],
      [
        "Ġdigital",
        -9.35062225614112
      ],
      [
        "Ġfeet",
        -9.350821644778648
      ],
      [
        "And",
        -9.35324514021408
      ],
      [
        "Ġsun",
        -9.353439000976255
      ],
      [
        "li",
        -9.353478397218602
      ],
      [
        "old",
        -9.354039671782242
      ],
      [
        "Ġposition",
        -9.354176870266896
      ],
      [
        "Ġcount",
        -9.354552322070008
      ],
      [
        "Ġregion",
        -9.355221664857938
      ],
      [
        "Ġscientist",
        -9.356974919622672
      ],
      [
        "Ġcomponents",
        -9.35710394202322
      ],
      [
        "Ġapplications",
        -9.357331765043956
      ],
      [
        "G",
        -9.35755470800284
      ],
      [
        "Ġcanno",
        -9.358686532735785
      ],
      [
        "had",
        -9.35884713817713
      ],
      [
        "ĠEarth",
        -9.360157711041303
      ],
      [
        "ive",
        -9.36102482953968
      ],
      [
        "Ġvehicle",
        -9.362240659501987
      ],
      [
        "Ġhear",
        -9.362431232528408
      ],
      [
        "To",
        -9.362963411232505
      ],
      [
        "Ġdone",
        -9.363422843685708
      ],
      [
        "Ġcaused",
        -9.364220627488171
      ],
      [
        "Ġexact",
        -9.364960627100356
      ],
      [
        "Ġblue",
        -9.365367023056823
      ],
      [
        "light",
        -9.365574061156346
      ],
      [
        "Ġconcern",
        -9.366060134723504
      ],
      [
        "Ġstudent",
        -9.368483413522316
      ],
      [
        "Ġif",
        -9.372485606737868
      ],
      [
        "Ġnight",
        -9.372971921491864
      ],
      [
        "they",
        -9.373212685677572
      ],
      [
        "Ġfeed",
        -9.375003753866864
      ],
      [
        "Ġchemical",
        -9.37514626572474
      ],
      [
        "ous",
        -9.37523796902353
      ],
      [
        "Ġreturn",
        -9.378235443467602
      ],
      [
        "Ġlater",
        -9.37951454449323
      ],
      [
        "Ġanalysis",
        -9.380224838736254
      ],
      [
        "Ġcontribute",
        -9.380505345098184
      ],
      [
        "Ġfresh",
        -9.38086762325085
      ],
      [
        "making",
        -9.38261847628449
      ],
      [
        "Ġelectric",
        -9.38297432576854
      ],
      [
        "Ġtell",
        -9.383919291360048
      ],
      [
        "Ġcenter",
        -9.386289984944291
      ],
      [
        "Ġmedia",
        -9.387885340144695
      ],
      [
        "work",
        -9.388791388648968
      ],
      [
        "Ġocean",
        -9.390035248900832
      ],
      [
        "ĠH",
        -9.390393799670576
      ],
      [
        "Ġsensor",
        -9.391221323059572
      ],
      [
        "Ġkids",
        -9.39155809045612
      ],
      [
        "Ġapplication",
        -9.392287062022437
      ],
      [
        "Ġbad",
        -9.392715670436344
      ],
      [
        "low",
        -9.393876369140036
      ],
      [
        "Ġdrive",
        -9.394395533328952
      ],
      [
        "ĠAll",
        -9.395001661416122
      ],
      [
        "Ġprint",
        -9.39549537591766
      ],
      [
        "Ġlist",
        -9.396124730738723
      ],
      [
        "Ġus",
        -9.396182533003248
      ],
      [
        "Can",
        -9.396285812322878
      ],
      [
        "Ġways",
        -9.396762359223269
      ],
      [
        "Ġcode",
        -9.398584079074883
      ],
      [
        "Ġmeet",
        -9.40133913972185
      ],
      [
        "Ġaspect",
        -9.40243280751015
      ],
      [
        "Ġguide",
        -9.402571618190228
      ],
      [
        "last",
        -9.4027950163511
      ],
      [
        "Ġnegative",
        -9.40336463774024
      ],
      [
        "Ġperform",
        -9.405086100079846
      ],
      [
        "Ġmanage",
        -9.408278320578724
      ],
      [
        "Ġhumans",
        -9.408934480095652
      ],
      [
        "Ġfun",
        -9.4092413408538
      ],
      [
        "Ġstandard",
        -9.409876731846293
      ],
      [
        "Ġworks",
        -9.410696804076304
      ],
      [
        "Ġpurpose",
        -9.412836771601974
      ],
      [
        "Ġ\"",
        -9.414066721175075
      ],
      [
        "Ġfactor",
        -9.414539438642228
      ],
      [
        "So",
        -9.415510429942277
      ],
      [
        "Ġbase",
        -9.415620006569377
      ],
      [
        "Ġprice",
        -9.416848765277948
      ],
      [
        "Ġspread",
        -9.419852851807688
      ],
      [
        "Ġapply",
        -9.419999596903036
      ],
      [
        "âĢ¢",
        -9.42037481598718
      ],
      [
        "ĠHealth",
        -9.420608113947232
      ],
      [
        "|",
        -9.421008215613348
      ],
      [
        "Ġindicate",
        -9.421410576741552
      ],
      [
        "ĠDo",
        -9.42151671667897
      ],
      [
        "Ġconcept",
        -9.422928200186586
      ],
      [
        "Ġsite",
        -9.428585880516009
      ],
      [
        "Ġmass",
        -9.428605774392706
      ],
      [
        "Ġservices",
        -9.43048547109775
      ],
      [
        "Ġteeth",
        -9.433102169493884
      ],
      [
        "Ġprocesses",
        -9.433617304567708
      ],
      [
        "Ġtrue",
        -9.43550335054812
      ],
      [
        "Ġplayer",
        -9.43624694247288
      ],
      [
        "Ġbird",
        -9.438758682302986
      ],
      [
        "Ġetc",
        -9.439815439286406
      ],
      [
        "ĠDNA",
        -9.440630595297543
      ],
      [
        "Ġattack",
        -9.441150363050822
      ],
      [
        "Ġextra",
        -9.44133955244362
      ],
      [
        "ĠStates",
        -9.442559281292205
      ],
      [
        "Ġevidence",
        -9.443005661392228
      ],
      [
        "Ġbaby",
        -9.443337975146914
      ],
      [
        "Ġview",
        -9.443413511664293
      ],
      [
        "Ġexperiment",
        -9.444980713353278
      ],
      [
        "Ġfoods",
        -9.445942568651116
      ],
      [
        "Ġeggs",
        -9.446022726544784
      ],
      [
        "Ġparticularly",
        -9.447259256611504
      ],
      [
        "Ġfast",
        -9.44733869332121
      ],
      [
        "ĠAn",
        -9.4480234832769
      ],
      [
        "Ġwon",
        -9.450013517557611
      ],
      [
        "Ġdidn",
        -9.450516792158185
      ],
      [
        "Ġadvantage",
        -9.4505527808674
      ],
      [
        "Ġoccur",
        -9.452473134974417
      ],
      [
        "Ġappropriate",
        -9.455044465001574
      ],
      [
        "Ġprovided",
        -9.456586838363515
      ],
      [
        "Ġfemale",
        -9.456658711893484
      ],
      [
        "Ġchance",
        -9.458706492883106
      ],
      [
        "#",
        -9.461319206612131
      ],
      [
        "Ġdiseases",
        -9.462019001577456
      ],
      [
        "ful",
        -9.46306053712082
      ],
      [
        "Ġbreed",
        -9.464385018390432
      ],
      [
        "Ġbacteria",
        -9.465377712409332
      ],
      [
        "Ġgoal",
        -9.465601890009763
      ],
      [
        "ĠOn",
        -9.467500157508496
      ],
      [
        "Ġdoctor",
        -9.469484661665124
      ],
      [
        "over",
        -9.469542058460249
      ],
      [
        "Ġshows",
        -9.471685324528927
      ],
      [
        "ĠNorth",
        -9.471692407593777
      ],
      [
        "Ġrunning",
        -9.474469210444283
      ],
      [
        "Ġcritical",
        -9.474983203264372
      ],
      [
        "Ġterms",
        -9.477999781163348
      ],
      [
        "just",
        -9.478829831305578
      ],
      [
        "Ġgenetic",
        -9.47938385619101
      ],
      [
        "ĠWhil",
        -9.480250861564766
      ],
      [
        "ĠR",
        -9.482012320134858
      ],
      [
        "Ġwood",
        -9.483943453046168
      ],
      [
        "Ġreading",
        -9.48449621542751
      ],
      [
        "here",
        -9.485775069744994
      ],
      [
        "Ġcorrect",
        -9.485919041440487
      ],
      [
        "Ġeveryone",
        -9.487038164075637
      ],
      [
        "Ġcover",
        -9.487397600057
      ],
      [
        "Ġdirection",
        -9.487447528324228
      ],
      [
        "aintenance",
        -9.488574517781904
      ],
      [
        "Ġcommunication",
        -9.488798767884736
      ],
      [
        "Ġterm",
        -9.490819967514993
      ],
      [
        "Ġinfluence",
        -9.493576518543804
      ],
      [
        "Ġfire",
        -9.49418014655889
      ],
      [
        "Ġsleep",
        -9.494204570487248
      ],
      [
        "Y",
        -9.494807726535775
      ],
      [
        "fish",
        -9.495289892044088
      ],
      [
        "Ġserious",
        -9.49608738461507
      ],
      [
        "Ġexercise",
        -9.496185699810672
      ],
      [
        "ember",
        -9.496504332382964
      ],
      [
        "right",
        -9.497658340689146
      ],
      [
        "Ġdrink",
        -9.4983506273361
      ],
      [
        "Ġthen",
        -9.502217197330552
      ],
      [
        "Ġsuccess",
        -9.503474528546768
      ],
      [
        "Ġspring",
        -9.5035282257241
      ],
      [
        "Ġstrength",
        -9.504643276332494
      ],
      [
        "Ġproperties",
        -9.50565862538063
      ],
      [
        "ary",
        -9.50601849697033
      ],
      [
        "Ġproduced",
        -9.507104877295912
      ],
      [
        "Ġuseful",
        -9.507349122595508
      ],
      [
        "Ġlet",
        -9.508042666472509
      ],
      [
        "sustainable",
        -9.50948042725873
      ],
      [
        "ĠHere",
        -9.510654196291604
      ],
      [
        "Ġconstant",
        -9.510670278202632
      ],
      [
        "Ġmeat",
        -9.510936503264292
      ],
      [
        "Some",
        -9.511027112275835
      ],
      [
        "Their",
        -9.51149094300359
      ],
      [
        "Ġfeeling",
        -9.511936080150996
      ],
      [
        "Ġtaste",
        -9.51195928157296
      ],
      [
        "Ġbuy",
        -9.513246596790314
      ],
      [
        "ĠAmerica",
        -9.514403232074804
      ],
      [
        "Ġseparate",
        -9.514593041271851
      ],
      [
        "ĠAfter",
        -9.51595696951594
      ],
      [
        "Ġvisual",
        -9.516687804552294
      ],
      [
        "Ġdeath",
        -9.516743553166362
      ],
      [
        "Ġfront",
        -9.516881434039057
      ],
      [
        "ĠShe",
        -9.517839648929224
      ],
      [
        "Ġunit",
        -9.5186735810626
      ],
      [
        "Ġspot",
        -9.51903220893875
      ],
      [
        "into",
        -9.51940509327559
      ],
      [
        "Ġlives",
        -9.52038546839242
      ],
      [
        "Ġgreater",
        -9.52146374856414
      ],
      [
        "Ġsteps",
        -9.521572720168816
      ],
      [
        "Ġword",
        -9.522503249193388
      ],
      [
        "Ġman",
        -9.523973767313674
      ],
      [
        "Ġgovernment",
        -9.524284995107813
      ],
      [
        "Ġmoment",
        -9.524630427323064
      ],
      [
        "--",
        -9.524679299131408
      ],
      [
        "afety",
        -9.52473454342554
      ],
      [
        "Ġsubject",
        -9.52505560180578
      ],
      [
        "Ġproperly",
        -9.527527222915822
      ],
      [
        "Ġencourage",
        -9.527795077937892
      ],
      [
        "Ġ$",
        -9.528454754083478
      ],
      [
        "Ġwords",
        -9.528920057853744
      ],
      [
        "ĠDr",
        -9.528960860884776
      ],
      [
        "Ġcombination",
        -9.529330943776188
      ],
      [
        "ĠF",
        -9.529997947953728
      ],
      [
        "Ġfilter",
        -9.530472827498135
      ],
      [
        "Ġinvolved",
        -9.530654519696732
      ],
      [
        "Ġoutput",
        -9.531303239418389
      ],
      [
        "Ġdirectly",
        -9.532157204811169
      ],
      [
        "Ġpromote",
        -9.532493130704156
      ],
      [
        "Ġalternative",
        -9.53357939327481
      ],
      [
        "Ġstory",
        -9.5356705515423
      ],
      [
        "Ġideal",
        -9.53646165248561
      ],
      [
        "don",
        -9.53758440016552
      ],
      [
        "Ġrock",
        -9.538030685606495
      ],
      [
        "Ġmix",
        -9.538172797252642
      ],
      [
        "limited",
        -9.538815934314265
      ],
      [
        "That",
        -9.538856438080357
      ],
      [
        "older",
        -9.53981985613412
      ],
      [
        "Ġremember",
        -9.541648562784562
      ],
      [
        "their",
        -9.54221584636904
      ],
      [
        "Ġlocation",
        -9.544004315740974
      ],
      [
        "Ġsupply",
        -9.546436780763097
      ],
      [
        "Ġdark",
        -9.546587024514547
      ],
      [
        "Ġevents",
        -9.547474911257032
      ],
      [
        "Ġpatterns",
        -9.547806096464983
      ],
      [
        ".\"",
        -9.548014043912143
      ],
      [
        "Ġfeature",
        -9.549412626268827
      ],
      [
        "Ġfinal",
        -9.552609662535613
      ],
      [
        "Ġhold",
        -9.55399199876547
      ],
      [
        "Ġdisplay",
        -9.55453811982802
      ],
      [
        "Ġcarry",
        -9.555075540035936
      ],
      [
        "Ġstatement",
        -9.555991624894986
      ],
      [
        "Ġgot",
        -9.557347971866466
      ],
      [
        "Ġmembers",
        -9.557428536836468
      ],
      [
        "ry",
        -9.558521841289975
      ],
      [
        "Ġphase",
        -9.55870814024292
      ],
      [
        "once",
        -9.55891772063254
      ],
      [
        "K",
        -9.559131542962174
      ],
      [
        "Ġpay",
        -9.55976541737574
      ],
      [
        "Ġsituation",
        -9.56021669786322
      ],
      [
        "Ġfat",
        -9.560706241952875
      ],
      [
        "Ġevent",
        -9.560713920697474
      ],
      [
        "when",
        -9.560767466788151
      ],
      [
        "Ġbuilt",
        -9.561789827003633
      ],
      [
        "Ġjob",
        -9.56230107961068
      ],
      [
        "Ġdecrease",
        -9.562433210904029
      ],
      [
        "Ġcolors",
        -9.563311737498516
      ],
      [
        "Ġreduc",
        -9.564169407010574
      ],
      [
        "Ġmeal",
        -9.565340997879632
      ],
      [
        "coming",
        -9.56560259194189
      ],
      [
        "red",
        -9.566686894671726
      ],
      [
        "Ġdiscover",
        -9.566876639088072
      ],
      [
        "Ġbox",
        -9.56874964049527
      ],
      [
        "take",
        -9.56886796362902
      ],
      [
        "Ġrequirements",
        -9.568991410746325
      ],
      [
        "Ġexplain",
        -9.570175977385627
      ],
      [
        "side",
        -9.57102812152758
      ],
      [
        "Ġcircuit",
        -9.573335882953147
      ],
      [
        "Ġpiece",
        -9.574686983030965
      ],
      [
        "Ġoriginal",
        -9.574804195656249
      ],
      [
        "Ġseeds",
        -9.575965727585425
      ],
      [
        "...Ċ",
        -9.576461175259038
      ],
      [
        "line",
        -9.577747691024795
      ],
      [
        "Ġsolar",
        -9.57777522795374
      ],
      [
        "Ġactive",
        -9.580846317351858
      ],
      [
        "companie",
        -9.581701527912456
      ],
      [
        "Ġsmalle",
        -9.582548323823346
      ],
      [
        "Ġimages",
        -9.583572649645449
      ],
      [
        "Ġhappens",
        -9.583639067524889
      ],
      [
        "Ġpre",
        -9.584199990480474
      ],
      [
        "Ġmusic",
        -9.5853113165666
      ],
      [
        "Ġscale",
        -9.58688602372862
      ],
      [
        "Ġreasons",
        -9.587409933524343
      ],
      [
        "Now",
        -9.588595165515786
      ],
      [
        "Ġprotection",
        -9.590342805286852
      ],
      [
        "Â°",
        -9.59057736594022
      ],
      [
        "Ġscientific",
        -9.590891927881303
      ],
      [
        "Ġrest",
        -9.591282519567688
      ],
      [
        "Ġseries",
        -9.592121591426745
      ],
      [
        "Ġstyle",
        -9.592817381429416
      ],
      [
        "Ġtips",
        -9.593066470187305
      ],
      [
        "Ġcharge",
        -9.594476238546658
      ],
      [
        "ĠScience",
        -9.594897618237084
      ],
      [
        "Ġsave",
        -9.595539184995928
      ],
      [
        "land",
        -9.59558827343622
      ],
      [
        "Ġprett",
        -9.59580128090214
      ],
      [
        "Ġpoor",
        -9.596477329373736
      ],
      [
        "Ġliquid",
        -9.596513164177736
      ],
      [
        "Ġinstruction",
        -9.597396286106044
      ],
      [
        "nd",
        -9.59842020925478
      ],
      [
        "Ġobserve",
        -9.598821253620129
      ],
      [
        "life",
        -9.600219323680054
      ],
      [
        "Ġvalues",
        -9.601153582658686
      ],
      [
        "Ġimportan",
        -9.601543171520715
      ],
      [
        "ĠSouth",
        -9.602333011061846
      ],
      [
        "Ġdraw",
        -9.602391236182466
      ],
      [
        "Ġnotice",
        -9.60257005878782
      ],
      [
        "-term",
        -9.60335476005772
      ],
      [
        "Ġsteel",
        -9.603709483840245
      ],
      [
        "Ġvitamin",
        -9.6058457284268
      ],
      [
        "me",
        -9.605885110857775
      ],
      [
        "Ġtemperatures",
        -9.605894573954751
      ],
      [
        "ĠMore",
        -9.606690577870443
      ],
      [
        "Ġgain",
        -9.607472552257995
      ],
      [
        "Ġbottom",
        -9.60884754367938
      ],
      [
        "such",
        -9.609641970341071
      ],
      [
        "Ġleg",
        -9.609782987196596
      ],
      [
        "Ġdeal",
        -9.609992667199784
      ],
      [
        "ĠUse",
        -9.611613578077264
      ],
      [
        "Ġapplie",
        -9.612398643033265
      ],
      [
        "make",
        -9.612544802076414
      ],
      [
        "-up",
        -9.612598041897314
      ],
      [
        "Ġconduct",
        -9.613213514527168
      ],
      [
        "Ġaccount",
        -9.614887006040156
      ],
      [
        "offers",
        -9.616856619776122
      ],
      [
        "ĠWorld",
        -9.616892064359444
      ],
      [
        "Ġever",
        -9.618243632502471
      ],
      [
        "were",
        -9.61825326208984
      ],
      [
        "Ġmuscle",
        -9.61826491940054
      ],
      [
        "Ġelse",
        -9.61858919988359
      ],
      [
        "ting",
        -9.620115102566976
      ],
      [
        "Ġfile",
        -9.620559802745904
      ],
      [
        "create",
        -9.620766412087722
      ],
      [
        "Here",
        -9.62110637417657
      ],
      [
        "giving",
        -9.622239965290424
      ],
      [
        "</",
        -9.622870685669067
      ],
      [
        "there",
        -9.623706374488467
      ],
      [
        "Ġhandle",
        -9.623863395376183
      ],
      [
        "Ġwatch",
        -9.625039359888284
      ],
      [
        "Ġmechanism",
        -9.625744128802454
      ],
      [
        "Ġnoise",
        -9.626677099639082
      ],
      [
        "ĠFrom",
        -9.62828010005142
      ],
      [
        "Ġestimate",
        -9.628298121127452
      ],
      [
        "Ġsix",
        -9.630198386015143
      ],
      [
        "Ġtesting",
        -9.631333876524025
      ],
      [
        "Ġharm",
        -9.631763585007755
      ],
      [
        "Ġenhance",
        -9.63181319472721
      ],
      [
        "affected",
        -9.633418405825516
      ],
      [
        "Ġstage",
        -9.634452579979326
      ],
      [
        "Ġrepair",
        -9.63491270900338
      ],
      [
        "Ġsea",
        -9.635901187605048
      ],
      [
        "Ġjourney",
        -9.637307516447908
      ],
      [
        "âĢĿ",
        -9.63844769499093
      ],
      [
        "Ġcontainer",
        -9.639221309641933
      ],
      [
        "Ġsmooth",
        -9.640333383843297
      ],
      [
        "Which",
        -9.640686047979614
      ],
      [
        "Ġm",
        -9.640945463345272
      ],
      [
        "Ġwind",
        -9.6421374890073
      ],
      [
        "Ġbrown",
        -9.642709024230289
      ],
      [
        "Ġimmun",
        -9.64273535982355
      ],
      [
        "Ġensur",
        -9.643271769869504
      ],
      [
        "Ġaccurate",
        -9.644524600044791
      ],
      [
        "Ġinteraction",
        -9.64622585079116
      ],
      [
        "Ġdemand",
        -9.646805619776847
      ],
      [
        "sources",
        -9.648107468920294
      ],
      [
        "Ġroot",
        -9.648174373870775
      ],
      [
        "only",
        -9.649574974029573
      ],
      [
        "Ġresponsibl",
        -9.6501332480725
      ],
      [
        "Ġrecord",
        -9.65114397457342
      ],
      [
        "Ġfrequent",
        -9.651503124886323
      ],
      [
        "Ġdeveloping",
        -9.651537754040588
      ],
      [
        "Ġrefer",
        -9.651705091049893
      ],
      [
        "field",
        -9.65304164412515
      ],
      [
        "Ġobtain",
        -9.653167939795146
      ],
      [
        "Ġpest",
        -9.653400187808966
      ],
      [
        "Ġcombine",
        -9.65409179578451
      ],
      [
        "Ġlimit",
        -9.655882264906804
      ],
      [
        "Ġsuitable",
        -9.656123670383824
      ],
      [
        "ĠCan",
        -9.656989326561746
      ],
      [
        "ĠYes",
        -9.657119504718532
      ],
      [
        "By",
        -9.65724021672764
      ],
      [
        "Ġbreath",
        -9.659406415265934
      ],
      [
        "Ġnumbers",
        -9.660092621268248
      ],
      [
        "Ġpractices",
        -9.660668558856068
      ],
      [
        "ĠResearch",
        -9.660799189010142
      ],
      [
        "ĠCenter",
        -9.663068424528229
      ],
      [
        "Ġsoft",
        -9.665735458793714
      ],
      [
        "Ġeasie",
        -9.666538663924916
      ],
      [
        "Ġchicken",
        -9.667999772029283
      ],
      [
        "Ġscreen",
        -9.668258268973831
      ],
      [
        "inches",
        -9.668780834809436
      ],
      [
        "Ġcareful",
        -9.66942361471936
      ],
      [
        "Ġingredients",
        -9.670138608291506
      ],
      [
        "Ġsearch",
        -9.670273567743422
      ],
      [
        "Ġhope",
        -9.670401021053737
      ],
      [
        "upon",
        -9.67069098024594
      ],
      [
        "Ġefficient",
        -9.67115025067208
      ],
      [
        "Ġsign",
        -9.671782746281238
      ],
      [
        "Our",
        -9.67191516213082
      ],
      [
        "uses",
        -9.671926976566912
      ],
      [
        "Ġraise",
        -9.672843149810408
      ],
      [
        "Ġsevere",
        -9.673272905175306
      ],
      [
        "Ġbag",
        -9.675518963024572
      ],
      [
        "As",
        -9.676340428711471
      ],
      [
        "Ġfriends",
        -9.677053279912023
      ],
      [
        "Ġvegetables",
        -9.677760299989252
      ],
      [
        "Ġsuccessful",
        -9.677994232017072
      ],
      [
        "Ġcame",
        -9.678041689256853
      ],
      [
        "Ġcompound",
        -9.67847159051442
      ],
      [
        "Ġphone",
        -9.678839619943538
      ],
      [
        "taken",
        -9.679147504889318
      ],
      [
        "Ġage",
        -9.681369237306384
      ],
      [
        "Ġplanet",
        -9.681941166081572
      ],
      [
        "ook",
        -9.682200523115704
      ],
      [
        "Ġinstance",
        -9.682264154982487
      ],
      [
        "Ġold",
        -9.682531873367209
      ],
      [
        "Ġreaction",
        -9.682722050485994
      ],
      [
        "Ġmonth",
        -9.682748495910758
      ],
      [
        "Ġwrong",
        -9.68276688017279
      ],
      [
        "Ġwonder",
        -9.683575392634133
      ],
      [
        "Ġtheory",
        -9.684377895470536
      ],
      [
        "Ġmale",
        -9.68438427141767
      ],
      [
        "wide",
        -9.685000529929056
      ],
      [
        "Ġstarting",
        -9.686441939895118
      ],
      [
        "Ġprograms",
        -9.686557400451392
      ],
      [
        "Ġbeautiful",
        -9.68674755024907
      ],
      [
        "ĠL",
        -9.689608661344533
      ],
      [
        "Ġoxygen",
        -9.689653630122862
      ],
      [
        "ĠUS",
        -9.690081623146618
      ],
      [
        "Ġelectrical",
        -9.690180324772056
      ],
      [
        "Ġmoving",
        -9.690249040775662
      ],
      [
        "Ġstarte",
        -9.690617476926768
      ],
      [
        "people",
        -9.691170615761934
      ],
      [
        "Ġserve",
        -9.691267744392349
      ],
      [
        "Ġgrade",
        -9.69168753140166
      ],
      [
        "Ġbrand",
        -9.691925770668751
      ],
      [
        "Ġnothing",
        -9.692091979956828
      ],
      [
        "ĠJapan",
        -9.692590122828491
      ],
      [
        "Ġmemory",
        -9.694951300294242
      ],
      [
        "Ġtechnique",
        -9.695456716660122
      ],
      [
        "Ġdesire",
        -9.69551879406075
      ],
      [
        "Ġyellow",
        -9.695520212571886
      ],
      [
        "Ġvision",
        -9.69793081967727
      ],
      [
        "Ġdirect",
        -9.699955045990784
      ],
      [
        "Ġideas",
        -9.700057366115525
      ],
      [
        "Ġtissue",
        -9.700508641194896
      ],
      [
        "Ġconsumpti",
        -9.700976655963178
      ],
      [
        "ĠSchool",
        -9.701111620339908
      ],
      [
        "Ġwire",
        -9.70163319489141
      ],
      [
        "Ġseek",
        -9.702124230304932
      ],
      [
        "Ġfloor",
        -9.702432015113896
      ],
      [
        "Ġpowerful",
        -9.702788543180253
      ],
      [
        "Ġgeneration",
        -9.703303366123816
      ],
      [
        "Ġemission",
        -9.705317895121896
      ],
      [
        "Ġvary",
        -9.705814039977753
      ],
      [
        "Ġcouple",
        -9.706862255531744
      ],
      [
        "Ġago",
        -9.707101532118504
      ],
      [
        "Ġiron",
        -9.707652523218176
      ],
      [
        "man",
        -9.70773403922252
      ],
      [
        "Ġresistance",
        -9.707861068301892
      ],
      [
        "Ġred",
        -9.709233413231548
      ],
      [
        "these",
        -9.709466293086296
      ],
      [
        "Ġstorage",
        -9.709597356461522
      ],
      [
        "Ġusers",
        -9.71013638266713
      ],
      [
        "Ġculture",
        -9.711156411301705
      ],
      [
        "eating",
        -9.712325845643772
      ],
      [
        "Ġmessage",
        -9.712385653707194
      ],
      [
        "although",
        -9.713287089597918
      ],
      [
        "being",
        -9.71342068911485
      ],
      [
        "ĠG",
        -9.714238691504487
      ],
      [
        "Ġdiscuss",
        -9.714317777379614
      ],
      [
        "Q",
        -9.71445747081409
      ],
      [
        "Ġvariable",
        -9.71488222160378
      ],
      [
        ".com",
        -9.715173876076935
      ],
      [
        "Ġpublished",
        -9.7155156862917
      ],
      [
        "Ġdeliver",
        -9.715536535453918
      ],
      [
        "Ġmedication",
        -9.71562380648502
      ],
      [
        "Ġinteresting",
        -9.715915417319838
      ],
      [
        "them",
        -9.715982626640136
      ],
      [
        "keeping",
        -9.716318344671434
      ],
      [
        "Ġaccept",
        -9.716503553597304
      ],
      [
        "Ġsigns",
        -9.718176113506832
      ],
      [
        "Ġlandscape",
        -9.720525235884269
      ],
      [
        "Ġcentury",
        -9.722356856342907
      ],
      [
        "Ġconsist",
        -9.72256845951686
      ],
      [
        "ĠâĢľ",
        -9.72397688761824
      ],
      [
        "Ġhair",
        -9.725870330094946
      ],
      [
        "Ġpurchase",
        -9.726428994719344
      ],
      [
        "Ġphoto",
        -9.727421183350172
      ],
      [
        "Ġ</",
        -9.727483162535068
      ],
      [
        "Ġhuge",
        -9.72768869450024
      ],
      [
        "Ġfarm",
        -9.727989647101644
      ],
      [
        "Ġwriting",
        -9.727992986536846
      ],
      [
        "Ġheavy",
        -9.728448808970176
      ],
      [
        "Ġsubstance",
        -9.728611650499015
      ],
      [
        "Ġbigge",
        -9.729027589184849
      ],
      [
        "lot",
        -9.73085717919626
      ],
      [
        "Ġhands",
        -9.73090624365562
      ],
      [
        "Ġreflect",
        -9.73196243731944
      ],
      [
        "Ġclaim",
        -9.73200615035655
      ],
      [
        "Ġstrategi",
        -9.732320724359486
      ],
      [
        "Ġfaster",
        -9.73303714179065
      ],
      [
        "Ġpull",
        -9.733781028526243
      ],
      [
        "-to",
        -9.733939337833856
      ],
      [
        ".S",
        -9.734251257309351
      ],
      [
        "Ġland",
        -9.73541050877234
      ],
      [
        "Ġpicture",
        -9.736473731946298
      ],
      [
        "After",
        -9.73834611479821
      ],
      [
        "Ġconstruction",
        -9.738767371255268
      ],
      [
        "day",
        -9.738871633406609
      ],
      [
        "Ġfigure",
        -9.74018401341242
      ],
      [
        "Ġtank",
        -9.740855763040813
      ],
      [
        "Ġmeasurement",
        -9.740941777514188
      ],
      [
        "Ġexcellent",
        -9.74243016072422
      ],
      [
        "Ġrecognize",
        -9.743425572271462
      ],
      [
        "Ġanyone",
        -9.744234345166472
      ],
      [
        "Ġtask",
        -9.744551709918582
      ],
      [
        "Ġprinciple",
        -9.744925170344118
      ],
      [
        "Ġonce",
        -9.745436141222124
      ],
      [
        "Ġversion",
        -9.74595938010269
      ],
      [
        "seen",
        -9.74608072437752
      ],
      [
        "Ġintroduce",
        -9.746083228092308
      ],
      [
        "Ġflight",
        -9.747137845363168
      ],
      [
        "Ġcapacit",
        -9.747284341828465
      ],
      [
        "Ġmeaning",
        -9.747477562370882
      ],
      [
        "Ġfluid",
        -9.748588856160406
      ],
      [
        "expected",
        -9.75255033542079
      ],
      [
        "Ġfine",
        -9.753396038242515
      ],
      [
        "adding",
        -9.754632847169294
      ],
      [
        "Step",
        -9.755018449504067
      ],
      [
        "Ġneede",
        -9.755707751336624
      ],
      [
        "Ġgenerate",
        -9.756871902102894
      ],
      [
        "Ġblock",
        -9.75694698149614
      ],
      [
        "Ġexposure",
        -9.758732344398847
      ],
      [
        "Ġadjust",
        -9.759064362116089
      ],
      [
        "ĠOf",
        -9.759089504495734
      ],
      [
        "Ġstick",
        -9.760176510411585
      ],
      [
        "ries",
        -9.760365371952236
      ],
      [
        "Ġlaw",
        -9.76046843649546
      ],
      [
        "Ġreview",
        -9.76064903644974
      ],
      [
        "Ġask",
        -9.760949423730942
      ],
      [
        "Ġswitch",
        -9.761174186511704
      ],
      [
        "Ġpoints",
        -9.763246148418451
      ],
      [
        "Ġequal",
        -9.76568949300098
      ],
      [
        "ĠNOT",
        -9.766171547031188
      ],
      [
        "do",
        -9.766216020911514
      ],
      [
        "Ġpage",
        -9.767050908136936
      ],
      [
        "About",
        -9.76812323303572
      ],
      [
        "Ġinsects",
        -9.768413682746733
      ],
      [
        "Ġsection",
        -9.768490313379608
      ],
      [
        "Ġcooking",
        -9.768680684262844
      ],
      [
        "Ġcleaning",
        -9.770406954404669
      ],
      [
        "Ġvolume",
        -9.771480595107729
      ],
      [
        "Ġoutdoor",
        -9.772743206913589
      ],
      [
        "Ġwait",
        -9.773469611511704
      ],
      [
        "Ġbecomes",
        -9.774346673233875
      ],
      [
        "Ġthird",
        -9.775116593007382
      ],
      [
        "ways",
        -9.775310373228542
      ],
      [
        "Ġlesson",
        -9.775437168696026
      ],
      [
        "Ġsalt",
        -9.775522281111844
      ],
      [
        "Ġframe",
        -9.776556369497342
      ],
      [
        "Ġaction",
        -9.776703512153736
      ],
      [
        "Ġconnect",
        -9.777187441864324
      ],
      [
        "Ġforward",
        -9.777739889729649
      ],
      [
        "Ġnutrients",
        -9.778032372932373
      ],
      [
        "Ġexpert",
        -9.779423353607635
      ],
      [
        "Ġhighl",
        -9.780361014016208
      ],
      [
        "Ġmotor",
        -9.780515355130987
      ],
      [
        "Ġcollection",
        -9.78077818690846
      ],
      [
        "Ġcommunitie",
        -9.78100735273136
      ],
      [
        "Ġnote",
        -9.7818571325247
      ],
      [
        "ĠWho",
        -9.782126272747163
      ],
      [
        "Ġlack",
        -9.782859083836726
      ],
      [
        "covered",
        -9.783112513343635
      ],
      [
        "Ġready",
        -9.783343981409452
      ],
      [
        "Ġearth",
        -9.78572989971532
      ],
      [
        "Ġoccurs",
        -9.785951824656014
      ],
      [
        "particles",
        -9.787192318289826
      ],
      [
        "Ġpattern",
        -9.787905143648878
      ],
      [
        "Ġdocument",
        -9.788140485565645
      ],
      [
        "ĠNot",
        -9.789762100366804
      ],
      [
        "Ġcats",
        -9.789950382389057
      ],
      [
        "Ġstates",
        -9.790597905079448
      ],
      [
        "Ġmaximum",
        -9.792120423201666
      ],
      [
        "ĠN",
        -9.79271907953824
      ],
      [
        "Ġprojects",
        -9.7931681043432
      ],
      [
        "Ġplatform",
        -9.795665115584614
      ],
      [
        "Ġpaint",
        -9.796210796053352
      ],
      [
        "Ġdetails",
        -9.797180153615905
      ],
      [
        "Ġwrite",
        -9.797678525731293
      ],
      [
        "Ġal",
        -9.798949175940676
      ],
      [
        "Ġresource",
        -9.79953923118844
      ],
      [
        "self",
        -9.801034868586624
      ],
      [
        "Ġthousand",
        -9.801266428400488
      ],
      [
        "Ġtouch",
        -9.801910291173533
      ],
      [
        "Ġsolid",
        -9.8051128355994
      ],
      [
        "Ġpair",
        -9.806657512510238
      ],
      [
        "Most",
        -9.807403836122727
      ],
      [
        "Ġalcohol",
        -9.809384599480763
      ],
      [
        "Ġslightl",
        -9.810121282879445
      ],
      [
        "Ġtend",
        -9.811296182078078
      ],
      [
        "Ġcutting",
        -9.811399277215768
      ],
      [
        "Ġmolecule",
        -9.811920904688847
      ],
      [
        "Ġbeyond",
        -9.812288788609273
      ],
      [
        "ĠAdditional",
        -9.813700566360314
      ],
      [
        "Ġseed",
        -9.8164402426359
      ],
      [
        "ĠMy",
        -9.817294334221248
      ],
      [
        "Ġconsumer",
        -9.81798525495592
      ],
      [
        "Ġhot",
        -9.818283608192049
      ],
      [
        "Ġtable",
        -9.818622265267736
      ],
      [
        "Many",
        -9.819187120047213
      ],
      [
        "Ġhorse",
        -9.819951983064763
      ],
      [
        "Ġreveal",
        -9.82142165734533
      ],
      [
        "Ġpredict",
        -9.823359344269353
      ],
      [
        "Your",
        -9.823409093319636
      ],
      [
        "ĠInstitute",
        -9.824049398530388
      ],
      [
        "Ġadvanced",
        -9.824392219006196
      ],
      [
        "Ġsurrounding",
        -9.82575655794209
      ],
      [
        "Ġdiabetes",
        -9.827200467341116
      ],
      [
        "ĠMany",
        -9.827470343410862
      ],
      [
        "Ġplanning",
        -9.82775385412828
      ],
      [
        "Ġcloth",
        -9.827862306334636
      ],
      [
        "Ġinitial",
        -9.827890064465029
      ],
      [
        "Ġthinking",
        -9.82885392302494
      ],
      [
        "Ġreported",
        -9.82913143136096
      ],
      [
        "Ġcoast",
        -9.830104769971872
      ],
      [
        "Ġexpensive",
        -9.830977656490123
      ],
      [
        "Ġco",
        -9.831979587018193
      ],
      [
        "Ġmotion",
        -9.83237549920688
      ],
      [
        "Ġoutcome",
        -9.832391082507238
      ],
      [
        "Ġmiddle",
        -9.83383969221875
      ],
      [
        "Ġheight",
        -9.83487408235228
      ],
      [
        "Ġpick",
        -9.835123982137016
      ],
      [
        "Ġslow",
        -9.8352985631698
      ],
      [
        "ĠMost",
        -9.836017130430996
      ],
      [
        "fficiency",
        -9.836264644207647
      ],
      [
        "Ġc",
        -9.837259965814429
      ],
      [
        "Ġpresence",
        -9.83796112849621
      ],
      [
        "Ġeconomic",
        -9.83975964616359
      ],
      [
        "Ġ=",
        -9.841472970122226
      ],
      [
        "end",
        -9.842379915917356
      ],
      [
        "therefore",
        -9.844383743346285
      ],
      [
        "Ġcycle",
        -9.846864698719898
      ],
      [
        "est",
        -9.84736707697687
      ],
      [
        "ĠâĢĶ",
        -9.848653404291923
      ],
      [
        "Ġanti",
        -9.84903971917566
      ],
      [
        "Ġmoistur",
        -9.849965363915937
      ],
      [
        "Ġgrass",
        -9.850080365653202
      ],
      [
        "Ġflavor",
        -9.850220364295886
      ],
      [
        "Ġvoltage",
        -9.85097053911333
      ],
      [
        "Ġstaff",
        -9.851773210501165
      ],
      [
        "Ġhost",
        -9.8520503361493
      ],
      [
        "Ġrelativel",
        -9.853815310557325
      ],
      [
        "Ġfarmer",
        -9.855302413025656
      ],
      [
        "Ġplease",
        -9.855385452920032
      ],
      [
        "Ġelectronic",
        -9.856695822270892
      ],
      [
        "Ġprevious",
        -9.856951724539629
      ],
      [
        "Ġtexture",
        -9.85802764429696
      ],
      [
        "Ġlink",
        -9.861268473408554
      ],
      [
        "haps",
        -9.863734164412424
      ],
      [
        "<",
        -9.863875287670412
      ],
      [
        "Ġfavorite",
        -9.863886325945945
      ],
      [
        "Ġfit",
        -9.865364396659905
      ],
      [
        "around",
        -9.865625462505742
      ],
      [
        "Ġstand",
        -9.86625786565229
      ],
      [
        "Ġcontext",
        -9.86766989254034
      ],
      [
        "Ġfamilies",
        -9.867851227975128
      ],
      [
        "Ġmeasures",
        -9.867855845552157
      ],
      [
        "Ġfoot",
        -9.87207621737488
      ],
      [
        "Ġpractical",
        -9.872677811698487
      ],
      [
        "Ġ[",
        -9.872770851426282
      ],
      [
        "Ġsaw",
        -9.872870004727126
      ],
      [
        "Ġidentifie",
        -9.875972961467667
      ],
      [
        "Ġclick",
        -9.87823724039006
      ],
      [
        "ĠBe",
        -9.878365634911535
      ],
      [
        "Ġelement",
        -9.878608193343029
      ],
      [
        "Ġfabric",
        -9.879746150738734
      ],
      [
        "Ġdecade",
        -9.880034363822732
      ],
      [
        "Ġexamples",
        -9.88083994553596
      ],
      [
        "Ġbone",
        -9.88092495128085
      ],
      [
        "Ġrich",
        -9.881238852258932
      ],
      [
        "ice",
        -9.881484748060956
      ],
      [
        "ĠOur",
        -9.881945755977744
      ],
      [
        "Ġbeginning",
        -9.882395165806866
      ],
      [
        "Ġwa",
        -9.882871874428044
      ],
      [
        "Ġvital",
        -9.88308576194989
      ],
      [
        "allow",
        -9.883502635281378
      ],
      [
        "Ġmatch",
        -9.883625833697891
      ],
      [
        "Ġchannel",
        -9.883862149766005
      ],
      [
        "lower",
        -9.884129529147838
      ],
      [
        "Ġconnection",
        -9.884299570175363
      ],
      [
        "Ġrelative",
        -9.884649431768183
      ],
      [
        "ther",
        -9.88471021901852
      ],
      [
        "Ġproperty",
        -9.885283255605223
      ],
      [
        "Ġincluded",
        -9.886564182374244
      ],
      [
        "Ġinternational",
        -9.887887061003308
      ],
      [
        "Ġsample",
        -9.887940321014106
      ],
      [
        "Ġcommercial",
        -9.888255762789315
      ],
      [
        "Ġcolour",
        -9.888515424789258
      ],
      [
        "Ġpieces",
        -9.890131677111352
      ],
      [
        "ĠOr",
        -9.890476555723724
      ],
      [
        "go",
        -9.891640358001291
      ],
      [
        "Ġtrack",
        -9.892794776879818
      ],
      [
        "Another",
        -9.89406075374637
      ],
      [
        "Ġbasi",
        -9.894192361355763
      ],
      [
        "Ġappearance",
        -9.894437244428666
      ],
      [
        "Ġreference",
        -9.894595075832733
      ],
      [
        "ĠK",
        -9.89498583761895
      ],
      [
        "Ġlocated",
        -9.896626155291496
      ],
      [
        "through",
        -9.897224136253048
      ],
      [
        "ĠOnc",
        -9.89723146003122
      ],
      [
        "Ġfair",
        -9.89872710965524
      ],
      [
        "Ġfinding",
        -9.89886933184781
      ],
      [
        "Ġinjur",
        -9.899747046372454
      ],
      [
        "ance",
        -9.899924548892352
      ],
      [
        "Ġteaching",
        -9.900492264258196
      ],
      [
        "Yes",
        -9.902854743054435
      ],
      [
        "Ġvaluable",
        -9.903371418865484
      ],
      [
        "Ġpush",
        -9.903672766901895
      ],
      [
        "-year",
        -9.903992096918127
      ],
      [
        "Ġcapture",
        -9.904673585062106
      ],
      [
        "Ġregularly",
        -9.905231830207482
      ],
      [
        "Ġroad",
        -9.905389553445971
      ],
      [
        "ĠEnglish",
        -9.905974864821664
      ],
      [
        "ĠUK",
        -9.9060957653687
      ],
      [
        "Ġbutton",
        -9.90617893386163
      ],
      [
        "Ġfrequency",
        -9.906626273149223
      ],
      [
        "Ġhearing",
        -9.908086493115396
      ],
      [
        "All",
        -9.908522079832526
      ],
      [
        "ĠBecause",
        -9.908862469579864
      ],
      [
        "Ġdegrees",
        -9.908982276573449
      ],
      [
        "Ġsweet",
        -9.909383879860773
      ],
      [
        "Ġalone",
        -9.909890297379985
      ],
      [
        "ĠNow",
        -9.909893186236442
      ],
      [
        "aught",
        -9.909957932803955
      ],
      [
        "Ġradio",
        -9.910532372112588
      ],
      [
        "Ġfriend",
        -9.91088731120664
      ],
      [
        "Ġpump",
        -9.911674764512105
      ],
      [
        "Ġtasks",
        -9.912722191984196
      ],
      [
        "ĠIndia",
        -9.91304196248286
      ],
      [
        "Ġbank",
        -9.913084792739806
      ],
      [
        "Ġhabit",
        -9.913204235010864
      ],
      [
        "X",
        -9.913255841023958
      ],
      [
        "Ġmaintaining",
        -9.913464271731993
      ],
      [
        "Ġgene",
        -9.913788023302258
      ],
      [
        "Ġeffort",
        -9.914140506881555
      ],
      [
        "-free",
        -9.914309801969203
      ],
      [
        "Ġhabitat",
        -9.914885138110916
      ],
      [
        "ĠMay",
        -9.916792584027178
      ],
      [
        "Ġboard",
        -9.917198741273118
      ],
      [
        "ĠGerman",
        -9.917405786861266
      ],
      [
        "Ġplate",
        -9.917776634329313
      ],
      [
        "Ġdrawing",
        -9.91794559153168
      ],
      [
        "Ġball",
        -9.918949007222205
      ],
      [
        "Ġmouth",
        -9.919038464756724
      ],
      [
        "Ġdivers",
        -9.919629991353032
      ],
      [
        "Ġdiscovered",
        -9.920373590717109
      ],
      [
        "Ġengage",
        -9.920412945276638
      ],
      [
        "Ġparticipant",
        -9.922673191735988
      ],
      [
        "Ġprefer",
        -9.922956238103996
      ],
      [
        "Ġforest",
        -9.923013221918426
      ],
      [
        "Ġconservation",
        -9.923358727873026
      ],
      [
        "Ġtransfer",
        -9.924202269088124
      ],
      [
        "Ġbackground",
        -9.925360231074157
      ],
      [
        "Ġbond",
        -9.925566156378604
      ],
      [
        "Ġnational",
        -9.925625813743745
      ],
      [
        "Ġquick",
        -9.926168424628246
      ],
      [
        "ĠO",
        -9.926223145013484
      ],
      [
        "ĠAls",
        -9.92624402694035
      ],
      [
        "Ġtrigger",
        -9.92626373876746
      ],
      [
        "ship",
        -9.926680344720909
      ],
      [
        "Ġsociety",
        -9.927369405562716
      ],
      [
        "Ġfilm",
        -9.928515510143178
      ],
      [
        "Ġformed",
        -9.92912049412735
      ],
      [
        "Ġsecure",
        -9.929163666119813
      ],
      [
        "Ġschedule",
        -9.930173309556626
      ],
      [
        "Ġcharacteristics",
        -9.930325693414838
      ],
      [
        "Ġmedium",
        -9.931253405237918
      ],
      [
        "Ġfashion",
        -9.931925999683015
      ],
      [
        "Ġspend",
        -9.933871048049577
      ],
      [
        "Ġoperation",
        -9.934482664765476
      ],
      [
        "Ġinternal",
        -9.935048129940707
      ],
      [
        "Ġstuff",
        -9.935182441783846
      ],
      [
        "ĠState",
        -9.935314172212044
      ],
      [
        "On",
        -9.936418974517714
      ],
      [
        "let",
        -9.936910983978922
      ],
      [
        "Ġcreative",
        -9.936997063556664
      ],
      [
        "Ġcomprehensive",
        -9.937030794064658
      ],
      [
        "went",
        -9.937111580440268
      ],
      [
        "Ġcoffee",
        -9.937761148093054
      ],
      [
        "Ġsoon",
        -9.939028685143995
      ],
      [
        "Ġcomment",
        -9.93946398024174
      ],
      [
        "ou",
        -9.93999282838178
      ],
      [
        "ĠEach",
        -9.940154837289803
      ],
      [
        "ĠAre",
        -9.941847318090923
      ],
      [
        "Ġdangerous",
        -9.941892318459216
      ],
      [
        "Ġtiny",
        -9.941948724341463
      ],
      [
        "ĠLet",
        -9.942175332368588
      ],
      [
        "Ġdegree",
        -9.942328402519806
      ],
      [
        "ĠW",
        -9.943161128564585
      ],
      [
        "Ġcaus",
        -9.943358607200125
      ],
      [
        "Ġact",
        -9.944053715367875
      ],
      [
        "According",
        -9.944106170551375
      ],
      [
        "Ġapp",
        -9.945321190615235
      ],
      [
        "Ġdouble",
        -9.945332504427425
      ],
      [
        "Ġsites",
        -9.946537692541064
      ],
      [
        "Ġimmediately",
        -9.946810679646742
      ],
      [
        "lost",
        -9.94710322758093
      ],
      [
        "no",
        -9.94764573514846
      ],
      [
        "Ġdriv",
        -9.947670814529094
      ],
      [
        "Ġteachers",
        -9.949701201165418
      ],
      [
        "group",
        -9.952358963422167
      ],
      [
        "ĠAfrica",
        -9.9524355402035
      ],
      [
        "ĠEven",
        -9.95400775064645
      ],
      [
        "Ġsort",
        -9.954713372306882
      ],
      [
        "Ġconsume",
        -9.955114173939815
      ],
      [
        "Ġgames",
        -9.955937326014428
      ],
      [
        "Ġannual",
        -9.956754534577666
      ],
      [
        "Ġangle",
        -9.957541552439142
      ],
      [
        "Ġconsistent",
        -9.959414942903436
      ],
      [
        "Ġmarine",
        -9.959482588938462
      ],
      [
        "ĠDepartment",
        -9.959536683717293
      ],
      [
        "Ġlargest",
        -9.963060978880772
      ],
      [
        "Ġroots",
        -9.963132637831375
      ],
      [
        "Ġint",
        -9.96336211268404
      ],
      [
        "rates",
        -9.965305493119512
      ],
      [
        "Ġvirtual",
        -9.966079852988551
      ],
      [
        "ĠAt",
        -9.966411308250365
      ],
      [
        "happy",
        -9.967112258140713
      ],
      [
        "Ġtube",
        -9.967430109119404
      ],
      [
        "Ġroutine",
        -9.967476564278916
      ],
      [
        "ĠEurope",
        -9.967946750085911
      ],
      [
        "Ġmental",
        -9.968263661458472
      ],
      [
        "action",
        -9.968499537403408
      ],
      [
        "Ġsecurity",
        -9.9685515275348
      ],
      [
        "Ġlines",
        -9.96881220578361
      ],
      [
        "led",
        -9.969047452241252
      ],
      [
        "{",
        -9.969179443007382
      ],
      [
        "Ġapproximate",
        -9.971491126761196
      ],
      [
        "Ġfeeding",
        -9.971896752843437
      ],
      [
        "Ġcross",
        -9.972428382156975
      ],
      [
        "Ġenter",
        -9.972744832756243
      ],
      [
        "Ġcountr",
        -9.973355505691067
      ],
      [
        "Ġrare",
        -9.973572369019834
      ],
      [
        "Ġartist",
        -9.973992555115242
      ],
      [
        "From",
        -9.976236789988723
      ],
      [
        "ĠChina",
        -9.977567948226389
      ],
      [
        "Ġexpect",
        -9.977877194780683
      ],
      [
        "Ġfocuse",
        -9.978127413353482
      ],
      [
        "Ġfight",
        -9.978254707680756
      ],
      [
        "Ġworth",
        -9.978586850453098
      ],
      [
        "Ġweb",
        -9.97866583319383
      ],
      [
        "size",
        -9.979526937724502
      ],
      [
        "Ġextend",
        -9.979658895205436
      ],
      [
        "Ġalgorithm",
        -9.981047819231822
      ],
      [
        "Ġadde",
        -9.981618162789015
      ],
      [
        "eat",
        -9.981760462929858
      ],
      [
        "based",
        -9.982423192360564
      ],
      [
        "Ġinsight",
        -9.982491404266836
      ],
      [
        "Ġstone",
        -9.98259683069088
      ],
      [
        "Ġre",
        -9.983168258074093
      ],
      [
        "Ġcomponent",
        -9.98440867023713
      ],
      [
        "Ġstem",
        -9.985197549759253
      ],
      [
        "ĠCalifornia",
        -9.985356696356996
      ],
      [
        "Ġcomfortable",
        -9.985715764842915
      ],
      [
        "ĠOther",
        -9.987317611656612
      ],
      [
        "Ġrules",
        -9.987604398337137
      ],
      [
        "-like",
        -9.987823796841694
      ],
      [
        "No",
        -9.988195717967267
      ],
      [
        "ĠMake",
        -9.989610780536209
      ],
      [
        "Ġthreat",
        -9.99034538259306
      ],
      [
        "Ġdetect",
        -9.99070079446869
      ],
      [
        "Ġshift",
        -9.99290467563362
      ],
      [
        "Ġclient",
        -9.993478741943193
      ],
      [
        "Ġoptimal",
        -9.993550111143096
      ],
      [
        "Ġselection",
        -9.9943771415659
      ],
      [
        "Ġtransmission",
        -9.994663937675089
      ],
      [
        "Ġmulti",
        -9.99549806108894
      ],
      [
        "Ġoperate",
        -9.996803192014216
      ],
      [
        "Ġimplement",
        -9.997384184355951
      ],
      [
        "Ġtechnologie",
        -9.998281167264055
      ],
      [
        "Ġproduc",
        -10.000261737791348
      ],
      [
        "Ġlegal",
        -10.000809545979816
      ],
      [
        "Ġdepth",
        -10.001567419354696
      ],
      [
        "Ġartificial",
        -10.001723767918389
      ],
      [
        "Ġnearly",
        -10.0023061689046
      ],
      [
        "long",
        -10.00241987795497
      ],
      [
        "Ġcheese",
        -10.00291877573843
      ],
      [
        "Ġcrop",
        -10.003808221184876
      ],
      [
        "nce",
        -10.003868624962085
      ],
      [
        "Ġfiber",
        -10.004225833561664
      ],
      [
        "Ġfinancial",
        -10.00484770985343
      ],
      [
        "Ġcomfort",
        -10.005239765937969
      ],
      [
        "Ġstraight",
        -10.007119263717126
      ],
      [
        "Ġconnected",
        -10.008540929083802
      ],
      [
        "Ġenable",
        -10.008787631432035
      ],
      [
        "ĠWhy",
        -10.008999309960856
      ],
      [
        "care",
        -10.009698990777157
      ],
      [
        "Ġancient",
        -10.009895763097706
      ],
      [
        "Ġtopic",
        -10.009936104367354
      ],
      [
        "ĠJust",
        -10.010556010592875
      ],
      [
        "Ġatmosphere",
        -10.01059657360369
      ],
      [
        "Ġemail",
        -10.0113944959517
      ],
      [
        "Ġcharacter",
        -10.01252530486804
      ],
      [
        "ĠIs",
        -10.013237805669569
      ],
      [
        "Ġevolution",
        -10.014008360546498
      ],
      [
        "ĠAustralia",
        -10.014146087304727
      ],
      [
        "Ġbeneficial",
        -10.014210129391834
      ],
      [
        "Ġfunctions",
        -10.015075998519912
      ],
      [
        "Ġtransition",
        -10.01575596063746
      ],
      [
        "Ġconclusion",
        -10.01660027722792
      ],
      [
        "\\",
        -10.01704407331055
      ],
      [
        "Ġefforts",
        -10.01753290784564
      ],
      [
        "Ġse",
        -10.017902215400492
      ],
      [
        "ĠX",
        -10.019081668028022
      ],
      [
        "him",
        -10.019738102987906
      ],
      [
        "Ġdriver",
        -10.020094352775732
      ],
      [
        "Ġsupplement",
        -10.020101035254758
      ],
      [
        "Ġbooks",
        -10.02053592093493
      ],
      [
        "Ġhour",
        -10.02062434508822
      ],
      [
        "Ġdetail",
        -10.02085062931399
      ],
      [
        "Ġexpand",
        -10.020897559046208
      ],
      [
        "Ġwheel",
        -10.0210199666935
      ],
      [
        "Ġdemonstrate",
        -10.021032891037828
      ],
      [
        "Ġcentral",
        -10.021061565111346
      ],
      [
        "my",
        -10.02329050176243
      ],
      [
        "Ġflat",
        -10.024078525087274
      ],
      [
        "Ġtherapy",
        -10.024330781127864
      ],
      [
        "Ġcoat",
        -10.02459562299536
      ],
      [
        "Ġpark",
        -10.024850782309445
      ],
      [
        "keep",
        -10.025741518530548
      ],
      [
        "Ġsurvey",
        -10.026435372659922
      ],
      [
        "Ġmaybe",
        -10.026689455545425
      ],
      [
        "ĠWater",
        -10.027239465779214
      ],
      [
        "Ġbirth",
        -10.027811206093052
      ],
      [
        "Ġprogress",
        -10.028184178069308
      ],
      [
        "Ġkitchen",
        -10.0283657529143
      ],
      [
        "Do",
        -10.028539659880334
      ],
      [
        "Ġgoals",
        -10.029715634300238
      ],
      [
        "Ġcontinuous",
        -10.031922145758235
      ],
      [
        "exposed",
        -10.032395830377816
      ],
      [
        "Ġcup",
        -10.033121533126549
      ],
      [
        "Ġvoice",
        -10.035235275495012
      ],
      [
        "Onc",
        -10.036221629385096
      ],
      [
        "Ġcollect",
        -10.03659792931668
      ],
      [
        "Ġsurger",
        -10.037769863281389
      ],
      [
        "Ġnews",
        -10.038567511868806
      ],
      [
        "-quality",
        -10.03859426437464
      ],
      [
        "Ġdistribution",
        -10.040758442413498
      ],
      [
        "Ġmode",
        -10.041615943707406
      ],
      [
        "Ġsequence",
        -10.041620186352857
      ],
      [
        "Ġrise",
        -10.04222028004618
      ],
      [
        "Ġassessment",
        -10.042576793839707
      ],
      [
        "Ġthi",
        -10.042734034625797
      ],
      [
        "Ġnative",
        -10.04361169329582
      ],
      [
        "More",
        -10.045333882295338
      ],
      [
        "ĠFirst",
        -10.046089998636312
      ],
      [
        "form",
        -10.046590949214572
      ],
      [
        "Ġdrug",
        -10.048216128651427
      ],
      [
        "Ġpass",
        -10.048431568440044
      ],
      [
        "Ġreliabl",
        -10.04851175308022
      ],
      [
        "Ġyield",
        -10.048787853396014
      ],
      [
        "bility",
        -10.049146512661128
      ],
      [
        "Ġtransport",
        -10.049212210947244
      ],
      [
        "because",
        -10.049499547312788
      ],
      [
        "Ġgear",
        -10.05053123346746
      ],
      [
        "Ġvalve",
        -10.052351931391822
      ],
      [
        "Ġdiscussion",
        -10.052534364711798
      ],
      [
        "Ġnumerou",
        -10.053317787682335
      ],
      [
        "Ġpossibilit",
        -10.05346160238343
      ],
      [
        "Ġmixture",
        -10.05524982186165
      ],
      [
        "Ġdifferences",
        -10.055610798568148
      ],
      [
        "Ġ&",
        -10.055741597665008
      ],
      [
        "Ġpollution",
        -10.056022474512911
      ],
      [
        "put",
        -10.057619581808211
      ],
      [
        "Ġelectron",
        -10.05887200328256
      ],
      [
        "Ġlisten",
        -10.059135921019196
      ],
      [
        "Ġwindow",
        -10.05981089635664
      ],
      [
        "Ġsaying",
        -10.06030043820198
      ],
      [
        "Ġlate",
        -10.06129879144926
      ],
      [
        "Ġteacher",
        -10.061455446822787
      ],
      [
        "first",
        -10.061541983084949
      ],
      [
        "Ġvia",
        -10.061546573494276
      ],
      [
        "Ġattempt",
        -10.062022596289378
      ],
      [
        "Ġrice",
        -10.062199303394808
      ],
      [
        "ĠHowe",
        -10.062342488785523
      ],
      [
        "Ġpolicy",
        -10.063445741832505
      ],
      [
        "Ġgrain",
        -10.063996207157198
      ],
      [
        "Ġsports",
        -10.064522933843753
      ],
      [
        "ĠJ",
        -10.065236712117311
      ],
      [
        "ĠDay",
        -10.067330532275244
      ],
      [
        "Ġsuggests",
        -10.067384686202448
      ],
      [
        "held",
        -10.068911140503964
      ],
      [
        "Ġexternal",
        -10.069034456415665
      ],
      [
        "Ġcarrie",
        -10.069414384181876
      ],
      [
        "Ġoffice",
        -10.069799542179265
      ],
      [
        "Ġaccident",
        -10.070128145790973
      ],
      [
        "Ġregulation",
        -10.07063872571133
      ],
      [
        "Ġsurvive",
        -10.070928204080802
      ],
      [
        "Ġreplace",
        -10.071217565993578
      ],
      [
        "Ġload",
        -10.071462364469657
      ],
      [
        "Ġadvice",
        -10.07163091128202
      ],
      [
        "Ġdoor",
        -10.0722076708599
      ],
      [
        "Ġwritten",
        -10.075794634122808
      ],
      [
        "Ġaware",
        -10.076399466936408
      ],
      [
        "arming",
        -10.07792414041295
      ],
      [
        "Ġsquare",
        -10.0780950427476
      ],
      [
        "Ġexamine",
        -10.078163290012869
      ],
      [
        "Ġworked",
        -10.078918099205971
      ],
      [
        "efore",
        -10.079394656808145
      ],
      [
        "Ġimprovement",
        -10.079520542957106
      ],
      [
        "ĠDon",
        -10.07957006500645
      ],
      [
        "Ġtechnical",
        -10.079931175670527
      ],
      [
        "Ġma",
        -10.080172285285183
      ],
      [
        "ring",
        -10.080879137719617
      ],
      [
        "Ġpath",
        -10.081003401782642
      ],
      [
        "days",
        -10.081710434083323
      ],
      [
        "Ġhelpful",
        -10.082130654474572
      ],
      [
        "Ġlens",
        -10.082549515277812
      ],
      [
        "Ġorganization",
        -10.083291866670006
      ],
      [
        "Ġpets",
        -10.084240670995973
      ],
      [
        "Ġinstall",
        -10.08493678084249
      ],
      [
        "Ġperspective",
        -10.08494254108125
      ],
      [
        "ĠAir",
        -10.085578221816316
      ],
      [
        "Ġhelping",
        -10.085868306784077
      ],
      [
        "Ġexperts",
        -10.086117902682505
      ],
      [
        "Ġpool",
        -10.086598240399924
      ],
      [
        "Ġsmart",
        -10.08684134971016
      ],
      [
        "Ġjoin",
        -10.08799976093004
      ],
      [
        "Ġindependent",
        -10.089411678075844
      ],
      [
        "Ġmiles",
        -10.089468611636718
      ],
      [
        "Ġbillion",
        -10.089563546314947
      ],
      [
        "Use",
        -10.089862318700558
      ],
      [
        "Ġfertilizer",
        -10.090420928319576
      ],
      [
        "Ġcareer",
        -10.090436106073344
      ],
      [
        "Ġdrain",
        -10.09054291961191
      ],
      [
        "oil",
        -10.091642680620703
      ],
      [
        "Ġbeauty",
        -10.092040257233212
      ],
      [
        "Ġpack",
        -10.092362842079154
      ],
      [
        "Ġengineering",
        -10.093694681517784
      ],
      [
        "Are",
        -10.093888159497329
      ],
      [
        "ĠAlthough",
        -10.093926954055595
      ],
      [
        "Ġagree",
        -10.095230544767176
      ],
      [
        "Ġclassroom",
        -10.097147066929818
      ],
      [
        "Ġproteins",
        -10.097275528307872
      ],
      [
        "Ġchang",
        -10.098244265980933
      ],
      [
        "Ġrespect",
        -10.098661900360096
      ],
      [
        "Ġpasse",
        -10.09939547265598
      ],
      [
        "Ġemotional",
        -10.099939052056705
      ],
      [
        "am",
        -10.10014152255019
      ],
      [
        "Ġsend",
        -10.100672603401929
      ],
      [
        "Ġpipe",
        -10.101570523049752
      ],
      [
        "Ġcommand",
        -10.102162248954096
      ],
      [
        "Ġteach",
        -10.102244881022164
      ],
      [
        "J",
        -10.102552421673913
      ],
      [
        "Ġs",
        -10.102674209670544
      ],
      [
        "Ġstrateg",
        -10.102875297721134
      ],
      [
        "point",
        -10.103201641647598
      ],
      [
        "ĠYork",
        -10.10446906441686
      ],
      [
        "Ġcity",
        -10.10458030493642
      ],
      [
        "ĠHo",
        -10.104701566117964
      ],
      [
        "Ġcream",
        -10.104816150765256
      ],
      [
        "Ġhundred",
        -10.105132932211676
      ],
      [
        "Ġkill",
        -10.1052187190197
      ],
      [
        "Ġchalleng",
        -10.105641305955544
      ],
      [
        "ĠBlack",
        -10.106905737260073
      ],
      [
        "Ġlayers",
        -10.107250953628029
      ],
      [
        "Ġaim",
        -10.107469598029056
      ],
      [
        "Ġdivide",
        -10.108347437108826
      ],
      [
        "Ġoffering",
        -10.109102372207412
      ],
      [
        "Ġlabel",
        -10.109412011470774
      ],
      [
        "ĠUs",
        -10.110042697598828
      ],
      [
        "ers",
        -10.110578820759388
      ],
      [
        "Ġmold",
        -10.110645044410546
      ],
      [
        "Ġbright",
        -10.115433967997332
      ],
      [
        "Ġsub",
        -10.116838432156658
      ],
      [
        "ĠEuropean",
        -10.11713666095563
      ],
      [
        "Ġmother",
        -10.117196295506744
      ],
      [
        "Ġbodie",
        -10.119216925476078
      ],
      [
        "Ġcatch",
        -10.119316384675948
      ],
      [
        "Ġmember",
        -10.11949440484154
      ],
      [
        "Ġcap",
        -10.120230275314846
      ],
      [
        "Ġletter",
        -10.121896970205889
      ],
      [
        "se",
        -10.122513195971454
      ],
      [
        "place",
        -10.122700400472166
      ],
      [
        "kept",
        -10.122710994607546
      ],
      [
        "Ġfindings",
        -10.122982036290828
      ],
      [
        "Ġstock",
        -10.123275845280144
      ],
      [
        "Ġrule",
        -10.123284556215928
      ],
      [
        "ically",
        -10.123405230372477
      ],
      [
        "Ġattract",
        -10.123459713804335
      ],
      [
        "Ġupper",
        -10.123879102547363
      ],
      [
        "Ġjoint",
        -10.124138040483446
      ],
      [
        "Ġtold",
        -10.126055670405307
      ],
      [
        "Ġweigh",
        -10.12631222361222
      ],
      [
        "Ġpreference",
        -10.126430214882852
      ],
      [
        "process",
        -10.127155834246652
      ],
      [
        "Ġinvestment",
        -10.127271223893644
      ],
      [
        "en",
        -10.127308518054098
      ],
      [
        "Ġyet",
        -10.127865592391007
      ],
      [
        "Ġprepared",
        -10.12906137142746
      ],
      [
        "Ġprimari",
        -10.129361540101948
      ],
      [
        "].",
        -10.12960464744539
      ],
      [
        "placed",
        -10.129786518723396
      ],
      [
        "Ġpregnancy",
        -10.13027488023234
      ],
      [
        "Ġadapt",
        -10.13041740908043
      ],
      [
        "ĠDownload",
        -10.130682580668516
      ],
      [
        "ĠTh",
        -10.131115123619397
      ],
      [
        "cause",
        -10.131382912839978
      ],
      [
        "ĠApril",
        -10.13229757496459
      ],
      [
        "Ġdrop",
        -10.132349883181645
      ],
      [
        "often",
        -10.132676763787348
      ],
      [
        "Ġestablishe",
        -10.132837991460732
      ],
      [
        "Ġprepare",
        -10.133343321658083
      ],
      [
        "Ġshoes",
        -10.13409840610034
      ],
      [
        "Ġcreature",
        -10.134177979630412
      ],
      [
        "Ġstandards",
        -10.134540299141328
      ],
      [
        "Ġart",
        -10.134709610979677
      ],
      [
        "Ġdi",
        -10.135226751180458
      ],
      [
        "ĠTherefor",
        -10.135491023973934
      ],
      [
        "Ġindoor",
        -10.135846363503768
      ],
      [
        "table",
        -10.135898184583285
      ],
      [
        "change",
        -10.135971908853003
      ],
      [
        "Although",
        -10.136263025643087
      ],
      [
        "Ġchemicals",
        -10.136623027199196
      ],
      [
        "Ġearlier",
        -10.137006496134177
      ],
      [
        "My",
        -10.137048947315517
      ],
      [
        "Ġnutrition",
        -10.137083326662797
      ],
      [
        "Ġmagnetic",
        -10.137457463709064
      ],
      [
        "Ġregions",
        -10.13827638845224
      ],
      [
        "wever",
        -10.138660922706835
      ],
      [
        "Ġlatest",
        -10.139675942464676
      ],
      [
        "Ġcorn",
        -10.140061473593558
      ],
      [
        "/or",
        -10.140270941781669
      ],
      [
        "fully",
        -10.140275488178869
      ],
      [
        "Ġnaturally",
        -10.140321385746384
      ],
      [
        "ĠV",
        -10.141165872112468
      ],
      [
        "Ġegg",
        -10.141292767373074
      ],
      [
        "Ġcalculate",
        -10.142742380019726
      ],
      [
        "Ġblend",
        -10.144833789571392
      ],
      [
        "Ġeventually",
        -10.14483522613807
      ],
      [
        "Ġhighlight",
        -10.14508217601825
      ],
      [
        "Ġreduction",
        -10.14589633194868
      ],
      [
        "Ġmorning",
        -10.146769649903275
      ],
      [
        "ĠPark",
        -10.146802507233645
      ],
      [
        "Ġworry",
        -10.147985162618554
      ],
      [
        "Ġblade",
        -10.148428446729538
      ],
      [
        "Ġconvert",
        -10.149495216660966
      ],
      [
        "Ġprocedure",
        -10.15025573044159
      ],
      [
        "ĠSince",
        -10.151000247162797
      ],
      [
        "Ġbear",
        -10.151515765930377
      ],
      [
        "Ġgenome",
        -10.151675936975275
      ],
      [
        "Ġwhose",
        -10.1519553039316
      ],
      [
        "Ġrealize",
        -10.152204997276254
      ],
      [
        "Ġbar",
        -10.152380838373867
      ],
      [
        "ĠMarch",
        -10.152615634881077
      ],
      [
        "Ġfund",
        -10.153265052318506
      ],
      [
        "**",
        -10.15421202193386
      ],
      [
        "Ġstatus",
        -10.154683867393311
      ],
      [
        "ĠFood",
        -10.155560611186594
      ],
      [
        "Ġroof",
        -10.155770766090304
      ],
      [
        "Ġcontrast",
        -10.155827037725285
      ],
      [
        "Ġultimate",
        -10.15598559630102
      ],
      [
        "world",
        -10.157878078490322
      ],
      [
        "Figure",
        -10.158064655868367
      ],
      [
        "then",
        -10.158413096392332
      ],
      [
        "Ġbusinesses",
        -10.159342501152226
      ],
      [
        "turned",
        -10.159960409802862
      ],
      [
        "Ġrisks",
        -10.16096121213389
      ],
      [
        "Ġconcentration",
        -10.161996781513809
      ],
      [
        "Ġvehicles",
        -10.162380253746491
      ],
      [
        "Ġw",
        -10.162662092966324
      ],
      [
        "Ġleaf",
        -10.163619439801732
      ],
      [
        "Ġmuscles",
        -10.16419324522709
      ],
      [
        "Ġgenes",
        -10.165565336607
      ],
      [
        "Ġshot",
        -10.165643938832355
      ],
      [
        "Ġapart",
        -10.165663308037766
      ],
      [
        "Ġcrops",
        -10.165697917615889
      ],
      [
        "ĠIsland",
        -10.16644430440164
      ],
      [
        "species",
        -10.167780548243574
      ],
      [
        "Ġmedicine",
        -10.167971607744718
      ],
      [
        "Ġlose",
        -10.168251825094096
      ],
      [
        "Ġquantum",
        -10.168511360365592
      ],
      [
        "First",
        -10.170189412642411
      ],
      [
        "Ġsmell",
        -10.170365929028694
      ],
      [
        "Ġsounds",
        -10.171373743635524
      ],
      [
        "forms",
        -10.171477738989744
      ],
      [
        "Ġorganizations",
        -10.172060058538912
      ],
      [
        "Conclusion",
        -10.172612258138118
      ],
      [
        "mber",
        -10.175361193364022
      ],
      [
        "Ġvaccine",
        -10.175671826931667
      ],
      [
        "Ġenvironments",
        -10.175719317813233
      ],
      [
        "Ġexpression",
        -10.176194061805184
      ],
      [
        "men",
        -10.176422274013849
      ],
      [
        "Ġspeak",
        -10.176907794788589
      ],
      [
        "Ġowner",
        -10.177353094040251
      ],
      [
        "Ġsafet",
        -10.177467960655736
      ],
      [
        "Ġthus",
        -10.177851853676618
      ],
      [
        "lying",
        -10.17796649032665
      ],
      [
        "holes",
        -10.177968306389896
      ],
      [
        "Ġassist",
        -10.178000486310545
      ],
      [
        "Ġfinish",
        -10.178304467039975
      ],
      [
        "Ġrate",
        -10.17842994460845
      ],
      [
        "Ġcapabilit",
        -10.178857328863328
      ],
      [
        "Ġincredibl",
        -10.179200948359346
      ],
      [
        "ĠAccording",
        -10.18074102894029
      ],
      [
        "Ġinternet",
        -10.180944890491372
      ],
      [
        "Ġoperations",
        -10.181108676432402
      ],
      [
        "Ġloop",
        -10.181274243696723
      ],
      [
        "Ġdead",
        -10.181645860678614
      ],
      [
        "ĠInternational",
        -10.182150566660138
      ],
      [
        "Ġcomposition",
        -10.18260163886952
      ],
      [
        "Ġprivate",
        -10.182920406964374
      ],
      [
        "Ġlifestyle",
        -10.18303580464455
      ],
      [
        "-friendl",
        -10.184000962257588
      ],
      [
        "Ġsnake",
        -10.184001082456836
      ],
      [
        "try",
        -10.184501406451158
      ],
      [
        "Ġsituations",
        -10.184996948991742
      ],
      [
        "Ġspeaker",
        -10.185228657719192
      ],
      [
        "Ġprofessionals",
        -10.185639895855587
      ],
      [
        "Ġformat",
        -10.186353883075864
      ],
      [
        "Ġassess",
        -10.186584970120697
      ],
      [
        "Ġfundamental",
        -10.1873288728271
      ],
      [
        "ĠSystem",
        -10.18740059245128
      ],
      [
        "Ġparameter",
        -10.1874378871592
      ],
      [
        "Ġillness",
        -10.188116736144902
      ],
      [
        "Ġdefinition",
        -10.188258360625989
      ],
      [
        "Ġscene",
        -10.188543301360845
      ],
      [
        "Ġaircraft",
        -10.188575013313486
      ],
      [
        "Ġpropose",
        -10.188854998243269
      ],
      [
        "Ġnice",
        -10.189107449801384
      ],
      [
        "Since",
        -10.19060089652304
      ],
      [
        "Ġintelligence",
        -10.190784639708976
      ],
      [
        "Ġchain",
        -10.191656250147588
      ],
      [
        "Ġchanged",
        -10.191736326982458
      ],
      [
        "Ġfinger",
        -10.192963631349755
      ],
      [
        "room",
        -10.194172676109948
      ],
      [
        "Ġpilot",
        -10.194619763650564
      ],
      [
        "Ġengineer",
        -10.19526576889808
      ],
      [
        "Ġstation",
        -10.195670294316706
      ],
      [
        "Ġmechanical",
        -10.195927513128463
      ],
      [
        "Ġowners",
        -10.19622607555552
      ],
      [
        "diversity",
        -10.19643797919376
      ],
      [
        "Ġdetailed",
        -10.196486483314882
      ],
      [
        "Ġdecline",
        -10.196893423035268
      ],
      [
        "Ġemployee",
        -10.197324969570989
      ],
      [
        "Ġbreeding",
        -10.197493005883112
      ],
      [
        "Ġchoos",
        -10.197607954499128
      ],
      [
        "Ġshowing",
        -10.198438641439068
      ],
      [
        "between",
        -10.19915263547677
      ],
      [
        "Ġvarie",
        -10.19923596681198
      ],
      [
        "Ġeating",
        -10.199478031616565
      ],
      [
        "ĠEvery",
        -10.1997725776377
      ],
      [
        "Ġeducational",
        -10.199802387804349
      ],
      [
        "An",
        -10.19989257930457
      ],
      [
        "Ġinteract",
        -10.200107433516225
      ],
      [
        "Ġobvious",
        -10.201940946970527
      ],
      [
        "Ġisland",
        -10.202028921014964
      ],
      [
        "current",
        -10.202864637787206
      ],
      [
        "Ġlung",
        -10.202866797452891
      ],
      [
        "Ġedge",
        -10.20418368345431
      ],
      [
        "Ġbike",
        -10.205189380595767
      ],
      [
        "Ġdrugs",
        -10.205491497595208
      ],
      [
        "per",
        -10.205703261427686
      ],
      [
        "Ġtrip",
        -10.205862047070704
      ],
      [
        "ĠFlorida",
        -10.206269816620184
      ],
      [
        "new",
        -10.206419873981092
      ],
      [
        "Ġheating",
        -10.20662726359798
      ],
      [
        "Ġanalyze",
        -10.206962998352244
      ],
      [
        "Ġtraffic",
        -10.207322129576337
      ],
      [
        "Ġportion",
        -10.207347943821642
      ],
      [
        "system",
        -10.208237416404636
      ],
      [
        "Ġsession",
        -10.209327126958492
      ],
      [
        "Ġsamples",
        -10.20956486574321
      ],
      [
        "ried",
        -10.21025828128398
      ],
      [
        "Ġinnovation",
        -10.21105917464821
      ],
      [
        "Ġdepression",
        -10.211869629786088
      ],
      [
        "Ġdisorder",
        -10.212487817668976
      ],
      [
        "called",
        -10.212596335676253
      ],
      [
        "Ġamazing",
        -10.215230767429125
      ],
      [
        "Ġminerals",
        -10.215421239068837
      ],
      [
        "Let",
        -10.215656158971829
      ],
      [
        "ne",
        -10.216056425345728
      ],
      [
        "Ġcard",
        -10.216138191723402
      ],
      [
        "Ġencounter",
        -10.216551368949904
      ],
      [
        "Ġpanel",
        -10.218424154643689
      ],
      [
        "accurac",
        -10.218441655278127
      ],
      [
        "Ġobservation",
        -10.218445877072826
      ],
      [
        "ones",
        -10.218533935633392
      ],
      [
        "brough",
        -10.218626169456236
      ],
      [
        "Ġmeeting",
        -10.219367215133287
      ],
      [
        "Ġminimum",
        -10.219516942723754
      ],
      [
        "Ġsurvival",
        -10.22006129335803
      ],
      [
        "ĠGreat",
        -10.220316778324191
      ],
      [
        "ĠHigh",
        -10.220908100163866
      ],
      [
        "Ġestablish",
        -10.22097530376642
      ],
      [
        "Ġdental",
        -10.222340780211844
      ],
      [
        "ĠBritish",
        -10.222964097429289
      ],
      [
        "itis",
        -10.223189503087028
      ],
      [
        "Ġfill",
        -10.223353014079482
      ],
      [
        "Januar",
        -10.223788253595409
      ],
      [
        "Ġnerve",
        -10.22414666442359
      ],
      [
        "Ġchronic",
        -10.225433116089212
      ],
      [
        "-related",
        -10.225924154634267
      ],
      [
        "Ġweed",
        -10.226262267792327
      ],
      [
        "Ġawarenes",
        -10.226962713563688
      ],
      [
        "Ġjournal",
        -10.227641935531626
      ],
      [
        "Ġeliminate",
        -10.228470852058887
      ],
      [
        "Ġcurve",
        -10.228514187435003
      ],
      [
        "type",
        -10.22964439482111
      ],
      [
        "Ġshade",
        -10.229673925416094
      ],
      [
        "Ġaudio",
        -10.230177921628885
      ],
      [
        "Ġbill",
        -10.23022124339094
      ],
      [
        "Ġopinion",
        -10.23076722265562
      ],
      [
        "power",
        -10.230789135154762
      ],
      [
        "Ġspider",
        -10.231380819716216
      ],
      [
        "Ġconsequence",
        -10.231700208419864
      ],
      [
        "Ġadvance",
        -10.232469040256522
      ],
      [
        "Ġrace",
        -10.232598676293923
      ],
      [
        "help",
        -10.235122168426953
      ],
      [
        "specific",
        -10.235246494095437
      ],
      [
        "ĠCanada",
        -10.235972262763838
      ],
      [
        "ĠEducation",
        -10.236873567441702
      ],
      [
        "Ġspecialize",
        -10.237090532542274
      ],
      [
        "Ġenzyme",
        -10.237605144638788
      ],
      [
        "Ġpercentage",
        -10.237984446263969
      ],
      [
        "air",
        -10.23804370423824
      ],
      [
        "Ġappreciate",
        -10.238437146305412
      ],
      [
        "Ġradiation",
        -10.23887288805265
      ],
      [
        "Ġtooth",
        -10.239369185217534
      ],
      [
        "ï¿½",
        -10.239686640196895
      ],
      [
        "Ġrecovery",
        -10.24002336018708
      ],
      [
        "ĠRiver",
        -10.24087444382183
      ],
      [
        "Ġtransform",
        -10.2410331998149
      ],
      [
        "Ġpainting",
        -10.242624637468612
      ],
      [
        "Ġchoices",
        -10.242897275144085
      ],
      [
        "Ġdie",
        -10.24305903658027
      ],
      [
        "Ġcook",
        -10.243561031429156
      ],
      [
        "Ġfoundation",
        -10.244268830746794
      ],
      [
        "Ġthrow",
        -10.24451850486858
      ],
      [
        "Ġsolve",
        -10.24551309215498
      ],
      [
        "Ġdish",
        -10.245989250403625
      ],
      [
        "Ġfailure",
        -10.246239446361615
      ],
      [
        "Ġstorm",
        -10.246793898885365
      ],
      [
        "Ġtitle",
        -10.24717871617714
      ],
      [
        "Ġextensive",
        -10.24772460164044
      ],
      [
        "quality",
        -10.248407002373751
      ],
      [
        "Ġbu",
        -10.248822347589954
      ],
      [
        "Ġmid",
        -10.248957753726144
      ],
      [
        "mental",
        -10.25121267768046
      ],
      [
        "Ġp",
        -10.251234830044892
      ],
      [
        "Ġdefined",
        -10.251593973793952
      ],
      [
        "Ġtha",
        -10.252077661452285
      ],
      [
        "OVID",
        -10.252420488458744
      ],
      [
        "@",
        -10.252796392328143
      ],
      [
        "ĠDuring",
        -10.25309916942016
      ],
      [
        "Ġpredator",
        -10.253647080755057
      ],
      [
        "Ġbarrier",
        -10.253818126050485
      ],
      [
        "Ġrelevant",
        -10.254321017483814
      ],
      [
        "Ġboost",
        -10.254775205814486
      ],
      [
        "Ġgold",
        -10.2555200425693
      ],
      [
        "Ġleak",
        -10.2558500117954
      ],
      [
        "Ġthorough",
        -10.255884615222032
      ],
      [
        "Ġcollege",
        -10.25599364593022
      ],
      [
        "urniture",
        -10.258739573996644
      ],
      [
        "Ġrestaurant",
        -10.258872996544907
      ],
      [
        "During",
        -10.259845586046254
      ],
      [
        "Ġchose",
        -10.259928233471497
      ],
      [
        "ge",
        -10.2604901592592
      ],
      [
        "Ġwave",
        -10.26135428778668
      ],
      [
        "Ġreplacement",
        -10.261414948112508
      ],
      [
        "found",
        -10.26188447788693
      ],
      [
        "ted",
        -10.263039601555551
      ],
      [
        "ĠGreen",
        -10.265149820159936
      ],
      [
        "done",
        -10.265249738221849
      ],
      [
        "Ġexcessive",
        -10.265327178198085
      ],
      [
        "Ġprior",
        -10.26577462841652
      ],
      [
        "Ġcontrolle",
        -10.26617562897188
      ],
      [
        "Ġslowly",
        -10.26636897810316
      ],
      [
        "Ġmajority",
        -10.266424226033976
      ],
      [
        "Ġskill",
        -10.266549385445348
      ],
      [
        "name",
        -10.266565196799036
      ],
      [
        "Ġtreated",
        -10.267588145219992
      ],
      [
        "Ġincorporate",
        -10.268028022341651
      ],
      [
        "Ġfossil",
        -10.268200194361942
      ],
      [
        "Ġexhibit",
        -10.268269884837132
      ],
      [
        "j",
        -10.269882850529909
      ],
      [
        "Ġknee",
        -10.270631992275476
      ],
      [
        "Ġnutrient",
        -10.271327187159574
      ],
      [
        "Ġborn",
        -10.271930794117983
      ],
      [
        "Ġunits",
        -10.272167309980835
      ],
      [
        "wood",
        -10.272740950161118
      ],
      [
        "-in",
        -10.275288903295356
      ],
      [
        "Ġbottle",
        -10.275825085211354
      ],
      [
        "Ġarray",
        -10.27629322628852
      ],
      [
        "ĠCO",
        -10.276605043895838
      ],
      [
        "energy",
        -10.276720642151949
      ],
      [
        "Ġpreviously",
        -10.27690933206395
      ],
      [
        "-time",
        -10.27746868053567
      ],
      [
        "Ġabsolute",
        -10.27756125989281
      ],
      [
        "Ġmap",
        -10.27847478350326
      ],
      [
        "Ġcalcium",
        -10.278482070959976
      ],
      [
        "Ġbiological",
        -10.27861430299606
      ],
      [
        "Ġbudget",
        -10.279672595522332
      ],
      [
        "Ġplane",
        -10.28015935891564
      ],
      [
        "Ġplent",
        -10.280197080073105
      ],
      [
        "Ġmen",
        -10.280516319873565
      ],
      [
        "board",
        -10.281224678640267
      ],
      [
        "Ġburn",
        -10.281580744676866
      ],
      [
        "Ġcreation",
        -10.282659442421108
      ],
      [
        "Ġpesticide",
        -10.282962980550312
      ],
      [
        "Ġbatteri",
        -10.28376009384484
      ],
      [
        "Ġblog",
        -10.283961726115567
      ],
      [
        "lines",
        -10.284094364163902
      ],
      [
        "Ġvirus",
        -10.284479880497202
      ],
      [
        "Ġguideline",
        -10.284959481448544
      ],
      [
        "Ġconfirm",
        -10.2858217880601
      ],
      [
        "Ġbreast",
        -10.286142838355037
      ],
      [
        "treatment",
        -10.286157470382042
      ],
      [
        "Ġplays",
        -10.286705542130662
      ],
      [
        "ĠOver",
        -10.28679231637096
      ],
      [
        "Ġcable",
        -10.28681411053935
      ],
      [
        "Ġatom",
        -10.28740985353434
      ],
      [
        "Ġcompetition",
        -10.287518150552462
      ],
      [
        "Ġrequest",
        -10.287646514262892
      ],
      [
        "round",
        -10.287808477898992
      ],
      [
        "Ġconsideration",
        -10.288690539646147
      ],
      [
        "Ġnitrogen",
        -10.289224702404976
      ],
      [
        "Ġhousehold",
        -10.289340759232136
      ],
      [
        "Ġphotograph",
        -10.289351371330824
      ],
      [
        "Ġsharp",
        -10.289396871315608
      ],
      [
        "Because",
        -10.290062650838731
      ],
      [
        "ĠAl",
        -10.290081381813968
      ],
      [
        "information",
        -10.290306894905916
      ],
      [
        "Ġformula",
        -10.29058825440027
      ],
      [
        "Ġcredit",
        -10.290756506872532
      ],
      [
        "Ġhospital",
        -10.292873511095262
      ],
      [
        "Ġinsulation",
        -10.29377837405941
      ],
      [
        "Ġgrown",
        -10.29446544351308
      ],
      [
        "Ġsensitive",
        -10.294669032468018
      ],
      [
        "Ġharvest",
        -10.294868839213072
      ],
      [
        "weight",
        -10.295130157989838
      ],
      [
        "training",
        -10.295207897131732
      ],
      [
        "ĠProgram",
        -10.2952237722194
      ],
      [
        "Ġphotos",
        -10.29619873486363
      ],
      [
        "Ġdamaged",
        -10.296693417954982
      ],
      [
        "growth",
        -10.297275775560212
      ],
      [
        "ĠKeep",
        -10.297696372585865
      ],
      [
        "actions",
        -10.297878515540036
      ],
      [
        "Ġcoming",
        -10.29888095879036
      ],
      [
        "Ġminimize",
        -10.299290511506006
      ],
      [
        "Ġpurposes",
        -10.299368650946075
      ],
      [
        "Ġthick",
        -10.299421092972622
      ],
      [
        "Ġeconomy",
        -10.301733676300232
      ],
      [
        "llowing",
        -10.301865911950774
      ],
      [
        "Ġboat",
        -10.302362029758305
      ],
      [
        "mixed",
        -10.302590128445155
      ],
      [
        "lies",
        -10.303315983762168
      ],
      [
        "Ġtire",
        -10.303952718717476
      ],
      [
        "Ġleaving",
        -10.304513352316734
      ],
      [
        "ber",
        -10.304518426363416
      ],
      [
        "Ġrealit",
        -10.304821554585152
      ],
      [
        "Ġdetermined",
        -10.305151186447995
      ],
      [
        "Ġargument",
        -10.305424113479488
      ],
      [
        "Ġmobile",
        -10.305970273240526
      ],
      [
        "Ġguy",
        -10.306142824269529
      ],
      [
        "Ġice",
        -10.306203113180374
      ],
      [
        "Ġintake",
        -10.306223068533544
      ],
      [
        "ĠWell",
        -10.307383308651758
      ],
      [
        "including",
        -10.307737660767025
      ],
      [
        "ĠNature",
        -10.307863230259017
      ],
      [
        "Ġsmoke",
        -10.308219195243012
      ],
      [
        "Ġsudden",
        -10.309114906963472
      ],
      [
        "ĠJul",
        -10.309724010144343
      ],
      [
        "Ġplanting",
        -10.310416186838893
      ],
      [
        "space",
        -10.31079095625724
      ],
      [
        "Ġbutter",
        -10.311080947355888
      ],
      [
        "Ġtrail",
        -10.311156346121688
      ],
      [
        "Ġindustrial",
        -10.312197159628766
      ],
      [
        "ĠWest",
        -10.31286592444108
      ],
      [
        "gets",
        -10.31294382972244
      ],
      [
        "Ġagricultur",
        -10.313344963631415
      ],
      [
        "Ġreward",
        -10.313569584321687
      ],
      [
        "Ġhormone",
        -10.31461734464075
      ],
      [
        "Ġaudience",
        -10.314634408921265
      ],
      [
        "Ġpowder",
        -10.314687940965475
      ],
      [
        "Ġwar",
        -10.314912541178916
      ],
      [
        "Ġmaster",
        -10.315149692089015
      ],
      [
        "Ġzero",
        -10.316084223722
      ],
      [
        "Ġshared",
        -10.31672376225829
      ],
      [
        "st",
        -10.31684020518138
      ],
      [
        "building",
        -10.316879962681591
      ],
      [
        "Ġprecise",
        -10.316940220828076
      ],
      [
        "Ġahead",
        -10.317575917072956
      ],
      [
        "Ġopening",
        -10.31760336330902
      ],
      [
        "Ġpepper",
        -10.317653977474611
      ],
      [
        "Ġrespond",
        -10.31799405535931
      ],
      [
        "Ġstar",
        -10.318919075711834
      ],
      [
        "Ġconstruct",
        -10.31909728045886
      ],
      [
        "Ġperforme",
        -10.319637962604371
      ],
      [
        "ĠWar",
        -10.319899232504998
      ],
      [
        "would",
        -10.320203082680296
      ],
      [
        "`",
        -10.321454297632688
      ],
      [
        "Ġfully",
        -10.321492168460864
      ],
      [
        "Ġcalm",
        -10.321530753182934
      ],
      [
        "Ġparticipate",
        -10.321690467142572
      ],
      [
        "back",
        -10.321694855347989
      ],
      [
        "Ġsuit",
        -10.321873471222812
      ],
      [
        "Ġpictures",
        -10.32267779443454
      ],
      [
        "Ġecosystem",
        -10.323918393460572
      ],
      [
        "working",
        -10.323975265354337
      ],
      [
        "Ġlawn",
        -10.324055193262792
      ],
      [
        "Ġreferr",
        -10.32443509385416
      ],
      [
        "ĠPeople",
        -10.324638677269856
      ],
      [
        "Ġstages",
        -10.324685308493706
      ],
      [
        "Ġstarts",
        -10.325953059803629
      ],
      [
        "Ġemergenc",
        -10.326159150218771
      ],
      [
        "Ġinflammation",
        -10.32623320466904
      ],
      [
        "ĠChine",
        -10.327475112815648
      ],
      [
        "Ġabsorb",
        -10.327540164420537
      ],
      [
        "Ġfear",
        -10.328165866592729
      ],
      [
        "Ġbee",
        -10.32825529260618
      ],
      [
        "should",
        -10.328970459877254
      ],
      [
        "Ġbecom",
        -10.329459127858138
      ],
      [
        "AI",
        -10.329608908575658
      ],
      [
        "Ġsuffer",
        -10.32976605212535
      ],
      [
        "late",
        -10.32982633493858
      ],
      [
        "ha",
        -10.330038306879626
      ],
      [
        "Does",
        -10.33126326353955
      ],
      [
        "Ġprovider",
        -10.331729393334534
      ],
      [
        "Ġmovie",
        -10.331980182512762
      ],
      [
        "ground",
        -10.332038946002031
      ],
      [
        "Ġmask",
        -10.333721298767156
      ],
      [
        "Ġcompost",
        -10.333959470933817
      ],
      [
        "ĠLife",
        -10.334088191793528
      ],
      [
        "Ġprofessor",
        -10.334180982878042
      ],
      [
        "Ġrubber",
        -10.335278013536389
      ],
      [
        "Ġdiscusse",
        -10.335741958443098
      ],
      [
        "city",
        -10.336283910342132
      ],
      [
        "Ġpackage",
        -10.336302030918755
      ],
      [
        "Ġerror",
        -10.336448667579354
      ],
      [
        "Ġonto",
        -10.336605612532136
      ],
      [
        "Ġlighting",
        -10.33673180174309
      ],
      [
        "tion",
        -10.337433927111585
      ],
      [
        "informed",
        -10.337525297133295
      ],
      [
        "Ġdioxide",
        -10.33960773487923
      ],
      [
        "Ġflood",
        -10.340708091669132
      ],
      [
        "Ġrain",
        -10.342230739142234
      ],
      [
        "||",
        -10.342327338926086
      ],
      [
        "know",
        -10.342462102321583
      ],
      [
        "Ġconcrete",
        -10.342572762256276
      ],
      [
        "Ġwaves",
        -10.342806978448396
      ],
      [
        "New",
        -10.343295514133992
      ],
      [
        "ization",
        -10.344576213166606
      ],
      [
        "Ġcomputers",
        -10.346558089300078
      ],
      [
        "Ġremote",
        -10.347653118756996
      ],
      [
        "Ġam",
        -10.34823857856028
      ],
      [
        "Ġtrust",
        -10.348424272657264
      ],
      [
        "Ġstomach",
        -10.34997551054996
      ],
      [
        "ĠAsia",
        -10.350384943898536
      ],
      [
        "Ġinspire",
        -10.35106529696355
      ],
      [
        "Ġremov",
        -10.35153422880785
      ],
      [
        "Ġdelicious",
        -10.351852368315589
      ],
      [
        "Ġimplant",
        -10.352047107538532
      ],
      [
        "Ġinterface",
        -10.353855108828746
      ],
      [
        "rich",
        -10.35445437249742
      ],
      [
        "ur",
        -10.354677764874438
      ],
      [
        "correctly",
        -10.354847249699294
      ],
      [
        "Ġsector",
        -10.355225685821791
      ],
      [
        "Ġuniverse",
        -10.35543099659634
      ],
      [
        "ling",
        -10.355728613753726
      ],
      [
        "Ġratio",
        -10.35668260629254
      ],
      [
        "Ġdecided",
        -10.356747538122724
      ],
      [
        "Ġmanner",
        -10.357007170700031
      ],
      [
        "ĠEnergy",
        -10.357070334773898
      ],
      [
        "Ġinnovative",
        -10.358395996747854
      ],
      [
        "Ġbread",
        -10.358434694823902
      ],
      [
        "Ġfunctional",
        -10.35906716386221
      ],
      [
        "Ġurban",
        -10.359167470852531
      ],
      [
        "ĠCity",
        -10.359849120418676
      ],
      [
        "Ġcognitive",
        -10.361306169421526
      ],
      [
        "Ġfeedback",
        -10.361554178307046
      ],
      [
        "Ġintegrate",
        -10.361941831943
      ],
      [
        "Ġbones",
        -10.362371467826394
      ],
      [
        "Researchers",
        -10.362574954129483
      ],
      [
        "Ġvisibl",
        -10.362926094042496
      ],
      [
        "Ġjuice",
        -10.363959494848707
      ],
      [
        "Ġdistinct",
        -10.364767882520525
      ],
      [
        "Ġbuying",
        -10.365437121587494
      ],
      [
        "Ġlots",
        -10.36554022729944
      ],
      [
        "may",
        -10.366223819784985
      ],
      [
        "Ġthrive",
        -10.366864116096412
      ],
      [
        "Not",
        -10.36720543086755
      ],
      [
        "ĠGood",
        -10.36771026392186
      ],
      [
        "Ġstroke",
        -10.367762620042528
      ],
      [
        "ĠTexas",
        -10.368373440242516
      ],
      [
        "Ġbulb",
        -10.36882590704629
      ],
      [
        "Ġmineral",
        -10.369647220118544
      ],
      [
        "Ġspray",
        -10.369920651224865
      ],
      [
        "list",
        -10.369955590876152
      ],
      [
        "Ġtrain",
        -10.370654891727751
      ],
      [
        "Ġpizza",
        -10.371018969571692
      ],
      [
        "ave",
        -10.371613983282064
      ],
      [
        "ĠDesign",
        -10.3718050560554
      ],
      [
        "Ġexplor",
        -10.371970931374833
      ],
      [
        "Ġotherwise",
        -10.37212722807276
      ],
      [
        "Ġdensity",
        -10.372203765334335
      ],
      [
        "Ġlights",
        -10.37231187181375
      ],
      [
        "Ġclinical",
        -10.372965730289778
      ],
      [
        "Ġmammal",
        -10.373596278232055
      ],
      [
        "named",
        -10.373775109001706
      ],
      [
        "important",
        -10.374068917605122
      ],
      [
        "so",
        -10.374129929075016
      ],
      [
        "ĠLED",
        -10.374303088369896
      ],
      [
        "Additional",
        -10.374357282495984
      ],
      [
        "Ġorganisms",
        -10.374553814207768
      ],
      [
        "Ġgenerated",
        -10.374613597191647
      ],
      [
        "Ġcloud",
        -10.374710222688536
      ],
      [
        "Ġcommunicate",
        -10.37528305562926
      ],
      [
        "Ġplug",
        -10.375617411045058
      ],
      [
        "definitely",
        -10.376084378831164
      ],
      [
        "Ġdesigner",
        -10.376331325164898
      ],
      [
        "part",
        -10.376944883584434
      ],
      [
        "Ġsuper",
        -10.376977193395843
      ],
      [
        "Ġcalories",
        -10.377507576992278
      ],
      [
        "meter",
        -10.378186898166636
      ],
      [
        "Ġmistake",
        -10.38004892455024
      ],
      [
        "Ġguess",
        -10.380820013501143
      ],
      [
        "Ġimagine",
        -10.380939352120444
      ],
      [
        "Ġcore",
        -10.38244878688954
      ],
      [
        "ĠDec",
        -10.382787488955277
      ],
      [
        "Ġloose",
        -10.383731642736112
      ],
      [
        "Ġaesthetic",
        -10.384196856972618
      ],
      [
        "Ġjump",
        -10.384221236015456
      ],
      [
        "ĠSea",
        -10.384546673489464
      ],
      [
        "Ġbug",
        -10.384737904965869
      ],
      [
        "Ġrapid",
        -10.385005690819456
      ],
      [
        "Ġemotion",
        -10.385659377907697
      ],
      [
        "Other",
        -10.386109024414296
      ],
      [
        "Ġzone",
        -10.387244173870124
      ],
      [
        "Ġhydrogen",
        -10.387309848703357
      ],
      [
        "Ġbelt",
        -10.387394439335942
      ],
      [
        "order",
        -10.38761292578016
      ],
      [
        "Ġsport",
        -10.387656039619731
      ],
      [
        "Ġtight",
        -10.38814061909866
      ],
      [
        "Ġfelt",
        -10.388295950584704
      ],
      [
        "before",
        -10.388298923435192
      ],
      [
        "Ġsufficient",
        -10.388696694320773
      ],
      [
        "Ġriver",
        -10.38995896724968
      ],
      [
        "Ġspaces",
        -10.390852329177818
      ],
      [
        "lly",
        -10.391051688736551
      ],
      [
        "Ġmanual",
        -10.391232380010225
      ],
      [
        "Ġintervention",
        -10.392070519608437
      ],
      [
        "Ġhomes",
        -10.393534117798444
      ],
      [
        "Ġdiagnose",
        -10.393734676898733
      ],
      [
        "Ġsustainability",
        -10.393949960853964
      ],
      [
        "Ġcomparison",
        -10.394287828822694
      ],
      [
        "Ġtrade",
        -10.394904721851708
      ],
      [
        "Ġnest",
        -10.396031392906854
      ],
      [
        "Ġdecide",
        -10.396159856644289
      ],
      [
        "Ġfixed",
        -10.39647240009536
      ],
      [
        "ĠJune",
        -10.39658425086724
      ],
      [
        "Ġbelief",
        -10.39665945224084
      ],
      [
        "Ġrandom",
        -10.397327837885358
      ],
      [
        "Ġbowl",
        -10.398371905859925
      ],
      [
        "high",
        -10.398717674924576
      ],
      [
        "ĠBoth",
        -10.39912266506849
      ],
      [
        "Ġpot",
        -10.399447916979923
      ],
      [
        "Ġpounds",
        -10.399483840714185
      ],
      [
        "Ġthreaten",
        -10.400602517137118
      ],
      [
        "top",
        -10.40186171739778
      ],
      [
        "\"The",
        -10.40257014528899
      ],
      [
        "Ġinjuries",
        -10.403244481561575
      ],
      [
        "Ġarrive",
        -10.403297044303612
      ],
      [
        "Ġdishe",
        -10.405679856516368
      ],
      [
        "Ġtrouble",
        -10.4064606223918
      ],
      [
        "Ġlarva",
        -10.407062850452329
      ],
      [
        "Ġtrend",
        -10.407065737012966
      ],
      [
        "Ġlinked",
        -10.407899993257114
      ],
      [
        "Ġworse",
        -10.407964710043434
      ],
      [
        "Ġoperat",
        -10.408088767177922
      ],
      [
        "Ġfly",
        -10.408751612850144
      ],
      [
        "ility",
        -10.408801877020078
      ],
      [
        "Ġexchange",
        -10.408920087509372
      ],
      [
        "Ġorganize",
        -10.409274043243396
      ],
      [
        "Ġcoral",
        -10.409440120727933
      ],
      [
        "Ġsaving",
        -10.409662503831695
      ],
      [
        "Ġprices",
        -10.409860619835603
      ],
      [
        "Ġacademic",
        -10.40993461504656
      ],
      [
        "Ġcircle",
        -10.41014867386324
      ],
      [
        "ish",
        -10.410543196824586
      ],
      [
        "ĠAugust",
        -10.410681455957302
      ],
      [
        "Ġstrain",
        -10.41072637600009
      ],
      [
        "ĠSan",
        -10.41074377729515
      ],
      [
        "Ġforests",
        -10.410937786587674
      ],
      [
        "ending",
        -10.411040107760655
      ],
      [
        "Ġfamiliar",
        -10.411786442091389
      ],
      [
        "Ġsurprise",
        -10.412217445781966
      ],
      [
        "Every",
        -10.412690703577931
      ],
      [
        "Ġevaluate",
        -10.41285195655841
      ],
      [
        "Ġengaging",
        -10.412938842871966
      ],
      [
        "Ġderive",
        -10.413032053143937
      ],
      [
        "Ġfiles",
        -10.41423100059362
      ],
      [
        "known",
        -10.414246855283771
      ],
      [
        "-old",
        -10.414375744298512
      ],
      [
        "Ġfoster",
        -10.414514794185838
      ],
      [
        "Ġthread",
        -10.414546149729716
      ],
      [
        "Ġsauce",
        -10.414889354014816
      ],
      [
        "Ġbroken",
        -10.415309429403344
      ],
      [
        "History",
        -10.41591131077189
      ],
      [
        "Ġcollaboration",
        -10.41645715948649
      ],
      [
        "Ġrapidly",
        -10.417288426452338
      ],
      [
        "ĠFurther",
        -10.417445006197775
      ],
      [
        "Ġconventional",
        -10.417566769893554
      ],
      [
        "Ġexcess",
        -10.418188254238968
      ],
      [
        "Ġcopy",
        -10.418504744525457
      ],
      [
        "Ġlab",
        -10.419465999268796
      ],
      [
        "Ġinitiative",
        -10.420557809377406
      ],
      [
        "surface",
        -10.420606314282724
      ],
      [
        "Even",
        -10.421995558224566
      ],
      [
        "Ġtrace",
        -10.422074856065995
      ],
      [
        "ĠHome",
        -10.422180720649978
      ],
      [
        "ĠEast",
        -10.422270583358667
      ],
      [
        "Where",
        -10.4232490671538
      ],
      [
        "ĠIndian",
        -10.424082693979331
      ],
      [
        "Ġscore",
        -10.42423094399516
      ],
      [
        "fitness",
        -10.4243327140554
      ],
      [
        "Keep",
        -10.424901516390522
      ],
      [
        "ĠStudent",
        -10.425064620838462
      ],
      [
        "ĠYear",
        -10.425178156103996
      ],
      [
        "Ġfille",
        -10.42574602973998
      ],
      [
        "âĢĻt",
        -10.426328610670552
      ],
      [
        "range",
        -10.427339882838652
      ],
      [
        "intended",
        -10.4276309247641
      ],
      [
        "Ġroute",
        -10.427735093862086
      ],
      [
        "ĠSociet",
        -10.428124777901386
      ],
      [
        "Ġshell",
        -10.429042510830817
      ],
      [
        "Ġagricultural",
        -10.429600706860969
      ],
      [
        "Ġbite",
        -10.429766929098829
      ],
      [
        "Ġkidney",
        -10.430398155430431
      ],
      [
        "Ġinsurance",
        -10.431084844865694
      ],
      [
        "Ġdigesti",
        -10.431323187220723
      ],
      [
        "Ġdiffer",
        -10.43163829655742
      ],
      [
        "ĠGod",
        -10.43186378504488
      ],
      [
        "ĠFrench",
        -10.43189474244711
      ],
      [
        "Ġdescription",
        -10.432879357541598
      ],
      [
        "Ġlibrar",
        -10.433788488617491
      ],
      [
        "People",
        -10.433924040088485
      ],
      [
        "ĠPlant",
        -10.434193297467242
      ],
      [
        "Ġgreenhouse",
        -10.43464062817666
      ],
      [
        "ĠRe",
        -10.43467522003282
      ],
      [
        "Ġexciting",
        -10.434743391913802
      ],
      [
        "Make",
        -10.435101390208674
      ],
      [
        "Ġcoal",
        -10.436387897495706
      ],
      [
        "ĠEngl",
        -10.437133442738542
      ],
      [
        "Ġcultural",
        -10.437280167651686
      ],
      [
        "Ġassume",
        -10.437430674541716
      ],
      [
        "Ġdisorders",
        -10.437550074185229
      ],
      [
        "Ġequivalent",
        -10.439237193480682
      ],
      [
        "Ġindustrie",
        -10.439749513118205
      ],
      [
        "Ġconsult",
        -10.440339043770823
      ],
      [
        "Ġhistorical",
        -10.441021403840235
      ],
      [
        "Ġcopper",
        -10.441775594419669
      ],
      [
        "twic",
        -10.4427997455558
      ],
      [
        "Ġworkshop",
        -10.4431661218461
      ],
      [
        "Ġgravit",
        -10.444672548831084
      ],
      [
        "Ġhabitats",
        -10.444926292483572
      ],
      [
        "ĠAssociation",
        -10.44508957492728
      ],
      [
        "Ġdespi",
        -10.44619035039303
      ],
      [
        "Ġinstallation",
        -10.446634190370007
      ],
      [
        "Ġinstrument",
        -10.4470812943103
      ],
      [
        "ĠLike",
        -10.44742906090687
      ],
      [
        "Ġlaser",
        -10.4477637537011
      ],
      [
        "Ġexam",
        -10.448293710091722
      ],
      [
        "Ġtru",
        -10.449098024061174
      ],
      [
        "Ġprogramming",
        -10.44920797580799
      ],
      [
        "Ġchocolate",
        -10.449522569483626
      ],
      [
        "Ġvegetable",
        -10.45010104303432
      ],
      [
        "Ġexpress",
        -10.45025250682307
      ],
      [
        "Ġeveryday",
        -10.450840665982517
      ],
      [
        "Ġgift",
        -10.451161049602014
      ],
      [
        "much",
        -10.451433544897082
      ],
      [
        "nxiety",
        -10.451765817121276
      ],
      [
        "Ġecosystems",
        -10.45234108734535
      ],
      [
        "ought",
        -10.452557786419762
      ],
      [
        "Ġdiagnosis",
        -10.45277405945994
      ],
      [
        "rely",
        -10.452971669249532
      ],
      [
        "powered",
        -10.453123929639055
      ],
      [
        "Ġteams",
        -10.454020981666847
      ],
      [
        "large",
        -10.454661963728382
      ],
      [
        "Ġpossibl",
        -10.454951834757145
      ],
      [
        "Ġuniversit",
        -10.455301297564812
      ],
      [
        "ĠCollege",
        -10.45586608385251
      ],
      [
        "typical",
        -10.456009240279233
      ],
      [
        "Ġresident",
        -10.45617480313664
      ],
      [
        "Ġwish",
        -10.45700307896694
      ],
      [
        "Each",
        -10.457114126844084
      ],
      [
        "ĠAfrican",
        -10.45738314730984
      ],
      [
        "Ġcrystal",
        -10.45739181995298
      ],
      [
        "He",
        -10.457613834562787
      ],
      [
        "ca",
        -10.457936206838427
      ],
      [
        "Ġminimal",
        -10.45806956570528
      ],
      [
        "ĠControl",
        -10.458535433906423
      ],
      [
        "Ġdust",
        -10.45908821297777
      ],
      [
        "Ġwoman",
        -10.459915836770993
      ],
      [
        "source",
        -10.46043830505835
      ],
      [
        "Ġforget",
        -10.46081164338612
      ],
      [
        "Ġhunting",
        -10.461204189505985
      ],
      [
        "ĠTake",
        -10.463009394829538
      ],
      [
        "Ġvast",
        -10.463431625686724
      ],
      [
        "ĠSpace",
        -10.463531060766604
      ],
      [
        "ill",
        -10.46365848283049
      ],
      [
        "ĠThu",
        -10.464110616849766
      ],
      [
        "Ġdedicate",
        -10.46416222853281
      ],
      [
        "plant",
        -10.46579199155522
      ],
      [
        "Ġthin",
        -10.466338297711776
      ],
      [
        "ma",
        -10.466817201976724
      ],
      [
        "Ġrecipe",
        -10.466863190834326
      ],
      [
        "Ġattached",
        -10.468308696429984
      ],
      [
        "Ġdistribute",
        -10.46844926663961
      ],
      [
        "Ġconfidence",
        -10.468549844967466
      ],
      [
        "away",
        -10.469002985061476
      ],
      [
        "Ġstructural",
        -10.470551077967198
      ],
      [
        "Ġhardware",
        -10.471086019158689
      ],
      [
        "see",
        -10.471396109643536
      ],
      [
        "Ġgradual",
        -10.471659436374823
      ],
      [
        "area",
        -10.472257981373716
      ],
      [
        "spread",
        -10.47250607365841
      ],
      [
        "Ġstable",
        -10.473278990714403
      ],
      [
        "Ġrenewable",
        -10.473296362574118
      ],
      [
        "Share",
        -10.473425222208096
      ],
      [
        "Just",
        -10.47451922235923
      ],
      [
        "ĠGo",
        -10.474808944331173
      ],
      [
        "resistant",
        -10.475294649935844
      ],
      [
        "Ġplans",
        -10.47595399356899
      ],
      [
        "ĠDoes",
        -10.476272304181975
      ],
      [
        "ĠLearning",
        -10.476419249833988
      ],
      [
        "Ġpreparation",
        -10.476525620665168
      ],
      [
        "Ġstronger",
        -10.477155857055582
      ],
      [
        "Ġdimension",
        -10.477548206107675
      ],
      [
        "Ġreactions",
        -10.477687290193716
      ],
      [
        "Ġconflict",
        -10.47786759237631
      ],
      [
        "Ġguidance",
        -10.478495570449091
      ],
      [
        "Ġlocations",
        -10.478572659331734
      ],
      [
        "Ġthermal",
        -10.478778531837944
      ],
      [
        "loss",
        -10.478884111290109
      ],
      [
        "Ġshapes",
        -10.478895697561258
      ],
      [
        "Ġvelocit",
        -10.478900624650487
      ],
      [
        "Ġinner",
        -10.478960163717376
      ],
      [
        "Ġsecret",
        -10.478961942683902
      ],
      [
        "Ġseven",
        -10.480836630313112
      ],
      [
        "Ġrecommendation",
        -10.48200876292925
      ],
      [
        "call",
        -10.482247767473336
      ],
      [
        "materials",
        -10.482832478083132
      ],
      [
        "Ġessay",
        -10.483565404834604
      ],
      [
        "Ġaren",
        -10.484719308158642
      ],
      [
        "structure",
        -10.48482299521986
      ],
      [
        "Ġmissing",
        -10.484868059507512
      ],
      [
        "health",
        -10.485243487037758
      ],
      [
        "Ġpreserve",
        -10.485289775704423
      ],
      [
        "Ġstrengthen",
        -10.485907737288002
      ],
      [
        "Ġinterior",
        -10.486020182138056
      ],
      [
        "Ġaggressive",
        -10.486333212434904
      ],
      [
        "Ġnorth",
        -10.486895014747144
      ],
      [
        "Ġsnow",
        -10.487034056849446
      ],
      [
        "ING",
        -10.48717110989256
      ],
      [
        "ĠJohn",
        -10.48771377113371
      ],
      [
        "Ġtoxic",
        -10.48793946546518
      ],
      [
        "Ġdiameter",
        -10.488484243124352
      ],
      [
        "Ġopposite",
        -10.490650842389154
      ],
      [
        "she",
        -10.49065353963175
      ],
      [
        "significant",
        -10.493034036260044
      ],
      [
        "tell",
        -10.493261716114848
      ],
      [
        "Ġhazard",
        -10.494549151267938
      ],
      [
        "Ġg",
        -10.49513423552473
      ],
      [
        "example",
        -10.495174198276708
      ],
      [
        "ĠCheck",
        -10.495321924527
      ],
      [
        "Ġroll",
        -10.495395654347725
      ],
      [
        "Ġfirm",
        -10.495549542330432
      ],
      [
        "Ġreplaced",
        -10.495934734381647
      ],
      [
        "comes",
        -10.496351308429162
      ],
      [
        "Ġround",
        -10.496489090928392
      ],
      [
        "Source",
        -10.496749010144232
      ],
      [
        "Ġmountain",
        -10.497036424239289
      ],
      [
        "Ġapproaches",
        -10.497308365781258
      ],
      [
        "Ġchapter",
        -10.497932131305909
      ],
      [
        "Ġprotective",
        -10.498381747662153
      ],
      [
        "Ġorigin",
        -10.498591158681323
      ],
      [
        "Ġexplanation",
        -10.498726817343108
      ],
      [
        "wise",
        -10.498964173669972
      ],
      [
        "Ġsouth",
        -10.499170405061143
      ],
      [
        "Ġprocedures",
        -10.499265087410372
      ],
      [
        "\"We",
        -10.500313865810096
      ],
      [
        "Ġadopt",
        -10.5004658469865
      ],
      [
        "Ġaccessibl",
        -10.500566742040292
      ],
      [
        "Ġheal",
        -10.502666639353013
      ],
      [
        "Ġones",
        -10.502757496793894
      ],
      [
        "ĠTechnology",
        -10.50298242458674
      ],
      [
        "ĠAnimal",
        -10.503124214764748
      ],
      [
        "Ġdefine",
        -10.503718622481616
      ],
      [
        "Ġconversation",
        -10.50392221613606
      ],
      [
        "ĠPacifi",
        -10.504046100145686
      ],
      [
        "Ġalter",
        -10.504434377839026
      ],
      [
        "stock",
        -10.504697126100552
      ],
      [
        "Ġfriendl",
        -10.504834866304495
      ],
      [
        "mm",
        -10.505013378226153
      ],
      [
        "Ġdisabilit",
        -10.505203831443154
      ],
      [
        "ĠRed",
        -10.505588932056757
      ],
      [
        "ealing",
        -10.505684349945923
      ],
      [
        "Ġreaders",
        -10.505856923950455
      ],
      [
        "ĠType",
        -10.505920716583535
      ],
      [
        "un",
        -10.506256193954789
      ],
      [
        "Ġextract",
        -10.506365103502125
      ],
      [
        "Ġflour",
        -10.506503676455235
      ],
      [
        "Ġrotation",
        -10.506700066056109
      ],
      [
        "Ġnames",
        -10.50730756599479
      ],
      [
        "Ġchromosome",
        -10.507410846972991
      ],
      [
        "Ġtopics",
        -10.507710285110589
      ],
      [
        "ural",
        -10.508024200967798
      ],
      [
        "elling",
        -10.508769213664612
      ],
      [
        "Ġbiodiversity",
        -10.509298798245716
      ],
      [
        "ormally",
        -10.509345077882683
      ],
      [
        "Ġvibrant",
        -10.50949254054474
      ],
      [
        "ĠGeneral",
        -10.509824581749498
      ],
      [
        "Ġmath",
        -10.509946814752103
      ],
      [
        "therapy",
        -10.511166200401297
      ],
      [
        "Ġcooked",
        -10.511856680297363
      ],
      [
        "nstead",
        -10.512116823891194
      ],
      [
        "ĠHuman",
        -10.512174245143584
      ],
      [
        "Ġdate",
        -10.512317278674397
      ],
      [
        "Ġhappening",
        -10.512729089274783
      ],
      [
        "Ġswimming",
        -10.513443309502115
      ],
      [
        "Ġsell",
        -10.513580416516676
      ],
      [
        "look",
        -10.51425311586463
      ],
      [
        "science",
        -10.515454709064215
      ],
      [
        "ble",
        -10.51586577219808
      ],
      [
        "Ġusage",
        -10.516334167896758
      ],
      [
        "Ġdanger",
        -10.517191936990102
      ],
      [
        "Ġattribute",
        -10.51728979385567
      ],
      [
        "Ġde",
        -10.518403896150245
      ],
      [
        "Ġanswers",
        -10.51857884371852
      ],
      [
        "Ġdeeper",
        -10.518645517850754
      ],
      [
        "Ġemerge",
        -10.518832383110656
      ],
      [
        "Ġfail",
        -10.519250919383223
      ],
      [
        "Ġrough",
        -10.519769925237329
      ],
      [
        "ĠPower",
        -10.520072941142296
      ],
      [
        "Ġdownload",
        -10.520601430704309
      ],
      [
        "Ġstream",
        -10.520740974915151
      ],
      [
        "Ġequation",
        -10.521211795360712
      ],
      [
        "Ġclothes",
        -10.521360376650566
      ],
      [
        "want",
        -10.52154676472358
      ],
      [
        "ĠWhere",
        -10.52161838624628
      ],
      [
        "Ġanimation",
        -10.52227917123182
      ],
      [
        "Ġfamous",
        -10.522635167141946
      ],
      [
        "tic",
        -10.522686666753152
      ],
      [
        "ĠOcto",
        -10.523014043592845
      ],
      [
        "Ġpermanent",
        -10.523086382432544
      ],
      [
        "Ġantibiotic",
        -10.52319193328191
      ],
      [
        "ĠWhe",
        -10.523463635870886
      ],
      [
        "Ġgap",
        -10.523596549284136
      ],
      [
        "Ġfacilitate",
        -10.52399691399598
      ],
      [
        "Ġbranche",
        -10.524256606264808
      ],
      [
        "Ġfather",
        -10.524517088925029
      ],
      [
        "good",
        -10.524849745816972
      ],
      [
        "Ġdeposit",
        -10.525224400549892
      ],
      [
        "Ġpathway",
        -10.525286677518835
      ],
      [
        "Ġlearne",
        -10.525409446769306
      ],
      [
        "ĠConsider",
        -10.525411374228174
      ],
      [
        "Ġtropical",
        -10.525698215481448
      ],
      [
        "Ġphotography",
        -10.526301274640552
      ],
      [
        "Ġfinishe",
        -10.5264592984333
      ],
      [
        "Ġjobs",
        -10.52664532421978
      ],
      [
        "Ġpartner",
        -10.526770891698444
      ],
      [
        "Ġmodule",
        -10.52694446321438
      ],
      [
        "Ġorange",
        -10.527076060620114
      ],
      [
        "Ġrecover",
        -10.527703114653512
      ],
      [
        "Ġneck",
        -10.528189318458509
      ],
      [
        "Ġmassive",
        -10.528206802320236
      ],
      [
        "Ġdiamond",
        -10.528223612664217
      ],
      [
        "Ġspeech",
        -10.528677507018385
      ],
      [
        "Ġpolitical",
        -10.528700216515771
      ],
      [
        "Well",
        -10.52872885198769
      ],
      [
        "Understanding",
        -10.529122971059811
      ],
      [
        "Ġdirector",
        -10.529938015721848
      ],
      [
        "Safety",
        -10.53078615839996
      ],
      [
        "ested",
        -10.53117266699627
      ],
      [
        "Ġcovers",
        -10.531190317993882
      ],
      [
        "things",
        -10.532862128403805
      ],
      [
        "Ġadequate",
        -10.53287607186331
      ],
      [
        "Ġpeak",
        -10.533103167852635
      ],
      [
        "-size",
        -10.533179533267257
      ],
      [
        "Ġfollowe",
        -10.533293046551812
      ],
      [
        "Ġdebri",
        -10.534776854072376
      ],
      [
        "Z",
        -10.535365386121152
      ],
      [
        "ĠpH",
        -10.535913412807083
      ],
      [
        "Ġfix",
        -10.53621253071403
      ],
      [
        "Ġvertical",
        -10.536240711832749
      ],
      [
        "ĠHis",
        -10.537812718878776
      ],
      [
        "Ġacids",
        -10.53814873496898
      ],
      [
        "Ġsymbol",
        -10.539024415546743
      ],
      [
        "Ġsent",
        -10.540151240301928
      ],
      [
        "role",
        -10.54053162225901
      ],
      [
        "Ġhowev",
        -10.541245062703062
      ],
      [
        "Ġborder",
        -10.542374710721008
      ],
      [
        "culture",
        -10.542396201389174
      ],
      [
        "Ġraw",
        -10.542611337469337
      ],
      [
        "Ġbabies",
        -10.542721348824116
      ],
      [
        "read",
        -10.543042998494675
      ],
      [
        "Ġtrait",
        -10.543606393244572
      ],
      [
        "Ġdealing",
        -10.54468294874648
      ],
      [
        "Ġlaws",
        -10.545862589265392
      ],
      [
        "Ġturns",
        -10.546128129057124
      ],
      [
        "Ġadjustment",
        -10.546492548238565
      ],
      [
        "Ġmark",
        -10.546645620370937
      ],
      [
        "Ġmin",
        -10.54669837980318
      ],
      [
        "experience",
        -10.547814494609622
      ],
      [
        "ĠCounty",
        -10.54791874331832
      ],
      [
        "Ġhybrid",
        -10.548048019930665
      ],
      [
        "Ġbroad",
        -10.548074173010122
      ],
      [
        "Ġversatile",
        -10.54854534197035
      ],
      [
        "Don",
        -10.548897266319006
      ],
      [
        "does",
        -10.5496805917481
      ],
      [
        "ĠGuide",
        -10.549817515436878
      ],
      [
        "Ġnutritional",
        -10.550465137457545
      ],
      [
        "Ġinstalle",
        -10.550789475110772
      ],
      [
        "Ġpotato",
        -10.55140443431612
      ],
      [
        "Ġtrial",
        -10.551769715528431
      ],
      [
        "âĢ¦ĊĊ",
        -10.552524812507022
      ],
      [
        "Have",
        -10.552664446564831
      ],
      [
        "Ġbrush",
        -10.553338156963347
      ],
      [
        "Ġcamp",
        -10.55392506773647
      ],
      [
        "Ġprey",
        -10.554117614433164
      ],
      [
        "Ġcow",
        -10.55412117247034
      ],
      [
        "ĠGoogle",
        -10.554377401920398
      ],
      [
        "Ġbranch",
        -10.555374738686218
      ],
      [
        "come",
        -10.556172124286425
      ],
      [
        "âĢľ",
        -10.557467307734036
      ],
      [
        "llowed",
        -10.557618694234677
      ],
      [
        "Ġauthors",
        -10.55790898594086
      ],
      [
        "Ġmeter",
        -10.558103642833338
      ],
      [
        "Ġbaking",
        -10.559079687553137
      ],
      [
        "Ġrecorde",
        -10.559089824217883
      ],
      [
        "Ġcharacterize",
        -10.559474138917732
      ],
      [
        "date",
        -10.559494205173252
      ],
      [
        "ĠLook",
        -10.559911535130944
      ],
      [
        "Ġdelay",
        -10.560079087210536
      ],
      [
        "ĠProject",
        -10.56020629983162
      ],
      [
        "off",
        -10.560263855381764
      ],
      [
        "Ġsitting",
        -10.56028211778712
      ],
      [
        "Ġvolunteer",
        -10.560677786872407
      ],
      [
        "Â·",
        -10.560825182251444
      ],
      [
        "Ġresolution",
        -10.560944403314068
      ],
      [
        "Ġclasse",
        -10.56125295303864
      ],
      [
        "Ġprogramme",
        -10.56180945176003
      ],
      [
        "served",
        -10.562525779273216
      ],
      [
        "Ġsimulation",
        -10.563293192715316
      ],
      [
        "ĠTV",
        -10.563442196814275
      ],
      [
        "Ġsex",
        -10.563683125486325
      ],
      [
        "Ġcreatin",
        -10.564324301855375
      ],
      [
        "Ġnose",
        -10.565401523274602
      ],
      [
        "Ġmeasuring",
        -10.565608653655728
      ],
      [
        "Ġpuppy",
        -10.565691260169649
      ],
      [
        "Ġdiagram",
        -10.566086100089636
      ],
      [
        "Ġpress",
        -10.566177752832116
      ],
      [
        "Ġpresentation",
        -10.566385956785808
      ],
      [
        "Ġsales",
        -10.56828232319141
      ],
      [
        "course",
        -10.56856239322542
      ],
      [
        "security",
        -10.568718339200585
      ],
      [
        "Ġdive",
        -10.568914499377671
      ],
      [
        "Ġdelivery",
        -10.56891630431878
      ],
      [
        "Ġmild",
        -10.569562059422132
      ],
      [
        "Type",
        -10.56958118159758
      ],
      [
        "Ġinsect",
        -10.569689771591944
      ],
      [
        "Ġcustom",
        -10.570649391872571
      ],
      [
        "Ġskate",
        -10.570703150555431
      ],
      [
        "Ġedges",
        -10.570737078401883
      ],
      [
        "Ġcarrier",
        -10.571794261243486
      ],
      [
        "Ġd",
        -10.572333531516696
      ],
      [
        "Ġclimb",
        -10.572482978895422
      ],
      [
        "Ġrepeat",
        -10.572569393339313
      ],
      [
        "Ġouter",
        -10.57276983346232
      ],
      [
        "Ġwrote",
        -10.573274060793844
      ],
      [
        "Ġstring",
        -10.573289684248504
      ],
      [
        "Ġequipp",
        -10.57348501235756
      ],
      [
        "Ġshowe",
        -10.573511209320218
      ],
      [
        "Ġincome",
        -10.573629680426825
      ],
      [
        "Ġexplains",
        -10.574161762850746
      ],
      [
        "Ġnovel",
        -10.5744802148301
      ],
      [
        "Ġspirit",
        -10.574682027497245
      ],
      [
        "ĠIts",
        -10.57555102526504
      ],
      [
        "Ġcommitment",
        -10.57571650399063
      ],
      [
        "AND",
        -10.576355897051656
      ],
      [
        "came",
        -10.576504677706875
      ],
      [
        "Ġhole",
        -10.577008653958115
      ],
      [
        "Ġconcerned",
        -10.577611355189784
      ],
      [
        "Ġmanufacturers",
        -10.578906498300952
      ],
      [
        "data",
        -10.579205395185555
      ],
      [
        "ch",
        -10.579334556084133
      ],
      [
        "Ġmanager",
        -10.57940125812102
      ],
      [
        "Ġwor",
        -10.579520924598585
      ],
      [
        "ĠWork",
        -10.579666433770026
      ],
      [
        "king",
        -10.580628971142724
      ],
      [
        "Ġcheckbook",
        -10.580682247467694
      ],
      [
        "Ġwouldn",
        -10.580956168814655
      ],
      [
        "Ġinvestigate",
        -10.58112895898023
      ],
      [
        "Ġundergo",
        -10.581298396565709
      ],
      [
        "ĠBlue",
        -10.582666932465164
      ],
      [
        "Ġliver",
        -10.583277472503877
      ],
      [
        "Ġmoved",
        -10.583465330196264
      ],
      [
        "Ġknowing",
        -10.583940793760574
      ],
      [
        "Ġcampaign",
        -10.584109017876576
      ],
      [
        "Ġrespirator",
        -10.584661585100454
      ],
      [
        "Ġhealthie",
        -10.58477067690393
      ],
      [
        "after",
        -10.585537595977751
      ],
      [
        "Ġlift",
        -10.58559100682641
      ],
      [
        "Ġmanufacturer",
        -10.585916757255978
      ],
      [
        "Ġfeather",
        -10.586250810703184
      ],
      [
        "Ġstorie",
        -10.586364507705635
      ],
      [
        "Ġsexual",
        -10.586879109199636
      ],
      [
        "Ġseal",
        -10.587019822446546
      ],
      [
        "Ġoptimize",
        -10.587211365327876
      ],
      [
        "Ġtrained",
        -10.587324889959788
      ],
      [
        "ĠService",
        -10.587466477806846
      ],
      [
        "ĠWashington",
        -10.589234661621976
      ],
      [
        "Ġbathroom",
        -10.589940540415434
      ],
      [
        "Ġtruth",
        -10.59022982427316
      ],
      [
        "Ġdomain",
        -10.590842166246064
      ],
      [
        "Ġregulator",
        -10.590851692530252
      ],
      [
        "love",
        -10.591972762656878
      ],
      [
        "Ġchair",
        -10.592172096235135
      ],
      [
        "ĠStart",
        -10.592292148503166
      ],
      [
        "Ġmanufactur",
        -10.592739978223564
      ],
      [
        "Ġbehaviour",
        -10.593593954886334
      ],
      [
        "Ġsold",
        -10.593838647562768
      ],
      [
        "Ġpink",
        -10.594230137458087
      ],
      [
        "Ġsides",
        -10.594356194836834
      ],
      [
        "ĠLondon",
        -10.594487964984111
      ],
      [
        "Ġcollecte",
        -10.594773305583214
      ],
      [
        "Ġstability",
        -10.595445594584533
      ],
      [
        "Ġreached",
        -10.596178970645909
      ],
      [
        "ĠRemember",
        -10.596262595338558
      ],
      [
        "plants",
        -10.59698274783573
      ],
      [
        "Ġdepartment",
        -10.597061156025267
      ],
      [
        "Ġpromoting",
        -10.59749937676651
      ],
      [
        "Ġremarkabl",
        -10.59792477570285
      ],
      [
        "Ġstruggle",
        -10.598204228701164
      ],
      [
        "Ġseconds",
        -10.598963697658792
      ],
      [
        "Ġveterinarian",
        -10.599508205621298
      ],
      [
        "Ġbed",
        -10.600375034111408
      ],
      [
        "Ġedit",
        -10.600653104714311
      ],
      [
        ";Ċ",
        -10.601112300429689
      ],
      [
        "ĠNov",
        -10.601143599685338
      ],
      [
        "same",
        -10.60123663524726
      ],
      [
        "rising",
        -10.60133080378707
      ],
      [
        "Ġvector",
        -10.601406671764964
      ],
      [
        "Ġdynamic",
        -10.601501517215212
      ],
      [
        "Ġasking",
[...]
