{
  "version": "1.0",
  "truncation": null,
  "padding": null,
  "added_tokens": [
    {
      "id": 0,
      "content": "<|bos|>",
      "single_word": false,
      "lstrip": false,
      "rstrip": false,
      "normalized": false,
      "special": true
    },
    {
      "id": 1,
      "content": "<|user_start|>",
      "single_word": false,
      "lstrip": false,
      "rstrip": false,
      "normalized": false,
      "special": true
    },
    {
      "id": 2,
      "content": "<|user_end|>",
      "single_word": false,
      "lstrip": false,
      "rstrip": false,
      "normalized": false,
      "special": true
    },
    {
      "id": 3,
      "content": "<|assistant_start|>",
      "single_word": false,
      "lstrip": false,
      "rstrip": false,
      "normalized": false,
      "special": true
    },
    {
      "id": 4,
      "content": "<|assistant_end|>",
      "single_word": false,
      "lstrip": false,
      "rstrip": false,
      "normalized": false,
      "special": true
    },
    {
      "id": 5,
      "content": "<|python_start|>",
      "single_word": false,
      "lstrip": false,
      "rstrip": false,
      "normalized": false,
      "special": true
    },
    {
      "id": 6,
      "content": "<|python_end|>",
      "single_word": false,
      "lstrip": false,
      "rstrip": false,
      "normalized": false,
      "special": true
    },
    {
      "id": 7,
      "content": "<|output_start|>",
      "single_word": false,
      "lstrip": false,
      "rstrip": false,
      "normalized": false,
      "special": true
    },
    {
      "id": 8,
      "content": "<|output_end|>",
      "single_word": false,
      "lstrip": false,
      "rstrip": false,
      "normalized": false,
      "special": true
    },
    {
      "id": 9,
      "content": "<|unk|>",
      "single_word": false,
      "lstrip": false,
      "rstrip": false,
      "normalized": false,
      "special": true
    }
  ],
  "normalizer": null,
  "pre_tokenizer": {
    "type": "Sequence",
    "pretokenizers": [
      {
        "type": "Split",
        "pattern": {
          "Regex": "'(?i:[sdmt]|ll|ve|re)|[^\\r\\n\\p{L}\\p{N}]?+\\p{L}+|\\p{N}{1,2}| ?[^\\s\\p{L}\\p{N}]++[\\r\\n]*|\\s*[\\r\\n]|\\s+(?!\\S)|\\s+"
        },
        "behavior": "Isolated",
        "invert": false
      },
      {
        "type": "ByteLevel",
        "add_prefix_space": false,
        "trim_offsets": true,
        "use_regex": false
      }
    ]
  },
  "post_processor": {
    "type": "TemplateProcessing",
    "single": [
      {
        "Sequence": {
          "id": "A",
          "type_id": 0
        }
      }
    ],
    "pair": [
      {
        "Sequence": {
          "id": "A",
          "type_id": 0
        }
      },
      {
        "Sequence": {
          "id": "B",
          "type_id": 1
        }
      }
    ],
    "special_tokens": {}
  },
  "decoder": null,
  "model": {
    "type": "Unigram",
    "unk_id": 9,
    "vocab": [
      [
        "<|bos|>",
        0.0
      ],
      [
        "<|user_start|>",
        0.0
      ],
      [
        "<|user_end|>",
        0.0
      ],
      [
        "<|assistant_start|>",
        0.0
      ],
      [
        "<|assistant_end|>",
        0.0
      ],
      [
        "<|python_start|>",
        0.0
      ],
      [
        "<|python_end|>",
        0.0
      ],
      [
        "<|output_start|>",
        0.0
      ],
      [
        "<|output_end|>",
        0.0
      ],
      [
        "<|unk|>",
        0.0
      ],
      [
        "s",
        -3.0920098119753305
      ],
      [
        "Ġ",
        -3.201864107290154
      ],
      [
        "Ġthe",
        -3.377615116912972
      ],
      [
        ",",
        -3.4361702065002184
      ],
      [
        ".",
        -3.73188088101271
      ],
      [
        "Ġand",
        -3.931503321506769
      ],
      [
        "Ġto",
        -3.962848351405814
      ],
      [
        "Ġof",
        -3.980953531438334
      ],
      [
        "a",
        -4.034262146418227
      ],
      [
        "ing",
        -4.346373520096353
      ],
      [
        "Ġin",
        -4.486533492338523
      ],
      [
        "Ġis",
        -4.585785985411016
      ],
      [
        "'",
        -4.886844697695047
      ],
      [
        "ed",
        -4.899328870583247
      ],
      [
        "d",
        -4.96274302319841
      ],
      [
        "Ġthat",
        -4.993945274670217
      ],
      [
        "Ġfor",
        -5.026690805010007
      ],
      [
        "0",
        -5.055887318827356
      ],
      [
        "y",
        -5.064883540620263
      ],
      [
        "ly",
        -5.116801614358174
      ],
      [
        "1",
        -5.19076052620481
      ],
      [
        "Ġare",
        -5.209098324281488
      ],
      [
        ":",
        -5.237194298812183
      ],
      [
        "Ġyou",
        -5.261957487777217
      ],
      [
        "Ġit",
        -5.276580704289721
      ],
      [
        ".Ċ",
        -5.290180635429172
      ],
      [
        "Ġwith",
        -5.294933669350234
      ],
      [
        ".ĊĊ",
        -5.307786709051539
      ],
      [
        "Ċ",
        -5.3450070641516465
      ],
      [
        "2",
        -5.412007330390223
      ],
      [
        "e",
        -5.42571158893171
      ],
      [
        "Ġbe",
        -5.433910895156561
      ],
      [
        "Ġon",
        -5.457130992271013
      ],
      [
        "Ġor",
        -5.473193956801801
      ],
      [
        "Ġcan",
        -5.490971625955009
      ],
      [
        "Ġas",
        -5.533419646414574
      ],
      [
        "t",
        -5.628382514148079
      ],
      [
        "Ġyour",
        -5.629343924463919
      ],
      [
        "ĊĊ",
        -5.66125672666506
      ],
      [
        "-",
        -5.694901526319542
      ],
      [
        "Ġ(",
        -5.759540688558957
      ],
      [
        "Ġhave",
        -5.863312447401496
      ],
      [
        "\"",
        -5.874474551433016
      ],
      [
        "Ġfrom",
        -5.8828586525146065
      ],
      [
        "ĠI",
        -5.916023891248285
      ],
      [
        "ĠThe",
        -5.927654842850345
      ],
      [
        "Ġby",
        -5.969023403266435
      ],
      [
        ")",
        -5.978462647008108
      ],
      [
        "Ġan",
        -6.0085769580742525
      ],
      [
        "Ġthis",
        -6.019150432209045
      ],
      [
        "3",
        -6.041176396851794
      ],
      [
        "Ġnot",
        -6.077995556665655
      ],
      [
        "?",
        -6.097410649533336
      ],
      [
        "Ġat",
        -6.0992588918868496
      ],
      [
        "5",
        -6.128189396774552
      ],
      [
        "Ġwill",
        -6.1649736118740375
      ],
      [
        "Ġtheir",
        -6.20656059354719
      ],
      [
        "n",
        -6.269110798885684
      ],
      [
        "4",
        -6.292266420597798
      ],
      [
        "Ġmore",
        -6.312756699715029
      ],
      [
        "Ġthey",
        -6.323564545781549
      ],
      [
        "Ġwas",
        -6.4003393045344446
      ],
      [
        "9",
        -6.404337435049644
      ],
      [
        "The",
        -6.4319941708682435
      ],
      [
        "Ġbut",
        -6.462037252765439
      ],
      [
        "Ġhas",
        -6.472426435191588
      ],
      [
        "Ġwhich",
        -6.495044387730058
      ],
      [
        "Ġone",
        -6.520067314942505
      ],
      [
        "Ġwe",
        -6.534385708423921
      ],
      [
        "Ġother",
        -6.537791104216593
      ],
      [
        "6",
        -6.555340026184888
      ],
      [
        "Ġalso",
        -6.562820767656417
      ],
      [
        "ies",
        -6.5871205926958165
      ],
      [
        "Question",
        -6.588906791966714
      ],
      [
        "8",
        -6.591883489271362
      ],
      [
        "ĠAnswer",
        -6.608933983433285
      ],
      [
        "Ġlike",
        -6.638365097291061
      ],
      [
        "Ġall",
        -6.638982540252053
      ],
      [
        "Ġabout",
        -6.6597925936817095
      ],
      [
        "Ġwhen",
        -6.704907870850741
      ],
      [
        "Ġif",
        -6.72027377457759
      ],
      [
        "7",
        -6.724040116744545
      ],
      [
        "ĠIt",
        -6.726724523474145
      ],
      [
        "Ġtime",
        -6.755704728739996
      ],
      [
        "Ġthem",
        -6.762623472042417
      ],
      [
        "Ġneed",
        -6.781911167943797
      ],
      [
        "Ġuse",
        -6.782607211435941
      ],
      [
        "Ġdo",
        -6.785860623520076
      ],
      [
        "Ġinto",
        -6.796975325868349
      ],
      [
        "Ġmay",
        -6.817181337496558
      ],
      [
        "Ġsome",
        -6.832038726297009
      ],
      [
        "Ġso",
        -6.835900555062315
      ],
      [
        "Ġup",
        -6.8399741006152315
      ],
      [
        "ĠA",
        -6.847838420848705
      ],
      [
        "ĠThis",
        -6.851361090075244
      ],
      [
        "Ġthan",
        -6.893532581371897
      ],
      [
        "Ġout",
        -6.927660385902987
      ],
      [
        "ĠWhat",
        -6.9303436904032605
      ],
      [
        "o",
        -6.933230548548607
      ],
      [
        "Ġthere",
        -6.936544389237579
      ],
      [
        "Ġhow",
        -6.946564394053313
      ],
      [
        "Ġthese",
        -6.960196335556507
      ],
      [
        "i",
        -6.984326776387107
      ],
      [
        "Ġget",
        -7.008384769187403
      ],
      [
        "Ġmake",
        -7.008884248695354
      ],
      [
        "Ġwater",
        -7.016393028332203
      ],
      [
        "m",
        -7.0203861313399525
      ],
      [
        "Ġmost",
        -7.020594823925485
      ],
      [
        "Ġused",
        -7.026281380309696
      ],
      [
        "Ġwhat",
        -7.035629231212408
      ],
      [
        "r",
        -7.039602360092136
      ],
      [
        "Ġany",
        -7.065484243538931
      ],
      [
        "Ġour",
        -7.065624166169142
      ],
      [
        "on",
        -7.074274884808975
      ],
      [
        "Ġsuch",
        -7.109136592886141
      ],
      [
        "er",
        -7.109358710460379
      ],
      [
        "ĠIn",
        -7.1148008021467835
      ],
      [
        "able",
        -7.122051336028999
      ],
      [
        "A",
        -7.1228821880324205
      ],
      [
        "Ġhelp",
        -7.13253823674026
      ],
      [
        "Ġpeople",
        -7.1380579816405785
      ],
      [
        "Ġwere",
        -7.148789260751743
      ],
      [
        "Ġbeen",
        -7.154683780080161
      ],
      [
        "Ġwho",
        -7.175189250210099
      ],
      [
        "Ġnew",
        -7.1842707029200135
      ],
      [
        "Ġshould",
        -7.193049565592537
      ],
      [
        "Ġthrough",
        -7.193727549035417
      ],
      [
        "re",
        -7.196905446674224
      ],
      [
        "Ġwould",
        -7.200825383661556
      ],
      [
        ";",
        -7.231746755840341
      ],
      [
        "/",
        -7.241392788135798
      ],
      [
        "Ġjust",
        -7.246275454094759
      ],
      [
        "Ġits",
        -7.255956173862671
      ],
      [
        "Ġonly",
        -7.261704030585015
      ],
      [
        "Ġmany",
        -7.271367791714855
      ],
      [
        "Ġmy",
        -7.278543057217032
      ],
      [
        "Ġwork",
        -7.296258071966808
      ],
      [
        "Ġwell",
        -7.298189910310839
      ],
      [
        "Ġfirst",
        -7.328666879393779
      ],
      [
        "Ġtwo",
        -7.33301910616669
      ],
      [
        "Ġhigh",
        -7.338724668403827
      ],
      [
        "I",
        -7.348705567721048
      ],
      [
        "Ġway",
        -7.361776381315394
      ],
      [
        "Ġover",
        -7.36619265842717
      ],
      [
        "?Ċ",
        -7.370009158109552
      ],
      [
        "Ġdifferent",
        -7.390140504152519
      ],
      [
        "Ġwhere",
        -7.396299367513805
      ],
      [
        "ĠIf",
        -7.41488522891567
      ],
      [
        "Ġusing",
        -7.421401469559683
      ],
      [
        "Ġtake",
        -7.425256326001819
      ],
      [
        "Ġno",
        -7.436690889188405
      ],
      [
        "Ġcould",
        -7.440297516760426
      ],
      [
        "Ġeven",
        -7.446542969024634
      ],
      [
        "Ġbetween",
        -7.447706680348675
      ],
      [
        "Ġbecause",
        -7.460114242888247
      ],
      [
        "Ġprovide",
        -7.46512123650489
      ],
      [
        "Ġlook",
        -7.472403986654765
      ],
      [
        "Ġvery",
        -7.493990637774763
      ],
      [
        "l",
        -7.496955921878431
      ],
      [
        "Ġpart",
        -7.501225392804299
      ],
      [
        "out",
        -7.503869698347877
      ],
      [
        "Ġsystem",
        -7.525769479449879
      ],
      [
        "Ġeach",
        -7.543496439573989
      ],
      [
        "Ġgood",
        -7.561103036733185
      ],
      [
        "Ġmuch",
        -7.562944354216228
      ],
      [
        "Ġwant",
        -7.563735041719978
      ],
      [
        "Ġhealth",
        -7.564856014700199
      ],
      [
        "Ġimportant",
        -7.571514711584861
      ],
      [
        "Ġknow",
        -7.572358130424977
      ],
      [
        "al",
        -7.579841861661121
      ],
      [
        "ĠThey",
        -7.586821348700431
      ],
      [
        "ĠYou",
        -7.588184190660877
      ],
      [
        "!",
        -7.589481901102911
      ],
      [
        "Ġhad",
        -7.590629039778095
      ],
      [
        "Ġdoes",
        -7.591964225903229
      ],
      [
        "ity",
        -7.601433069341022
      ],
      [
        "Ġhe",
        -7.601621169213461
      ],
      [
        "ĠâĢĵ",
        -7.604399856172043
      ],
      [
        "Ġcause",
        -7.608871288965965
      ],
      [
        "Ġfood",
        -7.618892977724169
      ],
      [
        "?ĊĊ",
        -7.619884079418208
      ],
      [
        "Ġwhile",
        -7.631341996296943
      ],
      [
        "In",
        -7.634465405025242
      ],
      [
        "Ġevery",
        -7.636515051040661
      ],
      [
        "Ġlong",
        -7.637071625535828
      ],
      [
        "Ġhis",
        -7.638006770640139
      ],
      [
        "Ġsee",
        -7.641893159395714
      ],
      [
        "Ġsmall",
        -7.644249737257093
      ],
      [
        "Ġdon",
        -7.650706603781476
      ],
      [
        "ĠC",
        -7.656355797750772
      ],
      [
        "Ġyears",
        -7.66577000578758
      ],
      [
        "Ġafter",
        -7.668206348747592
      ],
      [
        "Ġnumber",
        -7.673210978771946
      ],
      [
        "ve",
        -7.681887678160264
      ],
      [
        "around",
        -7.701995856167626
      ],
      [
        "Ġbefore",
        -7.702781898980268
      ],
      [
        "Ġfollow",
        -7.708488374589992
      ],
      [
        "c",
        -7.711045851332134
      ],
      [
        ").",
        -7.714863716074834
      ],
      [
        "Ġworld",
        -7.725044300551541
      ],
      [
        "Ġduring",
        -7.728438185538751
      ],
      [
        "Ġprocess",
        -7.732139411319453
      ],
      [
        "Ġsame",
        -7.736980223048363
      ],
      [
        "Ġcome",
        -7.737591988667061
      ],
      [
        "Ġlevel",
        -7.742704841156964
      ],
      [
        "Ġbody",
        -7.743042798048744
      ],
      [
        "Ġbeing",
        -7.762718472581399
      ],
      [
        "those",
        -7.764244210765385
      ],
      [
        "Ġreal",
        -7.766368379904064
      ],
      [
        "Ġoften",
        -7.775013512990057
      ],
      [
        "Ġbest",
        -7.77929705420415
      ],
      [
        "Ġback",
        -7.779727684642083
      ],
      [
        "(",
        -7.785499008468756
      ],
      [
        "Ġright",
        -7.79389037945448
      ],
      [
        "Ġlife",
        -7.81010717541233
      ],
      [
        "Ġfind",
        -7.814556942941669
      ],
      [
        "Ġfound",
        -7.820385358992835
      ],
      [
        "Ġkeep",
        -7.8208260826156
      ],
      [
        "What",
        -7.831095817782645
      ],
      [
        "Ġcommon",
        -7.832970687421655
      ],
      [
        "Ġyear",
        -7.842468306675659
      ],
      [
        "Ġmade",
        -7.844079844890441
      ],
      [
        "Ġexperience",
        -7.846490690710317
      ],
      [
        "Ġpower",
        -7.850601677367244
      ],
      [
        "Ġday",
        -7.853476480433654
      ],
      [
        "Ġdata",
        -7.855108260059007
      ],
      [
        "Ġboth",
        -7.8567873774012895
      ],
      [
        "Ġenergy",
        -7.85680733428304
      ],
      [
        "Ġdown",
        -7.86904842396169
      ],
      [
        "Ġexample",
        -7.875847555905871
      ],
      [
        "ĠFor",
        -7.878927880817299
      ],
      [
        "%",
        -7.879545787412278
      ],
      [
        "Ġsaid",
        -7.883109087568046
      ],
      [
        "Ġincrease",
        -7.890700065783429
      ],
      [
        "Ġchange",
        -7.892428767899855
      ],
      [
        "Ġstart",
        -7.902727786503656
      ],
      [
        "Ġdog",
        -7.902918168132546
      ],
      [
        "),",
        -7.903714312896202
      ],
      [
        "Ġplant",
        -7.907103129046685
      ],
      [
        "Ġinformation",
        -7.907207120475153
      ],
      [
        "Ġher",
        -7.908933857749835
      ],
      [
        "ness",
        -7.913355399443695
      ],
      [
        "um",
        -7.923427082341615
      ],
      [
        ":Ċ",
        -7.924453570635274
      ],
      [
        "Ġgo",
        -7.925651263608717
      ],
      [
        "Ġlight",
        -7.935028982094094
      ],
      [
        "ll",
        -7.936942065961738
      ],
      [
        "in",
        -7.948378866002258
      ],
      [
        "Ġhome",
        -7.949299016844812
      ],
      [
        "Ġus",
        -7.955851017989655
      ],
      [
        "Ġform",
        -7.956859661796912
      ],
      [
        "ability",
        -7.958625138939258
      ],
      [
        "Ġoff",
        -7.969697572741632
      ],
      [
        "Ġmight",
        -7.971587353055485
      ],
      [
        "Ġthink",
        -7.972578180131956
      ],
      [
        "Ġplace",
        -7.97889162951882
      ],
      [
        "This",
        -7.978957929398215
      ],
      [
        "Ġfew",
        -7.982426197118688
      ],
      [
        "Ġstudents",
        -7.990825090797298
      ],
      [
        "Ġdevelop",
        -7.990861262043545
      ],
      [
        "Ġspecies",
        -7.9917953003841
      ],
      [
        "Ġgreat",
        -7.992319667089202
      ],
      [
        "ĠThese",
        -7.993248725645243
      ],
      [
        "Ġnow",
        -7.993712657163478
      ],
      [
        "Ġown",
        -7.995748449893187
      ],
      [
        "If",
        -7.997070290129679
      ],
      [
        "Ġresearch",
        -7.997731045776016
      ],
      [
        "Ġme",
        -7.998206550362419
      ],
      [
        "ĠWe",
        -8.000294160694294
      ],
      [
        "h",
        -8.00157781104479
      ],
      [
        "Ġbetter",
        -8.002189354963207
      ],
      [
        "Ġair",
        -8.003124733073586
      ],
      [
        "us",
        -8.007215926648927
      ],
      [
        "is",
        -8.01742768822711
      ],
      [
        "Ġcase",
        -8.02154142342887
      ],
      [
        "Ġstill",
        -8.03246981777042
      ],
      [
        "Ġstudy",
        -8.037212548041296
      ],
      [
        "Ġtoo",
        -8.038645655802716
      ],
      [
        "Ġmaking",
        -8.0424650354222
      ],
      [
        "ĠTo",
        -8.04425877986349
      ],
      [
        "Ġsupport",
        -8.049627456842241
      ],
      [
        "Ġcreate",
        -8.054785001078487
      ],
      [
        "Ġless",
        -8.058782330288093
      ],
      [
        "Ġtype",
        -8.061692096736003
      ],
      [
        "Ġplants",
        -8.06451397558747
      ],
      [
        "Ġhuman",
        -8.069116695760115
      ],
      [
        "Ġset",
        -8.076055365623818
      ],
      [
        "Ġcontrol",
        -8.076719392985954
      ],
      [
        "S",
        -8.081502236010914
      ],
      [
        "âĢĻ",
        -8.081758895436034
      ],
      [
        "Ġlarge",
        -8.084255218153418
      ],
      [
        "Ġincluding",
        -8.088472864750436
      ],
      [
        "How",
        -8.093772931909411
      ],
      [
        "Ġvalue",
        -8.095850084719547
      ],
      [
        "Ġgive",
        -8.097413969527487
      ],
      [
        "ation",
        -8.097800471929288
      ],
      [
        "It",
        -8.10403204154538
      ],
      [
        ":ĊĊ",
        -8.106675302266245
      ],
      [
        "Ġsure",
        -8.106782457228778
      ],
      [
        "Ġthree",
        -8.115400048932619
      ],
      [
        "g",
        -8.11698549912832
      ],
      [
        "Ġpressure",
        -8.118562647261394
      ],
      [
        "Ġdesign",
        -8.123604412734915
      ],
      [
        "Ġcurrent",
        -8.125242922770987
      ],
      [
        "...",
        -8.128101660057997
      ],
      [
        "Ġnatural",
        -8.129610869926818
      ],
      [
        "Ġknown",
        -8.132050151987126
      ],
      [
        "ĠBut",
        -8.134108985708334
      ],
      [
        "Ġunder",
        -8.139104537678568
      ],
      [
        "Ġdisease",
        -8.140265434222844
      ],
      [
        "Ġblood",
        -8.141107498324198
      ],
      [
        "Ġprevent",
        -8.142598480428004
      ],
      [
        "Ġchildren",
        -8.143928827209475
      ],
      [
        "D",
        -8.145665011274442
      ],
      [
        "Ġlead",
        -8.152330712056417
      ],
      [
        "Ġend",
        -8.157424965512778
      ],
      [
        "Ġpotential",
        -8.158112325625149
      ],
      [
        "Ġtest",
        -8.159103103695198
      ],
      [
        "Ġlot",
        -8.160228972273995
      ],
      [
        "ĠHowever",
        -8.161042856550498
      ],
      [
        "Ġlearn",
        -8.165697913394636
      ],
      [
        "Ġensure",
        -8.166042339129444
      ],
      [
        "Ġoffer",
        -8.167163655489858
      ],
      [
        "Ġthings",
        -8.170412189431586
      ],
      [
        "Ġmust",
        -8.179467383608621
      ],
      [
        "why",
        -8.183101073189214
      ],
      [
        "Ġheat",
        -8.185763790580728
      ],
      [
        "Ġinclude",
        -8.187379549717376
      ],
      [
        "ic",
        -8.187671872754587
      ],
      [
        "Ġrisk",
        -8.188731663728452
      ],
      [
        "âĢĶ",
        -8.188754219898383
      ],
      [
        "ĠB",
        -8.189832619699294
      ],
      [
        "ĠAnd",
        -8.190831757545789
      ],
      [
        "Ġmodel",
        -8.191736875752714
      ],
      [
        "Ġper",
        -8.197684049086543
      ],
      [
        "Ġtry",
        -8.204461667727386
      ],
      [
        "Ġsomething",
        -8.208211326198791
      ],
      [
        "Ġwithin",
        -8.217308175817905
      ],
      [
        "Ġenvironment",
        -8.21995946604232
      ],
      [
        "ĠWhen",
        -8.223836410148193
      ],
      [
        "ment",
        -8.226657293869893
      ],
      [
        "Ġcalled",
        -8.22728955249814
      ],
      [
        "Ġshe",
        -8.230505694498227
      ],
      [
        "Ġindividual",
        -8.233019870265341
      ],
      [
        "Ġlow",
        -8.234740560163988
      ],
      [
        "and",
        -8.23738911228558
      ],
      [
        "Ġbecome",
        -8.244323788381017
      ],
      [
        "Ġadd",
        -8.244442612515446
      ],
      [
        "Ġun",
        -8.246841498246035
      ],
      [
        "ĠHow",
        -8.248504865393635
      ],
      [
        "Ġcare",
        -8.25438487531724
      ],
      [
        "Ġfunction",
        -8.256420890859285
      ],
      [
        "Ġanother",
        -8.261288025081777
      ],
      [
        "th",
        -8.261556058322345
      ],
      [
        "Ġpossible",
        -8.26506019575125
      ],
      [
        "Ġfactor",
        -8.26743705998657
      ],
      [
        "Ġdue",
        -8.267821303033902
      ],
      [
        "Ġname",
        -8.269778620633243
      ],
      [
        "Ġeffective",
        -8.270966498662377
      ],
      [
        "Ġamount",
        -8.271483065372301
      ],
      [
        "Ġreason",
        -8.271670704895696
      ],
      [
        "Ġreduce",
        -8.272047490912241
      ],
      [
        "Ġlast",
        -8.273205708793077
      ],
      [
        "Ġpoint",
        -8.274011276194122
      ],
      [
        "Ġcar",
        -8.275007310115337
      ],
      [
        "Ġrange",
        -8.275439381398748
      ],
      [
        "Ġsize",
        -8.276879589544098
      ],
      [
        "Ġtreatment",
        -8.281451228743636
      ],
      [
        "p",
        -8.285646711697115
      ],
      [
        "Ġgoing",
        -8.288184178346095
      ],
      [
        "Ġcolor",
        -8.290650904925759
      ],
      [
        "ĠThere",
        -8.29359308303494
      ],
      [
        "Ġalway",
        -8.293888305471508
      ],
      [
        "Ġclose",
        -8.296950592060671
      ],
      [
        "Ġlittle",
        -8.300053727130564
      ],
      [
        "Ġorder",
        -8.301567531514634
      ],
      [
        "Ġperson",
        -8.305110538047957
      ],
      [
        "ĠS",
        -8.306661264471401
      ],
      [
        "Ġplay",
        -8.307339502065048
      ],
      [
        "Ġsurface",
        -8.308815276177029
      ],
      [
        "Ġvarious",
        -8.312317775816346
      ],
      [
        "Ġimpact",
        -8.31388619354708
      ],
      [
        "Ġspace",
        -8.318668142716682
      ],
      [
        "Ġsecond",
        -8.318865957758504
      ],
      [
        "Ġhere",
        -8.320233450311406
      ],
      [
        "the",
        -8.324524189397945
      ],
      [
        "Ġfish",
        -8.325305820256066
      ],
      [
        "Ġtemperature",
        -8.32861678797883
      ],
      [
        "Ġspecific",
        -8.3306177187455
      ],
      [
        "Ġallow",
        -8.333677347809559
      ],
      [
        "Ġstate",
        -8.333791419958594
      ],
      [
        "est",
        -8.335933906614962
      ],
      [
        "Ġrequire",
        -8.336452294176866
      ],
      [
        "Ġsoil",
        -8.338368108093238
      ],
      [
        "Ġshow",
        -8.355229598921863
      ],
      [
        "Ġlearning",
        -8.358856221084142
      ],
      [
        "an",
        -8.363271632800672
      ],
      [
        "Ġavailable",
        -8.364117864337832
      ],
      [
        "Ġcat",
        -8.366849411944958
      ],
      [
        "Ġproblem",
        -8.367313838215164
      ],
      [
        "ĠSo",
        -8.37064396765606
      ],
      [
        "land",
        -8.374240657642957
      ],
      [
        "Ġmeans",
        -8.379258749046533
      ],
      [
        "Ġcells",
        -8.379876866987166
      ],
      [
        "C",
        -8.38188337615178
      ],
      [
        "Ġimprove",
        -8.383040029523876
      ],
      [
        "Ġresult",
        -8.383859751066712
      ],
      [
        "Ġuser",
        -8.391489946077652
      ],
      [
        "Ġschool",
        -8.392340169841551
      ],
      [
        "Ġside",
        -8.395378903311947
      ],
      [
        "f",
        -8.397371545072915
      ],
      [
        "Ġquality",
        -8.39833621533834
      ],
      [
        "Ġusually",
        -8.400316182618077
      ],
      [
        "Ġdid",
        -8.40066349162485
      ],
      [
        ",\"",
        -8.400792835009055
      ],
      [
        "x",
        -8.404286354499309
      ],
      [
        "Ġhard",
        -8.407272225506736
      ],
      [
        "Ġleave",
        -8.407908413769265
      ],
      [
        "ĠWhich",
        -8.40995640843174
      ],
      [
        "Ġenough",
        -8.411702820803942
      ],
      [
        "Ġcourse",
        -8.416197568731873
      ],
      [
        "Ġconsider",
        -8.41639584112331
      ],
      [
        "b",
        -8.4164289255324
      ],
      [
        "Ġfeel",
        -8.416506718271945
      ],
      [
        "Ġlive",
        -8.416987845440472
      ],
      [
        "Ġweight",
        -8.42187501492689
      ],
      [
        "Ġmain",
        -8.422001716778034
      ],
      [
        "ion",
        -8.42318842794201
      ],
      [
        "less",
        -8.425231437751656
      ],
      [
        "or",
        -8.425945715229844
      ],
      [
        "Ġseveral",
        -8.427395903525694
      ],
      [
        "Ġsignificant",
        -8.428040875984161
      ],
      [
        "Ġpresent",
        -8.435367328043336
      ],
      [
        "Ġput",
        -8.439336121906102
      ],
      [
        "Ġareas",
        -8.447112882821418
      ],
      [
        "Ġessential",
        -8.448111894773298
      ],
      [
        "Ġtypes",
        -8.451433938209224
      ],
      [
        "Ġmanage",
        -8.45513199976314
      ],
      [
        "When",
        -8.460748460447611
      ],
      [
        "Ġunderstand",
        -8.461009572162347
      ],
      [
        "Ġoption",
        -8.461223361475826
      ],
      [
        "Ġ&",
        -8.461978161159703
      ],
      [
        "based",
        -8.462333281538246
      ],
      [
        "Ġdifference",
        -8.466158557970093
      ],
      [
        "Ġparticular",
        -8.470505233434348
      ],
      [
        "Ġdamage",
        -8.47195512306481
      ],
      [
        "Ġopen",
        -8.47199179877023
      ],
      [
        "Ġchild",
        -8.474992964223176
      ],
      [
        "*",
        -8.476016400299898
      ],
      [
        "Ġteam",
        -8.478435465690914
      ],
      [
        "le",
        -8.47856453772891
      ],
      [
        "Ġeat",
        -8.479626864777071
      ],
      [
        "Ġdevelopment",
        -8.481343389202875
      ],
      [
        "Ġarea",
        -8.482360068268946
      ],
      [
        "Ġtechnology",
        -8.48256790514025
      ],
      [
        "Ġterm",
        -8.483717582621951
      ],
      [
        "Ġconditions",
        -8.489271881812924
      ],
      [
        "having",
        -8.489339816476743
      ],
      [
        "Ġmaterial",
        -8.491984100380268
      ],
      [
        "Ġoil",
        -8.49262530939749
      ],
      [
        "Ġdiet",
        -8.492803112112092
      ],
      [
        "Ġfamily",
        -8.496015694363429
      ],
      [
        "Ġnext",
        -8.49606022899506
      ],
      [
        "ĠAs",
        -8.500532560878614
      ],
      [
        "ally",
        -8.504482173356731
      ],
      [
        "Ġanimals",
        -8.505228495251385
      ],
      [
        "]",
        -8.506235634372816
      ],
      [
        "Ġmethod",
        -8.50651026622632
      ],
      [
        "Ġtop",
        -8.508367993909562
      ],
      [
        "Ġaway",
        -8.511681098592362
      ],
      [
        "Ġfree",
        -8.51976024918408
      ],
      [
        "Ġage",
        -8.522381470009307
      ],
      [
        "age",
        -8.523316664421035
      ],
      [
        "Ġstructure",
        -8.5242222335343
      ],
      [
        "Ġtext",
        -8.524551300775862
      ],
      [
        "Ġplan",
        -8.52768585714353
      ],
      [
        "While",
        -8.529210692313937
      ],
      [
        "Ġthing",
        -8.530069633055533
      ],
      [
        "Ġmaterials",
        -8.53009597032645
      ],
      [
        "Ġtogether",
        -8.536597485559799
      ],
      [
        "Ġsafe",
        -8.537370375488958
      ],
      [
        "Ġfull",
        -8.537619973796584
      ],
      [
        "Ġsay",
        -8.539164327348548
      ],
      [
        "Ġgroup",
        -8.540587121012967
      ],
      [
        "Ġmaintain",
        -8.541977604826782
      ],
      [
        "Ġsince",
        -8.542626125104565
      ],
      [
        "Ġeye",
        -8.545554655951918
      ],
      [
        "Ġalong",
        -8.546447343791574
      ],
      [
        "Ġfocus",
        -8.54645837435508
      ],
      [
        "Ġlower",
        -8.546560153357518
      ],
      [
        "Ġgame",
        -8.546801126009843
      ],
      [
        "Ġproject",
        -8.546908864947817
      ],
      [
        "self",
        -8.54715807669169
      ],
      [
        "Ġkey",
        -8.54833540096011
      ],
      [
        "Ġlocal",
        -8.549093587285462
      ],
      [
        "Ġuntil",
        -8.550188379461078
      ],
      [
        "Ġ$",
        -8.553025708125013
      ],
      [
        "Ġgarden",
        -8.55325941997678
      ],
      [
        "Ġleast",
        -8.554157289783419
      ],
      [
        "Ġsimple",
        -8.554269373835204
      ],
      [
        "Ġgrow",
        -8.557909676754399
      ],
      [
        "Ġ=",
        -8.558562514471497
      ],
      [
        "Ġseem",
        -8.559008791564477
      ],
      [
        "Ġshort",
        -8.559011313409453
      ],
      [
        "Ġapplication",
        -8.55984513535321
      ],
      [
        "Ġlet",
        -8.560241918607183
      ],
      [
        "Ġsystems",
        -8.560993888406268
      ],
      [
        "Ġwide",
        -8.561837348420651
      ],
      [
        "Ġaffect",
        -8.562384558476005
      ],
      [
        "Ġcost",
        -8.562907541172322
      ],
      [
        "Ġlove",
        -8.56409695863958
      ],
      [
        "ĠD",
        -8.567544949163919
      ],
      [
        "Ġcontain",
        -8.567610399597655
      ],
      [
        "Ġearly",
        -8.567667945374822
      ],
      [
        "ĠThat",
        -8.57092039460666
      ],
      [
        "Ġmeasure",
        -8.573097827514768
      ],
      [
        "Ġhand",
        -8.576151404410538
      ],
      [
        "Ġvideo",
        -8.578628544151162
      ],
      [
        "Ġrole",
        -8.579297962650724
      ],
      [
        "ĠT",
        -8.579899534685854
      ],
      [
        "Ġtechnique",
        -8.581088941062083
      ],
      [
        "Ġrate",
        -8.583551682528075
      ],
      [
        "Ġdays",
        -8.5845117392899
      ],
      [
        "ither",
        -8.585135816762348
      ],
      [
        "Ġhigher",
        -8.58593163750478
      ],
      [
        "Ġeasy",
        -8.586626635456287
      ],
      [
        "Ġproper",
        -8.590987204346606
      ],
      [
        "Ġgas",
        -8.592778546606006
      ],
      [
        "Ġcheck",
        -8.59480906538353
      ],
      [
        "Ġvariet",
        -8.596259031489812
      ],
      [
        "Ġsimilar",
        -8.596679531191528
      ],
      [
        "Ġworking",
        -8.597252770663815
      ],
      [
        "Ġrun",
        -8.597289539485566
      ],
      [
        "Ġnon",
        -8.59750187491457
      ],
      [
        "Ġproducts",
        -8.597507400289313
      ],
      [
        "Ġpaper",
        -8.600164487728144
      ],
      [
        "Ġproblems",
        -8.602533690959856
      ],
      [
        "Ġloss",
        -8.604430280505577
      ],
      [
        "Ġstrong",
        -8.607152688188478
      ],
      [
        "ĠHe",
        -8.608062409532838
      ],
      [
        "Ġsocial",
        -8.608937595528026
      ],
      [
        "ther",
        -8.610111426438177
      ],
      [
        "Ġtypical",
        -8.612094816211197
      ],
      [
        "ĠBy",
        -8.614210764241864
      ],
      [
        "Ġhealthy",
        -8.614258088659803
      ],
      [
        "Ġcell",
        -8.61493222327871
      ],
      [
        "Ġdepend",
        -8.615314300910299
      ],
      [
        "You",
        -8.615915770692276
      ],
      [
        "Ġfuture",
        -8.617113060270848
      ],
      [
        "ĠWith",
        -8.6190026494411
      ],
      [
        "Ġstep",
        -8.620459777591662
      ],
      [
        "Ġcomponent",
        -8.62410181393637
      ],
      [
        "Ġprogram",
        -8.624437346689827
      ],
      [
        "Ġnever",
        -8.625988865519865
      ],
      [
        "Ġpropert",
        -8.626686658587552
      ],
      [
        "Ġdoesn",
        -8.627593398886201
      ],
      [
        "Ġmove",
        -8.628113148555752
      ],
      [
        "Ġclean",
        -8.62829439677554
      ],
      [
        "Ġdogs",
        -8.62877434209173
      ],
      [
        "Ġresults",
        -8.631331584909482
      ],
      [
        "Ġtreat",
        -8.632015157804286
      ],
      [
        "Ġmachine",
        -8.633186349732496
      ],
      [
        "Ġprotect",
        -8.633967764879436
      ],
      [
        "Ġphysical",
        -8.634775178392045
      ],
      [
        "ĠUniversity",
        -8.635983872710595
      ],
      [
        "Ġtimes",
        -8.63611945600723
      ],
      [
        "Ġavoid",
        -8.637037173297408
      ],
      [
        "Ġgiven",
        -8.637680983594382
      ],
      [
        "Ġturn",
        -8.639918637687913
      ],
      [
        "There",
        -8.640905744292908
      ],
      [
        "Ġissues",
        -8.641247302397986
      ],
      [
        "Ġfar",
        -8.645176657450602
      ],
      [
        "Ġbuilding",
        -8.646746601314538
      ],
      [
        "Ġline",
        -8.647232654059593
      ],
      [
        "Ġunique",
        -8.652395222880681
      ],
      [
        "Ġelement",
        -8.65255862376701
      ],
      [
        "Ġspeed",
        -8.653479199215825
      ],
      [
        "ce",
        -8.65966366559397
      ],
      [
        "Ġbook",
        -8.660257722066586
      ],
      [
        "Ġold",
        -8.660293024714655
      ],
      [
        "Ġtraining",
        -8.663811230036078
      ],
      [
        "Ġaccess",
        -8.664686294745959
      ],
      [
        "Ġcertain",
        -8.667055086960616
      ],
      [
        "Ġaccording",
        -8.66722302827143
      ],
      [
        "Ġabove",
        -8.667369882777532
      ],
      [
        "ĠSome",
        -8.667638271966723
      ],
      [
        "Ġespecial",
        -8.667745435692531
      ],
      [
        "Ġdone",
        -8.672547006583542
      ],
      [
        "Ġrecommend",
        -8.672749543880652
      ],
      [
        "Ġproduction",
        -8.673585276508595
      ],
      [
        "across",
        -8.676796203198695
      ],
      [
        "w",
        -8.679909105726535
      ],
      [
        "Ġchanges",
        -8.682278203473459
      ],
      [
        "Ġhead",
        -8.686373147174553
      ],
      [
        "Ġclimate",
        -8.689857343633596
      ],
      [
        "Ġactual",
        -8.690407756384591
      ],
      [
        "u",
        -8.693144705263347
      ],
      [
        "ĠYour",
        -8.69356713321831
      ],
      [
        "Ġhim",
        -8.69426418385477
      ],
      [
        "Ġmakes",
        -8.69437485450418
      ],
      [
        "Ġdetail",
        -8.696124216728684
      ],
      [
        "Ġexist",
        -8.696737543159223
      ],
      [
        "We",
        -8.699194661875424
      ],
      [
        "Ġgrowth",
        -8.702967984301223
      ],
      [
        "Ġremove",
        -8.704243592664913
      ],
      [
        "Ġsingle",
        -8.704328199633782
      ],
      [
        "Ġregular",
        -8.707603794997723
      ],
      [
        "ĠM",
        -8.707681966126206
      ],
      [
        "Ġskin",
        -8.709429816139298
      ],
      [
        "Ġdifficult",
        -8.709481605890861
      ],
      [
        "Ġdry",
        -8.712728590758928
      ],
      [
        "against",
        -8.716282290343706
      ],
      [
        "Ġwhite",
        -8.718755967791683
      ],
      [
        ")ĊĊ",
        -8.720300294538575
      ],
      [
        "!ĊĊ",
        -8.724277185888052
      ],
      [
        "ĠNew",
        -8.725856943171854
      ],
      [
        "Ġfield",
        -8.72666695729529
      ],
      [
        "Ġmarket",
        -8.72697188683799
      ],
      [
        "Ġproduct",
        -8.728759324694428
      ],
      [
        "Ġcontinue",
        -8.730009191601692
      ],
      [
        "Ġbasic",
        -8.730605236877054
      ],
      [
        "ĠF",
        -8.730679835010724
      ],
      [
        "Ġheart",
        -8.73250601940656
      ],
      [
        "Ġ[",
        -8.735370530047991
      ],
      [
        "Ġsource",
        -8.736347920871143
      ],
      [
        "Ġpopulation",
        -8.743295628278156
      ],
      [
        "Ġoccur",
        -8.743390102053986
      ],
      [
        "Ġweek",
        -8.744393324917233
      ],
      [
        "Ġfact",
        -8.744401887387683
      ],
      [
        "Ġscience",
        -8.745871983718192
      ],
      [
        "Ġbelieve",
        -8.746574671096479
      ],
      [
        "Ġread",
        -8.752323911829809
      ],
      [
        "Ġcontent",
        -8.752791526552537
      ],
      [
        "Ġwhe",
        -8.75337956282737
      ],
      [
        "To",
        -8.753921344960037
      ],
      [
        "Ġperformance",
        -8.754203584567467
      ],
      [
        "Ġanimal",
        -8.75504949071373
      ],
      [
        "Ġchemical",
        -8.756007026065436
      ],
      [
        "Ġtoday",
        -8.756928104039947
      ],
      [
        "Ġdeep",
        -8.75694822870442
      ],
      [
        "Ġaddition",
        -8.758536006566253
      ],
      [
        "T",
        -8.758999975400679
      ],
      [
        "Ġleft",
        -8.760006710461965
      ],
      [
        "Ġenjoy",
        -8.762678542285492
      ],
      [
        "Ġforce",
        -8.763691844143615
      ],
      [
        "Ġbit",
        -8.764195239882344
      ],
      [
        "Ġproduce",
        -8.76518430713383
      ],
      [
        "Ġsafety",
        -8.765536416150983
      ],
      [
        "Ġobject",
        -8.76673021559945
      ],
      [
        "Ġremain",
        -8.767371681321926
      ],
      [
        "Ġpatient",
        -8.767676567507994
      ],
      [
        "Ġpopular",
        -8.769011148892275
      ],
      [
        "Ġstore",
        -8.770969675298314
      ],
      [
        "Ġmedical",
        -8.77347395240595
      ],
      [
        "Ġbring",
        -8.773951956224845
      ],
      [
        "Ġnecessary",
        -8.77600295362138
      ],
      [
        "Ġeffects",
        -8.778403069793704
      ],
      [
        "Ġmatter",
        -8.778943492108178
      ],
      [
        "ĠNo",
        -8.780670808890097
      ],
      [
        "Ġdesigned",
        -8.787508789682088
      ],
      [
        "Ġlimit",
        -8.790303900498726
      ],
      [
        "Ġred",
        -8.790832418497686
      ],
      [
        "Ġinfection",
        -8.791166718230365
      ],
      [
        "Ġarticle",
        -8.7912130328324
      ],
      [
        "Ġpain",
        -8.791386702934531
      ],
      [
        "Ġnear",
        -8.794080523683526
      ],
      [
        "Ġkind",
        -8.796391958620898
      ],
      [
        "Ġfurther",
        -8.797292457545348
      ],
      [
        "Ġground",
        -8.79764986087627
      ],
      [
        "Ġchoice",
        -8.798694165339967
      ],
      [
        "Ġcomputer",
        -8.799301942198717
      ],
      [
        "Ġskills",
        -8.80195567656948
      ],
      [
        "Ġanswer",
        -8.803045002278793
      ],
      [
        "stead",
        -8.80704716780448
      ],
      [
        "Ġpublic",
        -8.809096252721826
      ],
      [
        "Ġbusiness",
        -8.811259632805712
      ],
      [
        "Ġbrain",
        -8.814046584673898
      ],
      [
        "Ġbenefits",
        -8.815443405726604
      ],
      [
        "Ġfour",
        -8.815459974841936
      ],
      [
        "Ġstandard",
        -8.818125369485763
      ],
      [
        "Ġassociate",
        -8.818916155073802
      ],
      [
        "For",
        -8.820537595412773
      ],
      [
        "thing",
        -8.823258503897867
      ],
      [
        "below",
        -8.825069090404646
      ],
      [
        ".\"Ċ",
        -8.825401433035324
      ],
      [
        "Ġhour",
        -8.825722560951155
      ],
      [
        "Ġagain",
        -8.827098604758813
      ],
      [
        "Ġb",
        -8.83012555719085
      ],
      [
        "Ġsays",
        -8.830166096201445
      ],
      [
        "Ġsound",
        -8.83026389009814
      ],
      [
        "Ġquestion",
        -8.83093065847319
      ],
      [
        "Ġsymptom",
        -8.831374483611397
      ],
      [
        "Ġeffect",
        -8.831952920956883
      ],
      [
        "Ġcomplete",
        -8.832890522093745
      ],
      [
        "Ġrecent",
        -8.834264331717097
      ],
      [
        "Ġhouse",
        -8.835579365036072
      ],
      [
        "Ġstay",
        -8.835596336071333
      ],
      [
        "Ġitem",
        -8.836278234742359
      ],
      [
        "Ġflow",
        -8.839171640750285
      ],
      [
        ")Ċ",
        -8.83934373944076
      ],
      [
        "Ġvehicle",
        -8.840671841557683
      ],
      [
        "Ġpost",
        -8.842131623325006
      ],
      [
        "Ġregion",
        -8.843413812439906
      ],
      [
        "Ġallows",
        -8.844622467299018
      ],
      [
        "once",
        -8.844987615939683
      ],
      [
        "Ġcondition",
        -8.846077689369793
      ],
      [
        "already",
        -8.84711015296144
      ],
      [
        "Ġblack",
        -8.847133520872063
      ],
      [
        "Ġwhole",
        -8.847318546784543
      ],
      [
        "Ġknowledge",
        -8.848377425382058
      ],
      [
        "Ġtree",
        -8.849755528313231
      ],
      [
        "ĠP",
        -8.849777340079793
      ],
      [
        "Ġmillion",
        -8.850308499153076
      ],
      [
        "Ġbehavior",
        -8.854177536861823
      ],
      [
        "Ġtalk",
        -8.856001489821999
      ],
      [
        "Ġmean",
        -8.856076217143563
      ],
      [
        "ĠOne",
        -8.856604517154214
      ],
      [
        "Ġposition",
        -8.85689302763906
      ],
      [
        "ĠScot",
        -8.857218988139756
      ],
      [
        "k",
        -8.857302595115732
      ],
      [
        "Ġways",
        -8.859905886774424
      ],
      [
        "Ġimage",
        -8.860699689597764
      ],
      [
        "Ġinside",
        -8.86242143025445
      ],
      [
        "Ġseen",
        -8.865234695792386
      ],
      [
        "Ġprice",
        -8.866350405136172
      ],
      [
        "Ġunderstanding",
        -8.86683006367885
      ],
      [
        "Ġlonger",
        -8.868871631410522
      ],
      [
        "Ġcold",
        -8.86927023206893
      ],
      [
        "Ġsolution",
        -8.869303778698631
      ],
      [
        "ĠU",
        -8.869466805319252
      ],
      [
        "Ġrequired",
        -8.873681992783645
      ],
      [
        "Ġshare",
        -8.875573440375014
      ],
      [
        "Ġthough",
        -8.876211699830778
      ],
      [
        "Ġhistory",
        -8.876867574543649
      ],
      [
        "Ġam",
        -8.87771086530579
      ],
      [
        "Ġcompany",
        -8.879350995432908
      ],
      [
        "Ġbig",
        -8.879498725768368
      ],
      [
        "Ġcommunity",
        -8.879749217476078
      ],
      [
        "Ġamong",
        -8.880391296526653
      ],
      [
        "Ġmention",
        -8.882840238802688
      ],
      [
        "Ġactiviti",
        -8.88379083860925
      ],
      [
        "Ġbuild",
        -8.883988675483863
      ],
      [
        "Ġconcern",
        -8.888006314497236
      ],
      [
        "Ġreach",
        -8.888664183730047
      ],
      [
        "Ġtoward",
        -8.890356963488923
      ],
      [
        "Ġapproach",
        -8.891106690412697
      ],
      [
        "Ġmajor",
        -8.892770019651753
      ],
      [
        "Ġissue",
        -8.893663724000238
      ],
      [
        "Ġfruit",
        -8.894689171492496
      ],
      [
        "Ġlayer",
        -8.89532955118653
      ],
      [
        "Ġresearcher",
        -8.895614315677975
      ],
      [
        "Ġpractice",
        -8.899398078584996
      ],
      [
        "Ġcomplex",
        -8.899994806068662
      ],
      [
        "ĠE",
        -8.900626349526394
      ],
      [
        "Ġenvironmental",
        -8.90165356374746
      ],
      [
        "Ġidea",
        -8.902513379371074
      ],
      [
        "Ġcorrect",
        -8.904001107868124
      ],
      [
        "Ġonline",
        -8.90444716547705
      ],
      [
        "Ġtask",
        -8.904725956868951
      ],
      [
        "Ġtaking",
        -8.905557153302098
      ],
      [
        "Ġbattery",
        -8.906338886537192
      ],
      [
        "Ġactivity",
        -8.907654919187317
      ],
      [
        "Ġeasily",
        -8.91103606466059
      ],
      [
        "Ġindustry",
        -8.912541682171076
      ],
      [
        "Ġcancer",
        -8.912596105071525
      ],
      [
        "Ġhelps",
        -8.914143639067515
      ],
      [
        "Ġsignal",
        -8.918350908007444
      ],
      [
        "Ġmonths",
        -8.919058154162547
      ],
      [
        "Ġcontact",
        -8.920218772008148
      ],
      [
        "Ġminutes",
        -8.920766438173716
      ],
      [
        "Ġperiod",
        -8.922619927186448
      ],
      [
        "Ġpersonal",
        -8.924997461487225
      ],
      [
        "Ġpurpose",
        -8.925088295109624
      ],
      [
        "Ġeducation",
        -8.927163974145365
      ],
      [
        "Ġpet",
        -8.929265930198238
      ],
      [
        "Ġprovid",
        -8.930996877513088
      ],
      [
        "Ġperfect",
        -8.931202176795614
      ],
      [
        "Ġappear",
        -8.9320084651496
      ],
      [
        "ĠOn",
        -8.93253359569167
      ],
      [
        "Ġaction",
        -8.933190698791622
      ],
      [
        "ance",
        -8.9341374204053
      ],
      [
        "Ġgreen",
        -8.934459177361717
      ],
      [
        "Ġsun",
        -8.934483465691635
      ],
      [
        "Ġbuy",
        -8.936205760752383
      ],
      [
        "Ġopportunit",
        -8.936573259684131
      ],
      [
        "Ġpositive",
        -8.937061950297913
      ],
      [
        "Ġcall",
        -8.941020610254935
      ],
      [
        "âĢĵ",
        -8.942223762244685
      ],
      [
        "Ġsomeone",
        -8.945782308829468
      ],
      [
        "ous",
        -8.94779262412504
      ],
      [
        "Ġslow",
        -8.950201901594802
      ],
      [
        "Ġblock",
        -8.950752003039067
      ],
      [
        "Ġroom",
        -8.952156006076269
      ],
      [
        "Ġprofessional",
        -8.954391137651221
      ],
      [
        "Ġtotal",
        -8.955762600316543
      ],
      [
        "!Ċ",
        -8.95681489482547
      ],
      [
        "Ġlanguage",
        -8.956880873665082
      ],
      [
        "Ġprobabl",
        -8.9571186010571
      ],
      [
        "Ġdetermine",
        -8.957902389436828
      ],
      [
        "Ġmoney",
        -8.960244214463462
      ],
      [
        "ĠH",
        -8.960959265114468
      ],
      [
        "Ġtravel",
        -8.962290244353476
      ],
      [
        "Ġlink",
        -8.962538596053191
      ],
      [
        "_",
        -8.965590933044046
      ],
      [
        "Ġfuel",
        -8.965637707922676
      ],
      [
        "Ġface",
        -8.966092396964683
      ],
      [
        "Ġfeatures",
        -8.96705586255
      ],
      [
        "Ġfall",
        -8.967659972183842
      ],
      [
        "Ġengine",
        -8.968166080365151
      ],
      [
        "Ġquickly",
        -8.96996829010443
      ],
      [
        "Ġprotein",
        -8.970208919464156
      ],
      [
        "ary",
        -8.970396267325942
      ],
      [
        "Ġbalance",
        -8.974492277930572
      ],
      [
        "Ġmethods",
        -8.975750981641955
      ],
      [
        "Ġdevice",
        -8.976168567988783
      ],
      [
        "-based",
        -8.97626932960046
      ],
      [
        "Ġetc",
        -8.976747743864962
      ],
      [
        "ĠAmerican",
        -8.977426616423521
      ],
      [
        "|",
        -8.978606892321034
      ],
      [
        "Ġrelease",
        -8.979672885044856
      ],
      [
        "Ġnetwork",
        -8.979709931362141
      ],
      [
        "Ġmind",
        -8.980171865646938
      ],
      [
        "Ġspecial",
        -8.981199154097347
      ],
      [
        "rather",
        -8.981433777971908
      ],
      [
        "Ġwinter",
        -8.981891180213324
      ],
      [
        "Ġservice",
        -8.982747566439134
      ],
      [
        "Ġcrucial",
        -8.983492491172917
      ],
      [
        "Ġdoing",
        -8.984703280598717
      ],
      [
        "Ġsetting",
        -8.98486261497705
      ],
      [
        "Ġhalf",
        -8.985033920461529
      ],
      [
        "Ġcook",
        -8.987378778840228
      ],
      [
        "Ġclear",
        -8.988144899946597
      ],
      [
        "Ġlocation",
        -8.988347226714474
      ],
      [
        "Ġyourself",
        -8.9904681966109
      ],
      [
        "Ġgot",
        -8.99094994835077
      ],
      [
        "to",
        -8.991266887100537
      ],
      [
        "Ġtools",
        -8.991501030849518
      ],
      [
        "Ġdescribe",
        -8.992032688857963
      ],
      [
        "Ġcompare",
        -8.992516002258329
      ],
      [
        "Ġauthor",
        -8.992588144025719
      ],
      [
        "As",
        -8.992901836039596
      ],
      [
        "Ġnature",
        -8.99669578836577
      ],
      [
        "Ġoverall",
        -8.998549681264485
      ],
      [
        "Ġliving",
        -8.999702894439881
      ],
      [
        "B",
        -9.00034803219286
      ],
      [
        "Ġattention",
        -9.001732659003832
      ],
      [
        "Ġsense",
        -9.003428776197984
      ],
      [
        "Ġguide",
        -9.00366078296551
      ],
      [
        "Ġever",
        -9.005327915236606
      ],
      [
        "Ġview",
        -9.005535531261852
      ],
      [
        "Ġcool",
        -9.006013181690186
      ],
      [
        "v",
        -9.006050732168923
      ],
      [
        "Ġtool",
        -9.006184988831775
      ],
      [
        "Ġtell",
        -9.006535017072288
      ],
      [
        "Ġconsidered",
        -9.007933647387912
      ],
      [
        "Ġhowever",
        -9.00968351099208
      ],
      [
        "Ġsugar",
        -9.011693226988632
      ],
      [
        "Ġyoung",
        -9.012030215583556
      ],
      [
        "Ġresponse",
        -9.01327044816118
      ],
      [
        "Ġwarm",
        -9.013829490021694
      ],
      [
        "Ġgeneral",
        -9.014200824270617
      ],
      [
        "Ġself",
        -9.01502876668788
      ],
      [
        "Ġcut",
        -9.01514091203338
      ],
      [
        "Ġchoose",
        -9.015194903441294
      ],
      [
        "Ġwalk",
        -9.016512530721592
      ],
      [
        "Ġthought",
        -9.017858663504528
      ],
      [
        "Ġask",
        -9.018963912397108
      ],
      [
        "Ġfeet",
        -9.019043052716269
      ],
      [
        "Ġquestions",
        -9.019374150133633
      ],
      [
        "Ġwomen",
        -9.019532656428137
      ],
      [
        "Ġseason",
        -9.020084543221763
      ],
      [
        "Ġtraditional",
        -9.023596213341404
      ],
      [
        "Ġgrowing",
        -9.026292997760915
      ],
      [
        "So",
        -9.027707967961632
      ],
      [
        "Ġsuggest",
        -9.02872287331969
      ],
      [
        "Ġclass",
        -9.03062666198067
      ],
      [
        "Ġaverage",
        -9.03075794821345
      ],
      [
        "Ġreceive",
        -9.03255777087474
      ],
      [
        "Ġsituation",
        -9.033875666787896
      ],
      [
        "Ġcreating",
        -9.034427167741262
      ],
      [
        "Ġpast",
        -9.03616206809063
      ],
      [
        "Ġlarger",
        -9.037331387291484
      ],
      [
        "where",
        -9.037645812130664
      ],
      [
        "Ġwaste",
        -9.037955753407706
      ],
      [
        "Ġmix",
        -9.037973301013013
      ],
      [
        "Ġsimply",
        -9.039943549570738
      ],
      [
        "Ġcarbon",
        -9.040053687112678
      ],
      [
        "Ġwon",
        -9.04176385225573
      ],
      [
        "Ġdecision",
        -9.042001556380512
      ],
      [
        "Ġpatients",
        -9.04341692230675
      ],
      [
        "Ġstress",
        -9.044343783490032
      ],
      [
        "Ġhot",
        -9.045922948718944
      ],
      [
        "Ġwood",
        -9.046508643334338
      ],
      [
        "From",
        -9.047763176853184
      ],
      [
        "Ġinvolve",
        -9.049203620332964
      ],
      [
        "Ġhold",
        -9.052791312058716
      ],
      [
        "Ġadditional",
        -9.052853170369543
      ],
      [
        "Ġwall",
        -9.052913612158749
      ],
      [
        "Ġtarget",
        -9.05314230790754
      ],
      [
        "Ġstor",
        -9.053470046346549
      ],
      [
        "Ġlist",
        -9.057218729723612
      ],
      [
        "Ġbacteria",
        -9.058351047191309
      ],
      [
        "Ġreading",
        -9.058674220611325
      ],
      [
        "Ġprimar",
        -9.059751170059217
      ],
      [
        "Ġweather",
        -9.05987010098156
      ],
      [
        "Ġeffort",
        -9.063641697976053
      ],
      [
        "Ġaddress",
        -9.065843442774275
      ],
      [
        "Ġplastic",
        -9.0659847818499
      ],
      [
        "Ġbegin",
        -9.066142246177066
      ],
      [
        "Ġactive",
        -9.06792513420866
      ],
      [
        "Ġbone",
        -9.068261123393356
      ],
      [
        "Ġnormal",
        -9.06848369200044
      ],
      [
        "Ġsite",
        -9.06878447636958
      ],
      [
        "Ġunit",
        -9.069583806521702
      ],
      [
        "Ġadult",
        -9.069922054603904
      ],
      [
        "Ġshape",
        -9.070284330767166
      ],
      [
        "Ġenhance",
        -9.07257284839508
      ],
      [
        "Ġresources",
        -9.075728815443531
      ],
      [
        "Ġexpert",
        -9.075808107416496
      ],
      [
        "Ġmetal",
        -9.077545663080992
      ],
      [
        "yet",
        -9.0778655785356
      ],
      [
        "P",
        -9.07808948811448
      ],
      [
        "Ġhumans",
        -9.078530043571387
      ],
      [
        "Ġcreated",
        -9.079137638316311
      ],
      [
        "Ġsummer",
        -9.080626778309112
      ],
      [
        "Ġhappen",
        -9.08170141786232
      ],
      [
        "Ġisn",
        -9.08498226698214
      ],
      [
        "Ġoutside",
        -9.086071032222543
      ],
      [
        "Ġglobal",
        -9.086562506936364
      ],
      [
        "Ġplayer",
        -9.086634504271665
      ],
      [
        "Ġcharge",
        -9.090089881355151
      ],
      [
        "Ġrelationship",
        -9.090150191250569
      ],
      [
        "Ġquite",
        -9.090327959669986
      ],
      [
        "Ġsea",
        -9.090776708130868
      ],
      [
        "\"ĊĊ",
        -9.09525354674841
      ],
      [
        ").Ċ",
        -9.096554827268015
      ],
      [
        "it",
        -9.098196071763253
      ],
      [
        "Ġstop",
        -9.099022225884692
      ],
      [
        "Ġidentify",
        -9.099185346631868
      ],
      [
        "cannot",
        -9.099364188518866
      ],
      [
        "Ġevent",
        -9.101803229661996
      ],
      [
        "Ġsometime",
        -9.10191761178612
      ],
      [
        "Ġmovement",
        -9.10334639913938
      ],
      [
        "Ġeyes",
        -9.103884995458394
      ],
      [
        "Ġrelative",
        -9.104052246129829
      ],
      [
        "Ġincreasing",
        -9.104695015317333
      ],
      [
        "ĠMan",
        -9.106537897311648
      ],
      [
        "Ġextreme",
        -9.106929326164996
      ],
      [
        "Ġefficient",
        -9.109233872882069
      ],
      [
        "Ġactuall",
        -9.11082702989257
      ],
      [
        "Ġbreak",
        -9.111685407867444
      ],
      [
        "Ġsoftware",
        -9.112290514097092
      ],
      [
        "Why",
        -9.112760407380932
      ],
      [
        "ves",
        -9.11394072514127
      ],
      [
        "Ġact",
        -9.113983844025736
      ],
      [
        "Ġteeth",
        -9.11426460979997
      ],
      [
        "Ġaccount",
        -9.114344530257911
      ],
      [
        "Ġgenerate",
        -9.11714470420835
      ],
      [
        "Ġfast",
        -9.117283098815276
      ],
      [
        "Ġrepresent",
        -9.119422600114133
      ],
      [
        "Ġstudent",
        -9.11952218950274
      ],
      [
        "Ġexact",
        -9.11994842811265
      ],
      [
        "Ġstage",
        -9.120289750529604
      ],
      [
        "ĠAll",
        -9.122093522538544
      ],
      [
        "Ġsection",
        -9.122173504976782
      ],
      [
        "Ġsubject",
        -9.123405294074244
      ],
      [
        "Ġregard",
        -9.124509102148584
      ],
      [
        "Ġpercent",
        -9.124821853181428
      ],
      [
        "Ġexplain",
        -9.12503429572326
      ],
      [
        "Ġcountry",
        -9.125135911001536
      ],
      [
        "Ġgain",
        -9.12529759560676
      ],
      [
        "Ġexplore",
        -9.125663793560252
      ],
      [
        "Ġreturn",
        -9.127083942117586
      ],
      [
        "Ġprevious",
        -9.127160210770551
      ],
      [
        "Ġpay",
        -9.127414916159818
      ],
      [
        "Ġlength",
        -9.12814631101175
      ],
      [
        "United",
        -9.129587444821352
      ],
      [
        "Ġapply",
        -9.129927448686704
      ],
      [
        "Ġfinal",
        -9.130125386065105
      ],
      [
        "ĠNational",
        -9.131055462401498
      ],
      [
        "Ġlater",
        -9.132207306673582
      ],
      [
        "Ġreport",
        -9.132509590511006
      ],
      [
        "Ġrelated",
        -9.13295629741437
      ],
      [
        "ĠHere",
        -9.133299331116064
      ],
      [
        "Ġtaken",
        -9.13367575724024
      ],
      [
        "Ġanything",
        -9.134177449745827
      ],
      [
        "One",
        -9.134520796197211
      ],
      [
        "Ġalmost",
        -9.13775030249496
      ],
      [
        ".\"",
        -9.138590332529368
      ],
      [
        "Ġwebsite",
        -9.142334382999202
      ],
      [
        "Ġsensor",
        -9.143495825962756
      ],
      [
        "Ġcode",
        -9.14579786660068
      ],
      [
        "Ġdaily",
        -9.147166865722433
      ],
      [
        "Ġbehind",
        -9.147264724061769
      ],
      [
        "Ġstudies",
        -9.149927152160814
      ],
      [
        "Ġincludes",
        -9.15030490193171
      ],
      [
        "Ġoriginal",
        -9.15081731913929
      ],
      [
        "Ġbad",
        -9.151426788767528
      ],
      [
        ">",
        -9.151802510873424
      ],
      [
        "Ġelectric",
        -9.151842995404198
      ],
      [
        "Ġdark",
        -9.152123030209529
      ],
      [
        "Ġbirds",
        -9.153037114390468
      ],
      [
        "Ġcustomer",
        -9.157086371153516
      ],
      [
        "Ġbird",
        -9.157524735062612
      ],
      [
        "ĠAI",
        -9.157652133331151
      ],
      [
        "Ġgenerally",
        -9.157736149614944
      ],
      [
        "[",
        -9.158277270781213
      ],
      [
        "Ġwords",
        -9.159819081873447
      ],
      [
        "Ġtissue",
        -9.16089091515669
      ],
      [
        "Ġfive",
        -9.161290150636791
      ],
      [
        "ĠAn",
        -9.161358334790904
      ],
      [
        "Ġland",
        -9.162902865569633
      ],
      [
        "Ġadvantage",
        -9.163956345478624
      ],
      [
        "Ġservices",
        -9.16417773563904
      ],
      [
        "Ġdevices",
        -9.16588619970237
      ],
      [
        "E",
        -9.166706374000144
      ],
      [
        "F",
        -9.167733508631573
      ],
      [
        "Ġmass",
        -9.169213277715302
      ],
      [
        "Ġeasie",
        -9.169781101391738
      ],
      [
        "Ġart",
        -9.170341998211716
      ],
      [
        "Ġvegetable",
        -9.170707445847452
      ],
      [
        "Ġshows",
        -9.171114361852482
      ],
      [
        "ĠDo",
        -9.17216391320887
      ],
      [
        "Ġhear",
        -9.172473178718429
      ],
      [
        "Ġmultiple",
        -9.174601831531085
      ],
      [
        "Ġcommunication",
        -9.175652868961972
      ],
      [
        "Ġtrue",
        -9.176354522033527
      ],
      [
        "Ġsave",
        -9.1763919925086
      ],
      [
        "Ġmodern",
        -9.17792161280054
      ],
      [
        "Ġscientists",
        -9.180253018444564
      ],
      [
        "Ġjob",
        -9.180966516460416
      ],
      [
        "Ġtrees",
        -9.18401083192458
      ],
      [
        "ĠAt",
        -9.184585658634392
      ],
      [
        "Ġstarted",
        -9.1862724651399
      ],
      [
        "Ġsleep",
        -9.18647600174475
      ],
      [
        "Ġanalysis",
        -9.19051915574378
      ],
      [
        "Ġice",
        -9.191021193626156
      ],
      [
        "ry",
        -9.19132550291434
      ],
      [
        "Ġreaction",
        -9.19297106215062
      ],
      [
        "Ġsupply",
        -9.195080683219487
      ],
      [
        "Ġequipment",
        -9.196135289990806
      ],
      [
        "Ġconcept",
        -9.197518092875754
      ],
      [
        "Ġbase",
        -9.19802734143137
      ],
      [
        "Ġgenetic",
        -9.198581125168786
      ],
      [
        "Ġserve",
        -9.20079830128338
      ],
      [
        "ĠUse",
        -9.201012423370583
      ],
      [
        "Ġsample",
        -9.205789995331624
      ],
      [
        "ĠR",
        -9.20697068216144
      ],
      [
        "Ġexperiment",
        -9.207109734667236
      ],
      [
        "Ġvisit",
        -9.20801698976338
      ],
      [
        "Ġacid",
        -9.20921856009894
      ],
      [
        "Ġfront",
        -9.211818027444068
      ],
      [
        "Ġentire",
        -9.212078250207938
      ],
      [
        "Ġshown",
        -9.212760881465464
      ],
      [
        "Ġappropriate",
        -9.213207163206036
      ],
      [
        "Ġbenefit",
        -9.215110428118406
      ],
      [
        "Ġrest",
        -9.215334250229368
      ],
      [
        "ĠN",
        -9.215854138017004
      ],
      [
        "Ġspread",
        -9.216331655766446
      ],
      [
        "Ġreview",
        -9.21653683441447
      ],
      [
        "Ġachieve",
        -9.21867445008209
      ],
      [
        "ĠAfter",
        -9.219550267475254
      ],
      [
        "Ġnight",
        -9.220302470484476
      ],
      [
        "Ġdirectly",
        -9.221845074171116
      ],
      [
        "Ġdrive",
        -9.222261676775686
      ],
      [
        "ĠX",
        -9.222430536548648
      ],
      [
        "Ġsolar",
        -9.227036568489815
      ],
      [
        "Ġinterest",
        -9.22781829180886
      ],
      [
        "Ġthemsel",
        -9.228307335104995
      ],
      [
        "Ġago",
        -9.229023556453232
      ],
      [
        "ĠL",
        -9.23068010499233
      ],
      [
        "wise",
        -9.231518490654176
      ],
      [
        "Ġevents",
        -9.23222517650975
      ],
      [
        "ĠHealth",
        -9.232341447163154
      ],
      [
        "Ġnegative",
        -9.233058647491564
      ],
      [
        "Ġsteps",
        -9.233743826267222
      ],
      [
        "Ġflavor",
        -9.235371535564571
      ],
      [
        "Ġdiscover",
        -9.23604607553046
      ],
      [
        "Ġdigital",
        -9.236176500980395
      ],
      [
        "Ġconstant",
        -9.236503176243192
      ],
      [
        "Ġelectrical",
        -9.237879018319076
      ],
      [
        "Ġfun",
        -9.240909224470858
      ],
      [
        "Ġdiscuss",
        -9.241084842409318
      ],
      [
        "Ġfemale",
        -9.242158906008548
      ],
      [
        "ĠCan",
        -9.245073436621254
      ],
      [
        "Ġinjur",
        -9.245606365226458
      ],
      [
        "Ġadded",
        -9.246530879567484
      ],
      [
        "Ġaspect",
        -9.246579988263736
      ],
      [
        "Ġingredient",
        -9.24686224932482
      ],
      [
        "Ġexercise",
        -9.247364137128196
      ],
      [
        "Ġcentur",
        -9.251038230565516
      ],
      [
        "Ġrunn",
        -9.251310030165747
      ],
      [
        "Ġextra",
        -9.251356122151396
      ],
      [
        "Ġseeds",
        -9.252188021063365
      ],
      [
        "Ġdirection",
        -9.255761136625058
      ],
      [
        "Ġfinding",
        -9.256331133906697
      ],
      [
        "Ġtopic",
        -9.259675875462843
      ],
      [
        "man",
        -9.262427512931747
      ],
      [
        "Ġchance",
        -9.262708528297908
      ],
      [
        "Ġuseful",
        -9.265251819941048
      ],
      [
        "Ġcover",
        -9.265508826222504
      ],
      [
        "Ġpiece",
        -9.265846576804634
      ],
      [
        "ok",
        -9.266455945800988
      ],
      [
        "Ġcenter",
        -9.269430687609947
      ],
      [
        "M",
        -9.270078580836216
      ],
      [
        "Ġde",
        -9.270202606118271
      ],
      [
        "ĠO",
        -9.270739935299556
      ],
      [
        "Ġdirect",
        -9.271042068471033
      ],
      [
        "Ġmeat",
        -9.27204737264357
      ],
      [
        "Ġimmediate",
        -9.272746531889744
      ],
      [
        "Ġmonth",
        -9.273204261416666
      ],
      [
        "ive",
        -9.274197304570077
      ],
      [
        "Ġeveryone",
        -9.274727215650945
      ],
      [
        "ĠV",
        -9.275876855326675
      ],
      [
        "Ġeggs",
        -9.276669739466683
      ],
      [
        "ĠStates",
        -9.2782665532412
      ],
      [
        "Ġword",
        -9.27835492508228
      ],
      [
        "ĠEarth",
        -9.278396125568143
      ],
      [
        "Ġnotice",
        -9.278708629638547
      ],
      [
        "ĠShe",
        -9.27929439029781
      ],
      [
        "Ġelse",
        -9.27970149703349
      ],
      [
        "Ġfriend",
        -9.280651422514795
      ],
      [
        "Ġglass",
        -9.283343108410376
      ],
      [
        "Ġconnection",
        -9.285214695252485
      ],
      [
        "Ġparents",
        -9.28530822244
      ],
      [
        "Ġrequirement",
        -9.285957109785214
      ],
      [
        "Ġgames",
        -9.28774944242148
      ],
      [
        "Ġfeeling",
        -9.290642014312471
      ],
      [
        "Ġtips",
        -9.291471574570071
      ],
      [
        "Ġfresh",
        -9.291824887952906
      ],
      [
        "Ġcamera",
        -9.2953660527804
      ],
      [
        "Ġspring",
        -9.295510720651691
      ],
      [
        "Ġorganization",
        -9.296371112175631
      ],
      [
        "Ġgroups",
        -9.29645155888274
      ],
      [
        "Ġstyle",
        -9.29736032940423
      ],
      [
        "-to",
        -9.298590373562725
      ],
      [
        "Ġcycle",
        -9.3000470363135
      ],
      [
        "Ġtable",
        -9.300615765695945
      ],
      [
        "Ġfly",
        -9.301538642153014
      ],
      [
        "Ġindicate",
        -9.303685338554018
      ],
      [
        "Ġmeal",
        -9.305652696271718
      ],
      [
        "Ġfoods",
        -9.307817438701608
      ],
      [
        "Ġmeet",
        -9.30802642681558
      ],
      [
        "Ġenter",
        -9.30823474022664
      ],
      [
        "Ġconnect",
        -9.31032900221972
      ],
      [
        "Ġcontribute",
        -9.310475313927938
      ],
      [
        "Ġtend",
        -9.311986877456292
      ],
      [
        "âĢ¦",
        -9.312442504237584
      ],
      [
        "Ġdidn",
        -9.313264811475864
      ],
      [
        "by",
        -9.31335375886334
      ],
      [
        "Ġproduced",
        -9.313361933921191
      ],
      [
        "Ġmental",
        -9.314577989553396
      ],
      [
        "Ġpre",
        -9.315087312603062
      ],
      [
        "Ġorganic",
        -9.31587229650001
      ],
      [
        "N",
        -9.316148692907362
      ],
      [
        "Ġcaus",
        -9.317883981100248
      ],
      [
        "+",
        -9.31929607083676
      ],
      [
        "Ġwear",
        -9.322050803480254
      ],
      [
        "Ġinstruction",
        -9.3229984407933
      ],
      [
        "moving",
        -9.32364557834606
      ],
      [
        "Ġball",
        -9.32422031226558
      ],
      [
        "Ġmoment",
        -9.32566647454302
      ],
      [
        "But",
        -9.32672584815213
      ],
      [
        "Ġparticle",
        -9.328885579263291
      ],
      [
        "Ġweeks",
        -9.3289108938899
      ],
      [
        "Ġdoctor",
        -9.329695014587406
      ],
      [
        "Ġleg",
        -9.331875944413618
      ],
      [
        "Ġstory",
        -9.33251211421869
      ],
      [
        "Ġmedia",
        -9.333007388911165
      ],
      [
        "Another",
        -9.333158445009374
      ],
      [
        "Ġscale",
        -9.334122090864568
      ],
      [
        "Ġready",
        -9.335550654764493
      ],
      [
        "Ġnote",
        -9.336161758975091
      ],
      [
        "Ġgovernment",
        -9.3376023840054
      ],
      [
        "Ġfit",
        -9.338854844738997
      ],
      [
        "Ġworks",
        -9.339072910801155
      ],
      [
        "Ġcritical",
        -9.33947935858427
      ],
      [
        "Ġinfluence",
        -9.34085462708426
      ],
      [
        "Ġfrequent",
        -9.342076607722635
      ],
      [
        "Ġprotection",
        -9.342960838512454
      ],
      [
        "Ġgoal",
        -9.343314976777627
      ],
      [
        "Ġfine",
        -9.343761691757171
      ],
      [
        "Ġinitial",
        -9.34414845807077
      ],
      [
        "Ġculture",
        -9.344201176783276
      ],
      [
        "Ġsuitable",
        -9.34485682575986
      ],
      [
        "ĠDr",
        -9.345567693942176
      ],
      [
        "Ġtrack",
        -9.346029786686486
      ],
      [
        "ĠYes",
        -9.347154061524154
      ],
      [
        "Ġserie",
        -9.34753569640435
      ],
      [
        "Ġtesting",
        -9.34840223968894
      ],
      [
        "Ġpage",
        -9.349731386544304
      ],
      [
        "Ġoutput",
        -9.350627984014444
      ],
      [
        "Ġcount",
        -9.351741512426678
      ],
      [
        "Ġflowers",
        -9.35174709148985
      ],
      [
        "ĠâĢľ",
        -9.35239206392309
      ],
      [
        "ĠK",
        -9.352718804290868
      ],
      [
        "Ġsalt",
        -9.356813260526648
      ],
      [
        "Ġremember",
        -9.357094621312791
      ],
      [
        "Ġresistance",
        -9.357282112278131
      ],
      [
        "Ġspend",
        -9.357403064922837
      ],
      [
        "ĠNorth",
        -9.357776595050556
      ],
      [
        "Ġevidence",
        -9.358811302445211
      ],
      [
        "ĠMore",
        -9.359270238639985
      ],
      [
        "Ġbreed",
        -9.359812600613036
      ],
      [
        "ĠW",
        -9.360756546271276
      ],
      [
        "L",
        -9.360852223017456
      ],
      [
        "Ġefficiency",
        -9.361770764635178
      ],
      [
        "Ġalternative",
        -9.362758938994164
      ],
      [
        "Ġwatch",
        -9.363572316828993
      ],
      [
        "Ġclaim",
        -9.364697507292142
      ],
      [
        "Ġdate",
        -9.364826581240546
      ],
      [
        "Ġstrength",
        -9.3654118976001
      ],
      [
        "Ġhearing",
        -9.366247959413316
      ],
      [
        "Ġseparate",
        -9.36840338569264
      ],
      [
        "Ġmilk",
        -9.369344769945592
      ],
      [
        "Ġdistance",
        -9.369351973784685
      ],
      [
        "R",
        -9.369599940495178
      ],
      [
        "Ġcompletely",
        -9.3697792418759
      ],
      [
        "Ġal",
        -9.370035205849826
      ],
      [
        "Ġinput",
        -9.370810973908416
      ],
      [
        "pretty",
        -9.371153922395372
      ],
      [
        "ĠMost",
        -9.371464154835746
      ],
      [
        "Ġrare",
        -9.3716930066727
      ],
      [
        "Ġedge",
        -9.374310522670685
      ],
      [
        "ĠG",
        -9.37443992875224
      ],
      [
        "Ġvisual",
        -9.374991894499562
      ],
      [
        "Ġtouch",
        -9.37530615077034
      ],
      [
        "Ġworth",
        -9.375684564645823
      ],
      [
        "Ġseek",
        -9.376366344880326
      ],
      [
        "Ġlack",
        -9.37671704087995
      ],
      [
        "Ġfiber",
        -9.379254369838389
      ],
      [
        "Ġideal",
        -9.3794628235352
      ],
      [
        "care",
        -9.379934811668312
      ],
      [
        "Ġcrop",
        -9.380224918193662
      ],
      [
        "Ġreplace",
        -9.38051355496868
      ],
      [
        "Ġreduc",
        -9.38088300044523
      ],
      [
        "Ġgreater",
        -9.380959901531345
      ],
      [
        "Ġvoltage",
        -9.382609738231931
      ],
      [
        "ese",
        -9.383641926794276
      ],
      [
        "ĠScience",
        -9.383693386055803
      ],
      [
        "Ġcarry",
        -9.38405920177157
      ],
      [
        "Ġaim",
        -9.385410724694191
      ],
      [
        "Ġkill",
        -9.385524155560391
      ],
      [
        "Ġcountr",
        -9.386898528135632
      ],
      [
        "Ġcircuit",
        -9.388011714583826
      ],
      [
        "Ġliquid",
        -9.38812332606782
      ],
      [
        "Ġequal",
        -9.389033749572189
      ],
      [
        "Ġmemory",
        -9.389947390722964
      ],
      [
        "Ġscientific",
        -9.390436443035998
      ],
      [
        "Ġselect",
        -9.390494327395164
      ],
      [
        "ĠSchool",
        -9.391938799978035
      ],
      [
        "Ġrepair",
        -9.392629008859831
      ],
      [
        "Ġcapacit",
        -9.393183502643438
      ],
      [
        "Ġdeath",
        -9.39398472901428
      ],
      [
        "Ġfeed",
        -9.394181814001586
      ],
      [
        "Ġdemand",
        -9.395629278534614
      ],
      [
        "Ġgoe",
        -9.39589599658224
      ],
      [
        "Ġdetect",
        -9.39638848813465
      ],
      [
        "Ġwind",
        -9.396627405427324
      ],
      [
        "These",
        -9.396643312111252
      ],
      [
        "Ġmale",
        -9.397595484504892
      ],
      [
        "Ġdrink",
        -9.398250469663385
      ],
      [
        ".S",
        -9.398671306994553
      ],
      [
        "Step",
        -9.401304661332414
      ],
      [
        "Ġfire",
        -9.401373152116417
      ],
      [
        "ĠDNA",
        -9.401643523680177
      ],
      [
        "Ġdefine",
        -9.403540222336783
      ],
      [
        "Ġcareful",
        -9.404276343392398
      ],
      [
        "ĠThen",
        -9.404630795657338
      ],
      [
        "Ġhope",
        -9.405043125231924
      ],
      [
        "Can",
        -9.40537861051964
      ],
      [
        "companie",
        -9.407640535081246
      ],
      [
        "Ġload",
        -9.407905191299688
      ],
      [
        "Ġforest",
        -9.408388057873552
      ],
      [
        "ish",
        -9.409123319666486
      ],
      [
        "Ġperform",
        -9.409681175727869
      ],
      [
        "Ġtaste",
        -9.409829456680828
      ],
      [
        "Ġmuscle",
        -9.409996025280428
      ],
      [
        "Ġlate",
        -9.411210905059963
      ],
      [
        "Ġflight",
        -9.41124844579601
      ],
      [
        "Ġbag",
        -9.412008249050205
      ],
      [
        "Ġfat",
        -9.412582745929104
      ],
      [
        "Ġobtain",
        -9.413292473241942
      ],
      [
        "Ġsix",
        -9.414951495921184
      ],
      [
        "Ġattack",
        -9.416513196095089
      ],
      [
        "Ġwave",
        -9.416536833555014
      ],
      [
        "Each",
        -9.41666865613735
      ],
      [
        "Ġfeature",
        -9.419333966702585
      ],
      [
        "Ġconstruction",
        -9.419687520950076
      ],
      [
        "Ġsearch",
        -9.420770204898506
      ],
      [
        "Ġinstall",
        -9.421107788444331
      ],
      [
        "Ġprocesses",
        -9.42160954499102
      ],
      [
        "Ġjourney",
        -9.422104622261736
      ],
      [
        "Ġcleaning",
        -9.422704477830116
      ],
      [
        "Ġmembers",
        -9.424963699625057
      ],
      [
        "Ġpoints",
        -9.426739640437294
      ],
      [
        "Ġpattern",
        -9.42958665236162
      ],
      [
        "ĠAmerica",
        -9.43070288050748
      ],
      [
        "Ġmusic",
        -9.431284963098443
      ],
      [
        "Using",
        -9.431339542538048
      ],
      [
        "Ġblue",
        -9.432211716025575
      ],
      [
        "Ġhabitat",
        -9.43403764196021
      ],
      [
        "Ġbaby",
        -9.436681315335145
      ],
      [
        "H",
        -9.438032036067716
      ],
      [
        "Ġlocate",
        -9.438040498696363
      ],
      [
        "Ġcouple",
        -9.438594266123417
      ],
      [
        "Ġslight",
        -9.43968350599938
      ],
      [
        "ĠOf",
        -9.440199430771235
      ],
      [
        "ĠUS",
        -9.440504626704527
      ],
      [
        "z",
        -9.441148668199112
      ],
      [
        "Ġbuilt",
        -9.44316904059977
      ],
      [
        "Ġear",
        -9.44439960340583
      ],
      [
        "Ġengineer",
        -9.446852306660066
      ],
      [
        "Ġfile",
        -9.448191368022997
      ],
      [
        "Ġimportance",
        -9.450038334119345
      ],
      [
        "Ġlives",
        -9.450990200346425
      ],
      [
        "ĠMy",
        -9.45103729808633
      ],
      [
        "Ġsuccess",
        -9.451474451175653
      ],
      [
        "ĠWorld",
        -9.452439742011444
      ],
      [
        "Ġpromote",
        -9.45269635080087
      ],
      [
        "Ġaware",
        -9.453777033815038
      ],
      [
        "Ġman",
        -9.454084608288545
      ],
      [
        "ful",
        -9.455059918250107
      ],
      [
        "maintenance",
        -9.45752081774615
      ],
      [
        "Ġhair",
        -9.457756355381054
      ],
      [
        "Ġsevere",
        -9.458256216374512
      ],
      [
        "Ġcombination",
        -9.458274186868683
      ],
      [
        "Ġwire",
        -9.459950821386606
      ],
      [
        "Ġpair",
        -9.460457934172458
      ],
      [
        "Ġensur",
        -9.460511642841706
      ],
      [
        "Ġcolors",
        -9.462566049730311
      ],
      [
        "O",
        -9.464480068044804
      ],
      [
        "Ġcutting",
        -9.465952204167031
      ],
      [
        "Ġcosts",
        -9.466885703030416
      ],
      [
        "ĠWhy",
        -9.467062013703046
      ],
      [
        "Ġtank",
        -9.467936294459284
      ],
      [
        "Ġpatterns",
        -9.468218616901812
      ],
      [
        "With",
        -9.469102266790674
      ],
      [
        "By",
        -9.469539776407132
      ],
      [
        "Ġpublished",
        -9.470083631951706
      ],
      [
        "ĠBe",
        -9.470749261056255
      ],
      [
        "Ġinstance",
        -9.472259768976436
      ],
      [
        "Ġrich",
        -9.475400954910109
      ],
      [
        "Ġlines",
        -9.47613782162551
      ],
      [
        "Ġapplied",
        -9.47920424661947
      ],
      [
        "Ġdeal",
        -9.479221732030435
      ],
      [
        "Ġsources",
        -9.480129771397731
      ],
      [
        "Ġimages",
        -9.480749325411132
      ],
      [
        "Ġoxygen",
        -9.480802172635457
      ],
      [
        "Ġ+",
        -9.481621357704483
      ],
      [
        "Ġvary",
        -9.482398777114298
      ],
      [
        "Ġsoon",
        -9.483910151738572
      ],
      [
        "Ġbottom",
        -9.484265024202127
      ],
      [
        "Ġgene",
        -9.487470788518024
      ],
      [
        "Ġthird",
        -9.4881329089573
      ],
      [
        "bility",
        -9.488883176956543
      ],
      [
        "Ġsigns",
        -9.490018363091728
      ],
      [
        "Ġsoft",
        -9.49008289153394
      ],
      [
        "-up",
        -9.49047673177833
      ],
      [
        "Ġrecord",
        -9.490544473042233
      ],
      [
        "Ġtemperatures",
        -9.493384374661565
      ],
      [
        "ever",
        -9.494000682607105
      ],
      [
        "Ġfluid",
        -9.49411721977653
      ],
      [
        "giving",
        -9.494123293776834
      ],
      [
        "Ġupon",
        -9.49426854380032
      ],
      [
        "Ġforward",
        -9.494984326078171
      ],
      [
        "Ġco",
        -9.495196054426634
      ],
      [
        "Ġresponsibl",
        -9.49571664383726
      ],
      [
        "Ġsmooth",
        -9.495941204724325
      ],
      [
        "Ġpull",
        -9.49855385256691
      ],
      [
        "Ġdecrease",
        -9.49938621945638
      ],
      [
        "ĠResearch",
        -9.49951090651262
      ],
      [
        "Ġnothing",
        -9.501124113089569
      ],
      [
        "Ġvision",
        -9.501367286350275
      ],
      [
        "Ġfinish",
        -9.503835454409804
      ],
      [
        "Ġadjust",
        -9.504896006236288
      ],
      [
        "Ġaccurate",
        -9.505945087501829
      ],
      [
        "Ġtrain",
        -9.505972494631823
      ],
      [
        "Ġteaching",
        -9.50652787478747
      ],
      [
        "Ġprint",
        -9.506944146132096
      ],
      [
        "ĠAdditional",
        -9.507003582241378
      ],
      [
        "Ġroot",
        -9.507245521792107
      ],
      [
        "Ġchallenges",
        -9.507315559815948
      ],
      [
        "Ġpowerful",
        -9.507576997938733
      ],
      [
        "ĠSouth",
        -9.507618631317786
      ],
      [
        "âĢ¢",
        -9.507797477519492
      ],
      [
        "Ġyellow",
        -9.50897143947362
      ],
      [
        "Ġsort",
        -9.509094387172023
      ],
      [
        "Ġdraw",
        -9.512828119539304
      ],
      [
        "Ġsuccessful",
        -9.51367580870662
      ],
      [
        "Ġconsist",
        -9.516983277341918
      ],
      [
        "Ġlesson",
        -9.51860352328163
      ],
      [
        "Ġstem",
        -9.520884493818372
      ],
      [
        "Ġmedication",
        -9.521237781851411
      ],
      [
        "Ġinteraction",
        -9.521425818174642
      ],
      [
        "Ġhit",
        -9.521648743405423
      ],
      [
        "Ġ#",
        -9.522320180892647
      ],
      [
        "Ġapp",
        -9.523180874779822
      ],
      [
        "Ġbox",
        -9.52368999690897
      ],
      [
        "Ġboard",
        -9.52423039703701
      ],
      [
        "Ġrecover",
        -9.524518851361815
      ],
      [
        "Ġfriends",
        -9.525460463303386
      ],
      [
        "ĠAre",
        -9.527949760889012
      ],
      [
        "Ġbeautiful",
        -9.529133404462602
      ],
      [
        "therapy",
        -9.529157000767494
      ],
      [
        "Ġcame",
        -9.529243055443104
      ],
      [
        "Ġpass",
        -9.529600572588762
      ],
      [
        "Some",
        -9.529698395019958
      ],
      [
        "Ġphotograph",
        -9.53032568413283
      ],
      [
        "Ġvia",
        -9.53104978546348
      ],
      [
        "Ġwild",
        -9.531677578215827
      ],
      [
        "=",
        -9.534606830223671
      ],
      [
        ".com",
        -9.535175695020214
      ],
      [
        "ĠNot",
        -9.535433615910192
      ],
      [
        "ĠOur",
        -9.53766687997667
      ],
      [
        "Ġprograms",
        -9.538840498570009
      ],
      [
        "Ġmotor",
        -9.539914118366454
      ],
      [
        "Ġenable",
        -9.54057271360759
      ],
      [
        "Ġrapid",
        -9.54083149622577
      ],
      [
        "Ġpurchase",
        -9.541494470365093
      ],
      [
        "Ġphone",
        -9.541878093337024
      ],
      [
        "Ġpicture",
        -9.541981993724804
      ],
      [
        "Ġhands",
        -9.543183342854428
      ],
      [
        "Ġmeaning",
        -9.5447677874234
      ],
      [
        "Ġrefer",
        -9.545344926901564
      ],
      [
        "Ġinvolves",
        -9.545606820385403
      ],
      [
        "of",
        -9.545678108108778
      ],
      [
        "Ġdeliver",
        -9.549204618622408
      ],
      [
        "Ġplatform",
        -9.55048841438686
      ],
      [
        "Ġversion",
        -9.551593247435342
      ],
      [
        "Ġvolume",
        -9.552384715664406
      ],
      [
        "Ġpoor",
        -9.553629429864428
      ],
      [
        "Ġwriting",
        -9.553726791907089
      ],
      [
        "Ġimmune",
        -9.554006559109276
      ],
      [
        "mm",
        -9.556501605204708
      ],
      [
        "Ġfloor",
        -9.55719739534812
      ],
      [
        "Ġpath",
        -9.557754970483767
      ],
      [
        "ĠWho",
        -9.557769453609254
      ],
      [
        "Ġthinking",
        -9.558017435108988
      ],
      [
        "Ġbrand",
        -9.559640009799493
      ],
      [
        "Ġmouth",
        -9.55990055815034
      ],
      [
        "therefore",
        -9.560140364202123
      ],
      [
        "Ġserious",
        -9.560141808336944
      ],
      [
        "Ġideas",
        -9.56027230640144
      ],
      [
        "Ġhost",
        -9.560598090502394
      ],
      [
        "Ġnative",
        -9.560720469382392
      ],
      [
        "Ġmanufacturer",
        -9.563403318149446
      ],
      [
        "Ġcap",
        -9.565154457290893
      ],
      [
        "><",
        -9.566066160664754
      ],
      [
        "ĠAls",
        -9.567436727109431
      ],
      [
        "Ġfaster",
        -9.56799983762642
      ],
      [
        "Ġsecurity",
        -9.569079919101044
      ],
      [
        "Ġquick",
        -9.569720767653454
      ],
      [
        "Ġflower",
        -9.57040840875463
      ],
      [
        "ization",
        -9.571241188747086
      ],
      [
        "Ġanyone",
        -9.57258807617021
      ],
      [
        "Ġmulti",
        -9.57308607898982
      ],
      [
        "Ġpick",
        -9.574651861718138
      ],
      [
        "Ġstand",
        -9.575638010674345
      ],
      [
        "Ġhandle",
        -9.57701094813829
      ],
      [
        "Ġadvanced",
        -9.577163928163165
      ],
      [
        "Ġhorse",
        -9.577290941865297
      ],
      [
        "Ġinteresting",
        -9.577985052064534
      ],
      [
        "Ġpieces",
        -9.57974157836806
      ],
      [
        "Ġsend",
        -9.580072648230905
      ],
      [
        "Ġprojects",
        -9.580281002691724
      ],
      [
        "Ġdegrees",
        -9.581214513683982
      ],
      [
        "li",
        -9.582065541900548
      ],
      [
        "Ġwrite",
        -9.58207621259264
      ],
      [
        "Ġtrip",
        -9.58350936058758
      ],
      [
        "Ġearth",
        -9.583905830838043
      ],
      [
        "Ġwrong",
        -9.583952432589983
      ],
      [
        "Ġexcellent",
        -9.58436733019724
      ],
      [
        "Ġnutrients",
        -9.584515538045252
      ],
      [
        "G",
        -9.584975390874218
      ],
      [
        "ism",
        -9.586120182734083
      ],
      [
        "Ġadapt",
        -9.586371065598078
      ],
      [
        "came",
        -9.586771138455644
      ],
      [
        "They",
        -9.58694085432354
      ],
      [
        "ĠMake",
        -9.58696676446929
      ],
      [
        "$",
        -9.587189095436583
      ],
      [
        "Ġfoot",
        -9.587498066134582
      ],
      [
        "Ġrise",
        -9.58784969034577
      ],
      [
        "Ġcoming",
        -9.588057648229103
      ],
      [
        "Ġcity",
        -9.588115314204805
      ],
      [
        "On",
        -9.58851141183266
      ],
      [
        "Ġraise",
        -9.588534371792845
      ],
      [
        "ĠJ",
        -9.588780968130791
      ],
      [
        "Ġcontainer",
        -9.590186177228723
      ],
      [
        "Ġbrown",
        -9.590497050908168
      ],
      [
        "Ġincluded",
        -9.591413056818698
      ],
      [
        "Ġteachers",
        -9.5916163056508
      ],
      [
        "Ġexpensive",
        -9.59192015436944
      ],
      [
        "Ġexpand",
        -9.592033741284196
      ],
      [
        "-term",
        -9.592276883159805
      ],
      [
        "Ġheavy",
        -9.5922870247783
      ],
      [
        "Ġteacher",
        -9.594273592325562
      ],
      [
        "Ġmessage",
        -9.59466277995064
      ],
      [
        "Ġchicken",
        -9.595436513865335
      ],
      [
        "Ġhappens",
        -9.595955377092665
      ],
      [
        "ĠCalifornia",
        -9.59889984743354
      ],
      [
        "Do",
        -9.599024329043388
      ],
      [
        "Ġdriver",
        -9.59915923597547
      ],
      [
        "Ġdriv",
        -9.59940586812459
      ],
      [
        "Ġocean",
        -9.600481183543348
      ],
      [
        "Ġspeak",
        -9.601256188231975
      ],
      [
        "ers",
        -9.602325489560714
      ],
      [
        "Ġiron",
        -9.602602435303927
      ],
      [
        "Ġexposure",
        -9.602897011051931
      ],
      [
        "Ġsustain",
        -9.60383594720312
      ],
      [
        "lost",
        -9.6048611659108
      ],
      [
        "Ġnoise",
        -9.60629459306481
      ],
      [
        "ĠCenter",
        -9.60765339522413
      ],
      [
        "Ġencourage",
        -9.608125854003973
      ],
      [
        "Ġpractices",
        -9.608395542048942
      ],
      [
        "Ġsolutions",
        -9.608458765414682
      ],
      [
        "Ġvaccine",
        -9.608981036009958
      ],
      [
        "ship",
        -9.611020812331407
      ],
      [
        "Ġbright",
        -9.611988119695734
      ],
      [
        "ities",
        -9.611993741608488
      ],
      [
        "Ġsolid",
        -9.612242349115022
      ],
      [
        "Ġdisplay",
        -9.614970853612093
      ],
      [
        "Ġcomfortable",
        -9.61514374421168
      ],
      [
        "Ġdocument",
        -9.615411838116046
      ],
      [
        "ĠNow",
        -9.61586050357245
      ],
      [
        "Ġonto",
        -9.616595485096088
      ],
      [
        "Ġphase",
        -9.619351584586395
      ],
      [
        "Ġpanel",
        -9.619552944186598
      ],
      [
        "Ġcompound",
        -9.61960198037145
      ],
      [
        "Ġscreen",
        -9.620011707503837
      ],
      [
        "Ġre",
        -9.620437578124715
      ],
      [
        "Ġtheory",
        -9.620505454215344
      ],
      [
        "Ġclick",
        -9.620562718743718
      ],
      [
        "Ġmonitor",
        -9.620737925632872
      ],
      [
        "Ġswitch",
        -9.62150394285553
      ],
      [
        "Ġobserve",
        -9.626194711629273
      ],
      [
        "Ġseed",
        -9.626486887072002
      ],
      [
        "Ġpresence",
        -9.627253404661246
      ],
      [
        "And",
        -9.6274353177181
      ],
      [
        "Ġplanet",
        -9.627460282912232
      ],
      [
        "Ġmiddle",
        -9.6274872886714
      ],
      [
        "Ġsubstance",
        -9.62825953369643
      ],
      [
        "ĠTheir",
        -9.630126857276837
      ],
      [
        "Ġframe",
        -9.63089504644434
      ],
      [
        "ĠOther",
        -9.63115129958623
      ],
      [
        "ĠState",
        -9.63129827019317
      ],
      [
        "Ġstates",
        -9.632117474330432
      ],
      [
        "Ġmap",
        -9.63428464365621
      ],
      [
        "Ġsequence",
        -9.637853116051414
      ],
      [
        "Ġaccept",
        -9.638696536402408
      ],
      [
        "Ġattempt",
        -9.638745728287816
      ],
      [
        "ĠBecause",
        -9.638772094418307
      ],
      [
        "Ġpaint",
        -9.638837936243496
      ],
      [
        "Ġmotion",
        -9.639468157785975
      ],
      [
        "Ġmatch",
        -9.639893465980878
      ],
      [
        "Ġconsistent",
        -9.640023368413644
      ],
      [
        "Ġfarm",
        -9.6408012443122
      ],
      [
        "Ġpush",
        -9.641519916999234
      ],
      [
        "Ġroad",
        -9.642060814906134
      ],
      [
        "Ġinches",
        -9.64271861299776
      ],
      [
        "ĠEnglish",
        -9.642877738422584
      ],
      [
        "Now",
        -9.643196713826956
      ],
      [
        "Ġbeginning",
        -9.644017173121728
      ],
      [
        "ĠUK",
        -9.64437851799231
      ],
      [
        "Ġvaluable",
        -9.645157757883304
      ],
      [
        "Ġhuge",
        -9.645654289320008
      ],
      [
        "Ġfully",
        -9.64581830002744
      ],
      [
        "Ġdrain",
        -9.646042855988412
      ],
      [
        "time",
        -9.647038165770788
      ],
      [
        "lthough",
        -9.648697329013531
      ],
      [
        "kids",
        -9.649197697860169
      ],
      [
        "Ġthus",
        -9.649278666830408
      ],
      [
        "Ġchallenge",
        -9.651688025046187
      ],
      [
        "Ġfilter",
        -9.65174177181344
      ],
      [
        "Ġpound",
        -9.653188744355354
      ],
      [
        "Ġbar",
        -9.654171848241068
      ],
      [
        "Ġsell",
        -9.65567568939252
      ],
      [
        "Ġskill",
        -9.656655724741002
      ],
      [
        "Ġphoto",
        -9.658328911425246
      ],
      [
        "An",
        -9.65861789418252
      ],
      [
        "Ġcomment",
        -9.659734874058136
      ],
      [
        "Ġsustainabl",
        -9.66069424477989
      ],
      [
        "Ġrock",
        -9.661014181055592
      ],
      [
        "Ġstone",
        -9.661135224648904
      ],
      [
        "Ġdepth",
        -9.66121928722269
      ],
      [
        "Ġmechanism",
        -9.662287363542353
      ],
      [
        "Ġsaw",
        -9.662358165338468
      ],
      [
        "Ġemission",
        -9.662491694694063
      ],
      [
        "Ġbond",
        -9.664450314014056
      ],
      [
        "Ġtransport",
        -9.664817733667055
      ],
      [
        "Ġthousand",
        -9.665023265284596
      ],
      [
        "light",
        -9.6650876917403
      ],
      [
        "Ġmaximu",
        -9.665361913876112
      ],
      [
        "Ġaren",
        -9.66802477980687
      ],
      [
        "Ġmoisture",
        -9.668956469364495
      ],
      [
        "Ġsurrounding",
        -9.669333995199809
      ],
      [
        "older",
        -9.670078969468172
      ],
      [
        "eyond",
        -9.670768484279003
      ],
      [
        "haps",
        -9.67157807364476
      ],
      [
        "Ġgrain",
        -9.671928568853335
      ],
      [
        "Ġreflect",
        -9.671983476434898
      ],
      [
        "Ġ--",
        -9.67228285574556
      ],
      [
        "Ġcommuniti",
        -9.672529246389589
      ],
      [
        "Ġstick",
        -9.672575583635332
      ],
      [
        "Ġround",
        -9.67354546341115
      ],
      [
        "Ġexpected",
        -9.676719307750789
      ],
      [
        "Ġrecipe",
        -9.677340594065363
      ],
      [
        "Ġfigure",
        -9.677562338333043
      ],
      [
        "Ġsign",
        -9.677650198138346
      ],
      [
        "Ġestimate",
        -9.678614377725223
      ],
      [
        "K",
        -9.679109248935866
      ],
      [
        "Ġburn",
        -9.679491919486964
      ],
      [
        "Ġlaw",
        -9.679639517651744
      ],
      [
        "Ġplease",
        -9.67977557571714
      ],
      [
        "body",
        -9.6814503710746
      ],
      [
        "wide",
        -9.681597641012493
      ],
      [
        "Ġbackground",
        -9.683880594134212
      ],
      [
        "Ġreveal",
        -9.68538826928164
      ],
      [
        "Ġnational",
        -9.686666998767109
      ],
      [
        "Ġangle",
        -9.686763108489838
      ],
      [
        "Ġvital",
        -9.6879983098357
      ],
      [
        "Ġcontext",
        -9.688025915122662
      ],
      [
        "Ġreference",
        -9.689312604939438
      ],
      [
        "ĠOnc",
        -9.689731119058932
      ],
      [
        "ĠNOT",
        -9.689775881953407
      ],
      [
        "cy",
        -9.690072309939085
      ],
      [
        "Ġsquare",
        -9.691407915928773
      ],
      [
        "Ġship",
        -9.692422185317678
      ],
      [
        "over",
        -9.692818077088326
      ],
      [
        "ĠFirst",
        -9.692925392102458
      ],
      [
        "Ġelectronic",
        -9.693182303740308
      ],
      [
        "Ġinternal",
        -9.693323854442554
      ],
      [
        "Ġheight",
        -9.697094658428169
      ],
      [
        "W",
        -9.697256502720336
      ],
      [
        "Ġled",
        -9.697890382832608
      ],
      [
        "ĠMay",
        -9.698229015564834
      ],
      [
        "Ġcolour",
        -9.698482039175978
      ],
      [
        "Ġstrategies",
        -9.69857078294255
      ],
      [
        "Ġmedium",
        -9.698622739727742
      ],
      [
        "went",
        -9.699224482129264
      ],
      [
        "Ġwritten",
        -9.69966188123681
      ],
      [
        "Ġbecomes",
        -9.70007719407926
      ],
      [
        "âĢĻt",
        -9.70029113614101
      ],
      [
        "ĠLet",
        -9.700380683419477
      ],
      [
        "Ġprocessing",
        -9.701449859124754
      ],
      [
        "Ġmother",
        -9.701603418603508
      ],
      [
        "Ġplanning",
        -9.702045064601435
      ],
      [
        "Ġaid",
        -9.704936941885029
      ],
      [
        "Ġchanging",
        -9.705226186775343
      ],
      [
        "happy",
        -9.705634560901911
      ],
      [
        "Ġfabric",
        -9.70636037496004
      ],
      [
        "Ġerror",
        -9.706758048434985
      ],
      [
        "Ġdiabetes",
        -9.7069256178549
      ],
      [
        "Ġfinancial",
        -9.70754075694407
      ],
      [
        "Ġintroduce",
        -9.707880418718586
      ],
      [
        "ĠEven",
        -9.707939801289058
      ],
      [
        "Ġcentral",
        -9.70829007615568
      ],
      [
        "ĠWater",
        -9.70848472204194
      ],
      [
        "Ġtransfer",
        -9.709593406781806
      ],
      [
        "Ġtechnologies",
        -9.710034656643328
      ],
      [
        "Ġsecure",
        -9.713378854900627
      ],
      [
        "Ġcapture",
        -9.714632427719549
      ],
      [
        "Ġdie",
        -9.716574789097884
      ],
      [
        "ĠInstitute",
        -9.717512097857584
      ],
      [
        "Ġconnected",
        -9.719199861390264
      ],
      [
        "Ġdouble",
        -9.719857443580032
      ],
      [
        "Ġbreath",
        -9.720508460977426
      ],
      [
        "Ġdiscovered",
        -9.721146196001236
      ],
      [
        "Ġfrequency",
        -9.72136716794549
      ],
      [
        "Ġrain",
        -9.721652468056178
      ],
      [
        "Ġdoor",
        -9.72248738029528
      ],
      [
        "Ġshift",
        -9.72291525586366
      ],
      [
        "ĠâĢ¦",
        -9.724304976490052
      ],
      [
        "Ġconsumption",
        -9.727900483961465
      ],
      [
        "Ġplate",
        -9.728669180076244
      ],
      [
        "Ġtexture",
        -9.729073385011134
      ],
      [
        "Ġpractical",
        -9.731096385958285
      ],
      [
        "Ġlandscape",
        -9.73192779917478
      ],
      [
        "Ġpipe",
        -9.733206402299588
      ],
      [
        "Ġprogress",
        -9.735119542339678
      ],
      [
        "Ġpest",
        -9.735440734750606
      ],
      [
        "electricity",
        -9.73685251798211
      ],
      [
        "Ġprinciple",
        -9.73729712867649
      ],
      [
        "Here",
        -9.737415221465913
      ],
      [
        "Ġgoals",
        -9.738028471003746
      ],
      [
        "Ġoutcome",
        -9.73856927815284
      ],
      [
        "Ġkid",
        -9.739066803238789
      ],
      [
        "Ġresulting",
        -9.739102774437104
      ],
      [
        "Ġcollection",
        -9.739139031435068
      ],
      [
        "Ġmedicine",
        -9.73936419226674
      ],
      [
        "Ġassessment",
        -9.74015182964375
      ],
      [
        "Ġcross",
        -9.740884014439391
      ],
      [
        "Ġfair",
        -9.742643163555488
      ],
      [
        "Ġengage",
        -9.742688529988534
      ],
      [
        "Ġcoast",
        -9.742968655262128
      ],
      [
        "Ġprefer",
        -9.74543716059414
      ],
      [
        "Ġpark",
        -9.74546758446742
      ],
      [
        "Ġevolution",
        -9.746657835624994
      ],
      [
        "Ġrespond",
        -9.747913245888109
      ],
      [
        "Ġoperation",
        -9.749996110276838
      ],
      [
        "Ġbutton",
        -9.751338813049989
      ],
      [
        "Ġattract",
        -9.751477232785213
      ],
      [
        "Ġmen",
        -9.751607810823543
      ],
      [
        "ĠJust",
        -9.753166995309158
      ],
      [
        "Ġsheet",
        -9.75406567726508
      ],
      [
        "eating",
        -9.75577100342025
      ],
      [
        "Ġowners",
        -9.756710376519784
      ],
      [
        "ĠRiver",
        -9.757203780762914
      ],
      [
        "Ġmiss",
        -9.757616341201286
      ],
      [
        "Ġplaced",
        -9.75811935720757
      ],
      [
        "Ġvariable",
        -9.75819215485727
      ],
      [
        "V",
        -9.7585029549961
      ],
      [
        "Ġstrain",
        -9.758620863053237
      ],
      [
        "ĠAlthough",
        -9.760525285591658
      ],
      [
        "Ġoffice",
        -9.76091011252636
      ],
      [
        "Ġroutine",
        -9.761035441135745
      ],
      [
        "ul",
        -9.761166711016855
      ],
      [
        "Ġfavorite",
        -9.76169613649969
      ],
      [
        "Ġrule",
        -9.763216487340946
      ],
      [
        "Ġlose",
        -9.763606211319551
      ],
      [
        "Ġimprov",
        -9.763652277923194
      ],
      [
        "Q",
        -9.764887199616451
      ],
      [
        "Ġorganism",
        -9.764908906812815
      ],
      [
        "Ġconvert",
        -9.764960524289554
      ],
      [
        "Ġassess",
        -9.766204491703505
      ],
      [
        "However",
        -9.76630630822002
      ],
      [
        "Ġweb",
        -9.766389104884766
      ],
      [
        "-like",
        -9.767889938317266
      ],
      [
        "Ġjoin",
        -9.76911392417776
      ],
      [
        "Ġgrass",
        -9.769174193679262
      ],
      [
        "Ġfilm",
        -9.770286609664437
      ],
      [
        "Ġexpect",
        -9.77038779245718
      ],
      [
        "...ĊĊ",
        -9.770622093551667
      ],
      [
        "ĠAccording",
        -9.770638304423285
      ],
      [
        "Ġannual",
        -9.770821633320931
      ],
      [
        "Ġbodie",
        -9.770871954187449
      ],
      [
        "Ġcovered",
        -9.771915911248698
      ],
      [
        "Ġreported",
        -9.772601303657032
      ],
      [
        "ence",
        -9.773173351964928
      ],
      [
        "Ġinternational",
        -9.773932195267658
      ],
      [
        "ĠDur",
        -9.774428823604564
      ],
      [
        "Ġfailure",
        -9.77587862394751
      ],
      [
        "Ġdead",
        -9.77657019795366
      ],
      [
        "No",
        -9.77678684350534
      ],
      [
        "for",
        -9.776827100195566
      ],
      [
        "more",
        -9.778562891474472
      ],
      [
        "Ġdemonstrate",
        -9.778666776537452
      ],
      [
        "Ġstuff",
        -9.77940574538736
      ],
      [
        "Ġbasi",
        -9.780986094007847
      ],
      [
        "Ġspot",
        -9.78100739932862
      ],
      [
        "Ġcore",
        -9.781456948825332
      ],
      [
        "Ġplane",
        -9.782730119206732
      ],
      [
        "Ġfoundation",
        -9.783572193193825
      ],
      [
        "Ġeconomic",
        -9.783856766179005
      ],
      [
        "Ġdecade",
        -9.785780418621425
      ],
      [
        "Ġbatter",
        -9.78707752819061
      ],
      [
        "ical",
        -9.78851671824602
      ],
      [
        "ĠIndia",
        -9.78860439926402
      ],
      [
        "Ġpump",
        -9.788879554166598
      ],
      [
        "ility",
        -9.789060632237485
      ],
      [
        "Ġdangerous",
        -9.789082432832892
      ],
      [
        "Ġsounds",
        -9.789184918933188
      ],
      [
        "Ġgear",
        -9.789369618529436
      ],
      [
        "Ġblog",
        -9.790788816633455
      ],
      [
        "Ġsweet",
        -9.79106341125116
      ],
      [
        "Ġselection",
        -9.793938738411164
      ],
      [
        "Ġexpress",
        -9.79491904930024
      ],
      [
        "Ġcommercial",
        -9.795873257550056
      ],
      [
        "ĠDoes",
        -9.795916226639005
      ],
      [
        "Ġreality",
        -9.796176165557458
      ],
      [
        "Ġmid",
        -9.79675115222012
      ],
      [
        "day",
        -9.797820547487348
      ],
      [
        "Ġcareer",
        -9.798380004089417
      ],
      [
        "ĠAfrica",
        -9.799377930528316
      ],
      [
        "Ġdegree",
        -9.800484358144477
      ],
      [
        "Ġalone",
        -9.800644235269246
      ],
      [
        "Ġgenes",
        -9.801157622013688
      ],
      [
        "Ġcable",
        -9.80183074968203
      ],
      [
        "one",
        -9.80186584813492
      ],
      [
        "Ġbusinesses",
        -9.802674452913728
      ],
      [
        "Ġexpression",
        -9.802710874133837
      ],
      [
        "**",
        -9.804415729531168
      ],
      [
        "-year",
        -9.805811749844857
      ],
      [
        "Ġspecifically",
        -9.80622613954338
      ],
      [
        "After",
        -9.806752216918673
      ],
      [
        "Ġappearance",
        -9.808632881993889
      ],
      [
        "Ġinsight",
        -9.80872725548654
      ],
      [
        "Ġstraight",
        -9.80890444885187
      ],
      [
        "Ġstaff",
        -9.809438909583353
      ],
      [
        "held",
        -9.81053905273334
      ],
      [
        "line",
        -9.811654439134395
      ],
      [
        "ĠSince",
        -9.81202506165496
      ],
      [
        "ĠTherefor",
        -9.812117673314615
      ],
      [
        "Ġupper",
        -9.81237860780312
      ],
      [
        "Ġfashion",
        -9.813633351523904
      ],
      [
        "Ġvirtual",
        -9.814373878061057
      ],
      [
        "Ġroots",
        -9.81542199994725
      ],
      [
        "Ġhelpful",
        -9.816458500176813
      ],
      [
        "Ġrules",
        -9.817042515103903
      ],
      [
        "Ġcup",
        -9.817524349771867
      ],
      [
        "Ġmolecules",
        -9.819141464040428
      ],
      [
        "Ġadvice",
        -9.819529962202632
      ],
      [
        "hours",
        -9.819787117548826
      ],
      [
        "Ġallowed",
        -9.819825398179002
      ],
      [
        "Ġfund",
        -9.819895205368002
      ],
      [
        "Ġartist",
        -9.823275279473656
      ],
      [
        "Ġoperat",
        -9.824452156131231
      ],
      [
        "Ġproteins",
        -9.824871115662562
      ],
      [
        "Ġtrigger",
        -9.825181435050672
      ],
      [
        "Ġanti",
        -9.826961920353456
      ],
      [
        "Ġroll",
        -9.827075932814196
      ],
      [
        "head",
        -9.83029326612512
      ],
      [
        "ĠDepartment",
        -9.83051300379137
      ],
      [
        "Ġconcrete",
        -9.830573417468027
      ],
      [
        "Ġdynamic",
        -9.830991793026453
      ],
      [
        "Ġinsects",
        -9.831514580054776
      ],
      [
        "Ġdistribution",
        -9.83172956152929
      ],
      [
        "Ġconsume",
        -9.832189502739526
      ],
      [
        "Ġremov",
        -9.83235986914188
      ],
      [
        "Ġpollution",
        -9.833557733863252
      ],
      [
        "Ġpredict",
        -9.834039538637535
      ],
      [
        "Ġmode",
        -9.835175618268917
      ],
      [
        "Ġdivers",
        -9.83561377285944
      ],
      [
        "Ġpress",
        -9.837269934840016
      ],
      [
        "Ġgeneration",
        -9.838127017274932
      ],
      [
        "ĠOr",
        -9.83819525342589
      ],
      [
        "Ġasked",
        -9.838740587684002
      ],
      [
        "/or",
        -9.839574542658092
      ],
      [
        "Ġsociety",
        -9.839903062908466
      ],
      [
        "Ġshot",
        -9.83992532269011
      ],
      [
        "Ġteach",
        -9.84007282643485
      ],
      [
        "Ġconclusion",
        -9.840110212912553
      ],
      [
        "Ġindoor",
        -9.840120220030084
      ],
      [
        "Ġdrawing",
        -9.84122573630066
      ],
      [
        "âĢĿ",
        -9.84142525764832
      ],
      [
        "Ġregulation",
        -9.841616719849752
      ],
      [
        "Ġhighlight",
        -9.844037038486803
      ],
      [
        "ĠAustralia",
        -9.844538212179993
      ],
      [
        "Ġcharacteristics",
        -9.845578330886124
      ],
      [
        "Ġdrop",
        -9.845819844552366
      ],
      [
        "Ġcars",
        -9.846025710573723
      ],
      [
        "Ġnearly",
        -9.846313192600263
      ],
      [
        "ier",
        -9.846531897485672
      ],
      [
        "Ġwindow",
        -9.846557905116397
      ],
      [
        "Ġmorning",
        -9.848461595903313
      ],
      [
        "Ġprovider",
        -9.848530445176287
      ],
      [
        "Ġmember",
        -9.851034664670385
      ],
      [
        "Ġsports",
        -9.851603392044783
      ],
      [
        "Ġfossil",
        -9.853448433777936
      ],
      [
        "Ġbutter",
        -9.853529790949326
      ],
      [
        "ĠDay",
        -9.854569998367229
      ],
      [
        "That",
        -9.858594413617723
      ],
      [
        "Ġcreative",
        -9.85867332780272
      ],
      [
        "Ġboat",
        -9.858741187396475
      ],
      [
        "Ġrelax",
        -9.861329726396953
      ],
      [
        "ĠEurope",
        -9.861815638421636
      ],
      [
        "Ġanxiet",
        -9.86184084847193
      ],
      [
        "Ġthread",
        -9.862197349180724
      ],
      [
        "Ġhundred",
        -9.862574198470648
      ],
      [
        "Ġcharacter",
        -9.862608706606691
      ],
      [
        "Ġfamilies",
        -9.86325973290769
      ],
      [
        "Ġoptimal",
        -9.86403678745678
      ],
      [
        "Ġbear",
        -9.864215728761623
      ],
      [
        "Ġreferr",
        -9.864372906807375
      ],
      [
        "Ġsurgery",
        -9.865268124309528
      ],
      [
        "Ġcomfort",
        -9.866896464635037
      ],
      [
        "Ġformed",
        -9.867249386455782
      ],
      [
        "Ġvoice",
        -9.867610249753538
      ],
      [
        "Y",
        -9.867646154698017
      ],
      [
        "Ġdental",
        -9.867678638112707
      ],
      [
        "Ġcoat",
        -9.867948742961232
      ],
      [
        "Ġsites",
        -9.86850645602485
      ],
      [
        "Ġstain",
        -9.868996250090357
      ],
      [
        "Ġcalculate",
        -9.870211599870586
      ],
      [
        "Ġbeneficial",
        -9.87067710372
      ],
      [
        "Ġperformed",
        -9.870770288520674
      ],
      [
        "X",
        -9.87087359711802
      ],
      [
        "Ġschools",
        -9.870921503698325
      ],
      [
        "if",
        -9.871194607407036
      ],
      [
        "All",
        -9.871892697889272
      ],
      [
        "Ġharmful",
        -9.872299234750002
      ],
      [
        "Ġmaybe",
        -9.8737779449765
      ],
      [
        "Ġapproximately",
        -9.874735464515783
      ],
      [
        "ĠService",
        -9.8759828160063
      ],
      [
        "Man",
        -9.876969868403515
      ],
      [
        "ĠDon",
        -9.876974389954768
      ],
      [
        "Ġpreference",
        -9.877066671173534
      ],
      [
        "Ġabsorb",
        -9.87864680725476
      ],
      [
        "Ġcategor",
        -9.879359069593292
      ],
      [
        "Ġrobot",
        -9.88076092408378
      ],
      [
        "Ġtransmission",
        -9.880930911453824
      ],
      [
        "Ġregister",
        -9.881056484960617
      ],
      [
        "Ġthin",
        -9.881635279424373
      ],
      [
        "Ġgift",
        -9.88178130113386
      ],
      [
        "Ġbrush",
        -9.881928025165072
      ],
      [
        "Ġeventual",
        -9.882463553835809
      ],
      [
        "Ġprepared",
        -9.88253508550764
      ],
      [
        "Ġfill",
        -9.88334986943682
      ],
      [
        "-free",
        -9.88450644346809
      ],
      [
        "Ġextend",
        -9.884558185128668
      ],
      [
        "Ġneck",
        -9.886351212943174
      ],
      [
        "Ġpets",
        -9.886887880885926
      ],
      [
        "Ġclassroom",
        -9.887246944331428
      ],
      [
        "Ġstatement",
        -9.887420944994789
      ],
      [
        "Ġagree",
        -9.88742864972367
      ],
      [
        "Ġsteel",
        -9.88926605394101
      ],
      [
        "Ġemail",
        -9.889464013846789
      ],
      [
        "Ġportion",
        -9.889531060056406
      ],
      [
        "Ġbooks",
        -9.890664935629571
      ],
      [
        "wildlife",
        -9.8907368240651
      ],
      [
        "Ġcoffee",
        -9.890923274837483
      ],
      [
        "Ġlatest",
        -9.89121743114869
      ],
      [
        "ĠCO",
        -9.891334183246776
      ],
      [
        "Ġchannel",
        -9.891515481357398
      ],
      [
        "Ġdirt",
        -9.892445662855687
      ],
      [
        "Ġsub",
        -9.893368926860449
      ],
      [
        "Ġbirth",
        -9.893590113203246
      ],
      [
        "Ġcomprehensive",
        -9.893794590042086
      ],
      [
        "Ġtrust",
        -9.8938867460348
      ],
      [
        "Our",
        -9.894141708090302
      ],
      [
        "Ġfeeding",
        -9.894853143241535
      ],
      [
        "Ġearlie",
        -9.895863900280354
      ],
      [
        "Ġoutdoor",
        -9.8963362930376
      ],
      [
        "Ġisland",
        -9.896637736161267
      ],
      [
        "Ġsuggests",
        -9.896998958818912
      ],
      [
        "Ġlaser",
        -9.897083865039676
      ],
      [
        "Ġpool",
        -9.897710290652023
      ],
      [
        "Ġemployee",
        -9.89792476410384
      ],
      [
        "Ġmeeting",
        -9.898738434350015
      ],
      [
        "Ġvirus",
        -9.899843185027295
      ],
      [
        "Ġestablished",
        -9.89991810239545
      ],
      [
        "Ġemotional",
        -9.900992569107007
      ],
      [
        "Ġseal",
        -9.90126707842854
      ],
      [
        "Ġlegal",
        -9.90150334854426
      ],
      [
        "Ġassist",
        -9.903073768287047
      ],
      [
        "Ġprocedure",
        -9.903294582493452
      ],
      [
        "Ġwait",
        -9.90357264061695
      ],
      [
        "Ġmixture",
        -9.904016586753889
      ],
      [
        "Ġtiny",
        -9.90460110579838
      ],
      [
        "Ġdefinition",
        -9.90474920978562
      ],
      [
        "Ġhydrogen",
        -9.90606170891883
      ],
      [
        "Ġformula",
        -9.907413204011192
      ],
      [
        "Ġpossibilit",
        -9.907889778670532
      ],
      [
        "Ġschedule",
        -9.909288290843122
      ],
      [
        "Ġratio",
        -9.911342736343585
      ],
      [
        "Ġformation",
        -9.912199482251085
      ],
      [
        "Ġharvest",
        -9.91236570571153
      ],
      [
        "Ġcatch",
        -9.912644564838864
      ],
      [
        "Ġhospital",
        -9.91297862909681
      ],
      [
        "ĠWhether",
        -9.91394571632654
      ],
      [
        "Are",
        -9.91408073590062
      ],
      [
        "Ġflat",
        -9.915501012098057
      ],
      [
        "Ġthick",
        -9.915862279730558
      ],
      [
        "Ġoperate",
        -9.917175590572004
      ],
      [
        "which",
        -9.917391315364569
      ],
      [
        "ivity",
        -9.91823468679302
      ],
      [
        "Ġtransition",
        -9.918296406343304
      ],
      [
        "Ġmarine",
        -9.91880413388725
      ],
      [
        "Ġreduction",
        -9.92095878745303
      ],
      [
        "Ġsurvey",
        -9.920993223764093
      ],
      [
        "Ġnumerous",
        -9.921155498733723
      ],
      [
        "Ġprogramm",
        -9.921210748691584
      ],
      [
        "ĠJapan",
        -9.921221164006504
      ],
      [
        "Ġsurvive",
        -9.921724514220454
      ],
      [
        "Ġcollect",
        -9.921959966214793
      ],
      [
        "Ġclasses",
        -9.92251469050924
      ],
      [
        "ĠGod",
        -9.922918784482832
      ],
      [
        "Ġdiagram",
        -9.922959726056146
      ],
      [
        "-in",
        -9.923070394460122
      ],
      [
        "Ġprivate",
        -9.924088343104218
      ],
      [
        "Ġindustrial",
        -9.92450407871917
      ],
      [
        "Ġmaster",
        -9.925050337397984
      ],
      [
        "Ġdiscussion",
        -9.925359734904408
      ],
      [
        "Ġchain",
        -9.926783869269578
      ],
      [
        "Ġnice",
        -9.927084423851404
      ],
      [
        "Ġtechnical",
        -9.92738496345088
      ],
      [
        "Ġlarges",
        -9.92880231978583
      ],
      [
        "ĠEducation",
        -9.929821364297672
      ],
      [
        "Ġboost",
        -9.929920859947364
      ],
      [
        "Ġprimari",
        -9.929946426919528
      ],
      [
        "Ġoperations",
        -9.93028053681168
      ],
      [
        "Ġcarrie",
        -9.930619587347216
      ],
      [
        "Ġparameter",
        -9.930726848956091
      ],
      [
        "fish",
        -9.931191694976617
      ],
      [
        "Ġresource",
        -9.931828819851946
      ],
      [
        "Ġartificial",
        -9.93256390043113
      ],
      [
        "Ġstation",
        -9.93267554587086
      ],
      [
        "Ġcalci",
        -9.932773379694018
      ],
      [
        "Ġleaf",
        -9.93289294517863
      ],
      [
        "Your",
        -9.933276551925358
      ],
      [
        "Ġmonitoring",
        -9.93442227711786
      ],
      [
        "ĠKeep",
        -9.93536695636696
      ],
      [
        "Ġatmosphere",
        -9.9357702363509
      ],
      [
        "Ġspeaker",
        -9.9361676713034
      ],
      [
        "Ġmanufactur",
        -9.938220566774692
      ],
      [
        "Ġinterested",
        -9.938843202089776
      ],
      [
        "Ġdish",
        -9.940184561620846
      ],
      [
        "Ġriver",
        -9.94067949564402
      ],
      [
        "side",
        -9.94106756343344
      ],
      [
        "Ġprepare",
        -9.941383952936397
      ],
      [
        "ĠEuropean",
        -9.942249531738003
      ],
      [
        "Ġautomatic",
        -9.942565070398846
      ],
      [
        "Ġrealize",
        -9.94402950695287
      ],
      [
        "Ġperspective",
        -9.945815417050207
      ],
      [
        "Ġconservation",
        -9.94744053120422
      ],
      [
        "Ġrelevant",
        -9.948659531410708
      ],
      [
        "Ġbowl",
        -9.95000096360094
      ],
      [
        "Ġgrown",
        -9.950197955042729
      ],
      [
        "Ġgets",
        -9.951193953340924
      ],
      [
        "Ġzone",
        -9.95138658219292
      ],
      [
        "Ġegg",
        -9.95164312627434
      ],
      [
        "Ġtru",
        -9.951761964248254
      ],
      [
        "Ġsmell",
        -9.95204780567035
      ],
      [
        "Ġdrug",
        -9.953236169168612
      ],
      [
        "Ġequation",
        -9.953315647781857
      ],
      [
        "Most",
        -9.953839307901143
      ],
      [
        "Ġmuscles",
        -9.954016059916055
      ],
      [
        "Ġsit",
        -9.954331834774615
      ],
      [
        "Ġshar",
        -9.954851877202604
      ],
      [
        "Ġantibiotic",
        -9.955488792976602
      ],
      [
        "ĠHigh",
        -9.955875283235644
      ],
      [
        "Ġresident",
        -9.956302917349788
      ],
      [
        "Ġdefinite",
        -9.956818776057377
      ],
      [
        "Ġshower",
        -9.957165218979355
      ],
      [
        "Ġcertainly",
        -9.958072267300023
      ],
      [
        "Ġsaying",
        -9.959111322493252
      ],
      [
        "Ġstrateg",
        -9.960190742519972
      ],
      [
        "Ġprecise",
        -9.960421277871731
      ],
      [
        "Ġleader",
        -9.96047262174783
      ],
      [
        "Ġalgorithm",
        -9.961062616333695
      ],
      [
        "Ġemotion",
        -9.96193230112205
      ],
      [
        "Ġnerve",
        -9.961971465559929
      ],
      [
        "quality",
        -9.96207631977127
      ],
      [
        "Answer",
        -9.963357631601166
      ],
      [
        "Ġofficial",
        -9.963385315301489
      ],
      [
        "Ġrequest",
        -9.963690540255438
      ],
      [
        "Ġminimum",
        -9.963847631821276
      ],
      [
        "Ġroof",
        -9.964201949523437
      ],
      [
        "ĠModel",
        -9.965828695652595
      ],
      [
        "Ġraw",
        -9.966262576284716
      ],
      [
        "Ġexpose",
        -9.967052177785822
      ],
      [
        "Ġexternal",
        -9.967784091612256
      ],
      [
        "Ġbiological",
        -9.968487254648227
      ],
      [
        "Ġlifestyle",
        -9.968946954539962
      ],
      [
        "Yes",
        -9.969830211265512
      ],
      [
        "-being",
        -9.970020197486742
      ],
      [
        "Ġmanual",
        -9.97004973802308
      ],
      [
        "Ġshade",
        -9.97020203197896
      ],
      [
        "desired",
        -9.970930055921762
      ],
      [
        "Ġcapabilit",
        -9.971429643336636
      ],
      [
        "Ġlift",
        -9.973160191972523
      ],
      [
        "Ġbroad",
        -9.973436938646657
      ],
      [
        "Ġmiles",
        -9.974666223255817
      ],
      [
        "ĠSystem",
        -9.974909813440304
      ],
      [
        "Ġcream",
        -9.978226777233376
      ],
      [
        "#",
        -9.980575977907597
      ],
      [
        "Ġguideline",
        -9.98068103103381
      ],
      [
        "Ġrandom",
        -9.981498080972834
      ],
      [
        "Ġprocessor",
        -9.98224166772156
      ],
      [
        "Ġsmart",
        -9.98245312618864
      ],
      [
        "Conclusion",
        -9.983376452273326
      ],
      [
        "Ġhole",
        -9.983857006097278
      ],
      [
        "Ġinternet",
        -9.984496522119994
      ],
      [
        "Ġoffering",
        -9.98539203840836
      ],
      [
        "Ġancient",
        -9.985595419362266
      ],
      [
        "identified",
        -9.986616061084325
      ],
      [
        "Ġincredibl",
        -9.987202609460237
      ],
      [
        "Ġstatus",
        -9.987727012635636
      ],
      [
        "Ġreplacement",
        -9.98976514351758
      ],
      [
        "-friendl",
        -9.990998613950218
      ],
      [
        "Ġopinion",
        -9.991123324204915
      ],
      [
        "Ġconduct",
        -9.992882685132862
      ],
      [
        "Ġimplement",
        -9.993023674993069
      ],
      [
        "Ġkept",
        -9.993060480762576
      ],
      [
        "Ġquantit",
        -9.993641820300189
      ],
      [
        "Ġbike",
        -9.994278355343445
      ],
      [
        "Ġfunctional",
        -9.994641497589988
      ],
      [
        "ĠGreat",
        -9.995860407055616
      ],
      [
        "Ġblend",
        -9.9959911153078
      ],
      [
        "My",
        -9.996045276475044
      ],
      [
        "Ġcrack",
        -9.996438793892
      ],
      [
        "Ġguid",
        -9.99714746576558
      ],
      [
        "Ġtail",
        -9.997396254561847
      ],
      [
        "ĠStudent",
        -9.997563924259
      ],
      [
        "Ġstroke",
        -9.99828780656459
      ],
      [
        "Ġlawn",
        -9.999642385653878
      ],
      [
        "Ġchoos",
        -10.000813007865448
      ],
      [
        "Ġpack",
        -10.001125687520725
      ],
      [
        "Ġobvious",
        -10.001572251069828
      ],
      [
        "Ġcreature",
        -10.002069166565027
      ],
      [
        "Ġbite",
        -10.003347002888738
      ],
      [
        "Ġtransform",
        -10.00352457667886
      ],
      [
        "Ġutilize",
        -10.004026787618958
      ],
      [
        "Ġphotos",
        -10.00406259324643
      ],
      [
        "ĠMarch",
        -10.0040905574686
      ],
      [
        "Ġclient",
        -10.004432519100456
      ],
      [
        "itis",
        -10.004788515603115
      ],
      [
        "tic",
        -10.004859609642342
      ],
      [
        "Ġcalorie",
        -10.005502010833098
      ],
      [
        "Ġcontinuous",
        -10.006351348527822
      ],
      [
        "Ġgold",
        -10.007373148769531
      ],
      [
        "Ġstomach",
        -10.009562831067198
      ],
      [
        "Ġlayers",
        -10.009896226408523
      ],
      [
        "ĠGoogle",
        -10.01021023189438
      ],
      [
        "Ġwet",
        -10.010752861592705
      ],
      [
        "Ġshoes",
        -10.010915302972904
      ],
      [
        "Ġnation",
        -10.0109552596457
      ],
      [
        "ĠAir",
        -10.011194122302436
      ],
      [
        "Ġsuper",
        -10.011220335058413
      ],
      [
        "Ġmainly",
        -10.01136794077243
      ],
      [
        "Ġkidney",
        -10.011577896134604
      ],
      [
        "Ġauto",
        -10.01158573936719
      ],
      [
        "Ġdigesti",
        -10.01172114111671
      ],
      [
        "Ġvariation",
        -10.011820233217986
      ],
      [
        "Ġcard",
        -10.013884210283258
      ],
      [
        "Ġsport",
        -10.014023713655398
      ],
      [
        "Ġhormone",
        -10.014281880103646
      ],
      [
        "work",
        -10.014917015904643
      ],
      [
        "Ġapart",
        -10.015320769391636
      ],
      [
        "Ġreliable",
        -10.016475048988438
      ],
      [
        "Ġfirm",
        -10.016479869362271
      ],
      [
        "Ġbillion",
        -10.017415771674456
      ],
      [
        "ĠYork",
        -10.017459825876164
      ],
      [
        "Ġworker",
        -10.01782873547338
      ],
      [
        "Ġamazing",
        -10.019167687860904
      ],
      [
        "Ġfracture",
        -10.019952191914618
      ],
      [
        "Ġattend",
        -10.020558971946848
      ],
      [
        "emergency",
        -10.02070070823715
      ],
      [
        "Ġlens",
        -10.020705523388235
      ],
      [
        "Ġparticipant",
        -10.022988584828944
      ],
      [
        "ĠFood",
        -10.023282716593569
      ],
      [
        "Ġeducational",
        -10.023736579239518
      ],
      [
        "ĠChina",
        -10.023769721875656
      ],
      [
        "Ġvs",
        -10.024175345389306
      ],
      [
        "ar",
        -10.02422633112845
      ],
      [
        "Ġsensitive",
        -10.024334495513248
      ],
      [
        "Ġinstrument",
        -10.024354556628186
      ],
      [
        "Ġinnovation",
        -10.024401909257149
      ],
      [
        "Ġindependent",
        -10.024701130556656
      ],
      [
        "Ġlabel",
        -10.026219353830282
      ],
      [
        "Ġaudio",
        -10.027251132242167
      ],
      [
        "Ġrespect",
        -10.029297020217829
      ],
      [
        "Ġoccurr",
        -10.02946592406886
      ],
      [
        "coming",
        -10.03070819515727
      ],
      [
        "-on",
        -10.030738654022064
      ],
      [
        "Ġremote",
        -10.030841169574789
      ],
      [
        "ĠPeople",
        -10.03131229616422
      ],
      [
        "Ġdetermined",
        -10.0315944992044
      ],
      [
        "Ġhelping",
        -10.03168670578668
      ],
      [
        "Onc",
        -10.03199233569823
      ],
      [
        "Ġsnow",
        -10.032306246249355
      ],
      [
        "September",
        -10.03241025001732
      ],
      [
        "Ġthorough",
        -10.032688277381652
      ],
      [
        "Ġbak",
        -10.032717299466343
      ],
      [
        "Ġintelligence",
        -10.032870630220405
      ],
      [
        "Ġpolicy",
        -10.033564331949822
      ],
      [
        "Ġchalleng",
        -10.034254975294282
      ],
      [
        "Ġeliminate",
        -10.034526015584214
      ],
      [
        "Ġwheel",
        -10.034958783418592
      ],
      [
        "Ġinteract",
        -10.035140887921912
      ],
      [
        "Ġassume",
        -10.035413497106008
      ],
      [
        "Ġpowder",
        -10.03546101454204
      ],
      [
        "gan",
        -10.035573699706791
      ],
      [
        "Ġedit",
        -10.03663835223936
      ],
      [
        "Ġmembrane",
        -10.03752795758344
      ],
      [
        "Ġargument",
        -10.037822845347256
      ],
      [
        "Ġowner",
        -10.038196439882642
      ],
      [
        "||",
        -10.039733900537437
      ],
      [
        "Ġstable",
        -10.039815557904024
      ],
      [
        "Ġnest",
        -10.040260750615186
      ],
      [
        "Ġmovie",
        -10.041054249424464
      ],
      [
        "Ġcreation",
        -10.041879448084243
      ],
      [
        "Ġfurniture",
        -10.042104176483855
      ],
      [
        "ĠJune",
        -10.04244141088492
      ],
      [
        "Ġsupplie",
        -10.043493978628572
      ],
      [
        "Ġsymbol",
        -10.043782820253677
      ],
      [
        "Ġbudget",
        -10.044040881994
      ],
      [
        "ĠSea",
        -10.04567650780918
      ],
      [
        "ĠBritish",
        -10.046569378177024
      ],
      [
        "Ġfear",
        -10.046741224298188
      ],
      [
        "Ġbees",
        -10.047041796083665
      ],
      [
        "Ġinvestment",
        -10.047199227852262
      ],
      [
        "Ġvitamin",
        -10.047850550661142
      ],
      [
        "Ġcollege",
        -10.048710388656064
      ],
      [
        "Ġultimate",
        -10.048804495706133
      ],
      [
        "Ġharm",
        -10.04960496644384
      ],
      [
        "Ġdescription",
        -10.05107650933167
      ],
      [
        "Ġclinical",
        -10.051245776215646
      ],
      [
        "Ġscenario",
        -10.051955397995428
      ],
      [
        "Ġadopt",
        -10.052104928322857
      ],
      [
        "Ġdensit",
        -10.052493416798216
      ],
      [
        "Ġpercentage",
        -10.05259652084878
      ],
      [
        "Ġplent",
        -10.05266872758624
      ],
      [
        "ought",
        -10.054126269956898
      ],
      [
        "Ġjoint",
        -10.054127533620743
      ],
      [
        "Ġbreeding",
        -10.054180241224469
      ],
      [
        "Ġeight",
        -10.054332551417607
      ],
      [
        "Ġbottle",
        -10.056163456287528
      ],
      [
        "Ġalcohol",
        -10.056228066535056
      ],
      [
        "Ġguy",
        -10.056675304004996
      ],
      [
        "Ġaircraft",
        -10.060700262363437
      ],
      [
        "ĠCanada",
        -10.061504028491443
      ],
      [
        "Ġparent",
        -10.063309066271918
      ],
      [
        "Ġinvolv",
        -10.0636431544397
      ],
      [
        "Ġvalve",
        -10.063863650387216
      ],
      [
        "Ġrow",
        -10.065162688513633
      ],
      [
        "-time",
        -10.065982819799212
      ],
      [
        "Use",
        -10.066122100445256
      ],
      [
        "Ġtight",
        -10.06616643907499
      ],
      [
        "Ġfundamental",
        -10.066792213205266
      ],
      [
        "Ġchose",
        -10.068630523463534
      ],
      [
        "Ġconcentration",
        -10.070768385885067
      ],
      [
        "Ġattach",
        -10.071408195305452
      ],
      [
        "Ġintake",
        -10.071932428216872
      ],
      [
        "Ġkitchen",
        -10.07211496768543
      ],
      [
        "Ġcontrolle",
        -10.073041726725734
      ],
      [
        "Ġplanting",
        -10.073375157935208
      ],
      [
        "Ġcheese",
        -10.073496706683102
      ],
      [
        "Ġproduc",
        -10.073762923653955
      ],
      [
        "Ġcm",
        -10.074255945719086
      ],
      [
        "ĠFrench",
        -10.074564502686986
      ],
      [
        "Ġjump",
        -10.075932713148925
      ],
      [
        "OVID",
        -10.076486673289264
      ],
      [
        "Ġweak",
        -10.077811827175358
      ],
      [
        "Ġselected",
        -10.079305491534496
      ],
      [
        "Ġorigin",
        -10.080226903455772
      ],
      [
        "Ġformat",
        -10.080251867641737
      ],
      [
        "Ġcoal",
        -10.080451823953968
      ],
      [
        "ĠWest",
        -10.081307140632088
      ],
      [
        "tability",
        -10.081369077652784
      ],
      [
        "Ġadvance",
        -10.081400138099497
      ],
      [
        "Ġenzyme",
        -10.081418535647687
      ],
      [
        "Ġpropose",
        -10.081564900730775
      ],
      [
        "Ġten",
        -10.082177264743947
      ],
      [
        "Ġfight",
        -10.082816482252031
      ],
      [
        "Ġcompost",
        -10.08287467854674
      ],
      [
        "Ġrough",
        -10.08372801139418
      ],
      [
        "Ġseat",
        -10.086713157737952
      ],
      [
        "Ġwaiting",
        -10.08681107264119
      ],
      [
        "Ġexcessive",
        -10.088769469497056
      ],
      [
        "Ġwash",
        -10.088818531064112
      ],
      [
        "Ġcheap",
        -10.090305820361138
      ],
      [
        "Ġdecide",
        -10.090664606545335
      ],
      [
        "Ġconfirm",
        -10.091034049624634
      ],
      [
        "ĠWell",
        -10.091120121525666
      ],
      [
        "Ġsolve",
        -10.091982657778129
      ],
      [
        "Ġmobile",
        -10.092333823213508
      ],
      [
        "Ġfix",
        -10.092551418173922
      ],
      [
        "More",
        -10.093432154430287
      ],
      [
        "ĠWhere",
        -10.093559668769174
      ],
      [
        "Florida",
        -10.094167074188244
      ],
      [
        "Ġheater",
        -10.09455988844146
      ],
      [
        "ĠAbout",
        -10.094597916438437
      ],
      [
        "Ġgap",
        -10.09573514830695
      ],
      [
        "Ġleav",
        -10.09629777275904
      ],
      [
        "ĠHis",
        -10.096717349752064
      ],
      [
        "Ġestablish",
        -10.097002324823352
      ],
      [
        "Ġhoney",
        -10.097465420165182
      ],
      [
        "Ġexamine",
        -10.098010100212049
      ],
      [
        "ĠInternational",
        -10.099119420820267
      ],
      [
        "Ġcredit",
        -10.099638588096722
      ],
      [
        "Ġwouldn",
        -10.100312633425066
      ],
      [
        "Ġseven",
        -10.100707550152896
      ],
      [
        "Ġillustrate",
        -10.100867148966328
      ],
      [
        "Ġdrugs",
        -10.101057365068822
      ],
      [
        "Ġunits",
        -10.10140932159482
      ],
      [
        "Ġdirector",
        -10.102650099762176
      ],
      [
        "Ġbulb",
        -10.10285413879115
      ],
      [
        "ĠGreen",
        -10.10359695013872
      ],
      [
        "Ġfeedback",
        -10.10422026346748
      ],
      [
        "ĠJohn",
        -10.104327810247035
      ],
      [
        "Ġstock",
        -10.1045856435561
      ],
      [
        "Ġhardware",
        -10.10527679190523
      ],
      [
        "Ġspin",
        -10.105609619565971
      ],
      [
        "Ġcommand",
        -10.105958928904244
      ],
      [
        "ĠOver",
        -10.106350036884578
      ],
      [
        "Ġzero",
        -10.106568110083147
      ],
      [
        "Ġmechanical",
        -10.106584506088431
      ],
      [
        "Ġsudden",
        -10.10689348331566
      ],
      [
        "Ġpainting",
        -10.10730025112576
      ],
      [
        "Ġlab",
        -10.108466440006628
      ],
      [
        "that",
        -10.108558920786637
      ],
      [
        "ĠLike",
        -10.109478065321918
      ],
      [
        "Ġpot",
        -10.10959206041288
      ],
      [
        "Ġtitle",
        -10.110153038780842
      ],
      [
        "Ġboil",
        -10.110363944164298
      ],
      [
        "Ġwar",
        -10.111608774223374
      ],
      [
        "ĠRead",
        -10.111841218319489
      ],
      [
        "Ġgraphic",
        -10.112177091518411
      ],
      [
        "hose",
        -10.112246212087328
      ],
      [
        "Ġjournal",
        -10.11277606108369
      ],
      [
        "ĠAny",
        -10.112803003362592
      ],
      [
        "Ġputt",
        -10.113642907185069
      ],
      [
        "Ġstretch",
        -10.113643769377228
      ],
      [
        "Ġshowing",
        -10.114147401061183
      ],
      [
        "brough",
        -10.114261269444343
      ],
      [
        "Ġintervention",
        -10.115077595711805
      ],
      [
        "First",
        -10.115309744955638
      ],
      [
        "Ġfarmers",
        -10.11705126364954
      ],
      [
        "Ġopening",
        -10.117246667505633
      ],
      [
        "Ġgrade",
        -10.117627345394416
      ],
      [
        "Ġincorporate",
        -10.118646060493491
      ],
      [
        "Ġinvest",
        -10.119131559637143
      ],
      [
        "Ġwhatever",
        -10.119913563418026
      ],
      [
        "Ġbecom",
        -10.120261252739624
      ],
      [
        "Ġprior",
        -10.12068666300786
      ],
      [
        "Ġflood",
        -10.121045361993277
      ],
      [
        "Ġsuffer",
        -10.121266644134652
      ],
      [
        "Ġcompetition",
        -10.121482737948012
      ],
      [
        "Ġyield",
        -10.121666255648917
      ],
      [
        "Ġprinting",
        -10.1218487633355
      ],
      [
        "Ġsupplement",
        -10.122933673893616
      ],
      [
        "Ġlighting",
        -10.124201931019666
      ],
      [
        "what",
        -10.124446238308098
      ],
      [
        "ĠDesign",
        -10.125445888697426
      ],
      [
        "Ġsufficient",
        -10.125528200804494
      ],
      [
        "ĠFebruary",
        -10.126901880537108
      ],
      [
        "ĠRed",
        -10.128008379740294
      ],
      [
        "Ġsharp",
        -10.128246686506074
      ],
      [
        "Ġimagine",
        -10.128374521867563
      ],
      [
        "Ġcurve",
        -10.128454907804008
      ],
      [
        "with",
        -10.12864041826992
      ],
      [
        "Ġdishe",
        -10.129691986093306
      ],
      [
        "-related",
        -10.12986533910816
      ],
      [
        "Ġdistinct",
        -10.130205682297625
      ],
      [
        "Ġdesigner",
        -10.130415185987143
      ],
      [
        "Ġbill",
        -10.13053562324493
      ],
      [
        "Ġprofile",
        -10.130717596462445
      ],
      [
        "ĠEnergy",
        -10.13086796652262
      ],
      [
        "Ġfilled",
        -10.13090552317701
      ],
      [
        "Ġprofessionals",
        -10.131120486555082
      ],
      [
        "Ġnormally",
        -10.132780841690042
      ],
      [
        "Ġgraph",
        -10.13299739353952
      ],
      [
        "Ġcalm",
        -10.1330033705374
      ],
      [
        "Ġhistorical",
        -10.133709323630892
      ],
      [
        "Ġshoulder",
        -10.134053898210269
      ],
      [
        "ĠAugust",
        -10.135121984080566
      ],
      [
        "Ġconsideration",
        -10.135845321917545
      ],
      [
        "Ġappeal",
        -10.136156568689165
      ],
      [
        "Ġborn",
        -10.1368198997929
      ],
      [
        "Ġdecided",
        -10.137265003447638
      ],
      [
        "Ġtrade",
        -10.137386147124069
      ],
      [
        "Ġsaving",
        -10.138027563927658
      ],
      [
        "Ġnose",
        -10.138474779579518
      ],
      [
        "Ġsilver",
        -10.138890741096276
      ],
      [
        "ĠAct",
        -10.139573612443796
      ],
      [
        "Ġstorie",
        -10.13963857297824
      ],
      [
        "Ġrecognize",
        -10.13981403211018
      ],
      [
        "Ġradio",
        -10.140361540065635
      ],
      [
        "Ġaudience",
        -10.140442694795
      ],
      [
        "Ġconstruct",
        -10.14281195887449
      ],
      [
        "Ġvisibl",
        -10.143016990938118
      ],
      [
        "ĠTest",
        -10.143093942161824
      ],
      [
        "Ġpilot",
        -10.143272425442252
      ],
      [
        "Ġrat",
        -10.14337471342156
      ],
      [
        "ĠAl",
        -10.143464489832194
      ],
      [
        "bacterial",
        -10.144270313168605
      ],
      [
        "Ġchair",
        -10.1451162408341
      ],
      [
        "Ġbeauty",
        -10.145367441597664
      ],
      [
        "Ġmold",
        -10.14573585097309
      ],
      [
        "Ġfields",
        -10.147010416862862
      ],
      [
        "Share",
        -10.147066906585714
      ],
      [
        "Ġshapes",
        -10.147431318867866
      ],
      [
        "Ġcommunicate",
        -10.14829242171174
      ],
      [
        "at",
        -10.148982410008363
      ],
      [
        "Ġpregnanc",
        -10.150784587823564
      ],
      [
        "Ġdust",
        -10.150842843519843
      ],
      [
        "Ġreward",
        -10.151288943082402
      ],
      [
        "Ġsector",
        -10.152143295075597
      ],
      [
        "ĠPark",
        -10.152300174685855
      ],
      [
        "Ġinter",
        -10.15250347473385
      ],
      [
        "Ġcompar",
        -10.153188076459626
      ],
      [
        "Ġheal",
        -10.153298751807425
      ],
      [
        "Ġminimize",
        -10.153407696726653
      ],
      [
        "Ġdelicious",
        -10.153589920649864
      ],
      [
        "made",
        -10.153781224121037
      ],
      [
        "Ġcolumn",
        -10.154197509946956
      ],
      [
        "ĠBoth",
        -10.155084178163358
      ],
      [
        "Ġstructural",
        -10.155142843586248
      ],
      [
        "Ġextensive",
        -10.156153676886664
      ],
      [
        "ial",
        -10.15725721575308
      ],
      [
        "Ġinstallation",
        -10.158736816030292
      ],
      [
        "Ġpriorit",
        -10.15961678453031
      ],
      [
        "According",
        -10.160063609590512
      ],
      [
        "Ġchart",
        -10.160849871401778
      ],
      [
        "Ġencounter",
        -10.16116918920407
      ],
      [
        "Ġobjective",
        -10.161194985329749
      ],
      [
        "Ġstanding",
        -10.161558230179722
      ],
      [
        "Ġcorn",
        -10.162024920184663
      ],
      [
        "Ġcultural",
        -10.162532873411603
      ],
      [
        "Ġgreenhouse",
        -10.162677435289224
      ],
      [
        "not",
        -10.163392774808797
      ],
      [
        "Ġdisorder",
        -10.163408875070632
      ],
      [
        "Ġminerals",
        -10.163880536001589
      ],
      [
        "Ġscene",
        -10.164597871322949
      ],
      [
        "Ġrestaurant",
        -10.165030747471022
      ],
      [
        "Ġprompt",
        -10.165602877419117
      ],
      [
        "Ġexcess",
        -10.166969782827392
      ],
      [
        "Ġcontrast",
        -10.167498237797185
      ],
      [
        "Ġmission",
        -10.167636762690249
      ],
      [
        "Ġthrow",
        -10.168604943739368
      ],
      [
        "Ġillness",
        -10.169050730878816
      ],
      [
        "Ġherb",
        -10.16919562796486
      ],
      [
        "Ġbarrier",
        -10.169777862686676
      ],
      [
        "Ġclothing",
        -10.17062278692578
      ],
      [
        "ĠJanuary",
        -10.171671074904843
      ],
      [
        "Ġworry",
        -10.171776757867232
      ],
      [
        "Ġcomposition",
        -10.172715204742095
      ],
      [
        "ĠWar",
        -10.172985699357405
      ],
      [
        "Ġcircle",
        -10.173165282485256
      ],
      [
        "ĠTake",
        -10.173175429262326
      ],
      [
        "Ġtrie",
        -10.173393108820498
      ],
      [
        "Ġport",
        -10.173787154684453
      ],
      [
        "Ġintegrate",
        -10.1747793712613
      ],
      [
        "Ġattribute",
        -10.175758225484572
      ],
      [
        "Ġappreciate",
        -10.17610057305008
      ],
      [
        "Ġexhibit",
        -10.177543206145431
      ],
      [
        "Ġbug",
        -10.177543543875272
      ],
      [
        "Ġpictures",
        -10.177761183473937
      ],
      [
        "Ġsitting",
        -10.177957348868262
      ],
      [
        "Ġsurprise",
        -10.178260877890729
      ],
      [
        "Ġaccurac",
        -10.178303499350593
      ],
      [
        "Ġdestroy",
        -10.178861036125053
      ],
      [
        "Ġversatil",
        -10.180020397396516
      ],
      [
        "Ġwish",
        -10.180355493704532
      ],
      [
        "Ġpreparation",
        -10.18049914182282
      ],
      [
        "Ġmanag",
        -10.181309666816867
      ],
      [
        "Ġbroken",
        -10.181341318786448
      ],
      [
        "ĠPlant",
        -10.181488055646946
      ],
      [
        "ĠHuman",
        -10.181535158318056
      ],
      [
        "ĠIndian",
        -10.18221237635574
      ],
      [
        "Ġatoms",
        -10.182515775863736
      ],
      [
        "Ġfelt",
        -10.18265276579868
      ],
      [
        "Ġnail",
        -10.18323321012255
      ],
      [
        "Ġpredator",
        -10.18340477475074
      ],
      [
        "Ġcombined",
        -10.185923518545334
      ],
      [
        "Ġfloat",
        -10.186751004143732
      ],
      [
        "ĠStep",
        -10.186910234006856
      ],
      [
        "Ġband",
        -10.187334987798812
      ],
      [
        "]Ċ",
        -10.188219270544993
      ],
      [
        "Ġrace",
        -10.188729601574732
      ],
      [
        "diversity",
        -10.189415860529298
      ],
      [
        "Ġinterior",
        -10.189508961982757
      ],
      [
        "Ġvarie",
        -10.1905246163298
      ],
      [
        "are",
        -10.19059528500708
      ],
      [
        "spent",
        -10.191290819683331
      ],
      [
        "Ġresponsibilit",
        -10.19147318868382
      ],
      [
        "Ġlay",
        -10.192508545548172
      ],
      [
        "ĠHome",
        -10.192989860783529
      ],
      [
        "Ġ...ĊĊ",
        -10.19302206857306
      ],
      [
        "Ġminute",
        -10.193996388534169
      ],
      [
        "Ġuniverse",
        -10.194429057911856
      ],
      [
        "Ġlung",
        -10.195035755672384
      ],
      [
        "ĠCollege",
        -10.195117016511055
      ],
      [
        "Ġtooth",
        -10.195708879719769
      ],
      [
        "Ġthermal",
        -10.19582596031211
      ],
      [
        "Ġgrill",
        -10.195939662965118
      ],
      [
        "Ġdelay",
        -10.196666440061971
      ],
      [
        "Ġcharging",
        -10.198595384801402
      ],
      [
        "ĠLearn",
        -10.200967112850089
      ],
      [
        "ĠJul",
        -10.201016573997109
      ],
      [
        "Ġconducted",
        -10.202239370216144
      ],
      [
        "Ġprove",
        -10.202674195404771
      ],
      [
        "Ġmatrix",
        -10.203142626771063
      ],
      [
        "Ġinner",
        -10.203463184640036
      ],
      [
        "Ġinnovative",
        -10.203559545815557
      ],
      [
        "Ġoven",
        -10.203816552252002
      ],
      [
        "Ġrecommendation",
        -10.204163196980312
      ],
      [
        "Ġpackage",
        -10.205448471012849
      ],
      [
        "Ġleak",
        -10.208771260693956
      ],
      [
        "Ġcake",
        -10.208773823581952
      ],
      [
        "Ġdimension",
        -10.209381927044197
      ],
      [
        "Ġinspire",
        -10.209669880611669
      ],
      [
        "Ġvegan",
        -10.210623875768952
      ],
      [
        "Ġcharacters",
        -10.21115938085427
      ],
      [
        "Ġindex",
        -10.21131156698334
      ],
      [
        "Ġloop",
        -10.213288978078936
      ],
      [
        "Ġspecialize",
        -10.213822677869398
      ],
      [
        "Ġwoman",
        -10.214155224306223
      ],
      [
        "Ġfoster",
        -10.21428943307641
      ],
      [
        "Ġtube",
        -10.215032002680449
      ],
      [
        "Ġfinger",
        -10.216859262375738
      ],
      [
        "ĠIsland",
        -10.218615407372386
      ],
      [
        "Ġsizes",
        -10.219438765152752
      ],
      [
        "Ġmath",
        -10.219557292905076
      ],
      [
        "Ġbean",
        -10.219643807744715
      ],
      [
        "Ġsecret",
        -10.219861019140597
      ],
      [
        "Ġarray",
        -10.22031647790682
      ],
      [
        "Ġacademic",
        -10.220431966610269
      ],
      [
        "Let",
        -10.220777427465858
      ],
      [
        "Ġsuit",
        -10.220913563323297
      ],
      [
        "ĠGet",
        -10.221241516274194
      ],
      [
        "Ġnovel",
        -10.222497754083095
      ],
      [
        "ular",
        -10.22290728685871
      ],
      [
        "Ġblade",
        -10.223847874793954
      ],
      [
        "Ġshop",
        -10.223911516455622
      ],
      [
        "Ġdivided",
        -10.224355217360127
      ],
      [
        "Ġexplor",
        -10.224879569465736
      ],
      [
        "Ġrely",
        -10.225016996083133
      ],
      [
        "espite",
        -10.22527674470929
      ],
      [
        "ĠCheck",
        -10.225435788682754
      ],
      [
        "gave",
        -10.227514915731128
      ],
      [
        "Children",
        -10.228149275823966
      ],
      [
        "Ġconversation",
        -10.22909590937629
      ],
      [
        "Ġgradual",
        -10.23113323219322
      ],
      [
        "Ġnutrition",
        -10.231367514357965
      ],
      [
        "Ġletter",
        -10.231404530883571
      ],
      [
        "Ġaccessib",
        -10.231446641520815
      ],
      [
        "Ġbread",
        -10.232109356279114
      ],
      [
        "Ġbank",
        -10.23243653721052
      ],
      [
        "Ġsmoke",
        -10.23266692888314
      ],
      [
        "Ġaquarium",
        -10.233109141632266
      ],
      [
        "Ġchronic",
        -10.233116046766012
      ],
      [
        "Ġwonder",
        -10.234138236080314
      ],
      [
        "Ġdatabase",
        -10.234537620093633
      ],
      [
        "Ġevaluate",
        -10.234572422154343
      ],
      [
        "Ġgirl",
        -10.235546308687455
      ],
      [
        "Ġgrant",
        -10.235750447591256
      ],
      [
        "ĠII",
        -10.23598178702689
      ],
      [
        "Ġaccident",
        -10.236148509837877
      ],
      [
        "tended",
        -10.236265053076629
      ],
      [
        "Ġmild",
        -10.236395074114952
      ],
      [
        "Ġgate",
        -10.236875828307394
      ],
      [
        "Ġtoxic",
        -10.237208196775011
      ],
      [
        "Ġroute",
        -10.23791557217405
      ],
      [
        "Ġhousehold",
        -10.238577210954336
      ],
      [
        "Ġremoval",
        -10.239351615910278
      ],
      [
        "Ġclearly",
        -10.239378161244067
      ],
      [
        "ĠEvery",
        -10.239529152293146
      ],
      [
        "ĠPower",
        -10.240526385995553
      ],
      [
        "Although",
        -10.240727224596604
      ],
      [
        "ĠAC",
        -10.240947404393374
      ],
      [
        "Ġloose",
        -10.2414566355398
      ],
      [
        "ĠData",
        -10.242144249911844
      ],
      [
        "Ġspray",
        -10.242199950709272
      ],
      [
        "how",
        -10.243535797008626
      ],
      [
        "Ġconsult",
        -10.244244226277072
      ],
      [
        "ĠY",
        -10.244570323767912
      ],
      [
        "Ġrocks",
        -10.244620702154943
      ],
      [
        "Ġprofessor",
        -10.24488803284464
      ],
      [
        "ĠInternet",
        -10.24559986233361
      ],
      [
        "Ġsurvival",
        -10.24580164889931
      ],
      [
        "Ġcombine",
        -10.245952164840766
      ],
      [
        "Ġfacilit",
        -10.246826111491108
      ],
      [
        "Ġdebri",
        -10.247518341253484
      ],
      [
        "Ġarm",
        -10.248072954758054
      ],
      [
        "Ġfixed",
        -10.249852207887152
      ],
      [
        "Ġinterface",
        -10.250061167132657
      ],
      [
        "Ġessay",
        -10.250570165772093
      ],
      [
        "Ġwarming",
        -10.250655301165883
      ],
      [
        "Ġnitrogen",
        -10.251187412597645
      ],
      [
        "ĠLearning",
        -10.25169282736157
      ],
      [
        "Ġtrial",
        -10.252038178437555
      ],
      [
        "ten",
        -10.252615649586758
      ],
      [
        "Ġinch",
        -10.252688697389136
      ],
      [
        "Ġminimal",
        -10.252774779490249
      ],
      [
        "twic",
        -10.253708144105651
      ],
      [
        "Ġemploy",
        -10.254286166684157
      ],
      [
        "Ġwonderful",
        -10.254847053883214
      ],
      [
        "Ġtie",
        -10.255289888707678
      ],
      [
        "Ġdisorders",
        -10.255586753176187
      ],
      [
        "ĠAfrican",
        -10.255706452860265
      ],
      [
        "ware",
        -10.255805518911371
      ],
      [
        "Ġthrive",
        -10.257086528048776
      ],
      [
        "Ġcraft",
        -10.25715203969595
      ],
      [
        "Ġweigh",
        -10.258365723759676
      ],
      [
        "Ġcontaining",
        -10.25842364743757
      ],
      [
        "Ġfamous",
        -10.258606523014322
      ],
      [
        "Ġdedicate",
        -10.260430585202393
      ],
      [
        "Ġderive",
        -10.262702082938212
      ],
      [
        "Ġrice",
        -10.263147996149222
      ],
      [
        "Ġeconom",
        -10.263483817157718
      ],
      [
        "Ġvacuum",
        -10.26451020286774
      ],
      [
        "Ġmelt",
        -10.26456444816518
      ],
      [
        "Ġvast",
        -10.264827968600637
      ],
      [
        "Ġmeasurements",
        -10.26486547098858
      ],
      [
        "confidence",
        -10.265534246065252
      ],
      [
        "Ġstorm",
        -10.265598470973494
      ],
      [
        "Ġinfect",
        -10.26590343329552
      ],
      [
        "Ġveterinarian",
        -10.266474147440457
      ],
      [
        "Ġcorner",
        -10.266501132364253
      ],
      [
        "Despite",
        -10.267005162629545
      ],
      [
        "Ġdrill",
        -10.267836692257148
      ],
      [
        "Ġtip",
        -10.267949142596658
      ],
      [
        "Ġdiagnosi",
        -10.268010251451065
      ],
      [
        "Ġbrief",
        -10.26812082458278
      ],
      [
        "Ġmenu",
        -10.269082001642484
      ],
      [
        "Ġfertilizer",
        -10.26940045356824
      ],
      [
        "ĠApri",
        -10.269426501830443
      ],
      [
        "Ġnet",
        -10.26956030886837
      ],
      [
        "Ġexciting",
        -10.26965411474938
      ],
      [
        "ĠSt",
        -10.27020055331318
      ],
      [
        "Ġplug",
        -10.271457832928276
      ],
      [
        "water",
        -10.272639289697551
      ],
      [
        "Ġinflammation",
        -10.272694546762622
      ],
      [
        "ĠThrough",
        -10.27287824036576
      ],
      [
        "Ġborder",
        -10.272896085965826
      ],
      [
        "Ġpure",
        -10.274154963639932
      ],
      [
        "Ġmodule",
        -10.274239145123287
      ],
      [
        "Ġmanner",
        -10.274671620751242
      ],
      [
        "Ġobes",
        -10.27471948923494
      ],
      [
        "Ġdinosaur",
        -10.274726551836803
      ],
      [
        "Ġcomput",
        -10.274821115466576
      ],
      [
        "Ġcalculation",
        -10.275056836583126
      ],
      [
        "Ġanalyze",
        -10.275264716373885
      ],
      [
        "ĠConsider",
        -10.275472988109083
      ],
      [
        "Ġexcept",
        -10.276863798943952
      ],
      [
        "Ġdownload",
        -10.277102992386002
      ],
      [
        "Ġvet",
        -10.277355956515274
      ],
      [
        "Ġapproache",
        -10.277447099208596
      ],
      [
        "Ġhunt",
        -10.277663353918532
      ],
      [
        "Ġmeasurement",
        -10.278030064475823
      ],
      [
        "Ġmolecular",
        -10.278349948760392
      ],
      [
        "Ġobservation",
        -10.27839333906245
      ],
      [
        "Ġtire",
        -10.279298979911582
      ],
      [
        "ĠDC",
        -10.279612398835626
      ],
      [
        "ĠGuide",
        -10.281065394468476
      ],
      [
        "ĠPC",
        -10.281269307307149
      ],
      [
        "Ġears",
        -10.282410062422052
      ],
      [
        "Ġrespirator",
        -10.282510935684432
      ],
      [
        "Ġpolitical",
        -10.28317955869355
      ],
      [
        "iness",
        -10.283470279063284
      ],
      [
        "ĠBlack",
        -10.284309072576065
      ],
      [
        "Ġchapter",
        -10.28473275221162
      ],
      [
        "be",
        -10.2849817924554
      ],
      [
        "Ġthanks",
        -10.28526863597308
      ],
      [
        "Ġthoughts",
        -10.285386049978571
      ],
      [
        "Ġtraffic",
        -10.285546245121
      ],
      [
        "âĪĴ",
        -10.285559678410102
      ],
      [
        "ĠRemember",
        -10.286352503342515
      ],
      [
        "Ġplays",
        -10.286944972302862
      ],
      [
        "Ġworse",
        -10.287511617543828
      ],
      [
        "Ġdiagnose",
        -10.287790348368588
      ],
      [
        "Ġchocolate",
        -10.288990283207074
      ],
      [
        "Ġalter",
        -10.28907666739578
      ],
      [
        "ĠLook",
        -10.289643610346795
      ],
      [
        "Ġquantum",
        -10.28985672240904
      ],
      [
        "eath",
        -10.290160871704996
      ],
      [
        "Ġprocedures",
        -10.290236200941358
      ],
      [
        "Ġfacility",
        -10.290357604037585
      ],
      [
        "going",
        -10.29052207842729
      ],
      [
        "Ġorange",
        -10.290550242581032
      ],
      [
        "Ġadequate",
        -10.290718830150904
      ],
      [
        "Ġgenerator",
        -10.291555129352108
      ],
      [
        "Ġclothes",
        -10.291735260525671
      ],
      [
        "Ġradiation",
        -10.29443665009316
      ],
      [
        "Ġassistance",
        -10.29485299559598
      ],
      [
        "Ġguess",
        -10.295378605508091
      ],
      [
        "Ġdi",
        -10.295812629189664
      ],
      [
        "Ġsenior",
        -10.29620882130824
      ],
      [
        "Ġentirely",
        -10.296218040878266
      ],
      [
        "Ġexplanation",
        -10.29659735557053
      ],
      [
        "Ġmeasuring",
        -10.297027395210648
      ],
      [
        "Ġstream",
        -10.297100846457408
      ],
      [
        "ĠOctober",
        -10.297112161827028
      ],
      [
        "Ġstar",
        -10.297419024482773
      ],
      [
        "Ġprotective",
        -10.297489800798576
      ],
      [
        "Ġpossibly",
        -10.297681053674722
      ],
      [
        "ĠChoos",
        -10.297825261678817
      ],
      [
        "Ġtall",
        -10.298111006825486
      ],
      [
        "Ġsauce",
        -10.29883396887056
      ],
      [
        "Ġtea",
        -10.298850994007797
      ],
      [
        "Ġliver",
        -10.299717137224173
      ],
      [
        "Ġkinds",
        -10.299801350636724
      ],
      [
        "].",
        -10.29991112790982
      ],
      [
        "Ġinsert",
        -10.29998628501399
      ],
      [
        "Ġcloud",
        -10.300923120212502
      ],
      [
        "Ġoral",
        -10.301218045176764
      ],
      [
        "Ġstrengthen",
        -10.301886154982643
      ],
      [
        "Ġcopper",
        -10.301906217228476
      ],
      [
        "Ġdepression",
        -10.302181938442532
      ],
      [
        "Ġapprove",
        -10.302751789781697
      ],
      [
        "ĠFree",
        -10.303189565095522
      ],
      [
        "ĠGood",
        -10.303918047151427
      ],
      [
        "Ġ<",
        -10.30428806699792
      ],
      [
        "Ġmassive",
        -10.305117922159727
      ],
      [
        "j",
        -10.305488275557035
      ],
      [
        "Ġhomes",
        -10.306276729084326
      ],
      [
        "Ġagriculture",
        -10.306497420224822
      ],
      [
        "Ġinitiative",
        -10.306721327938064
      ],
      [
        "Ġsuccessfully",
        -10.306796212464878
      ],
      [
        "Ġcovers",
        -10.306903570488387
      ],
      [
        "Ġbigge",
        -10.307355063751968
      ],
      [
        "Ġstring",
        -10.30867873214229
      ],
      [
        "Ġacids",
        -10.3088739559964
      ],
      [
        "Introduction",
        -10.308885108583336
      ],
      [
        "Ġaward",
        -10.309083586702227
      ],
      [
        "Ġdomain",
        -10.30976416855335
      ],
      [
        "Ġcampaign",
        -10.30988587147879
      ],
      [
        "Before",
        -10.310380626486523
      ],
      [
        "Ġprey",
        -10.31087726941523
      ],
      [
        "Ġaffects",
        -10.312675889699
      ],
      [
        "Ġmolecule",
        -10.312773471312322
      ],
      [
        "ĠCity",
        -10.313514372897426
      ],
      [
        "Ġbelief",
        -10.31379499944908
      ],
      [
        "Ġembodiment",
        -10.314908778127378
      ],
      [
        "Ġlaborator",
        -10.315290144078492
      ],
      [
        "Dur",
        -10.31623849747864
      ],
      [
        "Ġturning",
        -10.316949511957056
      ],
      [
        "Ġlicense",
        -10.317065735440638
      ],
      [
        "Ġpassenger",
        -10.317153210728636
      ],
      [
        "ĠpH",
        -10.317188589584037
      ],
      [
        "Ġreact",
        -10.318712342656529
      ],
      [
        "Ġmineral",
        -10.318795460679205
      ],
      [
        "ĠArt",
        -10.31899800456791
      ],
      [
        "Ġmammal",
        -10.319002922053752
      ],
      [
        "Ġparticipate",
        -10.31932668082977
      ],
      [
        "Ġbehaviour",
        -10.319452086084448
      ],
      [
        "Ġpeak",
        -10.319718402458182
      ],
      [
        "Ġyard",
        -10.32014702774664
      ],
      [
        "Ġforget",
        -10.32103799088329
      ],
      [
        "Ġpepper",
        -10.321966918097967
      ],
      [
        "Ġlisted",
        -10.322252955411225
      ],
      [
        "Ġswimming",
        -10.32242413986366
      ],
      [
        "Ġvector",
        -10.323348243643618
      ],
      [
        "Ġprofit",
        -10.323398501015236
      ],
      [
        "Ġjuice",
        -10.323707240732508
      ],
      [
        "Ġbigger",
        -10.32406937806957
      ],
      [
        "Ġperiods",
        -10.32414913573808
      ],
      [
        "ĠLED",
        -10.324347988459898
      ],
      [
        "ĠQ",
        -10.324426471523264
      ],
      [
        "Ġsouthern",
        -10.324912100407534
      ],
      [
        "Ġagricultural",
        -10.325110826963046
      ],
      [
        "Ġcollected",
        -10.325111043291834
      ],
      [
        "ĠEngland",
        -10.325684288635896
      ],
      [
        "ĠTime",
        -10.325773055564497
      ],
      [
        "Ġthreat",
        -10.325964504163627
      ],
      [
        "Ġfamiliar",
        -10.326181815338863
      ],
      [
        "Ġplayed",
        -10.32685902432674
      ],
      [
        "ĠGo",
        -10.327015595844866
      ],
      [
        "\"The",
        -10.32734439283752
      ],
      [
        "Ġturns",
        -10.32979454409301
      ],
      [
        "Ġunlike",
        -10.330711897513748
      ],
      [
        "Ġdesire",
        -10.33083404768582
      ],
      [
        "Ġpro",
        -10.33089060680114
      ],
      [
        "Ġwasn",
        -10.33099376270443
      ],
      [
        "Ġsent",
        -10.331680931269656
      ],
      [
        "Ġnorth",
        -10.33175751824825
      ],
      [
        "ĠToday",
        -10.331902399358697
      ],
      [
        "Ġgenome",
        -10.33438446521128
      ],
      [
        "Ġcooked",
        -10.335220198381036
      ],
      [
        "Ġopposite",
        -10.335299338481136
      ],
      [
        "Ġrecognition",
        -10.335413128368526
      ],
      [
        "Ġheavi",
        -10.335722233034414
      ],
      [
        "Â°",
        -10.336294105651412
      ],
      [
        "Ġmining",
        -10.336369277509927
      ],
      [
        "ĠControl",
        -10.336439088572778
      ],
      [
        "Ġwearing",
        -10.336547724708502
      ],
      [
        "like",
        -10.337039963031538
      ],
      [
        "He",
        -10.337460082223664
      ],
      [
        "Ġnorthern",
        -10.337484825322402
      ],
      [
        "Ġsold",
        -10.337571304186318
      ],
      [
        "ĠEast",
        -10.337638927127957
      ],
      [
        "Ġwindows",
        -10.337759797037124
      ],
      [
        "Ġtruth",
        -10.337876456363496
      ],
      [
        "Ġvariant",
        -10.338620165717424
      ],
      [
        "ĠWindow",
        -10.338839740177162
      ],
      [
        "Ġrural",
        -10.340316224977034
      ],
      [
        "Ġphysics",
        -10.342345128750429
      ],
      [
        "ĠTwo",
        -10.342575476501786
      ],
      [
        "Ġproduces",
        -10.342693355889327
      ],
      [
        "Ġnarrow",
        -10.342950118840951
      ],
      [
        "Ġlense",
        -10.343355315224027
      ],
      [
        "ĠNovember",
        -10.3434980805404
      ],
      [
        "Ġelectrons",
        -10.343812575217328
      ],
      [
        "up",
        -10.34450696723366
      ],
      [
        "ĠPleas",
        -10.345020083388269
      ],
      [
        "Ġcookie",
        -10.345500125952883
      ],
      [
        "Ġmeant",
        -10.345619923174532
      ],
      [
        "Ġinteractive",
        -10.345845341548287
      ],
      [
        "Ġregulate",
        -10.34687540428153
      ],
      [
        "Ġblow",
        -10.3469947487628
      ],
      [
        "Ġmagnetic",
        -10.34733230349308
      ],
      [
        "Ġplus",
        -10.348441775390498
      ],
      [
        "Ġride",
        -10.35021581187026
      ],
      [
        "Ġsoap",
        -10.350639571060654
      ],
      [
        "Ġbridge",
        -10.351160258456815
      ],
      [
        "Ġ-->",
        -10.351765053600396
      ],
      [
        "Ġpop",
        -10.35180963687738
      ],
      [
        "ĠSometimes",
        -10.3531298385445
      ],
      [
        "Ġinfrastructure",
        -10.35330407740662
      ],
      [
        "Ġalumin",
        -10.353378850173923
      ],
      [
        "Ġmark",
        -10.35348160876195
      ],
      [
        "Ġgenerat",
        -10.35371705771535
      ],
      [
        "Not",
        -10.353765852611108
      ],
      [
        "Ġrenewable",
        -10.35404363555526
      ],
      [
        "Ġtough",
        -10.354044845707552
      ],
      [
        "ĠLight",
        -10.354437461592529
      ],
      [
        "Ġsmok",
        -10.355344591719728
      ],
      [
        "Ġbio",
        -10.355416066426631
      ],
      [
        "Ġkg",
        -10.355670611814284
      ],
      [
        "Ġtrouble",
        -10.35636997043633
      ],
      [
        "Ġcopy",
        -10.356673797453496
      ],
      [
        "Ġvertical",
        -10.357495867619065
      ],
      [
        "Ġhandl",
        -10.358384657380505
      ],
      [
        "Ġfiles",
        -10.358423540435451
      ],
      [
        "ĠHave",
        -10.358426527568955
      ],
      [
        "Ġscore",
        -10.358767706544526
      ],
      [
        "way",
        -10.35897906917312
      ],
      [
        "Ġclub",
        -10.359176935238011
      ],
      [
        "Ġexchange",
        -10.359244199057276
      ],
      [
        "Ġrecords",
        -10.360538486960944
      ],
      [
        "urthermore",
        -10.360585682873582
      ],
      [
        "ĠTechnology",
        -10.361322325425888
      ],
      [
        "Ġguarantee",
        -10.361575267995423
      ],
      [
        "Ġstars",
        -10.36178624371836
      ],
      [
        "ĠOpen",
        -10.362681289310911
      ],
      [
        "ĠThus",
        -10.362818178028428
      ],
      [
        "ĠUV",
        -10.363254611483878
      ],
      [
        "ĠProgram",
        -10.363770493746548
      ],
      [
        "Ġdiffer",
        -10.364155204841405
      ],
      [
        "Ġshark",
        -10.36499389407322
      ],
      [
        "Ġpuppy",
        -10.36507738957661
      ],
      [
        "Ġaesthetic",
        -10.366565544542098
      ],
      [
        "Ġsnake",
        -10.36714775059358
      ],
      [
        "Ġpond",
        -10.367235622712926
      ],
      [
        "Don",
        -10.367312176959553
      ],
      [
        "Since",
        -10.367352916059485
      ],
      [
        "{",
        -10.367642021297485
      ],
      [
        "Ġmistake",
        -10.367770180833304
      ],
      [
        "Ġblind",
        -10.367829446116229
      ],
      [
        "aging",
        -10.367858607190865
      ],
      [
        "Ġreceiv",
        -10.36835775994543
      ],
      [
        "ĠWhite",
        -10.368526194732311
      ],
      [
        "Ġrecorded",
        -10.368762887963534
      ],
      [
        "Be",
        -10.368814377009029
      ],
      [
        "Ġcolleague",
        -10.369252989412251
      ],
      [
        "Ġattractive",
        -10.369837416911
      ],
      [
        "Ġconsum",
        -10.369847989941931
      ],
      [
        "Ġachiev",
        -10.369956562511147
      ],
      [
        "Ġpresentation",
        -10.369963570667188
      ],
      [
        "Ġtheme",
        -10.370080695251286
      ],
      [
        "Ġgase",
        -10.370558740215236
      ],
      [
        "Ġtear",
        -10.371028280228462
      ],
      [
        "Ġfan",
        -10.371161142729031
      ],
      [
        "Ġbloom",
        -10.371598371793675
      ],
      [
        "see",
        -10.37178760318281
      ],
      [
        "Ġsales",
        -10.371906409514574
      ],
      [
        "ĠAnimal",
        -10.371970461832111
      ],
      [
        "}",
        -10.37252647381143
      ],
      [
        "Ġkne",
        -10.372655886127314
      ],
      [
        "Ġsessions",
        -10.372694724748314
      ],
      [
        "Ġalign",
        -10.372802816133936
      ],
      [
        "Ġpreserve",
        -10.37309430416287
      ],
      [
        "ĠProject",
        -10.373553548727696
      ],
      [
        "Ġecosystem",
        -10.373611082596955
      ],
      [
        "Ġdioxide",
        -10.374983317671028
      ],
      [
        "Ġtutorial",
        -10.375579270600934
      ],
      [
        "Ġgather",
        -10.376113685588049
      ],
      [
        "ring",
        -10.376176036149632
      ],
      [
        "ĠFoundation",
        -10.376451608057051
      ],
      [
        "-of",
        -10.376828312269536
      ],
      [
        "Ġworkshop",
        -10.377891287374313
      ],
      [
        "ĠSociety",
        -10.37854668722854
      ],
      [
        "Ġconflict",
        -10.378883531726846
      ],
      [
        "Ġcleaner",
        -10.378951778087892
      ],
      [
        "Ġdetection",
        -10.379656964449538
      ],
      [
        "Ġtrait",
        -10.381040265052302
      ],
      [
        "Ġextended",
        -10.38156748957945
      ],
      [
        "Ġgut",
        -10.381665477784107
      ],
      [
        "ĠLake",
        -10.382309652684246
      ],
      [
        "Ġdairy",
        -10.382331994394244
      ],
      [
        "Ġbreast",
        -10.382561246869402
      ],
      [
        "Ġpartner",
        -10.38268698428531
      ],
      [
        "Ġconsumers",
        -10.382758434346616
      ],
      [
        "Ġmicro",
        -10.38358805664672
      ],
      [
        "but",
        -10.3836700890649
      ],
      [
        "Ġtransportation",
        -10.384266882665523
      ],
      [
        "ĠCommon",
        -10.385516990051816
      ],
      [
        "Ġweed",
        -10.385965668102074
      ],
      [
        "Ġmanager",
        -10.386106153949154
      ],
      [
        "Ġtrace",
        -10.388486977165767
      ],
      [
        "Ġwarning",
        -10.388705972192286
      ],
      [
        "ĠDecember",
        -10.388901890450128
      ],
      [
        "Ġoutline",
        -10.388956399837138
      ],
      [
        "ĠUn",
        -10.388966458474204
      ],
      [
        "ate",
        -10.389108689406235
      ],
      [
        "Ġbiolog",
        -10.391188229191467
      ],
      [
        "Ġcord",
        -10.391712244140589
      ],
      [
        "Ġlie",
        -10.3918649095589
      ],
      [
        "Ġwheels",
        -10.392337770032247
      ],
      [
        "Ġshell",
        -10.392860518674144
      ],
      [
        "Ġsouth",
        -10.394247290926335
      ],
      [
        "Ġcomputers",
        -10.39433002226135
      ],
      [
        "Ġflexi",
        -10.39439918320355
      ],
      [
        "frozen",
        -10.394548314359294
      ],
      [
        "U",
        -10.39538231189783
      ],
      [
        "Ġtwist",
        -10.395426445681071
      ],
      [
        "Ġmajorit",
        -10.395788095143896
      ],
      [
        "Ġmetals",
        -10.396873124531304
      ],
      [
        "Ġsession",
        -10.3971933803297
      ],
      [
        "Ġjar",
        -10.397791820431513
      ],
      [
        "ĠCo",
        -10.39823627919947
      ],
      [
        "Ġgentle",
        -10.399660920080656
      ],
      [
        "ĠKnow",
        -10.39999458354087
      ],
      [
        "Ġpages",
        -10.40008886779004
      ],
      [
        "Ġgone",
        -10.401092526508194
      ],
      [
        "Ġexplains",
        -10.401626553922426
      ],
      [
        "Final",
        -10.401960423160384
      ],
      [
        "Ġinstitution",
        -10.402040313594332
      ],
      [
        "Ġhabits",
        -10.402619220946548
      ],
      [
        "Ġmask",
        -10.403149486145342
      ],
      [
        "Ġtrend",
        -10.403154751115164
      ],
      [
        "Ġdetermin",
        -10.404523198607194
      ],
      [
        "Ġmice",
        -10.404584221496586
      ],
      [
        "ĠNatural",
        -10.404655563457048
      ],
      [
        "aught",
        -10.404734860363238
      ],
      [
        "Ġholes",
        -10.405597530582916
      ],
      [
        "Ġmilitary",
        -10.40610355838598
      ],
      [
        "Ġouter",
        -10.406166916544985
      ],
      [
        "-day",
        -10.406277958877132
      ],
      [
        "ĠAdd",
        -10.40629100465472
      ],
      [
        "Ġpan",
        -10.406941907347656
      ],
      [
        "ĠAsia",
        -10.40745705231024
      ],
      [
        "ĠTV",
        -10.407540278134457
      ],
      [
        "Ġsteam",
        -10.407797460374226
      ],
      [
        "Ġenhanc",
        -10.40792291814062
      ],
      [
        "Ġcommitment",
        -10.40794467083201
      ],
      [
        "ification",
        -10.408177379100806
      ],
      [
        "Ġconsequences",
        -10.408925675337796
      ],
      [
        "Ġspeech",
        -10.409300333040632
      ],
      [
        "ĠYear",
        -10.409743837121596
      ],
      [
        "Ġgravity",
        -10.410299123166258
      ],
      [
        "âĢ¦ĊĊ",
        -10.410413190511573
      ],
      [
        "Ġimpossibl",
        -10.410669660365109
      ],
      [
        "Ġpartial",
        -10.41092342485276
      ],
      [
        "Ġprinter",
        -10.41137041447197
      ],
      [
        "ĠAustralian",
        -10.41153467893444
      ],
      [
        "Ġexperienc",
        -10.413088782498445
      ],
      [
        "Ġcollaboration",
        -10.413557917265836
      ],
      [
        "Ġresistan",
        -10.413693727548033
      ],
      [
        "Ġcomparison",
        -10.41370776651773
      ],
      [
        "Ġease",
        -10.414033180224964
      ],
      [
        "Ġexercises",
        -10.414302676514524
      ],
      [
        "Ġwound",
        -10.415058406335705
      ],
      [
        "Ġdepartment",
        -10.415119473404566
      ],
      [
        ".[",
        -10.415888575617313
      ],
      [
        "Ġincorporat",
        -10.4160125033567
      ],
      [
        "from",
        -10.416272096055293
      ],
      [
        "Ġshelter",
        -10.416913207441812
      ],
      [
        "Ġimprovement",
        -10.417114155074223
      ],
      [
        "Ġgun",
        -10.417261079108831
      ],
      [
        "Ġcustom",
        -10.417977182227505
      ],
      [
        "Ġtropical",
        -10.418560340070892
      ],
      [
        "Ġsubstantial",
        -10.418647688256812
      ],
      [
        "ium",
        -10.41897856448614
      ],
      [
        "Ġvolunteer",
        -10.419627686604354
      ],
      [
        "Ġgam",
        -10.419882761778275
      ],
      [
        "Ġlake",
        -10.42098926214049
      ],
      [
        "Ġmountain",
        -10.421051740869771
      ],
      [
        "ĠFinal",
        -10.421174689726316
      ],
      [
        "Ġ\\",
        -10.421314686995071
      ],
      [
        "ĠFish",
        -10.421765699617463
      ],
      [
        "ions",
        -10.422184988099126
      ],
      [
        "ĠPM",
        -10.422346609495929
      ],
      [
        "Ġinsulin",
        -10.422489296794964
      ],
      [
        "Ġindustri",
        -10.422623783727776
      ],
      [
        "Ġincome",
        -10.422786377450464
      ],
      [
        "ĠAssociation",
        -10.423094560968298
      ],
      [
        "Ġgauge",
        -10.42317140957405
      ],
      [
        "formed",
        -10.42321056975046
      ],
      [
        "Ġquilt",
        -10.423240736900066
      ],
      [
        "ĠStart",
        -10.424652810192825
      ],
      [
        "Unfortunatel",
        -10.425042863580789
      ],
      [
        "ĠMedical",
        -10.425132702356034
      ],
      [
        "Ġunusual",
        -10.426292336224954
      ],
      [
        "Ġtransformation",
        -10.426710919223732
      ],
      [
        "Ġsew",
        -10.42679151931056
      ],
      [
        "hunting",
        -10.427228383024817
      ],
      [
        "Ġreceptor",
        -10.427355959897502
      ],
      [
        "ĠGarden",
        -10.427909308522004
      ],
      [
        "Ġreports",
        -10.42872713334268
      ],
      [
        "ĠBefore",
        -10.428936071322813
      ],
      [
        "Ġleads",
        -10.429007984429198
      ],
      [
        "New",
        -10.429039758367798
      ],
      [
        "Ġcontract",
        -10.429239594044557
      ],
      [
        "most",
        -10.429586034300192
      ],
      [
        "Ġgraduate",
        -10.43005469901074
      ],
      [
        "Ġauthorit",
        -10.43033095206636
      ],
      [
        "Ġdentist",
        -10.431079578599936
      ],
      [
        "Ġspots",
        -10.431698493376455
      ],
      [
        "Ġmutation",
        -10.432225852330234
      ],
      [
        "--",
        -10.43229531263218
      ],
      [
        "ĠLondon",
        -10.43233834149103
      ],
      [
        "Ġwin",
        -10.432703647841883
      ],
      [
        "Ġimplementation",
        -10.433166915971007
      ],
      [
        "ĠTexa",
        -10.433373268727676
      ],
      [
        "Ġintroduc",
        -10.433554409725934
      ],
      [
        "Ġnames",
        -10.43437724876338
      ],
      [
        "Ġdream",
        -10.434497898496776
      ],
      [
        "Ġdelivery",
        -10.434551117712877
      ],
      [
        "Ġrestrict",
        -10.434769724053552
      ],
      [
        "Ġnuts",
        -10.4352351458395
      ],
      [
        "Ġretain",
        -10.435340426062444
      ],
      [
        "Ġconventional",
        -10.43579251258332
      ],
      [
        "âĢĺ",
        -10.436411097768328
      ],
      [
        "ĠApple",
        -10.43661584445763
      ],
      [
        "Ġarrive",
        -10.437036533038578
      ],
      [
        "Ġfreeze",
        -10.437076486352122
      ],
      [
        "Ġresolution",
        -10.437338734546184
      ],
      [
        "?\"",
        -10.437405224887844
      ],
      [
        "ĠWork",
        -10.437976072061309
      ],
      [
        "ĠMexic",
        -10.43820615674079
      ],
      [
        "Ġinterview",
        -10.438630766340625
      ],
      [
        "Ġtrends",
        -10.439021719614228
      ],
      [
        "Other",
        -10.439086507826758
      ],
      [
        "Ġflu",
        -10.439283507348229
      ],
      [
        "Ġlog",
        -10.43937279694757
      ],
      [
        "Ġcreates",
        -10.439918853453172
      ],
      [
        "Ġcent",
        -10.440658765414463
      ],
      [
        "Ġ{",
        -10.440784578349408
      ],
      [
        "ĠMr",
        -10.441866982580107
      ],
      [
        "ĠLife",
        -10.442321915650984
      ],
      [
        "Als",
        -10.442398424681969
      ],
      [
        "Ġsnack",
        -10.442657835040157
      ],
      [
        "Ġdeer",
        -10.442965082557368
      ],
      [
        "Ġintroduction",
        -10.443311085953267
      ],
      [
        "Ġboy",
        -10.443942792114653
      ],
      [
        "Ġurban",
        -10.444168371790363
      ],
      [
        "Ġnecessari",
        -10.44533529758426
      ],
      [
        "Dr",
        -10.44544966639394
      ],
      [
        "ĠChin",
        -10.44716804452158
      ],
      [
        "Ġpink",
        -10.447738056313677
      ],
      [
        "wrot",
        -10.44783080372708
      ],
      [
        "Ġtradition",
        -10.44788722575329
      ],
      [
        "Ġcards",
        -10.447944895218296
      ],
      [
        "\\",
        -10.447984336628608
      ],
      [
        "Ġstudie",
        -10.448076955881849
      ],
      [
        "Ġpromot",
        -10.4483281277497
      ],
      [
        "Ġabilities",
        -10.449527712429084
      ],
      [
        "ĠSpace",
        -10.449747670793473
      ],
      [
        "Ġlights",
        -10.449843235835145
      ],
      [
        "ĠSan",
        -10.450198846236034
      ],
      [
        "Ġnutrient",
        -10.450260814228448
      ],
      [
        "ĠProfessor",
        -10.450770288734676
      ],
      [
        "Ġfacing",
        -10.451924881718552
      ],
      [
        "Ġrepeat",
        -10.451933645163354
      ],
      [
        "Ġrear",
        -10.451957736259573
      ],
      [
        "Ġshock",
        -10.452008721852298
      ],
      [
        "Ġbranche",
        -10.45241307557388
      ],
      [
        "Ġcentre",
        -10.453174753812196
      ],
      [
        "Ġdisaster",
        -10.453933914055192
      ],
      [
        "Ġcapital",
        -10.454143977323588
      ],
      [
        "Ġpermanent",
        -10.454674447835965
      ],
      [
        "Ġextract",
        -10.455037898660663
      ],
      [
        "ĠDevelopment",
        -10.455113579299276
      ],
      [
        "Ġunknown",
        -10.456036635172865
      ],
      [
        "ized",
        -10.456741923497663
      ],
      [
        "Ġdramatic",
        -10.457385043641734
      ],
      [
        "Ġreplac",
        -10.457455858105526
      ],
      [
        "Ġstimulate",
        -10.45749290585597
      ],
      [
        "Ġhybrid",
        -10.457517080650558
      ],
      [
        "Ġinsurance",
        -10.457888479246597
      ],
      [
        "Ġunderly",
        -10.458363133465332
      ],
      [
        "Ġluck",
        -10.458384985781182
      ],
      [
        "Figure",
        -10.459315048523582
      ],
      [
        "weight",
        -10.459368187969268
      ],
      [
        "Ġanswers",
        -10.460931100003304
      ],
      [
        "such",
        -10.461332816193472
      ],
      [
        "ÂŃ",
        -10.461643326307502
      ],
      [
        "Ġsides",
        -10.462070526458646
      ],
      [
        "Â°C",
        -10.463073333217952
      ],
      [
        "Ġshrub",
        -10.463254320983143
      ],
      [
        "Ġsuspect",
        -10.463258093441112
      ],
      [
        "Ġequipp",
        -10.463502561848587
      ],
      [
        "Does",
        -10.46438226778277
      ],
      [
        "Ġdive",
        -10.464620907528095
      ],
      [
        "ene",
        -10.464805493358298
      ],
      [
        "Ġdecline",
        -10.465799298223429
      ],
      [
        "Ġburning",
        -10.466215568216194
      ],
      [
        "Ġapparent",
        -10.466235559429215
      ],
      [
        "Ġquantiz",
        -10.467137529247855
      ],
      [
        "Ġuniversity",
        -10.467472783717495
      ],
      [
        "ĠCounty",
        -10.468248685572188
      ],
      [
        "Ġbeam",
        -10.468302128814964
      ],
      [
        "Ġatom",
        -10.468337887530634
      ],
      [
        "Ġculinar",
        -10.468805364702735
      ],
      [
        "Ġstands",
        -10.469300756777743
      ],
      [
        "ĠMiddle",
        -10.469348738162068
      ],
      [
        "ING",
        -10.470347245760806
      ],
      [
        "Ġfunctionalit",
        -10.471016717012771
      ],
      [
        "Ġlaws",
        -10.471369422402264
      ],
      [
        "Ġnutritional",
        -10.471867474481506
      ],
      [
        "q",
        -10.472705141202509
      ],
      [
        "Ġdurable",
        -10.473394449597112
      ],
      [
        "Ġsexual",
        -10.474720002693848
      ],
      [
        "Ġoccasional",
        -10.47543186187917
      ],
      [
        "Ġnervous",
        -10.475481473339157
      ],
      [
        "Ġmeters",
        -10.47703879765196
      ],
      [
        "fitness",
        -10.477362633665216
      ],
      [
        "Ġarms",
        -10.477775059680976
      ],
      [
        "Ġvitamins",
        -10.478007055182427
      ],
      [
        "Ġworm",
        -10.478284346932924
      ],
      [
        "Ġcontrolling",
        -10.478687533949774
      ],
      [
        "ley",
        -10.479686936602231
      ],
      [
        "Ġcoating",
        -10.48044769177068
      ],
      [
        "Ġcomplication",
        -10.480855706129969
      ],
      [
        "Ġappliance",
        -10.480870657316324
      ],
      [
        "Ġactivate",
        -10.480952931562884
      ],
      [
        "Ġballoon",
        -10.481058056814202
      ],
      [
        "Ġdur",
        -10.481168640587184
      ],
      [
        ");",
        -10.48118248941588
      ],
      [
        "Ġathlete",
        -10.481389502787376
      ],
      [
        "Ġspice",
        -10.481789699429148
      ],
      [
        "Ġstruggle",
        -10.48249996766838
      ],
      [
        "Such",
        -10.48263694888664
      ],
      [
        "Ġlisten",
        -10.482870568246708
      ],
      [
        "Ġsignificance",
        -10.484006213798896
      ],
      [
        "Ġconsumer",
        -10.484138339368752
      ],
      [
        "Ġquiet",
        -10.484557257529364
      ],
      [
        "ĠGerman",
        -10.484780239112965
      ],
      [
        "Ġexploration",
        -10.484780651668704
      ],
      [
        "Ġcouldn",
        -10.48494050310793
      ],
      [
        "Ġmood",
        -10.485103789188043
      ],
      [
        "Ġjobs",
        -10.485208835822291
      ],
      [
        "Ġchemistry",
        -10.48524127856292
      ],
      [
        "Ġtruck",
        -10.48597888473983
      ],
      [
        "osis",
        -10.486066529812575
      ],
      [
        "Ġhappening",
        -10.487016459153756
      ],
      [
        "Where",
        -10.487865698069678
      ],
      [
        "Ġdistribute",
        -10.487885817998972
      ],
      [
        "\"We",
        -10.487945015631569
      ],
      [
        "Ġconfiguration",
        -10.488270595152615
      ],
      [
        "Ġpad",
        -10.488475887775582
      ],
      [
        "Ġyes",
        -10.488514846800182
      ],
      [
        "Ġstrip",
        -10.488860458442208
      ],
      [
        "ĠFIG",
        -10.48926832166176
      ],
      [
        "Ġbough",
        -10.48941907596168
      ],
      [
        "ĠGroup",
        -10.48996460066467
      ],
      [
        "Ġleaders",
        -10.49020866021796
      ],
      [
        "Ġlaptop",
        -10.490383732833555
      ],
      [
        "Ġinspection",
        -10.490626254415774
      ],
      [
        "Ġassociation",
        -10.49097206011488
      ],
      [
        "Ġsensitivit",
        -10.491319454712752
      ],
      [
        "ĠNature",
        -10.49196361832645
      ],
      [
        "Ġpackag",
        -10.49303248959844
      ],
      [
        "Ġsex",
        -10.493192770563189
      ],
      [
        "Ġdecay",
        -10.49384044871251
      ],
      [
        "Ġwidth",
        -10.494093481107695
      ],
      [
        "Ġtrap",
        -10.494444109571166
      ],
      [
        "Ġfacilitate",
        -10.494490621493416
      ],
      [
        "Ġexcited",
[...]
