{
  "version": "1.0",
  "truncation": null,
  "padding": null,
  "added_tokens": [
    {
      "id": 0,
      "content": "[UNK]",
      "single_word": false,
      "lstrip": false,
      "rstrip": false,
      "normalized": false,
      "special": true
    },
    {
      "id": 1,
      "content": "[CLS]",
      "single_word": false,
      "lstrip": false,
      "rstrip": false,
      "normalized": false,
      "special": true
    },
    {
      "id": 2,
      "content": "[SEP]",
      "single_word": false,
      "lstrip": false,
      "rstrip": false,
      "normalized": false,
      "special": true
    },
    {
      "id": 3,
      "content": "[PAD]",
      "single_word": false,
      "lstrip": false,
      "rstrip": false,
      "normalized": false,
      "special": true
    },
    {
      "id": 4,
      "content": "[MASK]",
      "single_word": false,
      "lstrip": false,
      "rstrip": false,
      "normalized": false,
      "special": true
    }
  ],
  "normalizer": null,
  "pre_tokenizer": {
    "type": "ByteLevel",
    "add_prefix_space": false,
    "trim_offsets": true,
    "use_regex": true
  },
  "post_processor": null,
  "decoder": null,
  "model": {
    "type": "BPE",
    "dropout": null,
    "unk_token": "[UNK]",
    "continuing_subword_prefix": null,
    "end_of_word_suffix": null,
    "fuse_unk": false,
    "byte_fallback": false,
    "ignore_merges": false,
    "vocab": {
      "[UNK]": 0,
      "[CLS]": 1,
      "[SEP]": 2,
      "[PAD]": 3,
      "[MASK]": 4,
      "!": 5,
      "\"": 6,
      "#": 7,
      "$": 8,
      "%": 9,
      "&": 10,
      "'": 11,
      "(": 12,
      ")": 13,
      "*": 14,
      "+": 15,
      ",": 16,
      "-": 17,
      ".": 18,
      "/": 19,
      "0": 20,
      "1": 21,
      "2": 22,
      "3": 23,
      "4": 24,
      "5": 25,
      "6": 26,
      "7": 27,
      "8": 28,
      "9": 29,
      ":": 30,
      ";": 31,
      "<": 32,
      "=": 33,
      ">": 34,
      "?": 35,
      "@": 36,
      "A": 37,
      "B": 38,
      "C": 39,
      "D": 40,
      "E": 41,
      "F": 42,
      "G": 43,
      "H": 44,
      "I": 45,
      "J": 46,
      "K": 47,
      "L": 48,
      "M": 49,
      "N": 50,
      "O": 51,
      "P": 52,
      "Q": 53,
      "R": 54,
      "S": 55,
      "T": 56,
      "U": 57,
      "V": 58,
      "W": 59,
      "X": 60,
      "Y": 61,
      "Z": 62,
      "[": 63,
      "\\": 64,
      "]": 65,
      "^": 66,
      "_": 67,
      "`": 68,
      "a": 69,
      "b": 70,
      "c": 71,
      "d": 72,
      "e": 73,
      "f": 74,
      "g": 75,
      "h": 76,
      "i": 77,
      "j": 78,
      "k": 79,
      "l": 80,
      "m": 81,
      "n": 82,
      "o": 83,
      "p": 84,
      "q": 85,
      "r": 86,
      "s": 87,
      "t": 88,
      "u": 89,
      "v": 90,
      "w": 91,
      "x": 92,
      "y": 93,
      "z": 94,
      "|": 95,
      "}": 96,
      "~": 97,
      "¡": 98,
      "¢": 99,
      "£": 100,
      "¤": 101,
      "¥": 102,
      "¦": 103,
      "§": 104,
      "¨": 105,
      "©": 106,
      "ª": 107,
      "«": 108,
      "¬": 109,
      "®": 110,
      "¯": 111,
      "°": 112,
      "±": 113,
      "²": 114,
      "³": 115,
      "´": 116,
      "µ": 117,
      "¶": 118,
      "·": 119,
      "¸": 120,
      "¹": 121,
      "º": 122,
      "»": 123,
      "¼": 124,
      "½": 125,
      "¾": 126,
      "¿": 127,
      "Â": 128,
      "Ã": 129,
      "Ä": 130,
      "Å": 131,
      "Æ": 132,
      "Ç": 133,
      "È": 134,
      "É": 135,
      "Ê": 136,
      "Ë": 137,
      "Ì": 138,
      "Í": 139,
      "Î": 140,
      "Ï": 141,
      "Ð": 142,
      "Ñ": 143,
      "Ò": 144,
      "Ó": 145,
      "Õ": 146,
      "Ö": 147,
      "×": 148,
      "Ø": 149,
      "Ù": 150,
      "Ú": 151,
      "Û": 152,
      "Ü": 153,
      "à": 154,
      "á": 155,
      "â": 156,
      "ã": 157,
      "ä": 158,
      "å": 159,
      "æ": 160,
      "ç": 161,
      "è": 162,
      "é": 163,
      "ê": 164,
      "ë": 165,
      "ì": 166,
      "í": 167,
      "ï": 168,
      "ð": 169,
      "Ċ": 170,
      "Ġ": 171,
      "Ģ": 172,
      "ģ": 173,
      "Ĥ": 174,
      "ĥ": 175,
      "Ħ": 176,
      "ħ": 177,
      "Ĩ": 178,
      "ĩ": 179,
      "Ī": 180,
      "ī": 181,
      "Ĭ": 182,
      "ĭ": 183,
      "Į": 184,
      "į": 185,
      "İ": 186,
      "ı": 187,
      "Ĳ": 188,
      "ĳ": 189,
      "Ĵ": 190,
      "ĵ": 191,
      "Ķ": 192,
      "ķ": 193,
      "ĸ": 194,
      "Ĺ": 195,
      "ĺ": 196,
      "Ļ": 197,
      "ļ": 198,
      "Ľ": 199,
      "ľ": 200,
      "Ŀ": 201,
      "ŀ": 202,
      "Ł": 203,
      "ł": 204,
      "Ń": 205,
      "Ġt": 206,
      "Ġa": 207,
      "he": 208,
      "in": 209,
      "re": 210,
      "Ġthe": 211,
      "on": 212,
      "er": 213,
      "Ġo": 214,
      "at": 215,
      "Ġs": 216,
      "en": 217,
      "Ġc": 218,
      "es": 219,
      "Ġw": 220,
      "is": 221,
      "nd": 222,
      "or": 223,
      "it": 224,
      "Ġp": 225,
      "ed": 226,
      "al": 227,
      "Ġof": 228,
      "Ġb": 229,
      "Ġf": 230,
      "an": 231,
      "Ġin": 232,
      "ar": 233,
      "ing": 234,
      "ou": 235,
      "Ġm": 236,
      "Ġand": 237,
      "ic": 238,
      "Ġto": 239,
      "ion": 240,
      "Ġd": 241,
      "ro": 242,
      "le": 243,
      "as": 244,
      "Ġh": 245,
      "ent": 246,
      "Ġth": 247,
      "ct": 248,
      "il": 249,
      "Ġe": 250,
      "Ġre": 251,
      "om": 252,
      "Ġn": 253,
      "Ġl": 254,
      "st": 255,
      "ve": 256,
      "ly": 257,
      "Ġbe": 258,
      "ĠT": 259,
      "Ġis": 260,
      "se": 261,
      "ol": 262,
      "ation": 263,
      "Ġg": 264,
      "id": 265,
      "im": 266,
      "ce": 267,
      "ĠA": 268,
      "ut": 269,
      "ra": 270,
      "et": 271,
      "ot": 272,
      "ĠS": 273,
      "ur": 274,
      "ch": 275,
      "Ġfor": 276,
      "ig": 277,
      "ow": 278,
      "âĢ": 279,
      "ĠC": 280,
      "Ġon": 281,
      "Ġthat": 282,
      "ver": 283,
      "Ġu": 284,
      "ĠI": 285,
      "Ġst": 286,
      "ir": 287,
      "am": 288,
      "ul": 289,
      "ay": 290,
      "ad": 291,
      "el": 292,
      "Ġas": 293,
      "ith": 294,
      "her": 295,
      "Ġpro": 296,
      "Ġy": 297,
      "Ġ1": 298,
      "Ġcon": 299,
      "ĠM": 300,
      "Ġan": 301,
      "Ġ(": 302,
      "Ġwith": 303,
      "Ġare": 304,
      "Ġwh": 305,
      "Ġor": 306,
      "ter": 307,
      "ĠP": 308,
      "if": 309,
      "ĠThe": 310,
      "Ġit": 311,
      "Ġal": 312,
      "od": 313,
      "ment": 314,
      "th": 315,
      "ist": 316,
      "ge": 317,
      "op": 318,
      "ate": 319,
      "ĠB": 320,
      "ers": 321,
      "Ġde": 322,
      "ies": 323,
      "ill": 324,
      "ab": 325,
      "ere": 326,
      "ĠH": 327,
      "us": 328,
      "Ġhe": 329,
      "Ġex": 330,
      "res": 331,
      "um": 332,
      "est": 333,
      "ect": 334,
      "ess": 335,
      "Ġby": 336,
      "rom": 337,
      "Ġyou": 338,
      "Ġcom": 339,
      "ld": 340,
      "ity": 341,
      "ore": 342,
      "and": 343,
      "ac": 344,
      "os": 345,
      "Ġsu": 346,
      "Ġat": 347,
      "ri": 348,
      "ĠW": 349,
      "Ġwas": 350,
      "em": 351,
      "ĠD": 352,
      "Ġv": 353,
      "ive": 354,
      "ĠR": 355,
      "ain": 356,
      "nt": 357,
      "ĠE": 358,
      "qu": 359,
      "igh": 360,
      "pp": 361,
      "ant": 362,
      "Ġfrom": 363,
      "ke": 364,
      "ĠF": 365,
      "ud": 366,
      "Ġha": 367,
      "Ġ2": 368,
      "ĠN": 369,
      "oc": 370,
      "ort": 371,
      "iv": 372,
      "Ġch": 373,
      "Ġse": 374,
      "ĠG": 375,
      "Ġne": 376,
      "Ġr": 377,
      "00": 378,
      "Ġnot": 379,
      "ĠL": 380,
      "ure": 381,
      "un": 382,
      "ical": 383,
      "art": 384,
      "Ġcan": 385,
      "ial": 386,
      "Ġhave": 387,
      "og": 388,
      "Ġle": 389,
      "Ġsh": 390,
      "Ġsp": 391,
      "âĢĻ": 392,
      "all": 393,
      "Ġen": 394,
      "ight": 395,
      "ich": 396,
      "Ġthis": 397,
      "pt": 398,
      "ould": 399,
      "rou": 400,
      "ther": 401,
      "The": 402,
      "Ġab": 403,
      "gh": 404,
      "our": 405,
      "'s": 406,
      "ost": 407,
      "ated": 408,
      "ear": 409,
      "ĠJ": 410,
      "ions": 411,
      "Ġwor": 412,
      "ome": 413,
      "du": 414,
      "ine": 415,
      "ĠO": 416,
      "ard": 417,
      "ag": 418,
      "ĠU": 419,
      "out": 420,
      "Ġwe": 421,
      "ast": 422,
      "per": 423,
      "ell": 424,
      "ff": 425,
      "ĠâĢ": 426,
      "ans": 427,
      "Ġim": 428,
      "Ġpl": 429,
      "ec": 430,
      "Ġus": 431,
      "Ġint": 432,
      "Ġtheir": 433,
      "pl": 434,
      "Ġwhich": 435,
      "age": 436,
      "ĠIn": 437,
      "act": 438,
      "ew": 439,
      "ust": 440,
      "Ġ\"": 441,
      "ous": 442,
      "ak": 443,
      "are": 444,
      "ide": 445,
      "Ġk": 446,
      "iz": 447,
      "Ġwhe": 448,
      "ap": 449,
      "ib": 450,
      "Ġ19": 451,
      "ary": 452,
      "Ġcont": 453,
      "Ġall": 454,
      "ia": 455,
      "Ġthey": 456,
      "Ġad": 457,
      "ong": 458,
      "end": 459,
      "Ġinc": 460,
      "cc": 461,
      "Ġdis": 462,
      "ru": 463,
      "ult": 464,
      "ood": 465,
      "ations": 466,
      "Ġwere": 467,
      "Ġres": 468,
      "Ġhas": 469,
      "orm": 470,
      "vel": 471,
      "Ġmore": 472,
      "Ġwill": 473,
      "Ġcomp": 474,
      "ip": 475,
      "ater": 476,
      "ire": 477,
      "Ġdo": 478,
      "ence": 479,
      "Ġcl": 480,
      "Ġother": 481,
      "Ġbut": 482,
      "Ġper": 483,
      "ild": 484,
      "Ġman": 485,
      "ual": 486,
      "ks": 487,
      "so": 488,
      "ry": 489,
      "able": 490,
      "ĠTh": 491,
      "Ġone": 492,
      "ind": 493,
      "ose": 494,
      "ep": 495,
      "ber": 496,
      "ĠSt": 497,
      "ass": 498,
      "Ġhis": 499,
      "ress": 500,
      "ign": 501,
      "ance": 502,
      "Ġar": 503,
      "Ġme": 504,
      "ents": 505,
      "av": 506,
      "reat": 507,
      "au": 508,
      "ach": 509,
      "Ġun": 510,
      "ction": 511,
      "âĢĿ": 512,
      "ase": 513,
      "Ġyour": 514,
      "ish": 515,
      "ord": 516,
      "ice": 517,
      "ount": 518,
      "ition": 519,
      ").": 520,
      "Ġte": 521,
      "ace": 522,
      "Ġalso": 523,
      "ame": 524,
      "Ġj": 525,
      "ub": 526,
      "Ġwho": 527,
      "ory": 528,
      "Ġimp": 529,
      "Ġev": 530,
      "Ġso": 531,
      "Ġpre": 532,
      "ĠK": 533,
      "Ġpart": 534,
      "Ġapp": 535,
      "mer": 536,
      "ens": 537,
      "one": 538,
      "Ġout": 539,
      "ake": 540,
      "ok": 541,
      "Ġabout": 542,
      "ci": 543,
      "very": 544,
      "Ġinf": 545,
      "ime": 546,
      "ack": 547,
      "Ġstud": 548,
      "ound": 549,
      "ite": 550,
      "ree": 551,
      "olog": 552,
      "ors": 553,
      "ces": 554,
      "Ġmay": 555,
      "ĠCh": 556,
      "Ġthan": 557,
      "Ġyear": 558,
      "ang": 559,
      "ue": 560,
      "ian": 561,
      "Ġsy": 562,
      "Ġpe": 563,
      "ie": 564,
      "ric": 565,
      "ates": 566,
      "Ġbeen": 567,
      "Ġup": 568,
      "ĠâĢľ": 569,
      "Ġbec": 570,
      "Ġhad": 571,
      "Ġthem": 572,
      "low": 573,
      "now": 574,
      "Ġcomm": 575,
      "Ġag": 576,
      "Ġrec": 577,
      "Ġits": 578,
      "ail": 579,
      "ile": 580,
      "erv": 581,
      "vers": 582,
      "ays": 583,
      "ike": 584,
      "ph": 585,
      "Ġsome": 586,
      "Ġqu": 587,
      "ough": 588,
      "ĠV": 589,
      "ĠIt": 590,
      "nder": 591,
      "ings": 592,
      "Ġthere": 593,
      "ons": 594,
      "Ġgo": 595,
      "Ġinto": 596,
      "Ġ3": 597,
      "rit": 598,
      "ople": 599,
      "Ġra": 600,
      "tern": 601,
      "lud": 602,
      "iff": 603,
      "Ġwhen": 604,
      "ren": 605,
      "ational": 606,
      "Ġover": 607,
      "ond": 608,
      "Ġsa": 609,
      "Ġ-": 610,
      "ms": 611,
      "Ġthese": 612,
      "Ġtra": 613,
      "ll": 614,
      "rough": 615,
      "Ġwould": 616,
      "Ġ200": 617,
      "te": 618,
      "irst": 619,
      "lic": 620,
      "Ġcol": 621,
      "ject": 622,
      "Ġtime": 623,
      "Ġtw": 624,
      "ally": 625,
      "ove": 626,
      "int": 627,
      "red": 628,
      "Ġnew": 629,
      "ause": 630,
      "Ġro": 631,
      "Ġcons": 632,
      "Ġwork": 633,
      "ific": 634,
      "Ġdes": 635,
      "Ġrep": 636,
      "lect": 637,
      "ĠUn": 638,
      "Ġmost": 639,
      "Ġpeople": 640,
      "hed": 641,
      "ments": 642,
      "ys": 643,
      "Ġuse": 644,
      "Ġbl": 645,
      "we": 646,
      "ities": 647,
      "ĠThis": 648,
      "Ġunder": 649,
      "Ġbet": 650,
      "Ġgen": 651,
      "Ġhow": 652,
      "Ġact": 653,
      "velop": 654,
      "),": 655,
      "Ġdiff": 656,
      "Ġacc": 657,
      "Ġno": 658,
      "Ġsuch": 659,
      "Ġrel": 660,
      "wn": 661,
      "stem": 662,
      "les": 663,
      "ĠY": 664,
      "Ġknow": 665,
      "ook": 666,
      "Ġ20": 667,
      "Ġinclud": 668,
      "ced": 669,
      "alth": 670,
      "Ġonly": 671,
      "Ġany": 672,
      "Ġfirst": 673,
      "ious": 674,
      "Ġtr": 675,
      "ob": 676,
      "Ġif": 677,
      "Ġeff": 678,
      "Ġlike": 679,
      "ative": 680,
      "ning": 681,
      "iss": 682,
      "Ġchild": 683,
      "Ġam": 684,
      "Ġprov": 685,
      "Ġoff": 686,
      "ple": 687,
      "ool": 688,
      "Ġspec": 689,
      "ov": 690,
      "ath": 691,
      "fter": 692,
      "Ġprodu": 693,
      "Ġtwo": 694,
      "ular": 695,
      "Ġour": 696,
      "Ġob": 697,
      "Ġph": 698,
      "ied": 699,
      "Ġused": 700,
      "Ġind": 701,
      "erm": 702,
      "ĠHe": 703,
      "Ġmany": 704,
      "rib": 705,
      "Ġexp": 706,
      "Ġdevelop": 707,
      "ise": 708,
      "Ġpo": 709,
      "ating": 710,
      "cess": 711,
      "Ġwhat": 712,
      "ts": 713,
      "Ġthrough": 714,
      "ark": 715,
      "Ġreg": 716,
      "Ġsc": 717,
      "als": 718,
      "oss": 719,
      "ics": 720,
      "rop": 721,
      "Ġneed": 722,
      "uring": 723,
      "ne": 724,
      "arch": 725,
      "yp": 726,
      "uc": 727,
      "old": 728,
      "..": 729,
      "round": 730,
      "Ġsur": 731,
      "Ġyears": 732,
      "Ġac": 733,
      "Ġatt": 734,
      "Ġfe": 735,
      "Ġdec": 736,
      "Ġsystem": 737,
      "Ġpr": 738,
      "meric": 739,
      "ram": 740,
      "iet": 741,
      "Ġ4": 742,
      "Ġem": 743,
      "oth": 744,
      "Ġass": 745,
      "ble": 746,
      "ution": 747,
      "Ġfl": 748,
      "ng": 749,
      "ink": 750,
      "ible": 751,
      "ased": 752,
      "Ġsub": 753,
      "ited": 754,
      "ange": 755,
      "hen": 756,
      "ful": 757,
      "ert": 758,
      "ade": 759,
      "aw": 760,
      "ten": 761,
      "Ġco": 762,
      "cy": 763,
      "ures": 764,
      "row": 765,
      "fore": 766,
      "In": 767,
      "ility": 768,
      "ower": 769,
      "Ġadd": 770,
      "Ġ5": 771,
      "Ġsupp": 772,
      "Ġhel": 773,
      "Ġ18": 774,
      "gan": 775,
      "ife": 776,
      "sel": 777,
      "Ġshould": 778,
      "Ġpres": 779,
      "Ġrem": 780,
      "ween": 781,
      "own": 782,
      "ists": 783,
      "Ġcould": 784,
      "ĠAmeric": 785,
      "ered": 786,
      "Ġwater": 787,
      "Ġear": 788,
      "land": 789,
      "Ġinv": 790,
      "eth": 791,
      "Ġhelp": 792,
      "Ġrese": 793,
      "hes": 794,
      "Ġdiffere": 795,
      "ident": 796,
      "uch": 797,
      "ĠAs": 798,
      "Ġwell": 799,
      "Ġbetween": 800,
      "Ġsm": 801,
      "ivers": 802,
      "ology": 803,
      "Ġpol": 804,
      "ex": 805,
      "ract": 806,
      "ont": 807,
      "Ġsaid": 808,
      "ormation": 809,
      "ick": 810,
      "ily": 811,
      "its": 812,
      "Ġwhere": 813,
      "Ġhigh": 814,
      "Ġnum": 815,
      "ever": 816,
      "Ġform": 817,
      "chool": 818,
      "Ġfound": 819,
      "Ġher": 820,
      "ural": 821,
      "Ġlar": 822,
      "Ġcent": 823,
      "Ġinter": 824,
      "ft": 825,
      "Ġcount": 826,
      "ines": 827,
      "Ġinst": 828,
      "ants": 829,
      "ict": 830,
      "Ġbu": 831,
      "Ġtrans": 832,
      "Ġafter": 833,
      "Ġ201": 834,
      "Ġref": 835,
      "chn": 836,
      "ins": 837,
      "vern": 838,
      "Ġpub": 839,
      "urn": 840,
      ".\"": 841,
      "Ġpers": 842,
      "ism": 843,
      "Ġmod": 844,
      "ved": 845,
      "ually": 846,
      "eral": 847,
      "Ġcall": 848,
      "Ġed": 849,
      "cent": 850,
      "cer": 851,
      "cept": 852,
      "ef": 853,
      "Ġlong": 854,
      "Ġprog": 855,
      "gy": 856,
      "Ġexam": 857,
      "itt": 858,
      "Ġbecause": 859,
      "Ġdet": 860,
      "ature": 861,
      "other": 862,
      "Ġthose": 863,
      "Ġworld": 864,
      "iew": 865,
      "Ġcar": 866,
      "vent": 867,
      "Ġsim": 868,
      "Ġthen": 869,
      "Ġvery": 870,
      "oy": 871,
      "the": 872,
      "Ġmake": 873,
      "omm": 874,
      "Ġhealth": 875,
      "Ġeven": 876,
      "Th": 877,
      "Ġincre": 878,
      "Ġimport": 879,
      "Ġeffect": 880,
      "Ġhum": 881,
      "Ġjust": 882,
      "Ġdisc": 883,
      "Ġmed": 884,
      "ĠPro": 885,
      "ĠAl": 886,
      "roup": 887,
      "ollow": 888,
      "Ġsee": 889,
      "ically": 890,
      "Ġext": 891,
      "Ġloc": 892,
      "Ġget": 893,
      "ness": 894,
      "ork": 895,
      "Ġinformation": 896,
      "ds": 897,
      "Ġresp": 898,
      "ĠNew": 899,
      "Ġsign": 900,
      "19": 901,
      "ather": 902,
      "get": 903,
      "Ġdist": 904,
      "arm": 905,
      "Ġmon": 906,
      "led": 907,
      "Ġsec": 908,
      "Ġpat": 909,
      "ives": 910,
      "Ġsci": 911,
      "Ġdef": 912,
      "Ġway": 913,
      "Ġ6": 914,
      "Ġgra": 915,
      "Ġshe": 916,
      "Ġresult": 917,
      "ases": 918,
      "ages": 919,
      "||": 920,
      "iron": 921,
      "Ġent": 922,
      "Ġeach": 923,
      "Ġchildren": 924,
      "Ġbeing": 925,
      "Ġca": 926,
      "ĠWh": 927,
      "Ġmade": 928,
      "io": 929,
      "ues": 930,
      "ck": 931,
      "Ġdifferent": 932,
      "aking": 933,
      "Ġright": 934,
      "Ġset": 935,
      "Ġvar": 936,
      "xt": 937,
      "imes": 938,
      "Ġduring": 939,
      "iversity": 940,
      "Ġpartic": 941,
      "Ġfact": 942,
      "Ġmuch": 943,
      "ros": 944,
      "ized": 945,
      "Ġtyp": 946,
      "orn": 947,
      "Ġexper": 948,
      "ĠRe": 949,
      "und": 950,
      "Ġaut": 951,
      "ward": 952,
      "000": 953,
      "ĠAr": 954,
      "Ġart": 955,
      "Ġdep": 956,
      "Ġsame": 957,
      "Ġfam": 958,
      "ruct": 959,
      ".,": 960,
      "ata": 961,
      "Ġrequ": 962,
      "Ġevery": 963,
      "Ġfollow": 964,
      "any": 965,
      "Ġown": 966,
      "ince": 967,
      "ection": 968,
      "con": 969,
      "Ġke": 970,
      "Ġmy": 971,
      "Ġstudy": 972,
      "ale": 973,
      "ĠWe": 974,
      "Ġend": 975,
      "Ġpop": 976,
      "hem": 977,
      "ĠAn": 978,
      "Ġhim": 979,
      "ars": 980,
      "ished": 981,
      "Ġtechn": 982,
      "Ġ199": 983,
      "Ġcre": 984,
      "Ġcommun": 985,
      "iel": 986,
      "Ġstate": 987,
      "Ġlife": 988,
      "gg": 989,
      "Ġgroup": 990,
      "Ġprocess": 991,
      "omen": 992,
      "Ġhist": 993,
      "ran": 994,
      "ĠFor": 995,
      ",\"": 996,
      "ĠâĢĵ": 997,
      "Ġlead": 998,
      "Ġproble": 999,
      "Ġagain": 1000,
      "ices": 1001,
      "ah": 1002,
      "Ġsoc": 1003,
      "ĠSp": 1004,
      "hip": 1005,
      "oh": 1006,
      "ined": 1007,
      "Ġfind": 1008,
      "Ġav": 1009,
      "Ġbefore": 1010,
      "Ġback": 1011,
      "Ġschool": 1012,
      "Ġlevel": 1013,
      "Ġboth": 1014,
      "Ġsmall": 1015,
      "Ġdoes": 1016,
      "ron": 1017,
      "Ġtest": 1018,
      "Ġlear": 1019,
      "imate": 1020,
      "'t": 1021,
      "ty": 1022,
      "ize": 1023,
      "ĠThey": 1024,
      "ury": 1025,
      "ute": 1026,
      "Ġmin": 1027,
      "ting": 1028,
      "Ġgovern": 1029,
      "read": 1030,
      "Ġcur": 1031,
      "ix": 1032,
      "Ġread": 1033,
      "Ġshow": 1034,
      "viron": 1035,
      "irect": 1036,
      "ody": 1037,
      "ven": 1038,
      "Ġocc": 1039,
      "up": 1040,
      "rol": 1041,
      "nce": 1042,
      "Ġexpl": 1043,
      "ĠInd": 1044,
      "Ġnow": 1045,
      "inal": 1046,
      "Ġimportant": 1047,
      "Ġstudents": 1048,
      "Ġmem": 1049,
      ".âĢĿ": 1050,
      "ral": 1051,
      "ĠIf": 1052,
      "Ġcomple": 1053,
      "Ġins": 1054,
      "form": 1055,
      "ially": 1056,
      "Ġma": 1057,
      "ock": 1058,
      "ters": 1059,
      "Ġnumber": 1060,
      "ient": 1061,
      "ier": 1062,
      "Ġfood": 1063,
      "ands": 1064,
      "Ġdi": 1065,
      "âĢĶ": 1066,
      "Ġperson": 1067,
      "Ġest": 1068,
      "Ġgl": 1069,
      "Ġbo": 1070,
      "Ġreport": 1071,
      "Ġthree": 1072,
      "der": 1073,
      "Ġtreat": 1074,
      "Ġsk": 1075,
      "hers": 1076,
      "Ġposs": 1077,
      "Ġstr": 1078,
      "Ġ10": 1079,
      "ulation": 1080,
      "Ġserv": 1081,
      "ides": 1082,
      "Ġgood": 1083,
      "ergy": 1084,
      "ected": 1085,
      "Ġ7": 1086,
      "ving": 1087,
      "Ġresearch": 1088,
      "Ġless": 1089,
      "air": 1090,
      "cl": 1091,
      "Ġdid": 1092,
      "Ġoften": 1093,
      "Ġbel": 1094,
      "ves": 1095,
      "Ġchar": 1096,
      "Ġprot": 1097,
      "ash": 1098,
      "Ġcell": 1099,
      "vironment": 1100,
      "outh": 1101,
      "Ġorgan": 1102,
      "Ġdise": 1103,
      "Ġpower": 1104,
      "Ġlarge": 1105,
      "Ġval": 1106,
      "ĠBut": 1107,
      "Ġplan": 1108,
      "Ġday": 1109,
      "Ġdesign": 1110,
      "ivid": 1111,
      "ave": 1112,
      "ee": 1113,
      "ton": 1114,
      "Ġris": 1115,
      "ouse": 1116,
      "ger": 1117,
      "Ġser": 1118,
      "Ġmain": 1119,
      "Ġ8": 1120,
      "Ġcalled": 1121,
      "Ġret": 1122,
      "Ġhuman": 1123,
      "Ġpublic": 1124,
      "Ġelect": 1125,
      "Ġvis": 1126,
      "ality": 1127,
      "ĠIs": 1128,
      "Ġwhile": 1129,
      "ains": 1130,
      "Ġmust": 1131,
      "Ġusing": 1132,
      "day": 1133,
      "Ġcontin": 1134,
      "ĠAmerican": 1135,
      "ĠHow": 1136,
      "uss": 1137,
      "ull": 1138,
      "Ġdown": 1139,
      "ency": 1140,
      "Ġconf": 1141,
      "rent": 1142,
      "Ġclass": 1143,
      "Ġgreat": 1144,
      "dition": 1145,
      "Ġdata": 1146,
      "akes": 1147,
      "Ġpoint": 1148,
      "Ġtake": 1149,
      "Ġsupport": 1150,
      "ĠUniversity": 1151,
      "ared": 1152,
      "stit": 1153,
      "Ġgrow": 1154,
      "self": 1155,
      "Ġ9": 1156,
      "man": 1157,
      "Ġincluding": 1158,
      "way": 1159,
      "iety": 1160,
      "Ġsol": 1161,
      "orth": 1162,
      "ring": 1163,
      "stand": 1164,
      "osed": 1165,
      "ital": 1166,
      "com": 1167,
      "iqu": 1168,
      "Ġgener": 1169,
      "ĠDe": 1170,
      "10": 1171,
      "Ġactiv": 1172,
      "This": 1173,
      "Ġconsid": 1174,
      "oun": 1175,
      "Ġfun": 1176,
      "bers": 1177,
      "Ġaround": 1178,
      "Ġcommon": 1179,
      "conom": 1180,
      "ax": 1181,
      "Ġexample": 1182,
      "Ġthough": 1183,
      "illion": 1184,
      "itions": 1185,
      "Ġknown": 1186,
      "Ġequ": 1187,
      "Ġop": 1188,
      "oci": 1189,
      "amp": 1190,
      "Ġcour": 1191,
      "de": 1192,
      "raph": 1193,
      "Ġredu": 1194,
      "Ġcle": 1195,
      "Ġcor": 1196,
      "ross": 1197,
      "ries": 1198,
      "iod": 1199,
      "ium": 1200,
      "ians": 1201,
      "ted": 1202,
      "ources": 1203,
      "Ġlook": 1204,
      "Ġadv": 1205,
      "Ġstill": 1206,
      "ĠAnd": 1207,
      "Ġcare": 1208,
      "Ġpercent": 1209,
      "reen": 1210,
      "ĠCon": 1211,
      "Ġmet": 1212,
      "ional": 1213,
      "acter": 1214,
      "Wh": 1215,
      "aterial": 1216,
      "eg": 1217,
      "Ġmat": 1218,
      "Ġgovernment": 1219,
      "Ġdirect": 1220,
      "20": 1221,
      "Ġwrit": 1222,
      "Ġaff": 1223,
      "Ġallow": 1224,
      "ired": 1225,
      "lish": 1226,
      "ination": 1227,
      "ĠUnited": 1228,
      "Ġappro": 1229,
      "ĠRes": 1230,
      "els": 1231,
      "rain": 1232,
      "Ġmil": 1233,
      "Ġfew": 1234,
      "ug": 1235,
      "Ġeduc": 1236,
      "ained": 1237,
      "Ġplace": 1238,
      "Ġlaw": 1239,
      "Ġbody": 1240,
      "ior": 1241,
      "ĠEng": 1242,
      "Ġsom": 1243,
      "ĠThere": 1244,
      "Ġbuild": 1245,
      "Ġquest": 1246,
      "jor": 1247,
      "Ġpresent": 1248,
      "iving": 1249,
      "Ġwomen": 1250,
      "Ġsl": 1251,
      "Ġdem": 1252,
      "agn": 1253,
      "ris": 1254,
      "Ġmight": 1255,
      "hor": 1256,
      "ense": 1257,
      "ization": 1258,
      "ration": 1259,
      "erest": 1260,
      "att": 1261,
      "Ġstart": 1262,
      "iven": 1263,
      "Ġ.": 1264,
      "Ġchang": 1265,
      "Ġproject": 1266,
      "tt": 1267,
      "Ġwar": 1268,
      "Ġgu": 1269,
      "Ġwithout": 1270,
      "ording": 1271,
      "Ġair": 1272,
      "ason": 1273,
      "iver": 1274,
      "ission": 1275,
      "Ġsays": 1276,
      "Ġlight": 1277,
      "ield": 1278,
      "Ġ[": 1279,
      "lished": 1280,
      "Ġarea": 1281,
      "Ġdesc": 1282,
      "ĠStates": 1283,
      "Ġbelie": 1284,
      "gin": 1285,
      "Ġprogram": 1286,
      "less": 1287,
      "Ġland": 1288,
      "Ġwithin": 1289,
      "oms": 1290,
      "ids": 1291,
      "ertain": 1292,
      "arent": 1293,
      "Ġide": 1294,
      "rist": 1295,
      "ĠPh": 1296,
      "Ġbeh": 1297,
      "Ġanother": 1298,
      ",âĢĿ": 1299,
      "ified": 1300,
      "Ġchange": 1301,
      "Ġcap": 1302,
      "Ġdevelopment": 1303,
      "Ġtem": 1304,
      "arc": 1305,
      "ĠCol": 1306,
      "Ġenergy": 1307,
      "Ġpract": 1308,
      "Ġcaus": 1309,
      "âĢĵ": 1310,
      "az": 1311,
      "Ġscient": 1312,
      "Ġdisease": 1313,
      "Ġiss": 1314,
      "ividual": 1315,
      "Ġthink": 1316,
      "Ġpass": 1317,
      "ering": 1318,
      "ption": 1319,
      "angu": 1320,
      "ĠThese": 1321,
      "Ġenvironment": 1322,
      "Ġmaterial": 1323,
      "Ġpur": 1324,
      "bs": 1325,
      "Ġeconom": 1326,
      "Ġagainst": 1327,
      "Ġblood": 1328,
      "ner": 1329,
      "Ġphys": 1330,
      "Ġearly": 1331,
      "rodu": 1332,
      "ological": 1333,
      "atural": 1334,
      "Ġnear": 1335,
      "Ġstand": 1336,
      "Ġlast": 1337,
      "eng": 1338,
      "Ġold": 1339,
      "ision": 1340,
      "ĠAd": 1341,
      "line": 1342,
      "ĠSh": 1343,
      "Ġ15": 1344,
      "to": 1345,
      "ĠNational": 1346,
      "ĠSe": 1347,
      "Ġsever": 1348,
      "Ġleg": 1349,
      "me": 1350,
      "atic": 1351,
      "ets": 1352,
      "Ġbre": 1353,
      "here": 1354,
      "ived": 1355,
      "Ġmajor": 1356,
      "use": 1357,
      "Ġrest": 1358,
      "ccess": 1359,
      "ource": 1360,
      "Ġoper": 1361,
      "Ġprof": 1362,
      "Ġimm": 1363,
      "ograph": 1364,
      "Ġsecond": 1365,
      "Ġbas": 1366,
      "itive": 1367,
      "ently": 1368,
      "ailable": 1369,
      "Ġinclude": 1370,
      "ern": 1371,
      "Ġeas": 1372,
      "Ġident": 1373,
      "Ġ17": 1374,
      "Ġanim": 1375,
      "ww": 1376,
      "Ġmeas": 1377,
      "osp": 1378,
      "Ġhand": 1379,
      "of": 1380,
      "Ġfore": 1381,
      "Ġmen": 1382,
      "Ġunderstand": 1383,
      "Ġproduct": 1384,
      "ĠCl": 1385,
      "Ġspecies": 1386,
      "--": 1387,
      "Ġcontrol": 1388,
      "Ġinterest": 1389,
      "ethod": 1390,
      "Ġindividual": 1391,
      "view": 1392,
      "Ġsym": 1393,
      "alk": 1394,
      "ĠCent": 1395,
      "Ġbro": 1396,
      "Ġele": 1397,
      "Ġunt": 1398,
      "inc": 1399,
      "sy": 1400,
      "ites": 1401,
      "Ġoccur": 1402,
      "Ġter": 1403,
      "omp": 1404,
      "ards": 1405,
      "Ġpos": 1406,
      "Ġlow": 1407,
      "ned": 1408,
      "ote": 1409,
      "Ġopp": 1410,
      "Ġpar": 1411,
      "ats": 1412,
      "ina": 1413,
      "Ġant": 1414,
      "Ġ'": 1415,
      "Ġhistory": 1416,
      "ĠCan": 1417,
      "olution": 1418,
      "Ġdon": 1419,
      "Ġseveral": 1420,
      "ret": 1421,
      "ator": 1422,
      "Ġwant": 1423,
      "âĢľ": 1424,
      "esp": 1425,
      "Ġrisk": 1426,
      "Ġmar": 1427,
      "It": 1428,
      "though": 1429,
      "Ġsay": 1430,
      "Ġorig": 1431,
      "Ġve": 1432,
      "ĠComm": 1433,
      "Ġtre": 1434,
      "ential": 1435,
      "Ġamong": 1436,
      "Ġeng": 1437,
      "ĠYou": 1438,
      "ik": 1439,
      "sp": 1440,
      "Ġ&": 1441,
      "Ġconst": 1442,
      "Ġfour": 1443,
      "Ġexperi": 1444,
      "Ġsince": 1445,
      "Ġet": 1446,
      "ided": 1447,
      "Ġperiod": 1448,
      "ank": 1449,
      "ify": 1450,
      "ability": 1451,
      "Ġplay": 1452,
      "ole": 1453,
      "Ġmove": 1454,
      "lu": 1455,
      "Ġparticular": 1456,
      "Ġimpro": 1457,
      "ĠAt": 1458,
      "ended": 1459,
      "Ġfamily": 1460,
      "eed": 1461,
      "idence": 1462,
      "cing": 1463,
      "ittle": 1464,
      "Ġprop": 1465,
      "Ġhome": 1466,
      "Ġmark": 1467,
      "Ġhere": 1468,
      "Ġbecome": 1469,
      "Ġcurrent": 1470,
      "Ġpot": 1471,
      "ead": 1472,
      "ames": 1473,
      "min": 1474,
      "rap": 1475,
      "Ġorder": 1476,
      "Ġben": 1477,
      "ĠGod": 1478,
      "Ġcountry": 1479,
      "12": 1480,
      "Ġproper": 1481,
      "Ġreal": 1482,
      "18": 1483,
      "Ġavailable": 1484,
      "Ġareas": 1485,
      "ĠEn": 1486,
      "ably": 1487,
      "abor": 1488,
      "urop": 1489,
      "ohn": 1490,
      "Ġlim": 1491,
      "Ġpain": 1492,
      "Ġprovide": 1493,
      "Ġcult": 1494,
      "ining": 1495,
      "ways": 1496,
      "Ġnon": 1497,
      "Ġobject": 1498,
      "Ġmus": 1499,
      "ĠQ": 1500,
      "Ġtoo": 1501,
      "Ġ198": 1502,
      "ĠPl": 1503,
      "Ġaddition": 1504,
      "Ġdev": 1505,
      "...": 1506,
      "Ġpossible": 1507,
      "une": 1508,
      "Ġel": 1509,
      "ĠEx": 1510,
      "par": 1511,
      "ples": 1512,
      "ental": 1513,
      "ences": 1514,
      "Ġanal": 1515,
      "ention": 1516,
      "Ġhig": 1517,
      "Ġpri": 1518,
      "Ġopen": 1519,
      "Ġrece": 1520,
      "irc": 1521,
      "ĠZ": 1522,
      "Ġsocial": 1523,
      "Ġname": 1524,
      "Ġcause": 1525,
      "Ġmethod": 1526,
      "ories": 1527,
      "Ġinvol": 1528,
      "Ġ12": 1529,
      "ĠâĢĶ": 1530,
      "icle": 1531,
      "Ġlangu": 1532,
      "Ġobs": 1533,
      "Ġview": 1534,
      "Ġbest": 1535,
      "Ġtop": 1536,
      "Ġhead": 1537,
      "ĠChrist": 1538,
      "Ġbi": 1539,
      "Ġbetter": 1540,
      "Ġlocal": 1541,
      "iness": 1542,
      "Ġ$": 1543,
      "Ġcost": 1544,
      "ients": 1545,
      "ĠHowever": 1546,
      "Ġbir": 1547,
      "Ġmeans": 1548,
      "Ġmonth": 1549,
      "Ġindu": 1550,
      "ged": 1551,
      "gen": 1552,
      "ilar": 1553,
      "Ġperform": 1554,
      "Ġ0": 1555,
      "Ġche": 1556,
      "ternational": 1557,
      "Ġlater": 1558,
      "urope": 1559,
      "Ġrad": 1560,
      "Ġfollowing": 1561,
      "Ġfre": 1562,
      "Ġdel": 1563,
      "ĠWhen": 1564,
      "resent": 1565,
      "ither": 1566,
      "Ġtri": 1567,
      "Ġtreatment": 1568,
      "eb": 1569,
      "Ġfin": 1570,
      "Ġuntil": 1571,
      "Ġtimes": 1572,
      "Ġfar": 1573,
      "ogn": 1574,
      "rid": 1575,
      "oint": 1576,
      "Ġauthor": 1577,
      "ek": 1578,
      "ware": 1579,
      "ĠAll": 1580,
      "Ġgiven": 1581,
      "iter": 1582,
      "ĠMed": 1583,
      "Ġpolit": 1584,
      "ope": 1585,
      "Ġ16": 1586,
      "Ġbased": 1587,
      "Ġmillion": 1588,
      "Ġcond": 1589,
      "ends": 1590,
      "ised": 1591,
      "Ġothers": 1592,
      "Ġpress": 1593,
      "urther": 1594,
      "ggest": 1595,
      "200": 1596,
      "Ġfac": 1597,
      "Ġcertain": 1598,
      "ling": 1599,
      "Ġrun": 1600,
      "Ġheart": 1601,
      "Ġage": 1602,
      "Ġcal": 1603,
      "pr": 1604,
      "Ġvol": 1605,
      "ĠTo": 1606,
      "Ġcase": 1607,
      "aps": 1608,
      "ĠBrit": 1609,
      "Ġlist": 1610,
      "Ġproblems": 1611,
      "face": 1612,
      "Ġmean": 1613,
      "not": 1614,
      "ĠOn": 1615,
      "Ġcancer": 1616,
      "Ġsignific": 1617,
      "ĠOr": 1618,
      "Ġkeep": 1619,
      "Ġfree": 1620,
      "ills": 1621,
      "Ġnatural": 1622,
      "ĠAf": 1623,
      "ĠEurope": 1624,
      "orld": 1625,
      "Ġsaf": 1626,
      "por": 1627,
      "aken": 1628,
      "Ġlittle": 1629,
      "Ġprevent": 1630,
      "ĠSci": 1631,
      "oid": 1632,
      "Ġseem": 1633,
      "Ġdeath": 1634,
      "Ġbook": 1635,
      "oks": 1636,
      "Ġappear": 1637,
      "ances": 1638,
      "Ġcells": 1639,
      "Ġthings": 1640,
      "Ġable": 1641,
      "ĠJohn": 1642,
      "Ġsuccess": 1643,
      "ĠEar": 1644,
      "11": 1645,
      "50": 1646,
      "Ġsuggest": 1647,
      "Ġcome": 1648,
      "Ġput": 1649,
      "Ġpopulation": 1650,
      "ots": 1651,
      "cial": 1652,
      "Ġcentury": 1653,
      "ploy": 1654,
      "Ġpost": 1655,
      "ĠUS": 1656,
      "Ġproblem": 1657,
      "ured": 1658,
      "Ġhapp": 1659,
      "oph": 1660,
      "Ġrecord": 1661,
      "Ġsw": 1662,
      "orts": 1663,
      "atory": 1664,
      "ression": 1665,
      "Ġcomput": 1666,
      "Ġlo": 1667,
      "ones": 1668,
      "Ġdeterm": 1669,
      "Ġyoung": 1670,
      "Ġstruct": 1671,
      "Ġassoci": 1672,
      "be": 1673,
      "aper": 1674,
      "Ġexist": 1675,
      "Ġplant": 1676,
      "Ġshort": 1677,
      "Ġaccess": 1678,
      "Ġ--": 1679,
      "Ġturn": 1680,
      "Ġ|": 1681,
      "ately": 1682,
      "Ġhowever": 1683,
      "ĠWar": 1684,
      "Ġresearc": 1685,
      "Ġvir": 1686,
      "idd": 1687,
      "As": 1688,
      "Ġalong": 1689,
      "ĠBe": 1690,
      "rug": 1691,
      "Ġspace": 1692,
      "Ġrele": 1693,
      "Ġestab": 1694,
      "pect": 1695,
      "ley": 1696,
      "Ġbus": 1697,
      "Ġdays": 1698,
      "elf": 1699,
      "Ġprom": 1700,
      "ĠTe": 1701,
      "Ġlevels": 1702,
      "\".": 1703,
      "ler": 1704,
      "icult": 1705,
      "over": 1706,
      "Ġdescrib": 1707,
      "Ġcomb": 1708,
      "alf": 1709,
      "ane": 1710,
      "Ġbenef": 1711,
      "lement": 1712,
      "etic": 1713,
      "Ġsystems": 1714,
      "Ġusually": 1715,
      "Ġamount": 1716,
      "ued": 1717,
      "ember": 1718,
      "Ġsing": 1719,
      "work": 1720,
      "mber": 1721,
      "erc": 1722,
      "Ġlet": 1723,
      "We": 1724,
      "Ġill": 1725,
      "Ġfil": 1726,
      "Ġtype": 1727,
      "Ġpast": 1728,
      "vious": 1729,
      "Ġcountries": 1730,
      "Ġhard": 1731,
      "ators": 1732,
      "af": 1733,
      "Ġindust": 1734,
      "by": 1735,
      "ĠGerm": 1736,
      "Ġleast": 1737,
      "most": 1738,
      "ruction": 1739,
      "ored": 1740,
      "ray": 1741,
      "ox": 1742,
      "Ġbecame": 1743,
      "nal": 1744,
      "Ġabove": 1745,
      "ocus": 1746,
      "Ġeducation": 1747,
      "erence": 1748,
      "ument": 1749,
      "ĠGen": 1750,
      "Ġcirc": 1751,
      "Ġleft": 1752,
      "Ġcolle": 1753,
      "Ġlikely": 1754,
      "Ġsimilar": 1755,
      "uture": 1756,
      "ape": 1757,
      "Ġspecial": 1758,
      "Ġdra": 1759,
      "Ġnever": 1760,
      "Ġsignificant": 1761,
      "Ġcreat": 1762,
      "Ġflow": 1763,
      "Ġinvest": 1764,
      "Ġmov": 1765,
      "Ġnational": 1766,
      "Ġclear": 1767,
      "wh": 1768,
      "obal": 1769,
      "Ġgre": 1770,
      "ĠâĢĺ": 1771,
      "isc": 1772,
      "Ġmult": 1773,
      "ott": 1774,
      "aim": 1775,
      "Ġer": 1776,
      "Ġchem": 1777,
      "ending": 1778,
      "ething": 1779,
      "ĠSc": 1780,
      "Ġbegin": 1781,
      "ribut": 1782,
      "ecially": 1783,
      "cle": 1784,
      "Ġresults": 1785,
      "Ġgeneral": 1786,
      "aster": 1787,
      "for": 1788,
      "oman": 1789,
      "Ġcommunity": 1790,
      "ortun": 1791,
      "ĠAfric": 1792,
      "aining": 1793,
      "If": 1794,
      "Ġdri": 1795,
      "Ġ197": 1796,
      "Ġoffic": 1797,
      "Ġcourse": 1798,
      "Ġcharacter": 1799,
      "Ġprim": 1800,
      "ĠGe": 1801,
      "ym": 1802,
      "Ġsite": 1803,
      "ledge": 1804,
      "Ġnext": 1805,
      "Ġplac": 1806,
      "Ġparent": 1807,
      "val": 1808,
      "Ġtoday": 1809,
      "earch": 1810,
      "Ġfunction": 1811,
      "iam": 1812,
      "ges": 1813,
      "edi": 1814,
      "Ġlanguage": 1815,
      "ĠHealth": 1816,
      "Ġchanges": 1817,
      "Ġgr": 1818,
      "ode": 1819,
      "especially": 1820,
      "Ġincrease": 1821,
      "NA": 1822,
      "ĠMay": 1823,
      "ĠWorld": 1824,
      "let": 1825,
      "sw": 1826,
      "ĠGo": 1827,
      "Ġtemper": 1828,
      "Ġconn": 1829,
      "30": 1830,
      "Ġdoct": 1831,
      "Ġenc": 1832,
      "enn": 1833,
      "Ġcrit": 1834,
      "Ġnecess": 1835,
      "Ġfeel": 1836,
      "ĠYork": 1837,
      "artment": 1838,
      "asing": 1839,
      "ilities": 1840,
      "Ġdifficult": 1841,
      "Ġwords": 1842,
      "ication": 1843,
      "ivil": 1844,
      "Ġlearn": 1845,
      "Ġask": 1846,
      "Ġline": 1847,
      "ilt": 1848,
      "Ġ30": 1849,
      "Ġmaking": 1850,
      "ales": 1851,
      "St": 1852,
      "lo": 1853,
      "ublic": 1854,
      "eter": 1855,
      "Ġdiscuss": 1856,
      "ĠWhat": 1857,
      "Ġgive": 1858,
      "ipp": 1859,
      "ours": 1860,
      "right": 1861,
      "Ġdue": 1862,
      "Ġfull": 1863,
      "ively": 1864,
      "duct": 1865,
      "Ġconditions": 1866,
      "Ġfund": 1867,
      "Ġ14": 1868,
      "ĠLe": 1869,
      "ĠCar": 1870,
      "selves": 1871,
      "Ġstudies": 1872,
      "Ġhigher": 1873,
      "Ġrepresent": 1874,
      "Ġside": 1875,
      "Ġbehav": 1876,
      "ĠAmerica": 1877,
      "app": 1878,
      "ober": 1879,
      "Ġaway": 1880,
      "Ġtru": 1881,
      "Ġprofess": 1882,
      "Ġalways": 1883,
      "itor": 1884,
      "agement": 1885,
      "Ġsomething": 1886,
      "ffic": 1887,
      "ormal": 1888,
      "ĠNorth": 1889,
      "Ġfocus": 1890,
      "yd": 1891,
      "rate": 1892,
      "Ġcases": 1893,
      "Ġterm": 1894,
      "ĠMar": 1895,
      "Ġdr": 1896,
      "Ġsubject": 1897,
      "Ġcho": 1898,
      "Ġscience": 1899,
      "Ġcomplete": 1900,
      "Ġpolic": 1901,
      "urch": 1902,
      "Ġkind": 1903,
      "oney": 1904,
      "Ġcr": 1905,
      "acc": 1906,
      "Ġground": 1907,
      "Ġupon": 1908,
      "atch": 1909,
      "Ġbrain": 1910,
      "Ġtoget": 1911,
      "Ġtogether": 1912,
      "Ġdam": 1913,
      "Ġenough": 1914,
      "Ġcity": 1915,
      "Ġstrong": 1916,
      "Ġspecific": 1917,
      "ĠDep": 1918,
      "Ġworks": 1919,
      "Ġteac": 1920,
      "Ġresearchers": 1921,
      "What": 1922,
      "rams": 1923,
      "aves": 1924,
      "Ġsum": 1925,
      "Ġtechnology": 1926,
      "Ġfuture": 1927,
      "Ġhouse": 1928,
      "Ġespecially": 1929,
      "Ġz": 1930,
      "iation": 1931,
      "Ġwhether": 1932,
      "Ġnet": 1933,
      "port": 1934,
      "ĠCal": 1935,
      "ĠAb": 1936,
      "Ġinflu": 1937,
      "omes": 1938,
      "ird": 1939,
      "15": 1940,
      "iting": 1941,
      "ann": 1942,
      "esc": 1943,
      "Ġrespons": 1944,
      "ĠSouth": 1945,
      "Ġey": 1946,
      "ĠJew": 1947,
      "son": 1948,
      "unt": 1949,
      "Ġgroups": 1950,
      "ush": 1951,
      "Ġeffects": 1952,
      ".)": 1953,
      "istic": 1954,
      "Ġlearning": 1955,
      "ĠSome": 1956,
      "Ġhaving": 1957,
      "ison": 1958,
      "yl": 1959,
      "Ġrelig": 1960,
      "Ġconcer": 1961,
      "For": 1962,
      "Ġ196": 1963,
      "Ġpatients": 1964,
      "ĠOne": 1965,
      "sh": 1966,
      "ibr": 1967,
      "Ġobserv": 1968,
      "ĠAm": 1969,
      "There": 1970,
      "SA": 1971,
      "Ġfurther": 1972,
      "Ġconsum": 1973,
      "oot": 1974,
      "Ġapplic": 1975,
      "ptoms": 1976,
      "apt": 1977,
      "ung": 1978,
      "overed": 1979,
      "itary": 1980,
      "ae": 1981,
      "Ġimpact": 1982,
      "Ġacross": 1983,
      "Ġpred": 1984,
      "Ġreturn": 1985,
      "ready": 1986,
      "Ġmembers": 1987,
      "Ġteam": 1988,
      "Ġvarious": 1989,
      "An": 1990,
      "Ġlower": 1991,
      "Ġwind": 1992,
      "ER": 1993,
      "Ġrequire": 1994,
      "ĠRep": 1995,
      "Ġflu": 1996,
      "Ġreason": 1997,
      "13": 1998,
      "Ġtry": 1999,
      "17": 2000,
      "Ġdeveloped": 2001,
      "ĠEnglish": 2002,
      "ĠSo": 2003,
      "Ġquestion": 2004,
      "Ġproduction": 2005,
      "ique": 2006,
      "reg": 2007,
      "rict": 2008,
      "side": 2009,
      "augh": 2010,
      "rated": 2011,
      "Ġtext": 2012,
      "Ġcame": 2013,
      "Ġdrug": 2014,
      "Ġprob": 2015,
      "Ġseen": 2016,
      "sych": 2017,
      "Ġindic": 2018,
      "Ġeither": 2019,
      "amm": 2020,
      "16": 2021,
      "Ġstat": 2022,
      "ĠEarth": 2023,
      "yn": 2024,
      "ĠBl": 2025,
      "verage": 2026,
      "ĠState": 2027,
      "Ġfive": 2028,
      "//": 2029,
      "org": 2030,
      "Ġrather": 2031,
      "aut": 2032,
      "Ġfall": 2033,
      "Ġsurface": 2034,
      "Ġann": 2035,
      "Ġsit": 2036,
      "Ġconsider": 2037,
      "Ġfield": 2038,
      "etimes": 2039,
      "thing": 2040,
      "Ġur": 2041,
      "Ġtaken": 2042,
      "Ġaccording": 2043,
      "ĠAss": 2044,
      "iol": 2045,
      "Ġclose": 2046,
      "ĠThat": 2047,
      "Ġplants": 2048,
      "Ġrights": 2049,
      "ibility": 2050,
      "Ġresources": 2051,
      "Ġevidence": 2052,
      "ires": 2053,
      "ream": 2054,
      "Ġphot": 2055,
      "Ġpolitical": 2056,
      "Ġmot": 2057,
      "14": 2058,
      "ery": 2059,
      "Ġwhy": 2060,
      "ches": 2061,
      "atures": 2062,
      "__": 2063,
      "Ġstates": 2064,
      "Ġ13": 2065,
      "rel": 2066,
      "Ġaccount": 2067,
      "Ġalready": 2068,
      "ification": 2069,
      "Ġmass": 2070,
      "ĠHist": 2071,
      "Ġworking": 2072,
      "ttp": 2073,
      "onst": 2074,
      "Ġclimate": 2075,
      "Ġword": 2076,
      "ĠDr": 2077,
      "ederal": 2078,
      "Ġdest": 2079,
      "aching": 2080,
      "ĠSoc": 2081,
      "Ġdone": 2082,
      "Ġlive": 2083,
      "ried": 2084,
      "Ġfail": 2085,
      "Ġmeet": 2086,
      "osis": 2087,
      "://": 2088,
      "Ġneeds": 2089,
      "ysis": 2090,
      "ournal": 2091,
      "Ġgoing": 2092,
      "ules": 2093,
      "chie": 2094,
      "Ġtoward": 2095,
      "Ġevent": 2096,
      "Ġcreate": 2097,
      "ĠX": 2098,
      "Ġprotect": 2099,
      "Ġdeg": 2100,
      "ington": 2101,
      "Ġrelations": 2102,
      "Ġsource": 2103,
      "Ġsingle": 2104,
      "bon": 2105,
      "Ġri": 2106,
      "Ġmic": 2107,
      "my": 2108,
      "Ġtot": 2109,
      "ĠAust": 2110,
      "Ġrate": 2111,
      "Ġtradition": 2112,
      "Ġhistor": 2113,
      "Ġsens": 2114,
      "ps": 2115,
      "Ġpublished": 2116,
      "Ġrecogn": 2117,
      "rown": 2118,
      "Ġexperience": 2119,
      "oon": 2120,
      "ateg": 2121,
      "illed": 2122,
      "ront": 2123,
      "ĠMan": 2124,
      "Ġess": 2125,
      "Ġrange": 2126,
      "Ġbegan": 2127,
      "Ġinit": 2128,
      "ĠShe": 2129,
      "Ġkey": 2130,
      "Ġarg": 2131,
      "Ġimprove": 2132,
      "hib": 2133,
      "Ġla": 2134,
      "Ġ194": 2135,
      "Ġknowledge": 2136,
      "ĠGu": 2137,
      "Ġmedical": 2138,
      "ĠBritish": 2139,
      "Ġways": 2140,
      "Ġtool": 2141,
      "reme": 2142,
      "stitute": 2143,
      "Ġcollect": 2144,
      "ĠWith": 2145,
      "ĠHis": 2146,
      "Ġoil": 2147,
      "ĠAct": 2148,
      "cient": 2149,
      "itud": 2150,
      "Ġparticip": 2151,
      "Ġabs": 2152,
      "ĠBy": 2153,
      "aring": 2154,
      "Ġred": 2155,
      "Ġdoc": 2156,
      "Ġrole": 2157,
      "Ġhalf": 2158,
      "uation": 2159,
      "ask": 2160,
      "Ġliving": 2161,
      "Ġanimals": 2162,
      "estern": 2163,
      "Ġsent": 2164,
      "gest": 2165,
      "Ġport": 2166,
      "oura": 2167,
      "Ġemploy": 2168,
      "roll": 2169,
      "ule": 2170,
      "Ġhold": 2171,
      "Ġeconomic": 2172,
      "Ġvalue": 2173,
      "Ġdom": 2174,
      "Ġsymptoms": 2175,
      "Ġbelow": 2176,
      "Ġthemselves": 2177,
      "Ġreally": 2178,
      "Ġitself": 2179,
      "Ġ2012": 2180,
      "amin": 2181,
      "Ġphysical": 2182,
      "Ġonce": 2183,
      "Ġwhole": 2184,
      "Ġwhite": 2185,
      "Ġloss": 2186,
      "oll": 2187,
      "Ġincreased": 2188,
      "epend": 2189,
      "Ġbig": 2190,
      "like": 2191,
      "Ġarticle": 2192,
      "Ġtook": 2193,
      "Ġcut": 2194,
      "ened": 2195,
      "Ġdetail": 2196,
      "olic": 2197,
      "Ġaddress": 2198,
      "Ġthought": 2199,
      "Ġcreated": 2200,
      "Ġactivities": 2201,
      "mb": 2202,
      "put": 2203,
      "uel": 2204,
      "ĠPr": 2205,
      "ĠComp": 2206,
      "Ġbusiness": 2207,
      "Ġrepl": 2208,
      "Ġgrowth": 2209,
      "Ġsun": 2210,
      "Ġcannot": 2211,
      "Ġalmost": 2212,
      "Ġconsidered": 2213,
      "Ġbuilding": 2214,
      "):": 2215,
      "Ġtell": 2216,
      "acks": 2217,
      "Ġblack": 2218,
      "Ġwr": 2219,
      "Ġstory": 2220,
      "Ch": 2221,
      "iple": 2222,
      "Ġ2011": 2223,
      "Ġmakes": 2224,
      "Ġnature": 2225,
      "ĠStud": 2226,
      "ĠPres": 2227,
      "Ġactivity": 2228,
      "Ġwide": 2229,
      "Ġsal": 2230,
      "fact": 2231,
      "ĠAg": 2232,
      "Ġfish": 2233,
      "sequ": 2234,
      "opy": 2235,
      "ications": 2236,
      "minist": 2237,
      "apan": 2238,
      "Ġfrequ": 2239,
      "ĠResearch": 2240,
      "Ġtypes": 2241,
      "Ġproducts": 2242,
      "Ġansw": 2243,
      "vere": 2244,
      "Ġsize": 2245,
      "ese": 2246,
      "ables": 2247,
      "Ġmor": 2248,
      "ĠIm": 2249,
      "Ġintrodu": 2250,
      "go": 2251,
      "Ġself": 2252,
      "ights": 2253,
      "Ġ2010": 2254,
      "Ġmodel": 2255,
      "Ġfamil": 2256,
      "Ġgas": 2257,
      "Ġyet": 2258,
      "Ġmonths": 2259,
      "Ġsix": 2260,
      "oses": 2261,
      "Ġrelated": 2262,
      "Ġver": 2263,
      "Ġpaper": 2264,
      "Ġpressure": 2265,
      "pid": 2266,
      "Ġclaim": 2267,
      "empt": 2268,
      "Ġadult": 2269,
      "Ġregion": 2270,
      "Ġopt": 2271,
      "rad": 2272,
      "Ġneeded": 2273,
      "Ġentire": 2274,
      "Ġscientists": 2275,
      "ĠCanad": 2276,
      "Ġmind": 2277,
      "ĠCenter": 2278,
      "Ġweek": 2279,
      "pro": 2280,
      "Ġmodern": 2281,
      "Ġcamp": 2282,
      "Al": 2283,
      "ĠCo": 2284,
      "ney": 2285,
      "itted": 2286,
      "Ġvers": 2287,
      "Ġengine": 2288,
      "Ġstep": 2289,
      "iddle": 2290,
      "ops": 2291,
      "Ġ100": 2292,
      "fer": 2293,
      "Ġachie": 2294,
      "aff": 2295,
      "rect": 2296,
      "Ġcy": 2297,
      "ulations": 2298,
      "ips": 2299,
      "Ġglobal": 2300,
      "igure": 2301,
      "sc": 2302,
      "How": 2303,
      "Ġrecomm": 2304,
      "Ġassociated": 2305,
      "Ġarch": 2306,
      "Ġsuper": 2307,
      "Ġ11": 2308,
      "Ġquestions": 2309,
      "ystem": 2310,
      "Ġneg": 2311,
      "Ġ25": 2312,
      "ivity": 2313,
      "acy": 2314,
      "ene": 2315,
      "ety": 2316,
      "hing": 2317,
      "lor": 2318,
      "Ġbar": 2319,
      "Ġquality": 2320,
      "Ġfri": 2321,
      "Ġaffect": 2322,
      "attle": 2323,
      "Ġlab": 2324,
      "ĠII": 2325,
      "Ġsepar": 2326,
      "Ġprovides": 2327,
      "Ġlay": 2328,
      "Ġcomputer": 2329,
      "uck": 2330,
      "Ġconcept": 2331,
      "Ġprovided": 2332,
      "ume": 2333,
      "Ġrequired": 2334,
      "ival": 2335,
      "aged": 2336,
      "ensive": 2337,
      "Ġ50": 2338,
      "Ã©": 2339,
      "ĠCont": 2340,
      "ai": 2341,
      "Ġearth": 2342,
      "Ġge": 2343,
      "abit": 2344,
      "ĠNo": 2345,
      "ounds": 2346,
      "Ġpotential": 2347,
      "erve": 2348,
      "ma": 2349,
      "Ġpriv": 2350,
      "urs": 2351,
      "iding": 2352,
      "Ġmaterials": 2353,
      "Ġrecent": 2354,
      "Ġpage": 2355,
      "inter": 2356,
      "AR": 2357,
      "Ġever": 2358,
      "Ġchemical": 2359,
      "Ġsure": 2360,
      "ister": 2361,
      "lying": 2362,
      "rie": 2363,
      "Ġparts": 2364,
      "Ġactually": 2365,
      "ES": 2366,
      "Ġlink": 2367,
      "Ġprograms": 2368,
      "irm": 2369,
      "Ġidea": 2370,
      "lands": 2371,
      "Ġmoney": 2372,
      "ript": 2373,
      "ID": 2374,
      "Ġconduct": 2375,
      "ĠJapan": 2376,
      "utions": 2377,
      "To": 2378,
      "ĠTr": 2379,
      "Ġfire": 2380,
      "Ġproduce": 2381,
      "Ġprote": 2382,
      "atter": 2383,
      "chan": 2384,
      "Ġreduce": 2385,
      "Ġpurp": 2386,
      "ĠMin": 2387,
      "Ġspe": 2388,
      "ĠDepartment": 2389,
      "Ġbur": 2390,
      "Ġregard": 2391,
      "Ġcomplex": 2392,
      "ĠPar": 2393,
      "rought": 2394,
      "Ġtotal": 2395,
      "Ġparents": 2396,
      "ched": 2397,
      "Ġdig": 2398,
      "Ġchall": 2399,
      "Ġservices": 2400,
      "eds": 2401,
      "Ġmeasure": 2402,
      "Ġbuilt": 2403,
      "vey": 2404,
      "Ġcoll": 2405,
      "ze": 2406,
      "ply": 2407,
      "Ġsimple": 2408,
      "utes": 2409,
      "When": 2410,
      "bo": 2411,
      "Ġpay": 2412,
      "Ġast": 2413,
      "Ġissues": 2414,
      "iction": 2415,
      "ĠSchool": 2416,
      "ĠHar": 2417,
      "ĠScience": 2418,
      "urity": 2419,
      "ief": 2420,
      "Ġstudent": 2421,
      "Ġsubst": 2422,
      "Ġreported": 2423,
      "Ġemer": 2424,
      "Ġmaint": 2425,
      "Ġsoil": 2426,
      "ging": 2427,
      "ĠWill": 2428,
      "Ġfarm": 2429,
      "Ġhttp": 2430,
      "aries": 2431,
      "Ġsett": 2432,
      "Ġsex": 2433,
      "rench": 2434,
      "Ġenvironmental": 2435,
      "Ġsat": 2436,
      "icine": 2437,
      "ashington": 2438,
      "ricult": 2439,
      "Ġshows": 2440,
      "iment": 2441,
      "cil": 2442,
      "Ġnecessary": 2443,
      "Ġrelative": 2444,
      "Ġliter": 2445,
      "Ġopportun": 2446,
      "Ġskin": 2447,
      "Ġaccept": 2448,
      "Ġreact": 2449,
      "Ġnut": 2450,
      "Ġschools": 2451,
      "ext": 2452,
      "Ġsam": 2453,
      "Ġrev": 2454,
      "Ġdiet": 2455,
      "25": 2456,
      "ores": 2457,
      "Ġgreen": 2458,
      "ump": 2459,
      "ĠJan": 2460,
      "Ġunderstanding": 2461,
      "Ġled": 2462,
      "Ġpractice": 2463,
      "Ġquick": 2464,
      "Ġcondition": 2465,
      "ternal": 2466,
      "mon": 2467,
      "Ġpattern": 2468,
      "Ġheav": 2469,
      "inary": 2470,
      "Ġsurv": 2471,
      "Ġaction": 2472,
      "ĠAfter": 2473,
      "amed": 2474,
      "ucle": 2475,
      "imately": 2476,
      "Ġdeb": 2477,
      "Ġability": 2478,
      "Ġthroughout": 2479,
      "ĠCount": 2480,
      "raft": 2481,
      "Ġservice": 2482,
      "onse": 2483,
      "Ġ2009": 2484,
      "umb": 2485,
      "usion": 2486,
      "Ġhours": 2487,
      "Ġincreasing": 2488,
      "Ġcaused": 2489,
      "AT": 2490,
      "Ġweight": 2491,
      "Ġmilitary": 2492,
      "ĠInf": 2493,
      "ĠPe": 2494,
      "ĠSec": 2495,
      "But": 2496,
      "IV": 2497,
      "Ġmatter": 2498,
      "Ġsense": 2499,
      "Ġ2008": 2500,
      "Ġprevious": 2501,
      "ĠJu": 2502,
      "Ġgreater": 2503,
      "ows": 2504,
      "icles": 2505,
      "ervation": 2506,
      "Ġtar": 2507,
      "Ġorigin": 2508,
      "ĠÂ": 2509,
      "duc": 2510,
      "osition": 2511,
      "atives": 2512,
      "nces": 2513,
      "uary": 2514,
      "order": 2515,
      "Ġmarket": 2516,
      "Ġlot": 2517,
      "stitution": 2518,
      "Ġposition": 2519,
      "Ġsea": 2520,
      "Ġsuff": 2521,
      "Ġtravel": 2522,
      "ached": 2523,
      "Ġwild": 2524,
      "ections": 2525,
      "ĠAug": 2526,
      "Ġeffective": 2527,
      "Ġlonger": 2528,
      "ening": 2529,
      "Ġlate": 2530,
      "lt": 2531,
      "arily": 2532,
      "Ġmanagement": 2533,
      "erous": 2534,
      "izing": 2535,
      "itation": 2536,
      "Ġtrue": 2537,
      "ĠInstitute": 2538,
      "ropri": 2539,
      "Ġfeet": 2540,
      "het": 2541,
      "pril": 2542,
      "Ġpath": 2543,
      "Ġcontact": 2544,
      "Ġcolon": 2545,
      "Ġdiagn": 2546,
      "Ġstandard": 2547,
      "Ġsometimes": 2548,
      "Ġconc": 2549,
      "Ġshall": 2550,
      "ĠEd": 2551,
      "Ġaverage": 2552,
      "Ġdesigned": 2553,
      "Ġinternational": 2554,
      "Ġrelationship": 2555,
      "IN": 2556,
      "ĠKing": 2557,
      "Ġtaking": 2558,
      "Ġterms": 2559,
      "ĠCalif": 2560,
      "Ġforce": 2561,
      "Ġgenerally": 2562,
      "cean": 2563,
      "Ġissue": 2564,
      "ĠEm": 2565,
      "adem": 2566,
      "Ġwritten": 2567,
      "Ġoriginal": 2568,
      "Ġviol": 2569,
      "Ġfat": 2570,
      "Ġens": 2571,
      "Ġfeed": 2572,
      "ades": 2573,
      "Ġapproach": 2574,
      "Ġdoctor": 2575,
      "ĠWashington": 2576,
      "dom": 2577,
      "based": 2578,
      "cies": 2579,
      "Ġdiv": 2580,
      "Ġago": 2581,
      "Ġattempt": 2582,
      "Ġtax": 2583,
      "bor": 2584,
      "Ġfactors": 2585,
      "ĠJune": 2586,
      "ccording": 2587,
      "Ġbelieve": 2588,
      "Ġincludes": 2589,
      "know": 2590,
      "Ġ24": 2591,
      "Ġassess": 2592,
      "ius": 2593,
      "Ġthreat": 2594,
      "Ġjob": 2595,
      "Ġshown": 2596,
      "Ġbehavior": 2597,
      "Ġpopular": 2598,
      "Ġexerc": 2599,
      "rapy": 2600,
      "Ġ=": 2601,
      "ĠAustral": 2602,
      "rew": 2603,
      "Ġproduced": 2604,
      "thern": 2605,
      "Ġsources": 2606,
      "hood": 2607,
      "Ġstructure": 2608,
      "Ġanalysis": 2609,
      "eration": 2610,
      "Ġprobably": 2611,
      "Ġforest": 2612,
      "Ġsoft": 2613,
      "hold": 2614,
      "ĠMarch": 2615,
      "aging": 2616,
      "Ġevents": 2617,
      "new": 2618,
      "Ġcivil": 2619,
      "Ġheld": 2620,
      "Ġattack": 2621,
      "vention": 2622,
      "anced": 2623,
      "oes": 2624,
      "Ġeffic": 2625,
      "ĠSu": 2626,
      "Ġtemperature": 2627,
      "fully": 2628,
      "Ġscientific": 2629,
      "Ġofficial": 2630,
      "199": 2631,
      "ength": 2632,
      "Ġreview": 2633,
      "ornia": 2634,
      "lies": 2635,
      "lex": 2636,
      "lease": 2637,
      "useum": 2638,
      "rial": 2639,
      "Ġestim": 2640,
      "ĠBo": 2641,
      "rim": 2642,
      "ronic": 2643,
      "Ġspread": 2644,
      "istance": 2645,
      "ising": 2646,
      "Ġincluded": 2647,
      "ille": 2648,
      "Ġcolor": 2649,
      "Ġce": 2650,
      "light": 2651,
      "Ġnormal": 2652,
      "Ġdou": 2653,
      "hest": 2654,
      "www": 2655,
      "Ġsou": 2656,
      "leep": 2657,
      "On": 2658,
      "Ġforms": 2659,
      "Ġcoun": 2660,
      "Ġseries": 2661,
      "Ġlog": 2662,
      "ĠFran": 2663,
      "Ġslow": 2664,
      "Ġcarbon": 2665,
      "Ġtown": 2666,
      "Ġindustry": 2667,
      "ressed": 2668,
      "ON": 2669,
      "Ġrespect": 2670,
      "'re": 2671,
      "Ġsqu": 2672,
      "Ġthing": 2673,
      "Ġcit": 2674,
      "istics": 2675,
      "Ġcomes": 2676,
      "Ġinvolved": 2677,
      "Ġimage": 2678,
      "Ġparticularly": 2679,
      "inks": 2680,
      "Ġexc": 2681,
      "Ġsimply": 2682,
      "Ġheat": 2683,
      "eal": 2684,
      "erson": 2685,
      "asc": 2686,
      "amb": 2687,
      "Ġstop": 2688,
      "Ġdispl": 2689,
      "OR": 2690,
      "Ġfa": 2691,
      "ĠWest": 2692,
      "Ġbab": 2693,
      "Ġ2007": 2694,
      "ĠFrench": 2695,
      "Ġcontent": 2696,
      "Ġmechan": 2697,
      "ĠOct": 2698,
      "Ġut": 2699,
      "Ġfem": 2700,
      "Ġinteract": 2701,
      "oly": 2702,
      "Ġestablished": 2703,
      "Ġthous": 2704,
      "ĠPer": 2705,
      "Ġtalk": 2706,
      "aving": 2707,
      "ĠPress": 2708,
      "Ġpoor": 2709,
      "ecause": 2710,
      "ctions": 2711,
      "Ġpict": 2712,
      "Ġuses": 2713,
      "Ġdeep": 2714,
      "You": 2715,
      "issions": 2716,
      "Ġtheory": 2717,
      "Ġnumbers": 2718,
      "ceed": 2719,
      "Ġbring": 2720,
      "Ġmagn": 2721,
      "ĠRiver": 2722,
      "Ġdemonst": 2723,
      "Ġpolicy": 2724,
      "ns": 2725,
      "ĠCong": 2726,
      "Ġindividuals": 2727,
      "Ġmovement": 2728,
      "Ġthus": 2729,
      "Ġvisit": 2730,
      "ĠPresident": 2731,
      "undred": 2732,
      "Ġcontain": 2733,
      "isions": 2734,
      "ev": 2735,
      "ĠDav": 2736,
      "Ġpersonal": 2737,
      "ĠQu": 2738,
      "Ġpoll": 2739,
      "ulated": 2740,
      "Ġdeveloping": 2741,
      "Ġsociety": 2742,
      "Ġreading": 2743,
      "ĠCalifornia": 2744,
      "Ġoutside": 2745,
      "Ġnorth": 2746,
      "haps": 2747,
      "Ġinj": 2748,
      "Ġnation": 2749,
      "Ġvari": 2750,
      "Ġcauses": 2751,
      "ĠChina": 2752,
      "Ġvariety": 2753,
      "itude": 2754,
      "Ġcat": 2755,
      "Ġtraining": 2756,
      "ulate": 2757,
      "Ġap": 2758,
      "Ġ40": 2759,
      "ĠGovern": 2760,
      "ography": 2761,
      "ners": 2762,
      "Ġemb": 2763,
      "Ġlives": 2764,
      "Ġlabor": 2765,
      "ĠWhile": 2766,
      "Ġserious": 2767,
      "Ġinvestig": 2768,
      "Ġwhose": 2769,
      "Ġalthough": 2770,
      "Ġrefer": 2771,
      "ĠPre": 2772,
      "Ġbreak": 2773,
      "Ġonline": 2774,
      "Ġdog": 2775,
      "verse": 2776,
      "Ġindepend": 2777,
      "Ġskills": 2778,
      "Ġmeaning": 2779,
      "Ġsil": 2780,
      "ror": 2781,
      "ider": 2782,
      "ĠIndian": 2783,
      "Ġinstit": 2784,
      "rand": 2785,
      "ĠEduc": 2786,
      "ĠApril": 2787,
      "hern": 2788,
      "ĠMany": 2789,
      "ĠAugust": 2790,
      "Ġmother": 2791,
      "ises": 2792,
      "Ġresponse": 2793,
      "Ġremov": 2794,
      "Ġcompl": 2795,
      "Ġtarget": 2796,
      "ĠRet": 2797,
      "ĠGerman": 2798,
      "ĠSept": 2799,
      "Ġmusic": 2800,
      "Ġbasic": 2801,
      "Ġbirth": 2802,
      "rael": 2803,
      "Ġconsist": 2804,
      "osure": 2805,
      "Ġpsych": 2806,
      "ufact": 2807,
      "yle": 2808,
      "reng": 2809,
      "ibrary": 2810,
      "Ġface": 2811,
      "ĠInternational": 2812,
      "see": 2813,
      "ĠServ": 2814,
      "ads": 2815,
      "ĠIndia": 2816,
      "Ġec": 2817,
      "irit": 2818,
      "ĠPart": 2819,
      "ift": 2820,
      "ĠChar": 2821,
      "\",": 2822,
      "Ġanimal": 2823,
      "Ġmethods": 2824,
      "Ġclean": 2825,
      "Ġdecl": 2826,
      "Ġnight": 2827,
      "ĠEl": 2828,
      "Ġvide": 2829,
      "Ġsold": 2830,
      "overy": 2831,
      "where": 2832,
      "Ġnetwork": 2833,
      "Ġadded": 2834,
      "Ġmiles": 2835,
      "Ġbr": 2836,
      "olec": 2837,
      "Ġcapt": 2838,
      "Ġstri": 2839,
      "Ġetc": 2840,
      "aily": 2841,
      "Ġprimary": 2842,
      "uth": 2843,
      "uge": 2844,
      "Ġi": 2845,
      "ĠCor": 2846,
      "Ġx": 2847,
      "Ġencoura": 2848,
      "Ġcheck": 2849,
      "Ġcontinue": 2850,
      "hel": 2851,
      "AN": 2852,
      "Ġconcent": 2853,
      "22": 2854,
      "ha": 2855,
      "ĠJuly": 2856,
      "Ġsearch": 2857,
      "na": 2858,
      "Ġir": 2859,
      "ĠHistory": 2860,
      "IS": 2861,
      "Ġmount": 2862,
      "Ġmess": 2863,
      "Ġextreme": 2864,
      "Ġwarm": 2865,
      "ĠCons": 2866,
      "Ġimplement": 2867,
      "rast": 2868,
      "ĠEuropean": 2869,
      "Ġprec": 2870,
      "Äģ": 2871,
      "orthern": 2872,
      "Ġtur": 2873,
      "Ġcross": 2874,
      "Ġlack": 2875,
      "Ġbooks": 2876,
      "ternet": 2877,
      "ĠIS": 2878,
      "Ġinteg": 2879,
      "oor": 2880,
      "Ġlarger": 2881,
      "ĠFeb": 2882,
      "ĠApp": 2883,
      "Ġsouth": 2884,
      "Ġcompany": 2885,
      "set": 2886,
      "Ġdeal": 2887,
      "aches": 2888,
      "Ġord": 2889,
      "ĠGl": 2890,
      "Ġwent": 2891,
      "omb": 2892,
      "ĠAc": 2893,
      "Ġwriting": 2894,
      "Ġeat": 2895,
      "Ġvirus": 2896,
      "Ġthird": 2897,
      "ĠMc": 2898,
      "Ġwood": 2899,
      "Ġreceived": 2900,
      "ĠSm": 2901,
      "ribution": 2902,
      "elling": 2903,
      "Ġdocument": 2904,
      "Ġdamage": 2905,
      "Ġmach": 2906,
      "elt": 2907,
      "Ġvacc": 2908,
      "rance": 2909,
      "uman": 2910,
      "ĠAssoci": 2911,
      "ĠMost": 2912,
      "Ġdefin": 2913,
      "Ġelectric": 2914,
      "Ġselect": 2915,
      "He": 2916,
      "Ġtherefore": 2917,
      "ana": 2918,
      "cember": 2919,
      "Ġhealthy": 2920,
      "PA": 2921,
      "Ġfront": 2922,
      "Ġfederal": 2923,
      "wise": 2924,
      "ension": 2925,
      "ĠMe": 2926,
      "Ġadditional": 2927,
      "edia": 2928,
      "ems": 2929,
      "Ġappropri": 2930,
      "Ġwebs": 2931,
      "Ġregular": 2932,
      "Ġnearly": 2933,
      "lier": 2934,
      "ĠProg": 2935,
      "lim": 2936,
      "Ġcompet": 2937,
      "Ġ/": 2938,
      "60": 2939,
      "IC": 2940,
      "Ġsafe": 2941,
      "ino": 2942,
      "Ġste": 2943,
      "ancy": 2944,
      "Ġhundred": 2945,
      "ground": 2946,
      "Ġculture": 2947,
      "Ġcompon": 2948,
      "Ġinstead": 2949,
      "80": 2950,
      "Ġattention": 2951,
      "rab": 2952,
      "Ġimmedi": 2953,
      "Ġwall": 2954,
      "rs": 2955,
      "Ġnucle": 2956,
      "pper": 2957,
      "Ġfru": 2958,
      "Ġavoid": 2959,
      "Ġperm": 2960,
      "ĠHer": 2961,
      "ĠChild": 2962,
      "Ġcoast": 2963,
      "aul": 2964,
      "ĠBar": 2965,
      "40": 2966,
      "cell": 2967,
      "Ġbroad": 2968,
      "Ġlove": 2969,
      "exic": 2970,
      "ls": 2971,
      "Ġjud": 2972,
      "Ġgrowing": 2973,
      "Ġcentral": 2974,
      "Ġcommand": 2975,
      "Ġfav": 2976,
      "Ġleaders": 2977,
      "ĠRec": 2978,
      "ĠWilliam": 2979,
      "ĠNA": 2980,
      "Ġreflect": 2981,
      "oles": 2982,
      "den": 2983,
      "rote": 2984,
      "Ġeasy": 2985,
      "uk": 2986,
      "Ġsoon": 2987,
      "abet": 2988,
      "isms": 2989,
      "Ġsust": 2990,
      "osing": 2991,
      "Ġdoing": 2992,
      "Ġdraw": 2993,
      "rig": 2994,
      "Ġexcept": 2995,
      "astic": 2996,
      "ĠIsrael": 2997,
      "ĠOther": 2998,
      "ilos": 2999,
      "reek": 3000,
      "ĠVir": 3001,
      "Ġstreng": 3002,
      "ĠChristian": 3003,
      "pe": 3004,
      "omet": 3005,
      "Ġseems": 3006,
      "Ġsection": 3007,
      "Ġ21": 3008,
      "ming": 3009,
      "lation": 3010,
      ");": 3011,
      "Ġquite": 3012,
      "Ġmicro": 3013,
      "Ġsafety": 3014,
      "Ġsevere": 3015,
      "Ġprep": 3016,
      "ĠMore": 3017,
      "Ġbeginning": 3018,
      "ĠInt": 3019,
      "Ġhimself": 3020,
      "Ġhar": 3021,
      "Ġidentify": 3022,
      "Ġreve": 3023,
      "imum": 3024,
      "Ġcompan": 3025,
      "Ġdetermine": 3026,
      "estic": 3027,
      "iers": 3028,
      "ĠAmericans": 3029,
      "lection": 3030,
      "Ġcover": 3031,
      "Ġbacter": 3032,
      "year": 3033,
      "Ġeval": 3034,
      "Ġtakes": 3035,
      "ĠInc": 3036,
      "Ġprint": 3037,
      "gar": 3038,
      "lied": 3039,
      "Ġteachers": 3040,
      "Ġideas": 3041,
      "Ġadminist": 3042,
      "rieved": 3043,
      "Ġhor": 3044,
      "23": 3045,
      "Ġmanufact": 3046,
      "Ġshare": 3047,
      "istry": 3048,
      "enced": 3049,
      "used": 3050,
      "ban": 3051,
      "Ġtend": 3052,
      "Ġreligious": 3053,
      "Ġlargest": 3054,
      "Ġbrought": 3055,
      "Ġson": 3056,
      "Ġdescribed": 3057,
      "Ġsites": 3058,
      "ties": 3059,
      "Ġfamilies": 3060,
      "ovember": 3061,
      "Ġspeed": 3062,
      "ama": 3063,
      "ĠMus": 3064,
      "Ġobt": 3065,
      "Ġ2006": 3066,
      "Ġsound": 3067,
      "Ġpositive": 3068,
      "oke": 3069,
      "room": 3070,
      "Ġevolution": 3071,
      "ĠJanuary": 3072,
      "Ġaltern": 3073,
      "Ġtraditional": 3074,
      "ĠAnt": 3075,
      "Ġdirectly": 3076,
      "Ġbal": 3077,
      "Ġmill": 3078,
      "term": 3079,
      "ellow": 3080,
      "mosp": 3081,
      "Ġsus": 3082,
      "ription": 3083,
      "ĠCity": 3084,
      "Ġborn": 3085,
      "Ġrout": 3086,
      "Ġnews": 3087,
      "Ġcorrect": 3088,
      "life": 3089,
      "ying": 3090,
      "ĠAfrica": 3091,
      "ĠAlthough": 3092,
      "bit": 3093,
      "Ġ,": 3094,
      "Ġ193": 3095,
      "Ġproced": 3096,
      "can": 3097,
      "EN": 3098,
      "24": 3099,
      "Ġlaws": 3100,
      "Ġcompared": 3101,
      "Ġhabit": 3102,
      "ruary": 3103,
      "ĠMexic": 3104,
      "ĠEngland": 3105,
      "Ġbenefits": 3106,
      "ields": 3107,
      "Ġforces": 3108,
      "Ġhost": 3109,
      "gn": 3110,
      "Ġprior": 3111,
      "ridge": 3112,
      "Ġsleep": 3113,
      "And": 3114,
      "Ġ23": 3115,
      "Ġlimited": 3116,
      "Ġ2013": 3117,
      "ĠCongress": 3118,
      "Ġefforts": 3119,
      "Ġdoesn": 3120,
      "Ġpoints": 3121,
      "ĠSeptember": 3122,
      "orks": 3123,
      "lin": 3124,
      "erg": 3125,
      "ford": 3126,
      "ĠNe": 3127,
      "ĠSan": 3128,
      "Ġcommunities": 3129,
      "Ġcitiz": 3130,
      "Ġlost": 3131,
      "Ġhumans": 3132,
      "eks": 3133,
      "Ġancient": 3134,
      "Ġbase": 3135,
      "Ġkids": 3136,
      "anks": 3137,
      "Ġdang": 3138,
      "Ġtests": 3139,
      "Ġder": 3140,
      "ĠCounty": 3141,
      "Ġdied": 3142,
      "Ġful": 3143,
      "ĠRuss": 3144,
      "Ġeth": 3145,
      "Ġspeak": 3146,
      "Ġox": 3147,
      "Ġstress": 3148,
      "Ġsupply": 3149,
      "iles": 3150,
      "Ġ2005": 3151,
      "yond": 3152,
      "ĠCanada": 3153,
      "Ġpp": 3154,
      "ĠGeneral": 3155,
      "ĠPol": 3156,
      "Ġprivate": 3157,
      "Ġlands": 3158,
      "ĠAfrican": 3159,
      "ĠOctober": 3160,
      "uments": 3161,
      "Ġdecre": 3162,
      "Ġworkers": 3163,
      "Ġveget": 3164,
      "Ġbott": 3165,
      "Ġarri": 3166,
      "Ġstarted": 3167,
      "ĠJes": 3168,
      "Ġfoods": 3169,
      "ĠChurch": 3170,
      "Ġprogress": 3171,
      "Ġformer": 3172,
      "itte": 3173,
      "Ġdisp": 3174,
      "ham": 3175,
      "Ġactive": 3176,
      "ĠReg": 3177,
      "Ġfather": 3178,
      "inct": 3179,
      "Ġpatient": 3180,
      "Ġcenter": 3181,
      "Ġinterp": 3182,
      "Ġanswer": 3183,
      "ster": 3184,
      "Ġhyd": 3185,
      "ĠDecember": 3186,
      "ĠJewish": 3187,
      "aces": 3188,
      "ĠDo": 3189,
      "Ġking": 3190,
      "Ġinfection": 3191,
      "Ġrapid": 3192,
      "Ġice": 3193,
      "ĠMon": 3194,
      "Ġperformance": 3195,
      "Ġsolar": 3196,
      "Ġbehind": 3197,
      "ondon": 3198,
      "ica": 3199,
      "Ġtold": 3200,
      "Ġagree": 3201,
      "Ġelse": 3202,
      "âĢ¦": 3203,
      "Ġrare": 3204,
      "Ġclin": 3205,
      "Ġtree": 3206,
      "Ġproperty": 3207,
      "mar": 3208,
      "Ġcommer": 3209,
      "Ġ2000": 3210,
      "orders": 3211,
      "Ġrates": 3212,
      "Ġhighly": 3213,
      "aly": 3214,
      "Ġharm": 3215,
      "ĠPark": 3216,
      "ously": 3217,
      "Ġlocated": 3218,
      "Ġcontains": 3219,
      "Ġunc": 3220,
      "Ġtools": 3221,
      "leb": 3222,
      "Ġmedia": 3223,
      "ĠArt": 3224,
      "Ġestablish": 3225,
      "Ġquickly": 3226,
      "Ġuseful": 3227,
      "Ġlength": 3228,
      "Ġgetting": 3229,
      "alled": 3230,
      "ĠTw": 3231,
      "Ġtiss": 3232,
      "Ġcontinued": 3233,
      "ĠCoun": 3234,
      "Ġfile": 3235,
      "ĠRetrieved": 3236,
      "Ġimages": 3237,
      "ĠSch": 3238,
      "Ġdrink": 3239,
      "Ġmid": 3240,
      "asons": 3241,
      "uries": 3242,
      "oming": 3243,
      "Ġhot": 3244,
      "Ġhands": 3245,
      "Ġlooking": 3246,
      "itis": 3247,
      "Ġimpl": 3248,
      "Ġinside": 3249,
      "Ġtrees": 3250,
      "Ġ195": 3251,
      "urg": 3252,
      "ĠGreat": 3253,
      "Ġvit": 3254,
      "Ġcapital": 3255,
      "vest": 3256,
      "Ġ22": 3257,
      "Ġcust": 3258,
      "ĠTra": 3259,
      "arr": 3260,
      "Ġcarry": 3261,
      "Ġleading": 3262,
      "Ġlif": 3263,
      "ĠSociety": 3264,
      "Ġhy": 3265,
      "fficient": 3266,
      "Ġaware": 3267,
      "Ġdifference": 3268,
      "Ġwrote": 3269,
      "One": 3270,
      "ĠHIV": 3271,
      "Ġcontribut": 3272,
      "Ġagricult": 3273,
      "Ġlines": 3274,
      "Ġcard": 3275,
      "ĠFirst": 3276,
      "Ġtransport": 3277,
      "cks": 3278,
      "iency": 3279,
      "Ġrock": 3280,
      "Ġremain": 3281,
      "ĠEast": 3282,
      "Ġbasis": 3283,
      "Ġfight": 3284,
      "ĠEducation": 3285,
      "itect": 3286,
      "ony": 3287,
      "ĠUs": 3288,
      "Ġadults": 3289,
      "lam": 3290,
      "Ġeasily": 3291,
      "Ġbillion": 3292,
      "equ": 3293,
      "arian": 3294,
      "ĠOf": 3295,
      "ĠLaw": 3296,
      "Ġweeks": 3297,
      "apter": 3298,
      "70": 3299,
      "ils": 3300,
      "idents": 3301,
      "Ġnothing": 3302,
      "Ġplaces": 3303,
      "itting": 3304,
      "ospital": 3305,
      "Ġgot": 3306,
      "Ġobjects": 3307,
      "Ġbit": 3308,
      "fect": 3309,
      "ĠWeb": 3310,
      "encies": 3311,
      "Ġdaily": 3312,
      "At": 3313,
      "Ġwa": 3314,
      "Ġang": 3315,
      "hens": 3316,
      "iques": 3317,
      "ĠTechn": 3318,
      "icated": 3319,
      "Ġtransm": 3320,
      "Ġsaw": 3321,
      "Ġdark": 3322,
      "Ġmolec": 3323,
      "Ġachieve": 3324,
      "inated": 3325,
      "rag": 3326,
      "ara": 3327,
      "ĠJournal": 3328,
      "Ġjo": 3329,
      "ĠNovember": 3330,
      "Ġquant": 3331,
      "aters": 3332,
      "Ġdiseases": 3333,
      "ĠSw": 3334,
      "IT": 3335,
      "inese": 3336,
      "Ġcalc": 3337,
      "Ġearlier": 3338,
      "izations": 3339,
      "Ġsomeone": 3340,
      "Ġseason": 3341,
      "Ġfollowed": 3342,
      "Ġdrugs": 3343,
      "orge": 3344,
      "Ġsummer": 3345,
      "Ġprotection": 3346,
      "Ġten": 3347,
      "Ġdry": 3348,
      "Ġtrade": 3349,
      "ED": 3350,
      "Ġcred": 3351,
      "Ġremains": 3352,
      "Ġbad": 3353,
      "Ġfoot": 3354,
      "craft": 3355,
      "Ġfeatures": 3356,
      "men": 3357,
      "Ġfinan": 3358,
      "uff": 3359,
      "head": 3360,
      "Ġep": 3361,
      "Ġvict": 3362,
      "Ġprotein": 3363,
      "water": 3364,
      "ĠPat": 3365,
      "29": 3366,
      "Ġarm": 3367,
      "Ġadop": 3368,
      "Ġdead": 3369,
      "Ġapprox": 3370,
      "âĢ¢": 3371,
      "Ġrecently": 3372,
      "Ġprinc": 3373,
      "ĠNot": 3374,
      "Ġexpect": 3375,
      "Ġmiddle": 3376,
      "ĠMy": 3377,
      "Ġund": 3378,
      "ĠFebruary": 3379,
      "Ġbul": 3380,
      "coh": 3381,
      "Ġinfluence": 3382,
      "Ġmember": 3383,
      "Ġvideo": 3384,
      "Ġfram": 3385,
      "Ġallows": 3386,
      "Ġdemand": 3387,
      "Ġoffer": 3388,
      "Ġdecision": 3389,
      "Ġappropriate": 3390,
      "ĠRo": 3391,
      "hemat": 3392,
      "Ġinstru": 3393,
      "Ġextra": 3394,
      "sect": 3395,
      "ĠUnion": 3396,
      "Ġcourt": 3397,
      "Ġminutes": 3398,
      "ought": 3399,
      "Ġeight": 3400,
      "Ġaspect": 3401,
      "Ġcosts": 3402,
      "Ġcollection": 3403,
      "ĠFrom": 3404,
      "ĠCour": 3405,
      "Ġfuel": 3406,
      "Ġmemory": 3407,
      "Ġnamed": 3408,
      "ocr": 3409,
      "Ġpurpose": 3410,
      "Ġeye": 3411,
      "anish": 3412,
      "Ġunique": 3413,
      "Ġhous": 3414,
      "ender": 3415,
      "ĠBi": 3416,
      "rest": 3417,
      "ĠDay": 3418,
      "Ġcrop": 3419,
      "alt": 3420,
      "Ġcapac": 3421,
      "Ġsituation": 3422,
      "ST": 3423,
      "ari": 3424,
      "Ġchalleng": 3425,
      "Ġdate": 3426,
      "Ġatmosp": 3427,
      "reet": 3428,
      "rogen": 3429,
      "Ġgenetic": 3430,
      "unch": 3431,
      "Ġmultiple": 3432,
      "Ġdestro": 3433,
      "Ġprojects": 3434,
      "Ġstandards": 3435,
      "ipment": 3436,
      "Ġgradu": 3437,
      "Ġadj": 3438,
      "Ġexact": 3439,
      "ologies": 3440,
      "Ġasked": 3441,
      "ĠArch": 3442,
      "By": 3443,
      "sec": 3444,
      "omy": 3445,
      "bl": 3446,
      "Ġvalues": 3447,
      "26": 3448,
      "Ġult": 3449,
      "ĠAssociation": 3450,
      "Ġden": 3451,
      "ula": 3452,
      "Ġexpected": 3453,
      "ĠHouse": 3454,
      "ingu": 3455,
      "Ġwebsite": 3456,
      "AL": 3457,
      "iber": 3458,
      "racy": 3459,
      "Ġstra": 3460,
      "itch": 3461,
      "Ġsequ": 3462,
      "Ġconstruction": 3463,
      "Ġcou": 3464,
      "Ġplaced": 3465,
      "Ġpregn": 3466,
      "rees": 3467,
      "ĠDis": 3468,
      "airs": 3469,
      "Ġolder": 3470,
      "AC": 3471,
      "Ġexercise": 3472,
      "Ġlegal": 3473,
      "Ġelements": 3474,
      "ĠLondon": 3475,
      "Ġalone": 3476,
      "Ġcompanies": 3477,
      "Ġwalk": 3478,
      "Ġsecurity": 3479,
      "Ġcritical": 3480,
      "nov": 3481,
      "Ġreceive": 3482,
      "Ġmission": 3483,
      "ĠYour": 3484,
      "ĠConf": 3485,
      "21": 3486,
      "Ġformed": 3487,
      "wide": 3488,
      "Ġeffort": 3489,
      "abetes": 3490,
      "Ġtable": 3491,
      "inate": 3492,
      "Ġcool": 3493,
      "28": 3494,
      "iot": 3495,
      "Ġgave": 3496,
      "ĠRoman": 3497,
      "aught": 3498,
      "Ġtit": 3499,
      "Ġoccup": 3500,
      "Ġdiscovered": 3501,
      "Ġfast": 3502,
      "Ġplanet": 3503,
      "Ġsoftware": 3504,
      "Ġsurround": 3505,
      "Ġkill": 3506,
      "imal": 3507,
      "Ġeconomy": 3508,
      "off": 3509,
      "Ġrequires": 3510,
      "Ġsch": 3511,
      "Ġbreast": 3512,
      "Ġpan": 3513,
      "Ġenj": 3514,
      "ĠSystem": 3515,
      "iece": 3516,
      "Ġbirds": 3517,
      "ĠEnvironment": 3518,
      "Ġpen": 3519,
      "ĠCouncil": 3520,
      "Ġpack": 3521,
      "ĠSee": 3522,
      "rates": 3523,
      "Ġpresident": 3524,
      "king": 3525,
      "Ġmom": 3526,
      "ittee": 3527,
      "time": 3528,
      "Ġaud": 3529,
      "oted": 3530,
      "Ġessential": 3531,
      "Ġcorn": 3532,
      "Ġapplication": 3533,
      "atin": 3534,
      "Ġsymb": 3535,
      "Ġbeg": 3536,
      "Ġbecomes": 3537,
      "Ġexposure": 3538,
      "ĠDevelop": 3539,
      "27": 3540,
      "Ġ60": 3541,
      "Ġstay": 3542,
      "Ġ2004": 3543,
      "Ġacid": 3544,
      "Ġ28": 3545,
      "Ġadapt": 3546,
      "ĠChinese": 3547,
      "Ġfinal": 3548,
      "Ġbeyond": 3549,
      "Ġrise": 3550,
      "Ġsn": 3551,
      "oring": 3552,
      "ĠKe": 3553,
      "Ġtele": 3554,
      "So": 3555,
      "Ġexec": 3556,
      "izes": 3557,
      "Ġbaby": 3558,
      "Ġensure": 3559,
      "ĠSur": 3560,
      "Ġallowed": 3561,
      "Ġaim": 3562,
      "Ġspirit": 3563,
      "entially": 3564,
      "Ġrain": 3565,
      "aced": 3566,
      "Ġversion": 3567,
      "ĠJesus": 3568,
      "Ġmention": 3569,
      "ĠProt": 3570,
      "gery": 3571,
      "Ġtox": 3572,
      "Ġmonitor": 3573,
      "Ġones": 3574,
      "Ġ2003": 3575,
      "odies": 3576,
      "rition": 3577,
      "enty": 3578,
      "Ġweb": 3579,
      "resh": 3580,
      "Ġteaching": 3581,
      "Ġmis": 3582,
      "Ġrespond": 3583,
      "Ġwinter": 3584,
      "Ġpredict": 3585,
      "Ġgoal": 3586,
      "ĠHigh": 3587,
      "Ġreach": 3588,
      "Ġperhaps": 3589,
      "Ġuser": 3590,
      "ky": 3591,
      "pped": 3592,
      "amer": 3593,
      "ĠDavid": 3594,
      "aid": 3595,
      "gypt": 3596,
      "ĠProgram": 3597,
      "Ġimportance": 3598,
      "Ġgives": 3599,
      "Ġprocesses": 3600,
      "edom": 3601,
      "Ġ26": 3602,
      "ĠUN": 3603,
      "Ex": 3604,
      "Ġreports": 3605,
      "udd": 3606,
      "Ġweather": 3607,
      "cohol": 3608,
      "Ġhope": 3609,
      "Ġroom": 3610,
      "Ġcurrently": 3611,
      "Ġvirt": 3612,
      "atur": 3613,
      "Ġgame": 3614,
      "ype": 3615,
      "Ġappears": 3616,
      "come": 3617,
      "ĠVal": 3618,
      "Ġanything": 3619,
      "Ġanti": 3620,
      "Ġwrite": 3621,
      "ĠJames": 3622,
      "Ġresponsible": 3623,
      "Ġgard": 3624,
      "su": 3625,
      "semb": 3626,
      "Ġhon": 3627,
      "Ġdisplay": 3628,
      "Ġ190": 3629,
      "Ġcold": 3630,
      "Ġball": 3631,
      "Ġanaly": 3632,
      "Ġwoman": 3633,
      "Ġrule": 3634,
      "Ġsmaller": 3635,
      "II": 3636,
      "ixed": 3637,
      "Ġscreen": 3638,
      "Ġsustain": 3639,
      "olar": 3640,
      "back": 3641,
      "resp": 3642,
      "Ġnegative": 3643,
      "eech": 3644,
      "ĠDNA": 3645,
      "ĠTex": 3646,
      "ĠGovernment": 3647,
      "ests": 3648,
      "known": 3649,
      "iar": 3650,
      "Ġlegis": 3651,
      "Ġ27": 3652,
      "Ġstrateg": 3653,
      "vant": 3654,
      "These": 3655,
      "Ġdepend": 3656,
      "Ġtechniques": 3657,
      "irection": 3658,
      "Ġtherapy": 3659,
      "Ġstru": 3660,
      "Ġidentified": 3661,
      "Ġacqu": 3662,
      "phas": 3663,
      "Ġvill": 3664,
      "Ġphilos": 3665,
      "Ġlocation": 3666,
      "Ġfriends": 3667,
      "Ġwon": 3668,
      "Ġtesting": 3669,
      "Ġcopy": 3670,
      "ĠDuring": 3671,
      "ciples": 3672,
      "Ġemot": 3673,
      "Ġoccurs": 3674,
      "Ġequipment": 3675,
      "Ġcode": 3676,
      "erved": 3677,
      "Ġpeace": 3678,
      "rolled": 3679,
      "DA": 3680,
      "Ġrelatively": 3681,
      "Ġtowards": 3682,
      "Ġhelps": 3683,
      "Ġdevice": 3684,
      "Ġriver": 3685,
      "BN": 3686,
      "Ġeyes": 3687,
      "asion": 3688,
      "Ġwaste": 3689,
      "EC": 3690,
      "Ġfear": 3691,
      "Ġgold": 3692,
      "Ġmodels": 3693,
      "ĠPublic": 3694,
      "Ġneigh": 3695,
      "ste": 3696,
      "Ġdevices": 3697,
      "ĠGermany": 3698,
      "ĠRev": 3699,
      "lege": 3700,
      "Ġconsequ": 3701,
      "Ġcontinu": 3702,
      "á¹": 3703,
      "enth": 3704,
      "Ġforeign": 3705,
      "Ġfindings": 3706,
      "Ġsuccessful": 3707,
      "Ġnames": 3708,
      "Ġcultural": 3709,
      "ĠPhil": 3710,
      "Ġegg": 3711,
      "Ġcitizens": 3712,
      "ĠInternet": 3713,
      "ocks": 3714,
      "more": 3715,
      "ĠCommun": 3716,
      "Ġceleb": 3717,
      "ĠVirgin": 3718,
      "Ġhyp": 3719,
      "Ġmajority": 3720,
      "ĠFrance": 3721,
      "Ġaffected": 3722,
      "nes": 3723,
      "Ġenjoy": 3724,
      "Ġmental": 3725,
      "Ġstar": 3726,
      "aint": 3727,
      "ĠGreen": 3728,
      "Pro": 3729,
      "Ġdegree": 3730,
      "bre": 3731,
      "Ġorganization": 3732,
      "vert": 3733,
      "Ġadvant": 3734,
      "Ġhistorical": 3735,
      "oe": 3736,
      "Ġblock": 3737,
      "Ġstatus": 3738,
      "Ġ...": 3739,
      "book": 3740,
      "Ġreduced": 3741,
      "ĠPal": 3742,
      "Ġequal": 3743,
      "oud": 3744,
      "Ġimag": 3745,
      "ĠEven": 3746,
      "fort": 3747,
      "ĠMich": 3748,
      "Ġpet": 3749,
      "ĠRed": 3750,
      "ĠTrans": 3751,
      "Ġmap": 3752,
      "ologist": 3753,
      "Ġoffice": 3754,
      "Ġmut": 3755,
      "aign": 3756,
      "ĠProf": 3757,
      "ĠSim": 3758,
      "Un": 3759,
      "ament": 3760,
      "Ġrules": 3761,
      "ogen": 3762,
      "Ġapplications": 3763,
      "Some": 3764,
      "ĠVol": 3765,
      "ĠAustralia": 3766,
      "Ġproviding": 3767,
      "ĠRober": 3768,
      "oration": 3769,
      "Ġthousands": 3770,
      "ĠMuseum": 3771,
      "90": 3772,
      "cont": 3773,
      "ĠCom": 3774,
      "rief": 3775,
      "ĠNASA": 3776,
      "Ġthinking": 3777,
      "Ġbeaut": 3778,
      "ĠAng": 3779,
      "ĠMod": 3780,
      "antic": 3781,
      "ĠJews": 3782,
      "Ġpassed": 3783,
      "oma": 3784,
      "Ġillust": 3785,
      "Ġfinancial": 3786,
      "Ġbelief": 3787,
      "oday": 3788,
      "Ġexpand": 3789,
      "Ġstaff": 3790,
      "Ġ2001": 3791,
      "che": 3792,
      "Ġcop": 3793,
      "ĠBecause": 3794,
      "Ġcoming": 3795,
      "Ġchurch": 3796,
      "iny": 3797,
      "ĠEgypt": 3798,
      "Ġcompar": 3799,
      "Ġcities": 3800,
      "Ġocean": 3801,
      "Ġroad": 3802,
      "aled": 3803,
      "Ġlat": 3804,
      "Ġbenefit": 3805,
      "ellig": 3806,
      "Ġconflic": 3807,
      "ribute": 3808,
      "itable": 3809,
      "ĠMary": 3810,
      "Ġelectr": 3811,
      "Ġscale": 3812,
      "ĠWater": 3813,
      "ĠSince": 3814,
      "Ġstage": 3815,
      "Ġregions": 3816,
      "ĠMa": 3817,
      "Ġfair": 3818,
      "ibly": 3819,
      "Ġ2002": 3820,
      "ald": 3821,
      "ira": 3822,
      "Ġseven": 3823,
      "Ġexhib": 3824,
      "ida": 3825,
      "Ġpoly": 3826,
      "omas": 3827,
      "ographic": 3828,
      "Ġveh": 3829,
      "Ġgene": 3830,
      "ĠWestern": 3831,
      "Ġnor": 3832,
      "ĠSpec": 3833,
      "Ġeverything": 3834,
      "Ġleaves": 3835,
      "Ġdistance": 3836,
      "iverse": 3837,
      "rations": 3838,
      "Ġbelieved": 3839,
      "Ġworked": 3840,
      "house": 3841,
      "pire": 3842,
      "Ġtrying": 3843,
      "With": 3844,
      "Ġcompletely": 3845,
      "ects": 3846,
      "orms": 3847,
      "Ġdidn": 3848,
      "ĠAccording": 3849,
      "Ġleave": 3850,
      "Ġopportunity": 3851,
      "Ġapproximately": 3852,
      "Ġapplied": 3853,
      "Ġenter": 3854,
      "ĠThen": 3855,
      "Ġtypically": 3856,
      "35": 3857,
      "Ġshowed": 3858,
      "Ġconstruct": 3859,
      "Ġunit": 3860,
      "AS": 3861,
      "Ġchanged": 3862,
      "ĠGeorge": 3863,
      "Ġrecommend": 3864,
      "Ġsurvey": 3865,
      "ĠOff": 3866,
      "Ġbreat": 3867,
      "Ġmag": 3868,
      "Ġpurch": 3869,
      "Ġarchitect": 3870,
      "Ġgoes": 3871,
      "riage": 3872,
      "Ġassist": 3873,
      "Ġdifferences": 3874,
      "Ġexamples": 3875,
      "ĠTexas": 3876,
      "ĠRepublic": 3877,
      "ĠMor": 3878,
      "ĠLord": 3879,
      "ĠOb": 3880,
      "odes": 3881,
      "Ġ186": 3882,
      "Ġseparate": 3883,
      "Ġassum": 3884,
      "Ġinteresting": 3885,
      "Ġillness": 3886,
      "Ġcommercial": 3887,
      "Ġiniti": 3888,
      "Ġmiss": 3889,
      "ĠJer": 3890,
      "idel": 3891,
      "Ġmeasures": 3892,
      "ĠMars": 3893,
      "ĠInter": 3894,
      "Ġswe": 3895,
      "Ġfemale": 3896,
      "Ġdirection": 3897,
      "ĠMiss": 3898,
      "Ġnuclear": 3899,
      "cles": 3900,
      "Ġprin": 3901,
      "Ġdestroy": 3902,
      "pris": 3903,
      "Ar": 3904,
      "Ġreasons": 3905,
      "ĠInst": 3906,
      "Ġadm": 3907,
      "Ġexisting": 3908,
      "Ġrecords": 3909,
      "New": 3910,
      "hors": 3911,
      "Ġfunctions": 3912,
      "Ġpow": 3913,
      "Ġfigure": 3914,
      "78": 3915,
      "Ġobserved": 3916,
      "Ġestimated": 3917,
      "ĠCO": 3918,
      "ĠCollege": 3919,
      "Ġpowerful": 3920,
      "Ġteacher": 3921,
      "Ġpractices": 3922,
      "Ġfaith": 3923,
      "____": 3924,
      "ĠFound": 3925,
      "ĠThus": 3926,
      "Ġbacteria": 3927,
      "atab": 3928,
      "ĠMexico": 3929,
      "ĠISBN": 3930,
      "cious": 3931,
      "ĠBra": 3932,
      "ector": 3933,
      "Ġmig": 3934,
      "Ġcateg": 3935,
      "ience": 3936,
      "Ġeating": 3937,
      "ession": 3938,
      "ensity": 3939,
      "Ġspect": 3940,
      "Ġelement": 3941,
      "ĠCourt": 3942,
      "RE": 3943,
      "wards": 3944,
      "Ġlimit": 3945,
      "load": 3946,
      "Ġreleased": 3947,
      "uls": 3948,
      "ĠPaul": 3949,
      "Ġcreating": 3950,
      "ĠHere": 3951,
      "co": 3952,
      "Ġradio": 3953,
      "Ġsolution": 3954,
      "Ġconstant": 3955,
      "Ġcommonly": 3956,
      "ĠRef": 3957,
      "ĠFl": 3958,
      "Ġshape": 3959,
      "icate": 3960,
      "iments": 3961,
      "que": 3962,
      "ĠLou": 3963,
      "Ġplans": 3964,
      "ero": 3965,
      "Ġjoint": 3966,
      "Ġmoving": 3967,
      "ĠAir": 3968,
      "ĠHuman": 3969,
      "Ġradiation": 3970,
      "Ġ29": 3971,
      "Ġpric": 3972,
      "ĠCath": 3973,
      "Ġmoved": 3974,
      "ĠDec": 3975,
      "ĠJapanese": 3976,
      "force": 3977,
      "osa": 3978,
      "ĠJust": 3979,
      "Ġrat": 3980,
      "Ġdoub": 3981,
      "ĠMount": 3982,
      "pir": 3983,
      "Ġjournal": 3984,
      "ĠNow": 3985,
      "Ġemissions": 3986,
      "Ġnative": 3987,
      "Ġgir": 3988,
      "45": 3989,
      "Ġpresented": 3990,
      "acific": 3991,
      "Ġtreated": 3992,
      "Ġnote": 3993,
      "Ġpresence": 3994,
      "Ġcustom": 3995,
      "Ġsac": 3996,
      "Ġ:": 3997,
      "ĠService": 3998,
      "Ġbound": 3999,
      "Ġwhom": 4000,
      "Ġusers": 4001,
      "orial": 4002,
      "ken": 4003,
      "enge": 4004,
      "Ġbran": 4005,
      "Ġ+": 4006,
      "ding": 4007,
      "Ġsem": 4008,
      "Ġeventually": 4009,
      "ĠLa": 4010,
      "Ġspring": 4011,
      "Ġhom": 4012,
      "Ġmax": 4013,
      "Ġblue": 4014,
      "ean": 4015,
      "ĠFin": 4016,
      "Ġautom": 4017,
      "za": 4018,
      "ĠArmy": 4019,
      "Ġcand": 4020,
      "Ġmer": 4021,
      "cast": 4022,
      "Ġevalu": 4023,
      "Ġbra": 4024,
      "ĠCur": 4025,
      "Ġcru": 4026,
      "Ġphysic": 4027,
      "Ġmaintain": 4028,
      "Ġparty": 4029,
      "ĠPlan": 4030,
      "part": 4031,
      "Ġtum": 4032,
      "icip": 4033,
      "Ġcommunication": 4034,
      "Ġcapacity": 4035,
      "Ġrepe": 4036,
      "ĠAre": 4037,
      "eding": 4038,
      "iable": 4039,
      "....": 4040,
      "ĠTheir": 4041,
      "Ġrich": 4042,
      "Ġstrength": 4043,
      "Ġinstruct": 4044,
      "While": 4045,
      "Ġupper": 4046,
      "Ġreference": 4047,
      "Ġhighest": 4048,
      "'ve": 4049,
      "Ġrob": 4050,
      "Ġpicture": 4051,
      "'ll": 4052,
      "ĠAlso": 4053,
      "Ġwest": 4054,
      "abilities": 4055,
      "ocol": 4056,
      "Ġtrack": 4057,
      "Ġincreases": 4058,
      "erate": 4059,
      "ologists": 4060,
      "Ġcarried": 4061,
      "with": 4062,
      "Ġemphas": 4063,
      "Ġpopulations": 4064,
      "eff": 4065,
      "hy": 4066,
      "igned": 4067,
      "Ġpatterns": 4068,
      "33": 4069,
      "eared": 4070,
      "ĠRich": 4071,
      "rehens": 4072,
      "road": 4073,
      "Ġrelease": 4074,
      "Ġkilled": 4075,
      "Ġsymbol": 4076,
      "Ġdecades": 4077,
      "ulf": 4078,
      "Ġdefined": 4079,
      "related": 4080,
      "bed": 4081,
      "ĠRead": 4082,
      "Ġdiabetes": 4083,
      "ĠMedical": 4084,
      "Ġsuggests": 4085,
      "ĠAv": 4086,
      "Ġprice": 4087,
      "Ġheavy": 4088,
      "Ġtou": 4089,
      "ĠProject": 4090,
      "ords": 4091,
      "HE": 4092,
      "Ġincor": 4093,
      "ĠSen": 4094,
      "Ġchance": 4095,
      "Ġoperations": 4096,
      "cers": 4097,
      "raw": 4098,
      "imens": 4099,
      "Ġstream": 4100,
      "Ġvisual": 4101,
      "gency": 4102,
      "Ġmale": 4103,
      "All": 4104,
      "Ġvia": 4105,
      "ĠEach": 4106,
      "ĠDevelopment": 4107,
      "Ġbox": 4108,
      "Ġfully": 4109,
      "Ġtissue": 4110,
      "Ġfig": 4111,
      "Ġprofessional": 4112,
      "rome": 4113,
      "ĠArab": 4114,
      "Ġsouthern": 4115,
      "Ġign": 4116,
      "Ġeducational": 4117,
      "uild": 4118,
      "Ġexpress": 4119,
      "Ġenh": 4120,
      "Ġpersons": 4121,
      "Ġfresh": 4122,
      "ĠGreek": 4123,
      "mark": 4124,
      "Ġbank": 4125,
      "Ġteach": 4126,
      "Ġworth": 4127,
      "Ġincome": 4128,
      "omic": 4129,
      "Ġtransfer": 4130,
      "ĠDem": 4131,
      "apers": 4132,
      "Ġturned": 4133,
      "Ġmedicine": 4134,
      "Ġwond": 4135,
      "Ġmeeting": 4136,
      "Ġiron": 4137,
      "Ġweak": 4138,
      "Ġ1990": 4139,
      "Ġexplain": 4140,
      "Ġplanning": 4141,
      "ET": 4142,
      "Ġmob": 4143,
      "Ġcook": 4144,
      "Ġnoted": 4145,
      "Ġlived": 4146,
      "Ġpiece": 4147,
      "Ġspeech": 4148,
      "Ġimmediately": 4149,
      "Ġsurgery": 4150,
      "essel": 4151,
      "Ġrunning": 4152,
      "ortion": 4153,
      "Ġunivers": 4154,
      "Ġfavor": 4155,
      "ĠPeople": 4156,
      "Ġtro": 4157,
      "Ġgiving": 4158,
      "Ġalt": 4159,
      "Ġunits": 4160,
      "Ġorganizations": 4161,
      "rant": 4162,
      "Ġactual": 4163,
      "Ġtruth": 4164,
      "clus": 4165,
      "Ġfields": 4166,
      "Ġreligion": 4167,
      "ĠRel": 4168,
      "Ġacadem": 4169,
      "Ġalcohol": 4170,
      "Ġcontract": 4171,
      "Ġslight": 4172,
      "aling": 4173,
      "Ġsexual": 4174,
      "ĠUse": 4175,
      "ht": 4176,
      "75": 4177,
      "Ġwatch": 4178,
      "Ġdram": 4179,
      "west": 4180,
      "Ġfriend": 4181,
      "ago": 4182,
      "Ġperfect": 4183,
      "Ġproperties": 4184,
      "ĠLear": 4185,
      "Ġindustrial": 4186,
      "Ġfactor": 4187,
      "ped": 4188,
      "Ã¡": 4189,
      "Ġnorthern": 4190,
      "Ġdetails": 4191,
      "orage": 4192,
      "Ġactions": 4193,
      "Ġlearned": 4194,
      "leg": 4195,
      "Ġoverall": 4196,
      "key": 4197,
      "Ġchoice": 4198,
      "otes": 4199,
      "After": 4200,
      "Ġisn": 4201,
      "ams": 4202,
      "essor": 4203,
      "ĠDes": 4204,
      "win": 4205,
      "RO": 4206,
      "olved": 4207,
      "Ġattract": 4208,
      "Ġconducted": 4209,
      "Ġrul": 4210,
      "Ġcoal": 4211,
      "Ġterrit": 4212,
      "Ġintroduced": 4213,
      "Ġgraph": 4214,
      "ĠVirginia": 4215,
      "Ġlib": 4216,
      "Ġinsect": 4217,
      "Ġprofessor": 4218,
      "Ġmal": 4219,
      "Ġmouth": 4220,
      "ĠIslam": 4221,
      "Ġannual": 4222,
      "respond": 4223,
      "ĠCivil": 4224,
      "Ġgrant": 4225,
      "Ġcontext": 4226,
      "Ġresource": 4227,
      "Ġfeature": 4228,
      "Ġclinical": 4229,
      "Ġdisorder": 4230,
      "eces": 4231,
      "Ġmoment": 4232,
      "Ġbattle": 4233,
      "Ġgenes": 4234,
      "Ġpages": 4235,
      "Ġbuildings": 4236,
      "Ġcreation": 4237,
      "Ph": 4238,
      "ĠMart": 4239,
      "Ġserved": 4240,
      "Ġsigns": 4241,
      "ĠMic": 4242,
      "ĠAut": 4243,
      "rick": 4244,
      "porary": 4245,
      "Ġserve": 4246,
      "Ġinstance": 4247,
      "Ġstories": 4248,
      "ĠPacific": 4249,
      "ĠOur": 4250,
      "Ġdistribution": 4251,
      "Americ": 4252,
      "ĠDon": 4253,
      "iful": 4254,
      "Ġflood": 4255,
      "Ġstructures": 4256,
      "iant": 4257,
      "Ġfruit": 4258,
      "Ad": 4259,
      "Ġreprodu": 4260,
      "ĠNews": 4261,
      "ii": 4262,
      "ube": 4263,
      "Ġmathemat": 4264,
      "ophy": 4265,
      "Ġsugar": 4266,
      "Ġcampaign": 4267,
      "36": 4268,
      "oyal": 4269,
      "nam": 4270,
      "Ġindependent": 4271,
      "Is": 4272,
      "oice": 4273,
      "Ġphen": 4274,
      "gra": 4275,
      "char": 4276,
      "ĠChildren": 4277,
      "lick": 4278,
      "Ġfilm": 4279,
      "ĠTur": 4280,
      "ĠSpace": 4281,
      "rupt": 4282,
      "ux": 4283,
      "Ġesc": 4284,
      "ample": 4285,
      "Ġreached": 4286,
      "ĠMedicine": 4287,
      "change": 4288,
      "Ġconv": 4289,
      "Ġeveryone": 4290,
      "Ġstation": 4291,
      "ocal": 4292,
      "iance": 4293,
      "Ġconsumption": 4294,
      "astern": 4295,
      "Ġminor": 4296,
      "ĠBlack": 4297,
      "Ġcry": 4298,
      "Ġeast": 4299,
      "Ġbone": 4300,
      "Ġletter": 4301,
      "ĠSpanish": 4302,
      "See": 4303,
      "Ġstim": 4304,
      "Ġwrong": 4305,
      "Ġalternative": 4306,
      "Ġwaters": 4307,
      "They": 4308,
      "ees": 4309,
      "Ġdu": 4310,
      "Ġauthority": 4311,
      "gl": 4312,
      "ett": 4313,
      "ifically": 4314,
      "itness": 4315,
      "AM": 4316,
      "ĠPort": 4317,
      "ander": 4318,
      "ensus": 4319,
      "Ġsteps": 4320,
      "Ġauthors": 4321,
      "ĠMat": 4322,
      "ĠAtl": 4323,
      "ĠIsland": 4324,
      "Ġclearly": 4325,
      "Ġdisorders": 4326,
      "Ġatmosphere": 4327,
      "Ġopin": 4328,
      "Ġconservation": 4329,
      "Ġgeneration": 4330,
      "Ġforward": 4331,
      "Ġvessel": 4332,
      "ares": 4333,
      "ĠAsia": 4334,
      "ingly": 4335,
      "ĠSun": 4336,
      "Ġdivid": 4337,
      "ĠChe": 4338,
      "Ġdiscussion": 4339,
      "Ġmilk": 4340,
      "Ġboard": 4341,
      "Ġpolicies": 4342,
      "Ġtransl": 4343,
      "Ġbehavi": 4344,
      "Ġelim": 4345,
      "Â°": 4346,
      "Ġfreedom": 4347,
      "ĠHen": 4348,
      "Ġnumerous": 4349,
      "ault": 4350,
      "Ġvision": 4351,
      "Ġdigital": 4352,
      "which": 4353,
      "ĠEv": 4354,
      "Ġconvers": 4355,
      "tical": 4356,
      "vision": 4357,
      "Ġcovered": 4358,
      "Ġfailure": 4359,
      "Ġ80": 4360,
      "Ġchoose": 4361,
      "ager": 4362,
      "Ġdegrees": 4363,
      "Ġtrib": 4364,
      "ĠBritain": 4365,
      "isher": 4366,
      "Ġaccur": 4367,
      "that": 4368,
      "Ġarr": 4369,
      "Ġstyle": 4370,
      "Ġremember": 4371,
      "Ġefficient": 4372,
      "Ġdepression": 4373,
      "Ġoffers": 4374,
      "Ġdetermined": 4375,
      "Ġsitu": 4376,
      "Ġfamous": 4377,
      "Ġextremely": 4378,
      "ĠNet": 4379,
      "itz": 4380,
      "Ġtechnologies": 4381,
      "Res": 4382,
      "Ġantib": 4383,
      "Ġproposed": 4384,
      "Ġabsor": 4385,
      "ĠFore": 4386,
      "Ġmachine": 4387,
      "Ġ1999": 4388,
      "Sp": 4389,
      "Ġremained": 4390,
      "Ġcollabor": 4391,
      "Ġfrequently": 4392,
      "Ġrace": 4393,
      "Ġremoved": 4394,
      "Ġneu": 4395,
      "Ġinitial": 4396,
      "Ġtask": 4397,
      "Ġple": 4398,
      "Ġwear": 4399,
      "ressive": 4400,
      "ĠBay": 4401,
      "ĠFlor": 4402,
      "ĠTest": 4403,
      "ĠUnder": 4404,
      "ĠMal": 4405,
      "Ġcontrast": 4406,
      "name": 4407,
      "ĠCommission": 4408,
      "Ġnotes": 4409,
      "anging": 4410,
      "Ġcounter": 4411,
      "Ġpartners": 4412,
      "works": 4413,
      "Ġisol": 4414,
      "Ġperformed": 4415,
      "Ġopportunities": 4416,
      "Ġcomponents": 4417,
      "Ġhuge": 4418,
      "Ġliterature": 4419,
      "Ġfert": 4420,
      "Ġchief": 4421,
      "Ġcircum": 4422,
      "aped": 4423,
      "Ġrot": 4424,
      "Ġwidely": 4425,
      "Ġvary": 4426,
      "med": 4427,
      "ville": 4428,
      "ĠRobert": 4429,
      "Ġhousehold": 4430,
      "Ġreb": 4431,
      "ĠBer": 4432,
      "ĠOver": 4433,
      "Ġdesp": 4434,
      "Ġconclud": 4435,
      "Be": 4436,
      "Ġofficials": 4437,
      "Ġvitamin": 4438,
      "Ġhair": 4439,
      "iox": 4440,
      "berg": 4441,
      "Ġguide": 4442,
      "38": 4443,
      "Ġmessage": 4444,
      "ching": 4445,
      "Ġexperiment": 4446,
      "Ġbottom": 4447,
      "Ġwanted": 4448,
      "Ġresistance": 4449,
      "Ġelectricity": 4450,
      "aughter": 4451,
      "198": 4452,
      "Ġliqu": 4453,
      "ĠMuslim": 4454,
      "ĠLatin": 4455,
      "Ġgrass": 4456,
      "Ġtemperatures": 4457,
      "atric": 4458,
      "atically": 4459,
      "Ġitems": 4460,
      "Ġdistinct": 4461,
      "ias": 4462,
      "Ġsav": 4463,
      "Ġinform": 4464,
      "othes": 4465,
      "Ġapply": 4466,
      "cipl": 4467,
      "oo": 4468,
      "Ġpick": 4469,
      "aste": 4470,
      "ĠMass": 4471,
      "Ġqual": 4472,
      "Ġresulting": 4473,
      "ĠJud": 4474,
      "Ġcombination": 4475,
      "ĠInformation": 4476,
      "ij": 4477,
      "Ġexcess": 4478,
      "ounced": 4479,
      "Ġ189": 4480,
      "ĠCD": 4481,
      "Ġrequirements": 4482,
      "zz": 4483,
      "Ġship": 4484,
      "Ġhomes": 4485,
      "Ġbodies": 4486,
      "Ġimmune": 4487,
      "ĠLouis": 4488,
      "bert": 4489,
      "uted": 4490,
      "Ġkept": 4491,
      "ĠSer": 4492,
      "Ġinstitutions": 4493,
      "Ġdoll": 4494,
      "Ġurban": 4495,
      "well": 4496,
      "Ġburn": 4497,
      "raction": 4498,
      "Ġkid": 4499,
      "pping": 4500,
      "US": 4501,
      "Ġhospital": 4502,
      "Ġhear": 4503,
      "Ġintended": 4504,
      "Ġreplace": 4505,
      "PS": 4506,
      "arrow": 4507,
      "ĠFood": 4508,
      "Ġhelped": 4509,
      "Ġplease": 4510,
      "Ġvolunt": 4511,
      "aus": 4512,
      "Ġstrugg": 4513,
      "Ġfoss": 4514,
      "Ġbalance": 4515,
      "Sh": 4516,
      "Ġconfirm": 4517,
      "ios": 4518,
      "Ġsave": 4519,
      "ĠIts": 4520,
      "Ġenem": 4521,
      "met": 4522,
      "That": 4523,
      "rence": 4524,
      "oting": 4525,
      "ria": 4526,
      "Ġdyn": 4527,
      "ya": 4528,
      "erences": 4529,
      "Ġsquare": 4530,
      "Ġdirector": 4531,
      "Ġsand": 4532,
      "ygen": 4533,
      "CC": 4534,
      "olid": 4535,
      "umn": 4536,
      "IDS": 4537,
      "48": 4538,
      "ĠSocial": 4539,
      "From": 4540,
      "ien": 4541,
      "ĠDirect": 4542,
      "Ġreferred": 4543,
      "Ġpil": 4544,
      "ĠLibrary": 4545,
      "Ġoccurred": 4546,
      "Ġprices": 4547,
      "ĠCentral": 4548,
      "ception": 4549,
      "kin": 4550,
      "unction": 4551,
      "Ġorganic": 4552,
      "Ġpi": 4553,
      "ĠDiv": 4554,
      "Ġtrend": 4555,
      "vis": 4556,
      "Ġcorrespond": 4557,
      "Ġdatab": 4558,
      "Ġarmy": 4559,
      "ĠCarol": 4560,
      "uit": 4561,
      "Ġoperation": 4562,
      "ributed": 4563,
      "Ġforced": 4564,
      "Ġstatement": 4565,
      "Ġglass": 4566,
      "Ġsort": 4567,
      "Ġcompleted": 4568,
      "Ġmo": 4569,
      "Ġinh": 4570,
      "Ġ35": 4571,
      "chers": 4572,
      "ĠMr": 4573,
      "rian": 4574,
      "ĠPhys": 4575,
      "Ġdrive": 4576,
      "Ġisland": 4577,
      "Ġprinciples": 4578,
      "Ġ90": 4579,
      "ĠThomas": 4580,
      "Ġspent": 4581,
      "Ġtrou": 4582,
      "lar": 4583,
      "Ġgod": 4584,
      "Ġbecoming": 4585,
      "Although": 4586,
      "Ġcoord": 4587,
      "Ġarticles": 4588,
      "ĠNav": 4589,
      "Ġfinding": 4590,
      "ras": 4591,
      "Ġrecommended": 4592,
      "iring": 4593,
      "Ġsignificantly": 4594,
      "Ġdecided": 4595,
      "ĠLabor": 4596,
      "Ġintellig": 4597,
      "Ġupd": 4598,
      "Ġtoxic": 4599,
      "Ġcycle": 4600,
      "van": 4601,
      "ĠSy": 4602,
      "Ġexposed": 4603,
      "Ġyourself": 4604,
      "ĠOffice": 4605,
      "Ġclasses": 4606,
      "ishes": 4607,
      "Ġinterpret": 4608,
      "rum": 4609,
      "Ġclassroom": 4610,
      "osystem": 4611,
      "ĠColumb": 4612,
      "Ġbill": 4613,
      "Ġnovel": 4614,
      "Ġdie": 4615,
      "RI": 4616,
      "Ġlinks": 4617,
      "ĠWhite": 4618,
      "Ġfine": 4619,
      "Ġgain": 4620,
      "Ġbed": 4621,
      "Ġanyone": 4622,
      "opes": 4623,
      "Ġviolence": 4624,
      "Ġdecisions": 4625,
      "ĠCatholic": 4626,
      "Ġcharacteristics": 4627,
      "ĠSub": 4628,
      "Ġstorage": 4629,
      "Ġuniverse": 4630,
      "Ġwestern": 4631,
      "Ġmanner": 4632,
      "ndrome": 4633,
      "Ġappoint": 4634,
      "ĠCharles": 4635,
      "Ġhur": 4636,
      "rog": 4637,
      "ĠWild": 4638,
      "Ġ188": 4639,
      "Ġ#": 4640,
      "Ġwin": 4641,
      "Ġbelong": 4642,
      "istan": 4643,
      "Ġsusp": 4644,
      "Ġlanguages": 4645,
      "Ġvolume": 4646,
      "Ġfarmers": 4647,
      "Ġsample": 4648,
      "Ġgoals": 4649,
      "Ġexistence": 4650,
      "Ġwealth": 4651,
      "ĠMil": 4652,
      "ĠAcadem": 4653,
      "Ġcomment": 4654,
      "ĠOrgan": 4655,
      "nel": 4656,
      "Ġlung": 4657,
      "ĠSou": 4658,
      "amental": 4659,
      "Ġmuscle": 4660,
      "ĠTechnology": 4661,
      "ĠFederal": 4662,
      "Ġhappen": 4663,
      "Ġpreviously": 4664,
      "ĠWork": 4665,
      "ĠGra": 4666,
      "Ġagg": 4667,
      "ieties": 4668,
      "Ġsaying": 4669,
      "Ġreturned": 4670,
      "Ġhour": 4671,
      "Ġdrop": 4672,
      "Ġlic": 4673,
      "Ġrail": 4674,
      "Ġbrother": 4675,
      "inf": 4676,
      "itors": 4677,
      "Ġdro": 4678,
      "Ġconnection": 4679,
      "oviet": 4680,
      "Ġquar": 4681,
      "Ġmostly": 4682,
      "Ġ70": 4683,
      "Ġfif": 4684,
      "Ġstarting": 4685,
      "ĠSal": 4686,
      "Ġcra": 4687,
      "46": 4688,
      "Ġdescribe": 4689,
      "CO": 4690,
      "Ġnations": 4691,
      "Ġaspects": 4692,
      "ĠFoundation": 4693,
      "ael": 4694,
      "Ġsong": 4695,
      "Ġmere": 4696,
      "Ġheard": 4697,
      "cycl": 4698,
      "Ġthick": 4699,
      "Ġreality": 4700,
      "Ġcausing": 4701,
      "mal": 4702,
      "Ġlargely": 4703,
      "Ġastron": 4704,
      "rans": 4705,
      "Ġnav": 4706,
      "ded": 4707,
      "Ġcere": 4708,
      "oking": 4709,
      "band": 4710,
      "cest": 4711,
      "Ġunf": 4712,
      "Ġstrategies": 4713,
      "Ġstars": 4714,
      "ĠOld": 4715,
      "Ġmeant": 4716,
      "Ġstore": 4717,
      "Ġgun": 4718,
      "Ġprepar": 4719,
      "ĠWind": 4720,
      "ĠEnergy": 4721,
      "ĠMet": 4722,
      "Ġchemicals": 4723,
      "pat": 4724,
      "Ġtour": 4725,
      "ĠSam": 4726,
      "Ġmetal": 4727,
      "och": 4728,
      "Ġsupported": 4729,
      "Ġsufficient": 4730,
      "Ġprison": 4731,
      "Ġpal": 4732,
      "Ġprepared": 4733,
      "Ġsecret": 4734,
      "Ġ1998": 4735,
      "isp": 4736,
      "Ġinnov": 4737,
      "Ġexpression": 4738,
      "Ġchanging": 4739,
      "Ġinternal": 4740,
      "Ġvictim": 4741,
      "Ġfort": 4742,
      "Ġround": 4743,
      "htm": 4744,
      "ÃŃ": 4745,
      "Ġded": 4746,
      "ota": 4747,
      "ĠDise": 4748,
      "Ġremove": 4749,
      "Ġdetect": 4750,
      "Ġcollege": 4751,
      "Ġwet": 4752,
      "Ġexplore": 4753,
      "Ġcharge": 4754,
      "Ġvaccine": 4755,
      "Ġwife": 4756,
      "otic": 4757,
      "uration": 4758,
      "ĠEnvironmental": 4759,
      "Ġmeat": 4760,
      "Ġconver": 4761,
      "ĠWhy": 4762,
      "rus": 4763,
      "Ġrisks": 4764,
      "wood": 4765,
      "iveness": 4766,
      "ĠSmith": 4767,
      "ĠUK": 4768,
      "32": 4769,
      "rep": 4770,
      "ears": 4771,
      "icial": 4772,
      "ado": 4773,
      "Ġscen": 4774,
      "Ġdiss": 4775,
      "Ġconcern": 4776,
      "Ġnutri": 4777,
      "Ġclick": 4778,
      "ĠCompany": 4779,
      "Ġaid": 4780,
      "igen": 4781,
      "Ġbackground": 4782,
      "ormally": 4783,
      "âĢĿ.": 4784,
      "Ġlayer": 4785,
      "Ġsatell": 4786,
      "LE": 4787,
      "Ġapparent": 4788,
      "Ġdomestic": 4789,
      "ĠBas": 4790,
      "ĠDist": 4791,
      "Ġamounts": 4792,
      "Ġadvantage": 4793,
      "Ġassessment": 4794,
      "Ġbiological": 4795,
      "cript": 4796,
      "Ġcomprehens": 4797,
      "37": 4798,
      "what": 4799,
      "Ġtrial": 4800,
      "mit": 4801,
      "iology": 4802,
      "ented": 4803,
      "ĠLet": 4804,
      "39": 4805,
      "100": 4806,
      "Ġsubstant": 4807,
      "oper": 4808,
      "Ġpret": 4809,
      "Ġadvanced": 4810,
      "Ġfacilities": 4811,
      "pective": 4812,
      "Ġpark": 4813,
      "Ġpun": 4814,
      "roke": 4815,
      "Ġchronic": 4816,
      "ĠJose": 4817,
      "illing": 4818,
      "Ġsignal": 4819,
      "aker": 4820,
      "ĠHistor": 4821,
      "Ġengineering": 4822,
      "Ab": 4823,
      "Ġtim": 4824,
      "Ġextent": 4825,
      "lements": 4826,
      "Many": 4827,
      "Ġchallenge": 4828,
      "Ġsurpris": 4829,
      "ĠHol": 4830,
      "rows": 4831,
      "Ġencourage": 4832,
      "Ġfol": 4833,
      "Ġinterested": 4834,
      "Ġincorpor": 4835,
      "Ġcris": 4836,
      "Ġsynt": 4837,
      "Ġobvious": 4838,
      "Ġexperts": 4839,
      "Ġ1997": 4840,
      "hetic": 4841,
      "Ġchallenges": 4842,
      "ĠGroup": 4843,
      "Ġemail": 4844,
      "ĠMac": 4845,
      "Ġoffered": 4846,
      "Ġbrief": 4847,
      "ĠFre": 4848,
      "Ġgarden": 4849,
      "ructure": 4850,
      "Ġprimarily": 4851,
      "idelines": 4852,
      "ĠConstitution": 4853,
      "ĠFlorida": 4854,
      "Ġtechnical": 4855,
      "ague": 4856,
      "utive": 4857,
      "Ġcontinues": 4858,
      "Ġexactly": 4859,
      "isation": 4860,
      "Ġexcell": 4861,
      "icit": 4862,
      "Ġcombined": 4863,
      "ĠMark": 4864,
      "icon": 4865,
      "ĠMont": 4866,
      "According": 4867,
      "tle": 4868,
      "ulating": 4869,
      "Ġpurposes": 4870,
      "ĠLife": 4871,
      "aj": 4872,
      "Ġprefer": 4873,
      "Ġsnow": 4874,
      "Ġindicate": 4875,
      "Ġfinally": 4876,
      "ĠDef": 4877,
      "Ġgets": 4878,
      "Ġleader": 4879,
      "alle": 4880,
      "Ġ185": 4881,
      "Ġload": 4882,
      "zing": 4883,
      "Ġregarding": 4884,
      "Ġdisapp": 4885,
      "roph": 4886,
      "ĠSoviet": 4887,
      "akers": 4888,
      "Ġraised": 4889,
      "Ġmort": 4890,
      "field": 4891,
      "Ġsamples": 4892,
      "Ġclos": 4893,
      "lamm": 4894,
      "ship": 4895,
      "44": 4896,
      "Ġtechnique": 4897,
      "Ġ1980": 4898,
      "ey": 4899,
      "Ġpollution": 4900,
      "Ġweap": 4901,
      "Ġwww": 4902,
      "ulum": 4903,
      "ĠRights": 4904,
      "Ġinfections": 4905,
      ".;": 4906,
      "ait": 4907,
      "Ġsolid": 4908,
      "Ġinvolve": 4909,
      "76": 4910,
      "ĠMD": 4911,
      "liam": 4912,
      "ĠDi": 4913,
      "Ġcore": 4914,
      "Ġhabitat": 4915,
      "Ġsyn": 4916,
      "Most": 4917,
      "ĠBudd": 4918,
      "Cl": 4919,
      "igation": 4920,
      "cience": 4921,
      "Ġbird": 4922,
      "Other": 4923,
      "Ġmel": 4924,
      "ossible": 4925,
      "Ġmentioned": 4926,
      "Ġready": 4927,
      "No": 4928,
      "Ġprocedure": 4929,
      "Ġadjust": 4930,
      "col": 4931,
      "ĠMem": 4932,
      "Ġsuggested": 4933,
      "Ġreaction": 4934,
      "Ġoxygen": 4935,
      "iling": 4936,
      "abb": 4937,
      "Ġkm": 4938,
      "Ġmarriage": 4939,
      "ĠWil": 4940,
      ".|": 4941,
      "itage": 4942,
      "ĠQue": 4943,
      "Ġbuy": 4944,
      "Ġcamer": 4945,
      "OS": 4946,
      "BC": 4947,
      "ss": 4948,
      "Ġoutput": 4949,
      "Ġkil": 4950,
      "Ġreducing": 4951,
      "Ġsetting": 4952,
      "Ġconnected": 4953,
      "Ġbatter": 4954,
      "ilit": 4955,
      "ĠBen": 4956,
      "ĠMiddle": 4957,
      "Ġdetailed": 4958,
      "Ġdefinition": 4959,
      "Ġnutrition": 4960,
      "rier": 4961,
      "ĠLake": 4962,
      "ĠKore": 4963,
      "Ġrecognized": 4964,
      "Ġdrinking": 4965,
      "Ġmorning": 4966,
      "Ġyouth": 4967,
      "Ġrecorded": 4968,
      "Ġâ": 4969,
      "ĠSl": 4970,
      "Ġdouble": 4971,
      "ixt": 4972,
      "Ġportion": 4973,
      "ested": 4974,
      "Ġgreatest": 4975,
      "Ġlandsc": 4976,
      "Ġ*": 4977,
      "Ġcast": 4978,
      "nic": 4979,
      "Ġseed": 4980,
      "Ġdiscover": 4981,
      "ping": 4982,
      "ĠSecond": 4983,
      "Ġtrig": 4984,
      "Ġimproved": 4985,
      "Ġclim": 4986,
      "crib": 4987,
      "tion": 4988,
      "rating": 4989,
      "ĠBook": 4990,
      "rolog": 4991,
      "Ġmanufacture": 4992,
      "Ġconflict": 4993,
      "Ġappeared": 4994,
      "ĠStand": 4995,
      "Ġsed": 4996,
      "Ġinput": 4997,
      "ĠCle": 4998,
      "Ġ1996": 4999,
      "Ġlinked": 5000,
      "state": 5001,
      "Ġstrate": 5002,
      "Ġdangerous": 5003,
      "Ġdiagnosis": 5004,
      "Ġstrategy": 5005,
      "Ġhorm": 5006,
      "Ġpover": 5007,
      "EL": 5008,
      "Ġfiles": 5009,
      "Ġfundamental": 5010,
      "rust": 5011,
      "Ġformation": 5012,
      "Ġparticipants": 5013,
      "Ġpieces": 5014,
      "Ġjobs": 5015,
      "Ġexperiences": 5016,
      "Ġlooked": 5017,
      "Ġpoverty": 5018,
      "Ġoptions": 5019,
      "ĠTwo": 5020,
      "Ġeasier": 5021,
      "Ġsubsequ": 5022,
      "Ġcenturies": 5023,
      "Ġphenomen": 5024,
      "31": 5025,
      "Ġperman": 5026,
      "olars": 5027,
      "Ġindex": 5028,
      "ĠReview": 5029,
      "More": 5030,
      "Ġstudied": 5031,
      "ishing": 5032,
      "des": 5033,
      "Ġagencies": 5034,
      "Ġargument": 5035,
      "ĠBur": 5036,
      "34": 5037,
      "ĠElect": 5038,
      "Ġtroops": 5039,
      "olute": 5040,
      "----": 5041,
      "ifying": 5042,
      "Ġshar": 5043,
      "ĠHenry": 5044,
      "Ġroot": 5045,
      "ĠUp": 5046,
      "osite": 5047,
      "Ġcontaining": 5048,
      "Ġcredit": 5049,
      "born": 5050,
      "Ġheight": 5051,
      "Ġshowing": 5052,
      "standing": 5053,
      "Ġinstrument": 5054,
      "liament": 5055,
      "Ġexplan": 5056,
      "Ġfelt": 5057,
      "Ġconnect": 5058,
      "ĠBel": 5059,
      "agues": 5060,
      "Ġinstall": 5061,
      "Ġhundreds": 5062,
      "mat": 5063,
      "Ġvast": 5064,
      "ĠEconom": 5065,
      "Ġconsult": 5066,
      "Ġowners": 5067,
      "Ġhappens": 5068,
      "Ġconcerns": 5069,
      "ball": 5070,
      "fall": 5071,
      "ibl": 5072,
      "cyclop": 5073,
      "inet": 5074,
      "Ġotherwise": 5075,
      "Ġhyper": 5076,
      "Ġspot": 5077,
      "ĠNor": 5078,
      "ĠFranc": 5079,
      "inating": 5080,
      "point": 5081,
      "Ġrapidly": 5082,
      "Ġmotion": 5083,
      "Ġbegins": 5084,
      "ĠPM": 5085,
      "ĠKen": 5086,
      "Ġagricultural": 5087,
      "Ġvul": 5088,
      "ĠTer": 5089,
      "Ġsen": 5090,
      "iled": 5091,
      "mp": 5092,
      "Ġther": 5093,
      "ĠAp": 5094,
      "Ġcertainly": 5095,
      "Ġrevolution": 5096,
      "Ġattacks": 5097,
      "ĠSea": 5098,
      "Ġoperating": 5099,
      "Ġpolice": 5100,
      "Ġtested": 5101,
      "Ġmulti": 5102,
      "Ġbright": 5103,
      "Ġassemb": 5104,
      "ortunately": 5105,
      "reed": 5106,
      "urance": 5107,
      "ĠDar": 5108,
      "AP": 5109,
      "Ġgames": 5110,
      "Ġkinds": 5111,
      "aks": 5112,
      "Ġgall": 5113,
      "Ġseek": 5114,
      "rich": 5115,
      "Ġsalt": 5116,
      "Ġacademic": 5117,
      "ĠHel": 5118,
      "Ġmeasured": 5119,
      "amily": 5120,
      "Ġcollected": 5121,
      "Ġgal": 5122,
      "ĠPers": 5123,
      "espite": 5124,
      "Ġletters": 5125,
      "Ġunderst": 5126,
      "Ġlooks": 5127,
      "ĠWomen": 5128,
      "Ġexpert": 5129,
      "Ġdivided": 5130,
      "board": 5131,
      "Ġresponsibility": 5132,
      "Ġhaz": 5133,
      "Ġ31": 5134,
      "Ġgrand": 5135,
      "rosc": 5136,
      "ogle": 5137,
      "ĠScient": 5138,
      "Ġfunding": 5139,
      "oughly": 5140,
      "Ġjour": 5141,
      "OT": 5142,
      "Ġsubjects": 5143,
      "ellect": 5144,
      "Ġemergency": 5145,
      "Ġclaims": 5146,
      "Ġinjury": 5147,
      "Ġband": 5148,
      "ĠCommittee": 5149,
      "Ġadvance": 5150,
      "ĠBoth": 5151,
      "ĠBible": 5152,
      "gal": 5153,
      "Ġcogn": 5154,
      "Ġban": 5155,
      "Ġdocuments": 5156,
      "Ġpromote": 5157,
      "ocratic": 5158,
      "Ġdiscovery": 5159,
      "Ġaircraft": 5160,
      "Ġelev": 5161,
      "Ġplayed": 5162,
      "DF": 5163,
      "Ġpul": 5164,
      "Ġancest": 5165,
      "care": 5166,
      "Ġdut": 5167,
      "Ġflight": 5168,
      "Ġnan": 5169,
      "Ġgar": 5170,
      "Ġproteins": 5171,
      "ĠMo": 5172,
      "Ġ45": 5173,
      "Ġmountain": 5174,
      "Ġslightly": 5175,
      "burg": 5176,
      "Ġmainly": 5177,
      "Ġperiods": 5178,
      "Ġcontem": 5179,
      "Ġinvolves": 5180,
      "Ġharvest": 5181,
      "Ġphase": 5182,
      "ĠRome": 5183,
      "Ġcontrolled": 5184,
      "tes": 5185,
      "Ġyellow": 5186,
      "iders": 5187,
      "unk": 5188,
      "Ġobtained": 5189,
      "do": 5190,
      "Ġsoldiers": 5191,
      "eria": 5192,
      "ĠAN": 5193,
      "ĠPsych": 5194,
      "Ġpractical": 5195,
      "ĠIll": 5196,
      "ropical": 5197,
      "Ġparticles": 5198,
      "ĠAdminist": 5199,
      "Ġeggs": 5200,
      "Ġtopic": 5201,
      "Ġfrequency": 5202,
      "osen": 5203,
      "Ġresist": 5204,
      "49": 5205,
      "ĠStudents": 5206,
      "Ġfle": 5207,
      "roc": 5208,
      "ĠPri": 5209,
      "Ġprocessing": 5210,
      "ĠOnce": 5211,
      "ĠOp": 5212,
      "Ġecosystem": 5213,
      "Ġgovernments": 5214,
      "ĠFrank": 5215,
      "Ġcrops": 5216,
      "othing": 5217,
      "65": 5218,
      "AD": 5219,
      "Ġsend": 5220,
      "Ġmoon": 5221,
      "Ġcandid": 5222,
      "Ġlibrary": 5223,
      "Ġneighbor": 5224,
      "ĠCanadian": 5225,
      "Ġwarming": 5226,
      "Ġregional": 5227,
      "bal": 5228,
      "ctic": 5229,
      "Ġlatter": 5230,
      "Ġresidents": 5231,
      "anges": 5232,
      "omin": 5233,
      "Ġconvent": 5234,
      "Ġmoral": 5235,
      "Ġdistrict": 5236,
      "ĠControl": 5237,
      "Ġallowing": 5238,
      "American": 5239,
      "Ġtaught": 5240,
      "ĠÃ": 5241,
      "Ġleads": 5242,
      "Ġbond": 5243,
      "celer": 5244,
      "Ġrural": 5245,
      "ĠSuch": 5246,
      "iest": 5247,
      "ĠSte": 5248,
      "oto": 5249,
      "Ġfamiliar": 5250,
      "Ġstock": 5251,
      "Ġrelevant": 5252,
      "ura": 5253,
      "Ġhearing": 5254,
      "ĠRem": 5255,
      "Ġthin": 5256,
      "Ġshell": 5257,
      "Ġmist": 5258,
      "Ġpray": 5259,
      "Ġstem": 5260,
      "Ġreduction": 5261,
      "Ġproperly": 5262,
      "ictionary": 5263,
      "Ġaccepted": 5264,
      "Ġbud": 5265,
      "uable": 5266,
      "Ġgrade": 5267,
      "Now": 5268,
      "ava": 5269,
      "Ġtypical": 5270,
      "ompl": 5271,
      "Ġknew": 5272,
      "Ġadvoc": 5273,
      "Ġdogs": 5274,
      "rem": 5275,
      "ĠNature": 5276,
      "Ġbeautiful": 5277,
      "CR": 5278,
      "ĠAlex": 5279,
      "ĠPost": 5280,
      "Ġmotor": 5281,
      "Ġtransform": 5282,
      "Ġtried": 5283,
      "Ġincreasingly": 5284,
      "Ġconstitution": 5285,
      "Ġelectrical": 5286,
      "apes": 5287,
      "atever": 5288,
      "Ġefficiency": 5289,
      "Ġclosely": 5290,
      "Ġdepth": 5291,
      "Ġrenew": 5292,
      "Ġexplains": 5293,
      "ION": 5294,
      "ĠSum": 5295,
      "Ġinstruction": 5296,
      "Ġ<": 5297,
      "Ġnewsp": 5298,
      "Ġflag": 5299,
      "Ġtitle": 5300,
      "going": 5301,
      "Ġgirls": 5302,
      "Ġfigures": 5303,
      "ĠSouthern": 5304,
      "500": 5305,
      "Ġconcerned": 5306,
      "Ġeffectively": 5307,
      "Ġstated": 5308,
      "ĠOcean": 5309,
      "Ġ1995": 5310,
      "Ġstone": 5311,
      "add": 5312,
      "umber": 5313,
      "iced": 5314,
      "Ġplastic": 5315,
      "Ġrand": 5316,
      "Ġrelationships": 5317,
      "ctor": 5318,
      "ĠIr": 5319,
      "war": 5320,
      "Ġconcepts": 5321,
      "ĠPan": 5322,
      "Ġfloor": 5323,
      "Ġadvice": 5324,
      "Ġ1970": 5325,
      "anged": 5326,
      "Ġfailed": 5327,
      "acters": 5328,
      "ĠSom": 5329,
      "Ġages": 5330,
      "Ġobl": 5331,
      "Ġexperienced": 5332,
      "Ġsides": 5333,
      "Ġinterview": 5334,
      "Ġviews": 5335,
      "pidem": 5336,
      "Ġmonitoring": 5337,
      "Ġmamm": 5338,
      "Ġopened": 5339,
      "ipped": 5340,
      "from": 5341,
      "normal": 5342,
      "eters": 5343,
      "Ġexplained": 5344,
      "Con": 5345,
      "Ġcomponent": 5346,
      "active": 5347,
      "Ġtrust": 5348,
      "ĠReport": 5349,
      "Ġrandom": 5350,
      "ĠSaf": 5351,
      "rete": 5352,
      "Ġteeth": 5353,
      "Ġdistingu": 5354,
      "Ġliquid": 5355,
      "ada": 5356,
      "Ġconsists": 5357,
      "Ġlit": 5358,
      "eck": 5359,
      "aur": 5360,
      "ĠDel": 5361,
      "ĠTherefore": 5362,
      "lers": 5363,
      "avery": 5364,
      "ansas": 5365,
      "Ġimmig": 5366,
      "Ġmillions": 5367,
      "De": 5368,
      "Ġinterests": 5369,
      "ĠTreat": 5370,
      "Ġstorm": 5371,
      "However": 5372,
      "Ġselection": 5373,
      "Ġlatest": 5374,
      "Ġtreatments": 5375,
      "erves": 5376,
      "ails": 5377,
      "Ġfollows": 5378,
      "Ġstraight": 5379,
      "Ġprofession": 5380,
      "Ġnarrow": 5381,
      "Ġoriginally": 5382,
      "ston": 5383,
      "Ġdepending": 5384,
      "Ġpossess": 5385,
      "Ġfocused": 5386,
      "Gen": 5387,
      "Ġdoctors": 5388,
      "á¹Ń": 5389,
      "dden": 5390,
      "Ġvent": 5391,
      "ĠCamb": 5392,
      "ĠNatural": 5393,
      "ĠWall": 5394,
      "Ġfit": 5395,
      "ĠPenn": 5396,
      "MS": 5397,
      "Ġunless": 5398,
      "Ġdespite": 5399,
      "ĠCarolina": 5400,
      "Ġ>": 5401,
      "Ġhunt": 5402,
      "ĠAnn": 5403,
      "Ġwonder": 5404,
      "ĠOx": 5405,
      "Ġoption": 5406,
      "Ġchann": 5407,
      "Ġarms": 5408,
      "Ġspecifically": 5409,
      "ĠEngine": 5410,
      "kins": 5411,
      "Ġdeaths": 5412,
      "95": 5413,
      "uous": 5414,
      "Ġmaster": 5415,
      "clusion": 5416,
      "ĠToday": 5417,
      "ĠPeter": 5418,
      "imer": 5419,
      "rants": 5420,
      "ĠWell": 5421,
      "47": 5422,
      "Ġpaid": 5423,
      "asks": 5424,
      "Ġsustainable": 5425,
      "Ġauthorities": 5426,
      "Ġselected": 5427,
      "Ġsurrounding": 5428,
      "Ġdynam": 5429,
      "ĠFort": 5430,
      "Ġagency": 5431,
      "Ġinterf": 5432,
      "Ġprinciple": 5433,
      "gov": 5434,
      "abil": 5435,
      "ĠRussia": 5436,
      "zen": 5437,
      "Ġdecline": 5438,
      "spec": 5439,
      "ona": 5440,
      "osal": 5441,
      "ĠChic": 5442,
      "Ġshel": 5443,
      "Ġinches": 5444,
      "Ġvegetables": 5445,
      "place": 5446,
      "Ġprevention": 5447,
      "Ġhouses": 5448,
      "Ġchapter": 5449,
      "Ġfirm": 5450,
      "ĠAnother": 5451,
      "Ġfell": 5452,
      "Ġonto": 5453,
      "Ġtwenty": 5454,
      "Ġhit": 5455,
      "Ġindeed": 5456,
      "Ġdecade": 5457,
      "ĠAD": 5458,
      "inding": 5459,
      "Ġpregnancy": 5460,
      "Ġaccompl": 5461,
      "Ġsatis": 5462,
      "Ġcomfort": 5463,
      "Ind": 5464,
      "Ġbow": 5465,
      "ĠEvery": 5466,
      "enses": 5467,
      "anguage": 5468,
      "Ġdatabase": 5469,
      "Ġseeds": 5470,
      "Ġshared": 5471,
      "Ġfacts": 5472,
      "Ġalg": 5473,
      "Ġtherap": 5474,
      "ĠCamp": 5475,
      "Ġsudden": 5476,
      "ING": 5477,
      "ĠJoseph": 5478,
      "Ġexternal": 5479,
      "ĠDan": 5480,
      "HO": 5481,
      "Ġsin": 5482,
      "Ġliver": 5483,
      "Ġcalls": 5484,
      "ogue": 5485,
      "Ġnotice": 5486,
      "ĠClass": 5487,
      "Ġmath": 5488,
      "ache": 5489,
      "Ġhappened": 5490,
      "Ġanx": 5491,
      "].": 5492,
      "down": 5493,
      "asure": 5494,
      "Ġwildlife": 5495,
      "body": 5496,
      "ĠStreet": 5497,
      "During": 5498,
      "Ġreject": 5499,
      "Ġwalls": 5500,
      "Ġvisible": 5501,
      "Ġprocedures": 5502,
      "under": 5503,
      "ĠFurther": 5504,
      "Ġgoods": 5505,
      "Ġleaving": 5506,
      "gment": 5507,
      "EP": 5508,
      "Ġmyth": 5509,
      "ĠTimes": 5510,
      "Ġflat": 5511,
      "roid": 5512,
      "Ġhelping": 5513,
      "Ġfrag": 5514,
      "hist": 5515,
      "Ġadopted": 5516,
      "Ġdial": 5517,
      "resents": 5518,
      "Ġspl": 5519,
      "Ġforests": 5520,
      "Im": 5521,
      "riculum": 5522,
      "ny": 5523,
      "rison": 5524,
      "Ġcolleagues": 5525,
      "Ġimpossible": 5526,
      "ĠRussian": 5527,
      "aud": 5528,
      "ective": 5529,
      "Ġcharacters": 5530,
      "ĠTem": 5531,
      "Ġroll": 5532,
      "Ġthousand": 5533,
      "onic": 5534,
      "Ġsector": 5535,
      "Ġentirely": 5536,
      "ĠST": 5537,
      "iated": 5538,
      "Ġlaboratory": 5539,
      "stream": 5540,
      "Ġgrown": 5541,
      "Ġpaint": 5542,
      "ĠProfessor": 5543,
      "Ġderived": 5544,
      "Ġprincip": 5545,
      "gent": 5546,
      "Ġaccomp": 5547,
      "Ġnit": 5548,
      "Ġconsequences": 5549,
      "ĠLand": 5550,
      "Ġsyndrome": 5551,
      "ĠStudies": 5552,
      "othe": 5553,
      "Ġneut": 5554,
      "earchers": 5555,
      "Ġprotected": 5556,
      "Ġpure": 5557,
      "Ġpip": 5558,
      "ĠRichard": 5559,
      "Ġcommit": 5560,
      "exp": 5561,
      "last": 5562,
      "Ġequival": 5563,
      "Ġcrisis": 5564,
      "Ġmaximum": 5565,
      "Ġexcellent": 5566,
      "Ġdim": 5567,
      "ĠNations": 5568,
      "Ġadequ": 5569,
      "ĠBC": 5570,
      "Ġmuseum": 5571,
      "Ġju": 5572,
      "luding": 5573,
      "amil": 5574,
      "icks": 5575,
      "ĠBro": 5576,
      "hi": 5577,
      "Se": 5578,
      "Ġappearance": 5579,
      "Ġkn": 5580,
      "ĠRevolution": 5581,
      "Ġdoubt": 5582,
      "Ġsuc": 5583,
      "ĠLeg": 5584,
      "Ġadministration": 5585,
      "ini": 5586,
      "alse": 5587,
      "but": 5588,
      "Ġcircumst": 5589,
      "Ġvote": 5590,
      "Ġexpressed": 5591,
      "Ġfeeling": 5592,
      "Ġutil": 5593,
      "inction": 5594,
      "Ġsubs": 5595,
      "Ġplat": 5596,
      "Ġawareness": 5597,
      "ĠAcademy": 5598,
      "Ġraise": 5599,
      "Ġpotentially": 5600,
      "Ġopinion": 5601,
      "á¸": 5602,
      "Ġsick": 5603,
      "Ġfaster": 5604,
      "Ġsets": 5605,
      "Ġintellect": 5606,
      "Ġcareer": 5607,
      "Ġ1960": 5608,
      "Ġvillage": 5609,
      "ses": 5610,
      "inn": 5611,
      "ĠDisc": 5612,
      "ĠRad": 5613,
      "RC": 5614,
      "Pl": 5615,
      "heast": 5616,
      "Ġcardi": 5617,
      "ĠMill": 5618,
      "inity": 5619,
      "Ġabsolute": 5620,
      "reci": 5621,
      "Ġclosed": 5622,
      "Ġmanage": 5623,
      "Ġremaining": 5624,
      "01": 5625,
      "Ġcapable": 5626,
      "Ġunknown": 5627,
      "ĠColumbia": 5628,
      "Ġmassive": 5629,
      "Ġspiritual": 5630,
      "mic": 5631,
      "alian": 5632,
      "Ġextensive": 5633,
      "ĠValley": 5634,
      "Ġformal": 5635,
      "ĠCancer": 5636,
      "wo": 5637,
      "Ġgender": 5638,
      "Ġlisted": 5639,
      "Our": 5640,
      "Ġinfected": 5641,
      "aturally": 5642,
      "no": 5643,
      "ĠPub": 5644,
      "Ġpoet": 5645,
      "Here": 5646,
      "Ġorganisms": 5647,
      "Ġcritic": 5648,
      "Ġprecise": 5649,
      "Ġminimum": 5650,
      "Ġpossibly": 5651,
      "zy": 5652,
      "Ġvulner": 5653,
      "Ġcorpor": 5654,
      "ercury": 5655,
      "99": 5656,
      "Ġideal": 5657,
      "Ġtiny": 5658,
      "olf": 5659,
      "Ġmedications": 5660,
      "Ġeastern": 5661,
      "Ġpig": 5662,
      "agers": 5663,
      "Ġstret": 5664,
      "uses": 5665,
      "Ġagriculture": 5666,
      "Ġidentity": 5667,
      "Ġaccurate": 5668,
      "Ġvoice": 5669,
      "Ġlesson": 5670,
      "Ġsolutions": 5671,
      "ĠBet": 5672,
      "ĠBank": 5673,
      "Ġdiscrim": 5674,
      "Ġpossibility": 5675,
      "Ġgreatly": 5676,
      "pan": 5677,
      "ĠOh": 5678,
      "Ġrepresents": 5679,
      "ĠYet": 5680,
      "Ġsky": 5681,
      "Ġintroduction": 5682,
      "Ġarrived": 5683,
      "pass": 5684,
      "such": 5685,
      "Ġextended": 5686,
      "Ġelection": 5687,
      "Ġhorse": 5688,
      "Ġsounds": 5689,
      "ĠAbout": 5690,
      "Ġaf": 5691,
      "Ġnine": 5692,
      "Ġorganized": 5693,
      "Ġmarine": 5694,
      "ĠProv": 5695,
      "irty": 5696,
      "Ġcontribute": 5697,
      "Ġwave": 5698,
      "Ġod": 5699,
      "Ġrepresented": 5700,
      "ĠTor": 5701,
      "ansion": 5702,
      "encing": 5703,
      "Ġassistance": 5704,
      "Ġrefers": 5705,
      "Ġnormally": 5706,
      "Ġlose": 5707,
      "iform": 5708,
      "Ġvalid": 5709,
      "'m": 5710,
      "long": 5711,
      "Ġlik": 5712,
      "Ġexperiments": 5713,
      "ih": 5714,
      "Ġhus": 5715,
      "ĠIII": 5716,
      "Ġdust": 5717,
      "Ġscholars": 5718,
      "Ġfossil": 5719,
      "ĠMad": 5720,
      "Ġexchange": 5721,
      "Ġinsp": 5722,
      "Ġsan": 5723,
      "ĠHall": 5724,
      "Ġplate": 5725,
      "Ġrepeated": 5726,
      "Ġfib": 5727,
      "ĠCommon": 5728,
      "Ġfluid": 5729,
      "inger": 5730,
      "rovers": 5731,
      "ĠIndians": 5732,
      "ĠOnly": 5733,
      "cher": 5734,
      "Ġabuse": 5735,
      "Ġelectronic": 5736,
      "Ġ300": 5737,
      "55": 5738,
      "Ġissued": 5739,
      "Ġmarked": 5740,
      "tic": 5741,
      "Ġspend": 5742,
      "throp": 5743,
      "âĢĿ,": 5744,
      "Ġmur": 5745,
      "ki": 5746,
      "Ġdescription": 5747,
      "isters": 5748,
      "Ġworldwide": 5749,
      "ĠOut": 5750,
      "athy": 5751,
      "umin": 5752,
      "Ġdiam": 5753,
      "Ġdestroyed": 5754,
      "idden": 5755,
      "Ġdaughter": 5756,
      "Ġtrain": 5757,
      "Ġdiscussed": 5758,
      "ĠManagement": 5759,
      "Ġcontained": 5760,
      "Ġexpensive": 5761,
      "Ġpictures": 5762,
      "Ġmagnetic": 5763,
      "Ġnetworks": 5764,
      "Ġlaun": 5765,
      "uilding": 5766,
      "Ġkeeping": 5767,
      "ĠIN": 5768,
      "Ġphotograph": 5769,
      "Ġdescribes": 5770,
      "Ġfounded": 5771,
      "Ġimper": 5772,
      "cyclopedia": 5773,
      "Ġ500": 5774,
      "ca": 5775,
      "free": 5776,
      "asp": 5777,
      "79": 5778,
      "orrow": 5779,
      "ola": 5780,
      "ĠNorthern": 5781,
      "ework": 5782,
      "Ġobservations": 5783,
      "ĠAtlantic": 5784,
      "Figure": 5785,
      "ĠStat": 5786,
      "Ġsimpl": 5787,
      "ĠGal": 5788,
      "Ġrestrict": 5789,
      "ĠInstead": 5790,
      "Ġcomprehensive": 5791,
      "ĠEnd": 5792,
      "Ġunlike": 5793,
      "Ġcert": 5794,
      "Ġdepends": 5795,
      "Ġimpacts": 5796,
      "ĠHeb": 5797,
      "itan": 5798,
      "Ġera": 5799,
      "Ġlimits": 5800,
      "ĠMichael": 5801,
      "ĠBrown": 5802,
      "Ġbrown": 5803,
      "Ġsurvival": 5804,
      "EM": 5805,
      "Ġimmun": 5806,
      "Ġreform": 5807,
      "Ġdeliver": 5808,
      "Ġmix": 5809,
      "Ġcomputers": 5810,
      "Ġflex": 5811,
      "Ġoccasion": 5812,
      "Ġax": 5813,
      "Ġtrials": 5814,
      "opyright": 5815,
      "Ġcounty": 5816,
      "level": 5817,
      "iah": 5818,
      "stein": 5819,
      "organ": 5820,
      "Ġdepos": 5821,
      "Ġmarried": 5822,
      "ĠClin": 5823,
      "Re": 5824,
      "ĠLike": 5825,
      "eer": 5826,
      "TS": 5827,
      "rine": 5828,
      "Ġtrad": 5829,
      "Ġsupplies": 5830,
      "IL": 5831,
      "Ġparties": 5832,
      "Ġperspective": 5833,
      "Ġsod": 5834,
      "icians": 5835,
      "Ġrevealed": 5836,
      "Ġestimates": 5837,
      "ĠSupp": 5838,
      "esity": 5839,
      "ureau": 5840,
      "Why": 5841,
      "Ġmovements": 5842,
      "Ġthy": 5843,
      "oln": 5844,
      "rors": 5845,
      "Ġfly": 5846,
      "Ġrein": 5847,
      "Ġguidelines": 5848,
      "Ġble": 5849,
      "ĠSciences": 5850,
      "Ġsecondary": 5851,
      "Ġacceler": 5852,
      "Ġapproaches": 5853,
      "azine": 5854,
      "aph": 5855,
      "ctive": 5856,
      "anta": 5857,
      "Ġrub": 5858,
      "64": 5859,
      "ĠGlobal": 5860,
      "iate": 5861,
      "Ġremark": 5862,
      "Ġpump": 5863,
      "orter": 5864,
      "Ġproducing": 5865,
      "Ġshot": 5866,
      "Ġunderstood": 5867,
      "Ġdebate": 5868,
      "Ã³": 5869,
      "hemical": 5870,
      "ĠLab": 5871,
      "ĠBoard": 5872,
      "My": 5873,
      "osc": 5874,
      "Ġflowers": 5875,
      "Another": 5876,
      "UN": 5877,
      "Ġconcentration": 5878,
      "mas": 5879,
      "indu": 5880,
      "ĠLu": 5881,
      "Ġaffects": 5882,
      "Ġagreement": 5883,
      "called": 5884,
      "Ġ1994": 5885,
      "Ġacts": 5886,
      "ĠIran": 5887,
      "Ġpra": 5888,
      "example": 5889,
      "rob": 5890,
      "ĠGold": 5891,
      "ena": 5892,
      "urb": 5893,
      "prise": 5894,
      "Ġlegisl": 5895,
      "Ġdiscipl": 5896,
      "Ġtells": 5897,
      "Ġmolecules": 5898,
      "quar": 5899,
      "elled": 5900,
      "Ġcouple": 5901,
      "hand": 5902,
      "reland": 5903,
      "Ġprem": 5904,
      "ĠAgricult": 5905,
      "rastructure": 5906,
      "Ġapart": 5907,
      "inations": 5908,
      "Ġinvestment": 5909,
      "Ġpush": 5910,
      "Ġvaluable": 5911,
      "88": 5912,
      "Ġtopics": 5913,
      "Ġrecognize": 5914,
      "Ġlabel": 5915,
      "ĠSecret": 5916,
      "ĠMS": 5917,
      "ĠAustralian": 5918,
      "74": 5919,
      "ye": 5920,
      "ĠStudy": 5921,
      "comm": 5922,
      "ario": 5923,
      "Ġdiox": 5924,
      "pre": 5925,
      "ycl": 5926,
      "ocracy": 5927,
      "Ġtow": 5928,
      "Ġsurf": 5929,
      "Ġformat": 5930,
      "ĠColor": 5931,
      "ĠUsing": 5932,
      "Ġtwice": 5933,
      "Ġlegislation": 5934,
      "Ġaren": 5935,
      "ĠDisease": 5936,
      "olve": 5937,
      "ĠRoyal": 5938,
      "Ġreplaced": 5939,
      "Ġattached": 5940,
      "Ġneither": 5941,
      "ĠKh": 5942,
      "Ġobtain": 5943,
      "Ġcomments": 5944,
      "Ġachieved": 5945,
      "Ġinstitution": 5946,
      "Ġsituations": 5947,
      "Ġenemy": 5948,
      "Ġwire": 5949,
      "Ġworse": 5950,
      "ĠThose": 5951,
      "umes": 5952,
      "Ġtun": 5953,
      "Ġopening": 5954,
      "ĠPower": 5955,
      "ĠEmpire": 5956,
      "cium": 5957,
      "ĠParis": 5958,
      "awn": 5959,
      "teen": 5960,
      "Ġadministr": 5961,
      "Ġvehicle": 5962,
      "05": 5963,
      "ĠWood": 5964,
      "oster": 5965,
      "Ġerror": 5966,
      "oral": 5967,
      "Ġforth": 5968,
      "hips": 5969,
      "Ġinject": 5970,
      "Ġsubstance": 5971,
      "ĠAdministration": 5972,
      "Ġaw": 5973,
      "ĠVict": 5974,
      "obe": 5975,
      "Ġslowly": 5976,
      "Ġleadership": 5977,
      "Ġmoist": 5978,
      "kes": 5979,
      "Ġamb": 5980,
      "ĠExpl": 5981,
      "Ġcoastal": 5982,
      "Ġdecrease": 5983,
      "ĠCap": 5984,
      "ĠLib": 5985,
      "Ġphr": 5986,
      "Ġgrav": 5987,
      "Ġimmediate": 5988,
      "imental": 5989,
      "Ġjustice": 5990,
      "Ġroof": 5991,
      "Ġbudget": 5992,
      "aska": 5993,
      "Ġsequence": 5994,
      "ĠEastern": 5995,
      "?\"": 5996,
      "Ġagreed": 5997,
      "ĠChicago": 5998,
      "Ġadding": 5999,
      "Ġbroken": 6000,
      "Ġfu": 6001,
      "Ġlov": 6002,
      "Ġsupplement": 6003,
      "ancing": 6004,
      "Ġbear": 6005,
      "Ġunus": 6006,
      "Ġdefic": 6007,
      "Ġfruits": 6008,
      "Ġwid": 6009,
      "usal": 6010,
      "aine": 6011,
      "Ġtraffic": 6012,
      "Ġlaunch": 6013,
      "Te": 6014,
      "ulin": 6015,
      "elesc": 6016,
      "ĠHaw": 6017,
      "Ġchain": 6018,
      "ulty": 6019,
      "Ġfilled": 6020,
      "phone": 6021,
      "Ġdin": 6022,
      "ĠAgency": 6023,
      "everal": 6024,
      "Ġcart": 6025,
      "Cont": 6026,
      "Ġspok": 6027,
      "cription": 6028,
      "Ġblog": 6029,
      "CD": 6030,
      "Ġwindow": 6031,
      "incoln": 6032,
      "Ġmaps": 6033,
      "Ġchart": 6034,
      "Ġaer": 6035,
      "Ġfract": 6036,
      "Ġstored": 6037,
      "Ġborder": 6038,
      "Ġedge": 6039,
      "Ġphone": 6040,
      "press": 6041,
      "iral": 6042,
      "Ġhoriz": 6043,
      "aria": 6044,
      "Ġremote": 6045,
      "Ġdefe": 6046,
      "Ġterritory": 6047,
      "Ġelected": 6048,
      "Ġcup": 6049,
      "Ġsucceed": 6050,
      "Ġships": 6051,
      "Ġallerg": 6052,
      "Ġnone": 6053,
      "ĠProp": 6054,
      "andon": 6055,
      "Ġbones": 6056,
      "Ġexists": 6057,
      "Ġplaying": 6058,
      "ĠIreland": 6059,
      "Ġmotiv": 6060,
      "bran": 6061,
      "ester": 6062,
      "eline": 6063,
      "Ġmuscles": 6064,
      "Ġdiversity": 6065,
      "ĠHoly": 6066,
      "Ġfewer": 6067,
      "bur": 6068,
      "ato": 6069,
      "ĠGeorg": 6070,
      "omach": 6071,
      "iana": 6072,
      "Ġparalle": 6073,
      "Ġinflamm": 6074,
      "Ġshut": 6075,
      "Ġentry": 6076,
      "ML": 6077,
      "hma": 6078,
      "ĠId": 6079,
      "77": 6080,
      "Ġprohib": 6081,
      "sey": 6082,
      "Ġdeclared": 6083,
      "Ġinstruments": 6084,
      "Ġpretty": 6085,
      "Ġcrim": 6086,
      "Ġphilosophy": 6087,
      "Ġdepartment": 6088,
      "Ġrequest": 6089,
      "Ġnecessarily": 6090,
      "Ġvessels": 6091,
      "Dr": 6092,
      "Ġing": 6093,
      "Ġ36": 6094,
      "Ġsensitive": 6095,
      "heric": 6096,
      "ĠMartin": 6097,
      "irds": 6098,
      "agon": 6099,
      "Ġintake": 6100,
      "ka": 6101,
      "ĠAS": 6102,
      "anda": 6103,
      "Ġabund": 6104,
      "ifies": 6105,
      "Ġjoined": 6106,
      "Ġtail": 6107,
      "Since": 6108,
      "itudes": 6109,
      "tenance": 6110,
      "Ġemotional": 6111,
      "eenth": 6112,
      "Ġyield": 6113,
      "BS": 6114,
      "ĠMag": 6115,
      "Ġrecovery": 6116,
      "Ġgenerated": 6117,
      "ĠGoogle": 6118,
      "ĠSol": 6119,
      "oston": 6120,
      "Ġsell": 6121,
      "ĠGuide": 6122,
      "Ġcontrovers": 6123,
      "ifications": 6124,
      "Ġsmoke": 6125,
      "Ġproduces": 6126,
      "ĠResources": 6127,
      "42": 6128,
      "ĠLong": 6129,
      "ĠOF": 6130,
      "Ġschem": 6131,
      "ĠUSA": 6132,
      "Ġassign": 6133,
      "Ġsuffering": 6134,
      "Ġelectron": 6135,
      "Ġhelpful": 6136,
      "Ġmechanism": 6137,
      "Ġwaves": 6138,
      "Ġequivalent": 6139,
      "rd": 6140,
      "ta": 6141,
      "mary": 6142,
      "Ġsomewhat": 6143,
      "Ġdelay": 6144,
      "atal": 6145,
      "Ġmanaged": 6146,
      "ĠRock": 6147,
      "ooth": 6148,
      "Ġtalking": 6149,
      "43": 6150,
      "Ġdioxide": 6151,
      "Ġconstit": 6152,
      "Ġgrew": 6153,
      "Ġpermanent": 6154,
      "Ġresolution": 6155,
      "IA": 6156,
      "acts": 6157,
      "Ġresulted": 6158,
      "CS": 6159,
      "Ġran": 6160,
      "Ġcircumstances": 6161,
      "Ġindicates": 6162,
      "Ġwitness": 6163,
      "Ġnaturally": 6164,
      "Ġgather": 6165,
      "ĠTHE": 6166,
      "Ġfold": 6167,
      "Ġcomposition": 6168,
      "Ġrivers": 6169,
      "ĠForest": 6170,
      "ĠAtt": 6171,
      "Ġseeing": 6172,
      "Ã¼": 6173,
      "Ġsight": 6174,
      "Ġhem": 6175,
      "Ġgalax": 6176,
      "Ġfighting": 6177,
      "Ġvolcan": 6178,
      "ĠServices": 6179,
      "Ġimplementation": 6180,
      "Ġwel": 6181,
      "lets": 6182,
      "Ġmetab": 6183,
      "ediatric": 6184,
      "igenous": 6185,
      "86": 6186,
      "ĠBr": 6187,
      "Ġlandscape": 6188,
      "ĠGood": 6189,
      "%)": 6190,
      "Ġmobile": 6191,
      "Us": 6192,
      "ĠPage": 6193,
      "ĠLearning": 6194,
      "upp": 6195,
      "Ġemployed": 6196,
      "ĠConst": 6197,
      "Ġannounced": 6198,
      "ascular": 6199,
      "pread": 6200,
      "ĠSup": 6201,
      "Ġtoler": 6202,
      "ĠStep": 6203,
      "Ġcars": 6204,
      "Do": 6205,
      "Ġdollars": 6206,
      "85": 6207,
      "Ġconsistent": 6208,
      "Ġphysics": 6209,
      "Ġarrest": 6210,
      "ĠHebrew": 6211,
      "Ġhero": 6212,
      "ĠNaz": 6213,
      "Ġinvent": 6214,
      "Ġsurvive": 6215,
      "Ġstudying": 6216,
      "idespread": 6217,
      "Ġdoor": 6218,
      "Ġdriving": 6219,
      "Ġsignals": 6220,
      "Stud": 6221,
      "Ġtouch": 6222,
      "ĠCast": 6223,
      "ificial": 6224,
      "ĠAny": 6225,
      "Ġspeaking": 6226,
      "DP": 6227,
      "Note": 6228,
      "ugh": 6229,
      "Ġnutrients": 6230,
      "Ġarchitecture": 6231,
      "Ġmit": 6232,
      "ĠViet": 6233,
      "Ġopposite": 6234,
      "ĠForce": 6235,
      "Ġpref": 6236,
      "ĠHome": 6237,
      "ĠClimate": 6238,
      "Ġcatch": 6239,
      "ishop": 6240,
      "Ġ32": 6241,
      "Ġsuffer": 6242,
      "Ġtransmission": 6243,
      "Ġtal": 6244,
      "Ġappreci": 6245,
      "Ġcognitive": 6246,
      "Ġanswers": 6247,
      "ĠData": 6248,
      "Ġroots": 6249,
      "ĠEarly": 6250,
      "Ġextract": 6251,
      "ĠSpain": 6252,
      "osion": 6253,
      "Ġentered": 6254,
      "inder": 6255,
      "ĠTop": 6256,
      "ibilities": 6257,
      "Ġmedium": 6258,
      "flow": 6259,
      "Ġnurs": 6260,
      "Ġarter": 6261,
      "Ġrising": 6262,
      "Ġhistoric": 6263,
      "Ġlocations": 6264,
      "Ġdifficulty": 6265,
      "Ġgone": 6266,
      "ailed": 6267,
      "tra": 6268,
      "ĠAccess": 6269,
      "Ġsatellite": 6270,
      "Ġconventional": 6271,
      "Ġabandon": 6272,
      "Ġfertil": 6273,
      "CT": 6274,
      "utch": 6275,
      "'d": 6276,
      "Ġbio": 6277,
      "Ġpassage": 6278,
      "ĠFree": 6279,
      "Ġdecide": 6280,
      "vard": 6281,
      "Ġstages": 6282,
      "Ġaccounts": 6283,
      "ucky": 6284,
      "angered": 6285,
      "Ġsuccessfully": 6286,
      "Ġearthqu": 6287,
      "Last": 6288,
      "pet": 6289,
      "ĠThrough": 6290,
      "Ġedition": 6291,
      "ĠDivision": 6292,
      "Ġrid": 6293,
      "Ġgreenhouse": 6294,
      "Ġblow": 6295,
      "Ġcarefully": 6296,
      "ĠCult": 6297,
      "Ġfoundation": 6298,
      "Ġserver": 6299,
      "erior": 6300,
      "Ġ1992": 6301,
      "een": 6302,
      "rat": 6303,
      "ĠRob": 6304,
      "Ġlect": 6305,
      "Ġswitch": 6306,
      "ĠFour": 6307,
      "ĠBre": 6308,
      "Ġpublication": 6309,
      "Ġphotos": 6310,
      "Ġ1993": 6311,
      "ĠDistrict": 6312,
      "Â·": 6313,
      "Ġpowers": 6314,
      "Ġcos": 6315,
      "osph": 6316,
      "vironments": 6317,
      "ita": 6318,
      "Ġchildhood": 6319,
      "gu": 6320,
      "Ġtasks": 6321,
      "Ġuniversity": 6322,
      ".'": 6323,
      "Ġfixed": 6324,
      "Ġfacilit": 6325,
      "En": 6326,
      "Ġstreet": 6327,
      "Ġgenerate": 6328,
      "ĠPop": 6329,
      "ĠParty": 6330,
      "Ġintelligence": 6331,
      "Ġalle": 6332,
      "ĠExt": 6333,
      "comes": 6334,
      "Ġdomin": 6335,
      "Ġtransportation": 6336,
      "yal": 6337,
      "ĠÐ": 6338,
      "Ġregist": 6339,
      "Ġlies": 6340,
      "while": 6341,
      "Ġwish": 6342,
      "Ġemployment": 6343,
      "Ġinsects": 6344,
      "Ġends": 6345,
      "Ġoutl": 6346,
      "Ġcenters": 6347,
      "Ġbomb": 6348,
      "ĠAst": 6349,
      "Ġdiverse": 6350,
      "Ġzone": 6351,
      "Ġindependence": 6352,
      "produ": 6353,
      "zed": 6354,
      "Ġpercentage": 6355,
      "Ġcamera": 6356,
      "wing": 6357,
      "Ġpromin": 6358,
      "Ġlaunched": 6359,
      "Ġuns": 6360,
      "Ġcommission": 6361,
      "inking": 6362,
      "Ġdestruction": 6363,
      "Ġcontamin": 6364,
      "Ġestimate": 6365,
      "rary": 6366,
      "Ġfill": 6367,
      "Ġsigned": 6368,
      "Ġbiology": 6369,
      "Ġpolitics": 6370,
      "Ġvital": 6371,
      "Ġbag": 6372,
      "Ġmedic": 6373,
      "Ġmedication": 6374,
      "Ġattend": 6375,
      "Ġplatform": 6376,
      "Ġunable": 6377,
      "Ġaccum": 6378,
      "Ġdrawn": 6379,
      "Ġdiagnosed": 6380,
      "CL": 6381,
      "Ġnearby": 6382,
      "stone": 6383,
      "Ġseemed": 6384,
      "car": 6385,
      "icide": 6386,
      "Ġrocks": 6387,
      "ua": 6388,
      "Ġepidem": 6389,
      "igan": 6390,
      "Ġcurriculum": 6391,
      "orses": 6392,
      "Ġprepare": 6393,
      "89": 6394,
      "Ġchrom": 6395,
      "Ġdivision": 6396,
      "hop": 6397,
      "Ġinfrastructure": 6398,
      "Ġapproved": 6399,
      "Ġpoison": 6400,
      "Ġsupposed": 6401,
      "Ġmand": 6402,
      "oir": 6403,
      "Ġminim": 6404,
      "Ġknows": 6405,
      "Ġcong": 6406,
      "Ġweapons": 6407,
      "Ġwhatever": 6408,
      "ĠItaly": 6409,
      "Ġethnic": 6410,
      "fish": 6411,
      "71": 6412,
      "Ġprove": 6413,
      "Ġtruly": 6414,
      "Ġhypothes": 6415,
      "Ġantibiot": 6416,
      "ighter": 6417,
      "Ġregulations": 6418,
      "73": 6419,
      "Ġdepart": 6420,
      "athe": 6421,
      "ĠCare": 6422,
      "Ġcrew": 6423,
      "venue": 6424,
      "Ġ150": 6425,
      "dis": 6426,
      "ocation": 6427,
      "Ġintellectual": 6428,
      "Ġstroke": 6429,
      "ĠGard": 6430,
      "Ġdemonstrated": 6431,
      "ĠScott": 6432,
      "ĠLincoln": 6433,
      "Ġtips": 6434,
      "Ġsmoking": 6435,
      "tts": 6436,
      "ĠKnow": 6437,
      "Ġhusband": 6438,
      "ceived": 6439,
      "Ġstomach": 6440,
      "ĠDu": 6441,
      "Ġreaders": 6442,
      "Ġyounger": 6443,
      "ashion": 6444,
      "rot": 6445,
      "adel": 6446,
      "achuse": 6447,
      "alysis": 6448,
      "arant": 6449,
      "Ġsecure": 6450,
      "Ġultimately": 6451,
      "Ġacres": 6452,
      "UR": 6453,
      "Ġchosen": 6454,
      "ĠGree": 6455,
      "abled": 6456,
      "Ġinjuries": 6457,
      "Ġenhance": 6458,
      "eor": 6459,
      "ĠFe": 6460,
      "Ġcomparison": 6461,
      "isted": 6462,
      "Ġfalse": 6463,
      "Ġsharing": 6464,
      "Ġmerely": 6465,
      "Ġpull": 6466,
      "Ġstands": 6467,
      "Ġmechanisms": 6468,
      "Ġpounds": 6469,
      "Ġthor": 6470,
      "itter": 6471,
      "Ġhop": 6472,
      "Ġslaves": 6473,
      "Ġregularly": 6474,
      "ĠVis": 6475,
      "Ġ75": 6476,
      "earing": 6477,
      "top": 6478,
      "ora": 6479,
      "ditional": 6480,
      "IP": 6481,
      "OL": 6482,
      "achusetts": 6483,
      "erals": 6484,
      "Ġroute": 6485,
      "Ġcloser": 6486,
      "Ġcolumn": 6487,
      "Ġpregnant": 6488,
      "May": 6489,
      "Ġleaf": 6490,
      "liest": 6491,
      "?âĢĿ": 6492,
      "Can": 6493,
      "72": 6494,
      "sen": 6495,
      "Ġclust": 6496,
      "Ġparam": 6497,
      "Ġconscious": 6498,
      "ĠPrince": 6499,
      "cribed": 6500,
      "Ġinfant": 6501,
      "Ġsupports": 6502,
      "zil": 6503,
      "ymph": 6504,
      "Ġarrange": 6505,
      "Ġended": 6506,
      "scale": 6507,
      "Ġfeeding": 6508,
      "Ġexplanation": 6509,
      "ĠHill": 6510,
      "Ġroutine": 6511,
      "41": 6512,
      "Ġcolors": 6513,
      "then": 6514,
      "Ġdream": 6515,
      "Ġstick": 6516,
      "eers": 6517,
      "Ġwidespread": 6518,
      "Ġmild": 6519,
      "Ġdoi": 6520,
      "Ġsole": 6521,
      "Ġmanufacturing": 6522,
      "ĠDou": 6523,
      "ĠOxford": 6524,
      "ĠJeff": 6525,
      "Ġmathematics": 6526,
      "Ġpositions": 6527,
      "Ġruns": 6528,
      "Ġproved": 6529,
      "66": 6530,
      "Ġdensity": 6531,
      "ella": 6532,
      "lvan": 6533,
      "Ġmice": 6534,
      "Ġimproving": 6535,
      "Ġinhib": 6536,
      "Ġrecip": 6537,
      "Ġconstructed": 6538,
      "Ġeld": 6539,
      "Ġnegot": 6540,
      "stract": 6541,
      "Ġsections": 6542,
      "Ġorient": 6543,
      "ĠBoston": 6544,
      "Ġexpansion": 6545,
      "uter": 6546,
      "Ġfever": 6547,
      "Ġtons": 6548,
      "Ġrelation": 6549,
      "acing": 6550,
      "ints": 6551,
      "Ġinvolving": 6552,
      "Ġrecognition": 6553,
      "asive": 6554,
      "Ġov": 6555,
      "aser": 6556,
      "Ġcalcium": 6557,
      "html": 6558,
      "02": 6559,
      "Ġacknow": 6560,
      "Ġratio": 6561,
      "ults": 6562,
      "Ġvehicles": 6563,
      "Ġstre": 6564,
      "Ġmatters": 6565,
      "ivery": 6566,
      "Ġlessons": 6567,
      "Ġtransition": 6568,
      "ĠDirector": 6569,
      "ĠOhio": 6570,
      "ĠNative": 6571,
      "cul": 6572,
      "ima": 6573,
      "Ġcultiv": 6574,
      "Ġemployees": 6575,
      "sylvan": 6576,
      "Ġfunds": 6577,
      "Ġobst": 6578,
      "Ã¶": 6579,
      "asters": 6580,
      "Ġmixed": 6581,
      "ĠSat": 6582,
      "ĠBill": 6583,
      "Ġveter": 6584,
      "ĠExper": 6585,
      "Ġrefuge": 6586,
      "Ġaward": 6587,
      "Ġabnormal": 6588,
      "apse": 6589,
      "ĠScot": 6590,
      "Ġorbit": 6591,
      "ounded": 6592,
      "ĠDet": 6593,
      "Ġagents": 6594,
      "Ġscan": 6595,
      "Ġ65": 6596,
      "Ġhonor": 6597,
      "Ġ1950": 6598,
      "Ġ(\"": 6599,
      "weight": 6600,
      "Ġexamine": 6601,
      "06": 6602,
      "Ġneur": 6603,
      "RA": 6604,
      "ĠCre": 6605,
      "Ġprev": 6606,
      "Ġfeelings": 6607,
      "Ġcm": 6608,
      "ĠFamily": 6609,
      "ĠConn": 6610,
      "ĠKingdom": 6611,
      "Ġprincipal": 6612,
      "ano": 6613,
      "Int": 6614,
      "ĠEth": 6615,
      "gans": 6616,
      "irt": 6617,
      "Ġcloud": 6618,
      "issipp": 6619,
      "Ġchoices": 6620,
      "olester": 6621,
      "etics": 6622,
      "Ġcreative": 6623,
      "Ġille": 6624,
      "antly": 6625,
      "ployment": 6626,
      "Ġjoin": 6627,
      "erent": 6628,
      "Rec": 6629,
      "bour": 6630,
      "Ġdedicated": 6631,
      "Qu": 6632,
      "ude": 6633,
      "Ġundert": 6634,
      "Ġflo": 6635,
      "Ġcapture": 6636,
      "Ġanxiety": 6637,
      "Ġhydrogen": 6638,
      "cons": 6639,
      "Ġstanding": 6640,
      "power": 6641,
      "Ġdesire": 6642,
      "Ġproportion": 6643,
      "Ġsteel": 6644,
      "Ġ1991": 6645,
      "Ġsentence": 6646,
      "Ġinner": 6647,
      "Ġregul": 6648,
      "ĠItalian": 6649,
      "Ġadequate": 6650,
      "uing": 6651,
      "ĠEff": 6652,
      "isco": 6653,
      "itative": 6654,
      "Ġsought": 6655,
      "Ġenvironments": 6656,
      "ĠEncyclopedia": 6657,
      "IG": 6658,
      "Med": 6659,
      "Ġprotocol": 6660,
      "ĠPalest": 6661,
      "ĠLaboratory": 6662,
      "Pe": 6663,
      "Ġspending": 6664,
      "ĠMassachusetts": 6665,
      "ĠSupreme": 6666,
      "08": 6667,
      "Of": 6668,
      "Ġboys": 6669,
      "how": 6670,
      "Ġsubm": 6671,
      "Ġmeters": 6672,
      "AA": 6673,
      "urrent": 6674,
      "ĠMer": 6675,
      "ĠEp": 6676,
      "ĠAP": 6677,
      "Ġmaintenance": 6678,
      "Ġafford": 6679,
      "Ġfourth": 6680,
      "Ġoperate": 6681,
      "04": 6682,
      "Ġbread": 6683,
      "Ġclaimed": 6684,
      "ĠSpecial": 6685,
      "Ġingred": 6686,
      "ĠIP": 6687,
      "Ġscript": 6688,
      "Ġcourses": 6689,
      "ĠCoast": 6690,
      "',": 6691,
      "Ġhousing": 6692,
      "Ġtumor": 6693,
      "alls": 6694,
      "Ġprompt": 6695,
      "ĠAIDS": 6696,
      "Ġpron": 6697,
      "omer": 6698,
      "operation": 6699,
      "acco": 6700,
      "Ġevaluation": 6701,
      "Ġtelevision": 6702,
      "ĠVer": 6703,
      "olesterol": 6704,
      "rey": 6705,
      "ĠVictor": 6706,
      "03": 6707,
      "Ġtall": 6708,
      "Ġscene": 6709,
      "Ġdesigns": 6710,
      "emia": 6711,
      "Ġoverl": 6712,
      "Ġindicated": 6713,
      "Ġturns": 6714,
      "ypes": 6715,
      "Ġscientist": 6716,
      "ĠPolic": 6717,
      "Ġstring": 6718,
      "Ġcontrols": 6719,
      "Ġincl": 6720,
      "teb": 6721,
      "ĠAngel": 6722,
      "Ġsweet": 6723,
      "Ġconsiderable": 6724,
      "09": 6725,
      "eper": 6726,
      "anc": 6727,
      "ĠDen": 6728,
      "Ġshift": 6729,
      "Bl": 6730,
      "Ġbanks": 6731,
      "Ġfacility": 6732,
      "Ġlayers": 6733,
      "Ġsurve": 6734,
      "Ġrank": 6735,
      "Ġcomposed": 6736,
      "Ġpreval": 6737,
      "Ġbabies": 6738,
      "Ġkidney": 6739,
      "abric": 6740,
      "Ġeditor": 6741,
      "otion": 6742,
      "she": 6743,
      "Ġwants": 6744,
      "Ġplus": 6745,
      "ĠNov": 6746,
      "Ġnerve": 6747,
      "xts": 6748,
      "Ġlegs": 6749,
      "Ġopposed": 6750,
      "ĠAmong": 6751,
      "IM": 6752,
      "Ġartists": 6753,
      "sylvania": 6754,
      "orous": 6755,
      "Ġnarr": 6756,
      "ady": 6757,
      "ishment": 6758,
      "Ġintervention": 6759,
      "Ġofficers": 6760,
      "ritis": 6761,
      "erman": 6762,
      "Ġtube": 6763,
      "Ġthoughts": 6764,
      "ĠDesign": 6765,
      "va": 6766,
      "ĠWik": 6767,
      "issippi": 6768,
      "Ġru": 6769,
      "Ġsports": 6770,
      "Ġpair": 6771,
      "Ġconsumers": 6772,
      "Ġburning": 6773,
      "Ġwilling": 6774,
      "Ġholding": 6775,
      "Ġahead": 6776,
      "Ġcards": 6777,
      "Ġsupporting": 6778,
      "Ġparticipate": 6779,
      "Ġcaptured": 6780,
      "SS": 6781,
      "mes": 6782,
      "Ġobesity": 6783,
      "Ġslavery": 6784,
      "Ġstrongly": 6785,
      "Go": 6786,
      "http": 6787,
      "arth": 6788,
      "Ġlin": 6789,
      "Ġhappy": 6790,
      "Ġchest": 6791,
      "Ġparticipation": 6792,
      "Because": 6793,
      "Ġneck": 6794,
      "Ġterror": 6795,
      "Ġdefense": 6796,
      "ĠMinister": 6797,
      "Ġstruggle": 6798,
      "Ġlie": 6799,
      "Ġjourney": 6800,
      "ĠSurvey": 6801,
      "Ġphysician": 6802,
      "bing": 6803,
      "Ġhun": 6804,
      "Ġoral": 6805,
      "Ġappeal": 6806,
      ":||": 6807,
      "Ġnest": 6808,
      "Ġexclus": 6809,
      "Ġenable": 6810,
      "Ġconserv": 6811,
      "erted": 6812,
      "ĠConfed": 6813,
      "ĠAge": 6814,
      "Ġevil": 6815,
      "ading": 6816,
      "Ġchick": 6817,
      "Ġid": 6818,
      "Ġsuitable": 6819,
      "Ġwriter": 6820,
      "Ġinher": 6821,
      "lishing": 6822,
      "Ġtropical": 6823,
      "Ġcompounds": 6824,
      "Ġfrequent": 6825,
      "Ġreader": 6826,
      "Ġsacr": 6827,
      "Ġgenerations": 6828,
      "Ġcombat": 6829,
      "uh": 6830,
      "onia": 6831,
      "Ġpapers": 6832,
      "abits": 6833,
      "occ": 6834,
      "Ġpeak": 6835,
      "Ġautism": 6836,
      "ĠNavy": 6837,
      "uality": 6838,
      "Ġreceiving": 6839,
      "Ġtrip": 6840,
      "ivered": 6841,
      "including": 6842,
      "Ġimprovement": 6843,
      "ĠBab": 6844,
      "Ġunderlying": 6845,
      "Ġlisten": 6846,
      "Ġdownload": 6847,
      "Ġbiggest": 6848,
      "ipping": 6849,
      "ĠWhe": 6850,
      "Ġsolve": 6851,
      "Ġcreates": 6852,
      "Ġexplo": 6853,
      "gs": 6854,
      "ĠMen": 6855,
      "ĠMake": 6856,
      "Ġdisaster": 6857,
      "Ġrarely": 6858,
      "ushed": 6859,
      "Ġmeasurements": 6860,
      "ĠTime": 6861,
      "Ġcutting": 6862,
      "Ġframe": 6863,
      "ĠPlease": 6864,
      "Ġreserved": 6865,
      "Ġmicrosc": 6866,
      "ĠFund": 6867,
      "Ġparallel": 6868,
      "alm": 6869,
      "arn": 6870,
      "eless": 6871,
      "oples": 6872,
      "ĠBig": 6873,
      "Ġaccident": 6874,
      "ette": 6875,
      "Ġnewly": 6876,
      "Ġmodified": 6877,
      "Ġordered": 6878,
      "Ġcompetition": 6879,
      "Ġteen": 6880,
      "uts": 6881,
      "Ġstrict": 6882,
      "ĠLar": 6883,
      "ĠâĢ¦": 6884,
      "Comp": 6885,
      "oven": 6886,
      "Ġtrained": 6887,
      "Ġappointed": 6888,
      "Ġboy": 6889,
      "Ġattempts": 6890,
      "hav": 6891,
      "pd": 6892,
      "Ġvictims": 6893,
      "Ġcrime": 6894,
      "hyth": 6895,
      "ĠSil": 6896,
      "inson": 6897,
      "Ġhandle": 6898,
      "Ġwheat": 6899,
      "Ġassociation": 6900,
      "yc": 6901,
      "Ġpurchase": 6902,
      "Ġinstructions": 6903,
      "ĠSk": 6904,
      "Ġfishing": 6905,
      "la": 6906,
      "\")": 6907,
      "Ġresponses": 6908,
      "Ġbusinesses": 6909,
      "Ġtrouble": 6910,
      "ĠPennsylvania": 6911,
      "Ġmaintained": 6912,
      "Ġdemonstrate": 6913,
      "Ġmales": 6914,
      "Ġwasn": 6915,
      "Ġconqu": 6916,
      "Ġexceed": 6917,
      "ĠKansas": 6918,
      "Ġcultures": 6919,
      "ĠGeorgia": 6920,
      "Ġplanned": 6921,
      "ĠSing": 6922,
      "Ġconference": 6923,
      "esis": 6924,
      "Ġstations": 6925,
      "ĠGulf": 6926,
      "Ġmembran": 6927,
      "Ġreactions": 6928,
      "ĠRom": 6929,
      "herent": 6930,
      "urt": 6931,
      "ĠGrand": 6932,
      "Ġcommitted": 6933,
      "Ġmolecular": 6934,
      "Ġmeth": 6935,
      "ĠWildlife": 6936,
      "fortunately": 6937,
      "Ġtheories": 6938,
      "riers": 6939,
      "Ġhole": 6940,
      "Ġrig": 6941,
      "ĠDarwin": 6942,
      "ĠFather": 6943,
      "Ġinteraction": 6944,
      "Ġsubsequent": 6945,
      "Ġsubstances": 6946,
      "ĠWindows": 6947,
      "ĠChange": 6948,
      "Ġcriteria": 6949,
      "Ġcav": 6950,
      "Ġsilver": 6951,
      "ums": 6952,
      "Ġring": 6953,
      "ĠWho": 6954,
      "Ġdirected": 6955,
      "Ġtheore": 6956,
      "ricts": 6957,
      "Ġbiod": 6958,
      "etary": 6959,
      "Ġrecommendations": 6960,
      "Ġsubstantial": 6961,
      "itals": 6962,
      "ĠAM": 6963,
      "izer": 6964,
      "Ġlaid": 6965,
      "usalem": 6966,
      "illa": 6967,
      "Ġguarant": 6968,
      "Ġcited": 6969,
      "Ġfurn": 6970,
      "Ġislands": 6971,
      "ĠKent": 6972,
      "ĠMississippi": 6973,
      "ĠTre": 6974,
      "aded": 6975,
      "Ġresident": 6976,
      "Ġplanets": 6977,
      "ĠPrevention": 6978,
      "Ġcryst": 6979,
      "peror": 6980,
      "Ġzero": 6981,
      "Over": 6982,
      "ĠList": 6983,
      "Ġplane": 6984,
      "iat": 6985,
      "heimer": 6986,
      "ĠEc": 6987,
      "ĠLin": 6988,
      "Ġcovers": 6989,
      "Ġske": 6990,
      "inally": 6991,
      "Ġsup": 6992,
      "Ġsoul": 6993,
      "ĠSenate": 6994,
      "amination": 6995,
      "ourage": 6996,
      "Ġcontemporary": 6997,
      "word": 6998,
      "ĠTV": 6999,
      "ĠMah": 7000,
      "Ġmanif": 7001,
      "Ġrow": 7002,
      "erty": 7003,
      "IR": 7004,
      "mail": 7005,
      "Ġpreced": 7006,
      "Don": 7007,
      "Ġfro": 7008,
      "Ġdrawing": 7009,
      "Ġbreathing": 7010,
      "plant": 7011,
      "adelph": 7012,
      "Ġpestic": 7013,
      "acher": 7014,
      "Ġmarkets": 7015,
      "ether": 7016,
      "ĠJohnson": 7017,
      "Ġholds": 7018,
      "umps": 7019,
      "Ġconcluded": 7020,
      "sets": 7021,
      "Ġswim": 7022,
      "Ġrecept": 7023,
      "Ġdose": 7024,
      "Ġoutbre": 7025,
      "Ġfairly": 7026,
      "ĠSir": 7027,
      "Ġaudience": 7028,
      "Your": 7029,
      "Ġcrucial": 7030,
      "Ġplays": 7031,
      "Ġphoto": 7032,
      "Ġmanip": 7033,
      "Ġstarts": 7034,
      "Ġuniversal": 7035,
      "Ġcentre": 7036,
      "medi": 7037,
      "Ġoptim": 7038,
      "Ġfasc": 7039,
      "Ġbranch": 7040,
      "Ġprofessionals": 7041,
      "Ġtub": 7042,
      "Ġintegrated": 7043,
      "Or": 7044,
      "akistan": 7045,
      "Ġbutter": 7046,
      "ĠWhere": 7047,
      "ĠEPA": 7048,
      "ĠColorado": 7049,
      "Ġlots": 7050,
      "using": 7051,
      "osh": 7052,
      "ĠLanguage": 7053,
      "inite": 7054,
      "ĠJul": 7055,
      "Ġgranted": 7056,
      "],": 7057,
      "yr": 7058,
      "Ġconven": 7059,
      "Ġarts": 7060,
      "Ġframework": 7061,
      "Not": 7062,
      "iary": 7063,
      "Ġproceed": 7064,
      "ĠAdv": 7065,
      "Ġdanger": 7066,
      "Ġsuperior": 7067,
      "Ġenforce": 7068,
      "Ġdefine": 7069,
      "net": 7070,
      "cel": 7071,
      "Ġbeliefs": 7072,
      "Ġearliest": 7073,
      "Ġdigest": 7074,
      "ani": 7075,
      "69": 7076,
      "Ġdelivered": 7077,
      "ĠIrish": 7078,
      "adelphia": 7079,
      "Ġroughly": 7080,
      "Ġvisitors": 7081,
      "Ġcarrying": 7082,
      "ĠSecretary": 7083,
      "Ġunusual": 7084,
      "Ġcommunications": 7085,
      ")|": 7086,
      "Ġcategories": 7087,
      "Ġmachines": 7088,
      "Ġcrow": 7089,
      "ĠChristians": 7090,
      "Ġdelivery": 7091,
      "Read": 7092,
      "Ġjur": 7093,
      "Ġregarded": 7094,
      "AB": 7095,
      "forest": 7096,
      "arsh": 7097,
      "Ġcircle": 7098,
      "anes": 7099,
      "ĠObama": 7100,
      "eping": 7101,
      "Ġtexts": 7102,
      "Ġrelief": 7103,
      "Ġexped": 7104,
      "Ġengaged": 7105,
      "Ġharmful": 7106,
      "fl": 7107,
      "Ġwalking": 7108,
      "Ġcoff": 7109,
      "Ġdrought": 7110,
      "ĠFair": 7111,
      "ĠJac": 7112,
      "roduction": 7113,
      "Ġdebt": 7114,
      "ĠDictionary": 7115,
      "Ġelectro": 7116,
      "Ġbridge": 7117,
      "ĠMel": 7118,
      "Ġmoves": 7119,
      "Ġhorses": 7120,
      "Ġstable": 7121,
      "Ġorgans": 7122,
      "Ġlibr": 7123,
      "Ġcompris": 7124,
      "Ġassigned": 7125,
      "Ġconcerning": 7126,
      "ĠSuper": 7127,
      "Ġbehaviour": 7128,
      "CP": 7129,
      "etime": 7130,
      "Ġcommittee": 7131,
      "Ġfemales": 7132,
      "Ġbranches": 7133,
      "Ġpool": 7134,
      "rous": 7135,
      "Ġusage": 7136,
      "Ġpresentation": 7137,
      "Ġcontroll": 7138,
      "Ġpainting": 7139,
      "Ġshop": 7140,
      "Ġthreatened": 7141,
      "Am": 7142,
      "sell": 7143,
      "Ġscar": 7144,
      "ĠBrazil": 7145,
      "Ġcategory": 7146,
      "Ġholid": 7147,
      "otton": 7148,
      "ĠPract": 7149,
      "Ġmode": 7150,
      "ĠJerusalem": 7151,
      "Ġalter": 7152,
      "theless": 7153,
      "Ġturning": 7154,
      "Ġkilomet": 7155,
      "Ġproof": 7156,
      "ĠPet": 7157,
      "ĠAsian": 7158,
      "ĠConservation": 7159,
      "orph": 7160,
      "Ġhazard": 7161,
      "Ġprogramming": 7162,
      "Ġputting": 7163,
      "feed": 7164,
      "gi": 7165,
      "Ġorb": 7166,
      "ruption": 7167,
      "Ġsuffered": 7168,
      "Ġcholesterol": 7169,
      "Ġpermission": 7170,
      "uracy": 7171,
      "Ġcolour": 7172,
      "Ġwhereas": 7173,
      "Ġrespir": 7174,
      "Ġaqu": 7175,
      "Ġevolved": 7176,
      "Ġdistributed": 7177,
      "Ġath": 7178,
      "isdom": 7179,
      "ĠFigure": 7180,
      "ĠIslamic": 7181,
      "Ġvulnerable": 7182,
      "Ġstead": 7183,
      "Ġintense": 7184,
      "Ġblocks": 7185,
      "Ġseeking": 7186,
      "Ġsheet": 7187,
      "ĠÂ©": 7188,
      "ĠHam": 7189,
      "raining": 7190,
      "Ġvel": 7191,
      "adder": 7192,
      "ifts": 7193,
      "ĠHospital": 7194,
      "Ġsenior": 7195,
      "First": 7196,
      "ĠYoung": 7197,
      "Ġconsumer": 7198,
      "ala": 7199,
      "Ġdiscrimination": 7200,
      "bar": 7201,
      "ĠHy": 7202,
      "Ġcham": 7203,
      "ograp": 7204,
      "Ġinterpre": 7205,
      "ĠThough": 7206,
      "Ġquarter": 7207,
      "Le": 7208,
      "itivity": 7209,
      "68": 7210,
      "istent": 7211,
      "prof": 7212,
      "ĠSecurity": 7213,
      "unicip": 7214,
      "Ġ400": 7215,
      "07": 7216,
      "Ġearn": 7217,
      "Ġwriters": 7218,
      "ĠZeal": 7219,
      "Ġexamination": 7220,
      "Ġobjective": 7221,
      "Ġton": 7222,
      "Ġfed": 7223,
      "Ġpassing": 7224,
      "59": 7225,
      "iological": 7226,
      "Ġminute": 7227,
      "Ġskill": 7228,
      "regon": 7229,
      "ĠSwed": 7230,
      "Ġconclusion": 7231,
      "Ġequally": 7232,
      "Ġbattery": 7233,
      "Ġinstalled": 7234,
      "Ġinvestigation": 7235,
      "uzz": 7236,
      "ĠSund": 7237,
      "Ġfinds": 7238,
      "Ġtaxes": 7239,
      "Ġviruses": 7240,
      "ĠâĨ": 7241,
      "Ġsurfaces": 7242,
      "Ġopposition": 7243,
      "ĠCorps": 7244,
      "Ġlifest": 7245,
      "li": 7246,
      "Ġroads": 7247,
      "Ġuncertain": 7248,
      "Ġcattle": 7249,
      "Ġinterpretation": 7250,
      "Ġusual": 7251,
      "Ġraw": 7252,
      "Ġslave": 7253,
      "Ġsignificance": 7254,
      "Ġjudge": 7255,
      "Ġarchae": 7256,
      "ENT": 7257,
      "ĠCambridge": 7258,
      "Ġcats": 7259,
      "Ġengage": 7260,
      "Ġwithd": 7261,
      "Ġdisabilities": 7262,
      "Ġ33": 7263,
      "Ġ48": 7264,
      "ĠDig": 7265,
      "Ġcircuit": 7266,
      "Ġexception": 7267,
      "mod": 7268,
      "ĠGr": 7269,
      "Ġwarning": 7270,
      "Ġconfirmed": 7271,
      "Ġmm": 7272,
      "Ġcolonies": 7273,
      "inois": 7274,
      "ĠConference": 7275,
      "requ": 7276,
      "abul": 7277,
      "ĠConvention": 7278,
      "Ġfashion": 7279,
      "Ġseat": 7280,
      "Ġourselves": 7281,
      "hesis": 7282,
      "aneous": 7283,
      "Ġinfluenced": 7284,
      "UT": 7285,
      "Ð°": 7286,
      "olesc": 7287,
      "Ġpharm": 7288,
      "Ġdamaged": 7289,
      "Ġfluor": 7290,
      "raham": 7291,
      "Ġsettled": 7292,
      "ĠPolit": 7293,
      "ĠProtection": 7294,
      "ĠTim": 7295,
      "Ġongoing": 7296,
      "ĠSafety": 7297,
      "Ġescape": 7298,
      "Ġment": 7299,
      "Ġdischar": 7300,
      "Even": 7301,
      "ĠYear": 7302,
      "elfare": 7303,
      "ĠNetwork": 7304,
      "ĠFrancisco": 7305,
      "ĠZealand": 7306,
      "Ed": 7307,
      "Ġclothing": 7308,
      "Ġ38": 7309,
      "ĠHarvard": 7310,
      "vation": 7311,
      "Ġenorm": 7312,
      "Ġinterface": 7313,
      "ipedia": 7314,
      "ĠOper": 7315,
      "Ġtowns": 7316,
      "Ġexamined": 7317,
      "Ġtight": 7318,
      "Ġelsewhere": 7319,
      "ĠEr": 7320,
      "Ġunion": 7321,
      "Ġessentially": 7322,
      "Ġceremon": 7323,
      "Ġrab": 7324,
      "Ġcareful": 7325,
      "rox": 7326,
      "ĠPo": 7327,
      "Ġbrings": 7328,
      "Ġwait": 7329,
      "yles": 7330,
      "Ġchlor": 7331,
      "ptions": 7332,
      "endment": 7333,
      "'.": 7334,
      "enza": 7335,
      "asty": 7336,
      "Ġbreeding": 7337,
      "ographical": 7338,
      "ĠCommunity": 7339,
      "odox": 7340,
      "agan": 7341,
      "Ġowner": 7342,
      "ĠMichigan": 7343,
      "raq": 7344,
      "ĠCub": 7345,
      "ĠDO": 7346,
      "Ġartificial": 7347,
      "Ġserving": 7348,
      "HA": 7349,
      "sm": 7350,
      "Ġmatch": 7351,
      "ĠMicro": 7352,
      "Ġisolated": 7353,
      "Ġtemple": 7354,
      "Ġrice": 7355,
      "pling": 7356,
      "def": 7357,
      "Ġhosp": 7358,
      "Ġoutcomes": 7359,
      "Ġcommunicate": 7360,
      "Â®": 7361,
      "Ġabsence": 7362,
      "John": 7363,
      "irth": 7364,
      "Ġconcentrations": 7365,
      "Ġimplications": 7366,
      "CE": 7367,
      "Ġcolonial": 7368,
      "sue": 7369,
      "utrition": 7370,
      "Ġtransp": 7371,
      "Ġspacecraft": 7372,
      "Ġinteractions": 7373,
      "elescope": 7374,
      "idance": 7375,
      "ĠMoon": 7376,
      "aked": 7377,
      "Ġarray": 7378,
      "ĠSpring": 7379,
      "Ġfalls": 7380,
      "Ġspectrum": 7381,
      "orted": 7382,
      "Ġforg": 7383,
      "Ġrespectively": 7384,
      "ĠPhiladelphia": 7385,
      "isk": 7386,
      "ĠTom": 7387,
      "ĠSar": 7388,
      "ĠOrganization": 7389,
      "Ġdefend": 7390,
      "orig": 7391,
      "Ġtooth": 7392,
      "ĠThree": 7393,
      "Ġempt": 7394,
      "Ġtransf": 7395,
      "Ġstatistics": 7396,
      "Ġargued": 7397,
      "Ġemphasis": 7398,
      "Ġcharged": 7399,
      "Ġdramatic": 7400,
      "ooking": 7401,
      "Ġgrain": 7402,
      "Ġfabric": 7403,
      "Ġtargets": 7404,
      "58": 7405,
      "night": 7406,
      "real": 7407,
      "Ġrational": 7408,
      "ĠAdd": 7409,
      "Ġvac": 7410,
      "Ġhighlight": 7411,
      "ommod": 7412,
      "Ġ1989": 7413,
      "Ġfunctional": 7414,
      "Ġbatt": 7415,
      "olt": 7416,
      "ostic": 7417,
      "Ġartist": 7418,
      "Ġlists": 7419,
      "outs": 7420,
      "Ġevaluate": 7421,
      "Ġfest": 7422,
      "ĠSym": 7423,
      "Ġcontinuous": 7424,
      "Ġbehaviors": 7425,
      "ĠPakistan": 7426,
      "Ġblind": 7427,
      "Ġangle": 7428,
      "zheimer": 7429,
      "Ġgradually": 7430,
      "rint": 7431,
      "Ġacids": 7432,
      "Ġcourts": 7433,
      "Ġ1930": 7434,
      "Ġtract": 7435,
      "Ġcounsel": 7436,
      "Ġcriminal": 7437,
      "bles": 7438,
      "Ġgro": 7439,
      "Ġcalling": 7440,
      "ĠParliament": 7441,
      "Ġmine": 7442,
      "rowing": 7443,
      "class": 7444,
      "ĠCreat": 7445,
      "Ġconcrete": 7446,
      "Ġencouraged": 7447,
      "Ġmortality": 7448,
      "ĠAri": 7449,
      "Ġparas": 7450,
      "azing": 7451,
      "Ġvolt": 7452,
      "Ġflav": 7453,
      "Ġbeings": 7454,
      "Ġgiant": 7455,
      "Ġsettlement": 7456,
      "Ġmountains": 7457,
      "Ġevolutionary": 7458,
      "Ġinhabit": 7459,
      "Ġreliable": 7460,
      "Ġassume": 7461,
      "ĠBefore": 7462,
      "Ġhabits": 7463,
      "Ġviewed": 7464,
      "bec": 7465,
      "urches": 7466,
      ")||": 7467,
      "Ġconnections": 7468,
      "ounce": 7469,
      "Ġorders": 7470,
      "ĠAff": 7471,
      "itual": 7472,
      "Ġouter": 7473,
      "Ġvariable": 7474,
      "ĠAND": 7475,
      "ĠPolicy": 7476,
      "Ġvirtual": 7477,
      "ĠAcc": 7478,
      "ĠAuthor": 7479,
      "Ġrealize": 7480,
      "Ġepis": 7481,
      "Ġpup": 7482,
      "ĠBul": 7483,
      "una": 7484,
      "ĠIV": 7485,
      "Ġworship": 7486,
      "ĠCentre": 7487,
      "Ġfilter": 7488,
      "Ġmac": 7489,
      "ollowing": 7490,
      "About": 7491,
      "ĠGar": 7492,
      "Ġheads": 7493,
      "uber": 7494,
      "Ġcopyright": 7495,
      "ĠHim": 7496,
      "icted": 7497,
      "ounter": 7498,
      "Ġprinted": 7499,
      "ĠHave": 7500,
      "ocy": 7501,
      "Ġseconds": 7502,
      "enger": 7503,
      "Ġbath": 7504,
      "idity": 7505,
      "Ġnoise": 7506,
      "Ġdiameter": 7507,
      "ĠArctic": 7508,
      "Ã±": 7509,
      "Ġtaste": 7510,
      "ĠObs": 7511,
      "Ġfinished": 7512,
      "ĠCorn": 7513,
      "Ġobservation": 7514,
      "ĠBooks": 7515,
      "Ġsevent": 7516,
      "vi": 7517,
      "Ġinn": 7518,
      "oul": 7519,
      "Ġpolar": 7520,
      "Ġconfidence": 7521,
      "Ġvoc": 7522,
      "Ġrose": 7523,
      "ditionally": 7524,
      "istical": 7525,
      "Ġtank": 7526,
      "Ġlake": 7527,
      "Ġmothers": 7528,
      "ologic": 7529,
      "Ġacute": 7530,
      "Ġcorner": 7531,
      "writ": 7532,
      "ĠBattle": 7533,
      "Ġguard": 7534,
      "Ġbeneficial": 7535,
      "Ġmercury": 7536,
      "eren": 7537,
      "Ġ1988": 7538,
      "Ġaccessible": 7539,
      "Ġ1940": 7540,
      "ĠExp": 7541,
      "Ġasthma": 7542,
      "Ġcancers": 7543,
      "Ġplain": 7544,
      "Ġmissing": 7545,
      "ĠKorea": 7546,
      "Ġasking": 7547,
      "ĠIllinois": 7548,
      "rection": 7549,
      "orith": 7550,
      "aints": 7551,
      "ĠStar": 7552,
      "ĠEU": 7553,
      "Ġroyal": 7554,
      "Ġfarming": 7555,
      "rays": 7556,
      "achers": 7557,
      "ĠOregon": 7558,
      "Ġjump": 7559,
      "Ġinfants": 7560,
      "Ġadds": 7561,
      "ĠModern": 7562,
      "Ġpy": 7563,
      "Ġpilot": 7564,
      ".).": 7565,
      "esides": 7566,
      "ĠGall": 7567,
      "Ġmessages": 7568,
      "edu": 7569,
      "Ġinternet": 7570,
      "Ġkit": 7571,
      "aired": 7572,
      "icious": 7573,
      "Ġnose": 7574,
      "ĠPass": 7575,
      "Ġpert": 7576,
      "Ġprovider": 7577,
      "Ġduty": 7578,
      "Ġcompare": 7579,
      "Ġaccuracy": 7580,
      "Ġprominent": 7581,
      "EF": 7582,
      "Ġdemands": 7583,
      "ĠChristmas": 7584,
      "Ġbegun": 7585,
      "ouri": 7586,
      "ĠSand": 7587,
      "opic": 7588,
      "just": 7589,
      "Ġmos": 7590,
      "ĠWrit": 7591,
      "Ġmicrob": 7592,
      "mond": 7593,
      "ĠColon": 7594,
      "hent": 7595,
      "Ġflash": 7596,
      "roat": 7597,
      "ĠDespite": 7598,
      "Ġmeal": 7599,
      "Ġinsurance": 7600,
      "Ġdependent": 7601,
      "Ġflying": 7602,
      "Ġwine": 7603,
      "Ġcontributed": 7604,
      "Ġscreening": 7605,
      "Lear": 7606,
      "hea": 7607,
      "ĠOnline": 7608,
      "Ġexpanded": 7609,
      "ĠEqu": 7610,
      "ĠEdward": 7611,
      "Col": 7612,
      "ao": 7613,
      "Ġsharp": 7614,
      "ĠGet": 7615,
      "Ġwrites": 7616,
      "Ġimplemented": 7617,
      "Ġdys": 7618,
      "Ġchemistry": 7619,
      "otherapy": 7620,
      "athered": 7621,
      "Ġstuff": 7622,
      "Ġgases": 7623,
      "ĠEst": 7624,
      "Ġom": 7625,
      "ĠBureau": 7626,
      "Ġintest": 7627,
      "Ġdetected": 7628,
      "usiness": 7629,
      "Ġoldest": 7630,
      "reated": 7631,
      "Ġbuff": 7632,
      "ĠPlant": 7633,
      "Ġcharacterized": 7634,
      "Ġseparated": 7635,
      "oding": 7636,
      "ĠJustice": 7637,
      "Ġsodium": 7638,
      "National": 7639,
      "eness": 7640,
      "Ġdefinite": 7641,
      "Ġfellow": 7642,
      "ĠDC": 7643,
      "ĠVen": 7644,
      "ĠInit": 7645,
      "Ġeffectiveness": 7646,
      "Ġentit": 7647,
      "Ġfulf": 7648,
      "ĠHand": 7649,
      "Ġnerv": 7650,
      "Ġconfig": 7651,
      "Ġphenomenon": 7652,
      "Ġshock": 7653,
      "Ġsmooth": 7654,
      "Ġlabour": 7655,
      "á¸į": 7656,
      "Ġcaught": 7657,
      "ĠRh": 7658,
      "Ġagent": 7659,
      "Ġpresents": 7660,
      "OC": 7661,
      "Ġprovince": 7662,
      "archy": 7663,
      "Ġboost": 7664,
      "ouds": 7665,
      "Ġgained": 7666,
      "Ġacquired": 7667,
      "ĠSometimes": 7668,
      "making": 7669,
      "2008": 7670,
      "Art": 7671,
      "ourse": 7672,
      "century": 7673,
      "Ġinflammation": 7674,
      "Ġ39": 7675,
      "thodox": 7676,
      "Let": 7677,
      "ĠWord": 7678,
      "Ġformula": 7679,
      "was": 7680,
      "Ġles": 7681,
      "sts": 7682,
      "2012": 7683,
      "Ġurine": 7684,
      "________": 7685,
      "Ġstimul": 7686,
      "53": 7687,
      "mann": 7688,
      "Ġkilling": 7689,
      "Ġmining": 7690,
      "Ġresearcher": 7691,
      "Ġbringing": 7692,
      "Ġpit": 7693,
      "Ġflour": 7694,
      "Ġcoverage": 7695,
      "Ġtissues": 7696,
      "Ġcollaboration": 7697,
      "Ġpartner": 7698,
      "56": 7699,
      "oons": 7700,
      "ĠJo": 7701,
      "oric": 7702,
      "ulpt": 7703,
      "ĠKar": 7704,
      "ĠHeart": 7705,
      "Ġmechanical": 7706,
      "Ġnewspaper": 7707,
      "uther": 7708,
      "ĠWal": 7709,
      "ogether": 7710,
      "Ġexperimental": 7711,
      "HS": 7712,
      "Ġchair": 7713,
      "Ġoffering": 7714,
      "Ġsched": 7715,
      "Ġdistricts": 7716,
      "Ġpersonnel": 7717,
      "Ġordinary": 7718,
      "Ġcooling": 7719,
      "Ġgap": 7720,
      "Ġengineers": 7721,
      "ĠIraq": 7722,
      "Ġdifficulties": 7723,
      "Ġmeasurement": 7724,
      "ixture": 7725,
      "rong": 7726,
      "ĠUt": 7727,
      "Ġkne": 7728,
      "ventions": 7729,
      "Ġturb": 7730,
      "ĠEngineering": 7731,
      "omed": 7732,
      "Ġimaging": 7733,
      "Ġcomplicated": 7734,
      "%.": 7735,
      "ĠAlzheimer": 7736,
      "Ġfeedback": 7737,
      "ĠPot": 7738,
      "Ġheavily": 7739,
      ".]": 7740,
      "Per": 7741,
      "Ġvan": 7742,
      "Ġdescript": 7743,
      "Ġneighborhood": 7744,
      "ĠChapter": 7745,
      "amine": 7746,
      "Ġinitially": 7747,
      "Part": 7748,
      "ĠÎ": 7749,
      "Ġped": 7750,
      "Ġfer": 7751,
      "ĠCreek": 7752,
      "ĠNote": 7753,
      "oured": 7754,
      "ĠSection": 7755,
      "Ġworst": 7756,
      "Ġ34": 7757,
      "Ġobserve": 7758,
      "Ġerrors": 7759,
      "apor": 7760,
      "Ġsubt": 7761,
      "Ġpointed": 7762,
      "Ġbeauty": 7763,
      "Ġdates": 7764,
      "ĠLo": 7765,
      "Ġpeoples": 7766,
      "Ġflows": 7767,
      "Ġexecutive": 7768,
      "Ġtumors": 7769,
      "Ġfisher": 7770,
      "Ġitem": 7771,
      "ĠOtt": 7772,
      "Ġowned": 7773,
      "Ġmathematical": 7774,
      "era": 7775,
      "Ġmg": 7776,
      "ĠMcC": 7777,
      "Ġaccompan": 7778,
      "ĠChief": 7779,
      "Ġindustries": 7780,
      "2010": 7781,
      "Ġfunded": 7782,
      "Ġpreparation": 7783,
      "urning": 7784,
      "Ġarguments": 7785,
      "Today": 7786,
      "ĠPC": 7787,
      "Ġoutcome": 7788,
      "Ġbless": 7789,
      "Ġ;": 7790,
      "Ġsatisf": 7791,
      "Ġcas": 7792,
      "Ġtob": 7793,
      "Ġextend": 7794,
      "Ġengines": 7795,
      "riday": 7796,
      "ĠTestament": 7797,
      "Ġmedicines": 7798,
      "EE": 7799,
      "hyd": 7800,
      "ĠPen": 7801,
      "abeth": 7802,
      "amps": 7803,
      "Ġaddressed": 7804,
      "ĠChristianity": 7805,
      "Ġevident": 7806,
      "ailability": 7807,
      "Ġsettings": 7808,
      "fts": 7809,
      "Ġexhibit": 7810,
      "Ġapparently": 7811,
      "Ġholes": 7812,
      "ĠSign": 7813,
      "Ġspin": 7814,
      "aneously": 7815,
      "Ġdrain": 7816,
      "Ġdriven": 7817,
      "ĠIndust": 7818,
      "Ġrenewable": 7819,
      "ĠLow": 7820,
      "aret": 7821,
      "Ġcalories": 7822,
      "ĠAssess": 7823,
      "gers": 7824,
      "olk": 7825,
      "Ġuniform": 7826,
      "Ġconj": 7827,
      "Ġoccurring": 7828,
      "Ġdecreased": 7829,
      "zer": 7830,
      "quir": 7831,
      "hus": 7832,
      "Ġbelieves": 7833,
      "Ġessay": 7834,
      "Ġtrends": 7835,
      "Ġfiber": 7836,
      "Ġrect": 7837,
      "omers": 7838,
      "ĠFred": 7839,
      "Ġbeat": 7840,
      "Ġstores": 7841,
      "Ġdesired": 7842,
      "haust": 7843,
      "âĢĻ.": 7844,
      "Ġofficer": 7845,
      "Ġcycl": 7846,
      "ĠAgriculture": 7847,
      "arents": 7848,
      "Ġargue": 7849,
      "Ġestablishment": 7850,
      "ĠHawai": 7851,
      "gon": 7852,
      "ĠNon": 7853,
      "Ġaged": 7854,
      "Ġvertical": 7855,
      "Ġrefused": 7856,
      "Ġreveal": 7857,
      "63": 7858,
      "Ġpros": 7859,
      "ĠLittle": 7860,
      "Ġtea": 7861,
      "Ġtreating": 7862,
      "Ġconsideration": 7863,
      "rin": 7864,
      "elve": 7865,
      "ĠBush": 7866,
      "Ġadvert": 7867,
      "Ġvariation": 7868,
      "Ġfacing": 7869,
      "Ġdealing": 7870,
      "Ġritual": 7871,
      "Ġrepair": 7872,
      "ĠHeritage": 7873,
      "Ġcovering": 7874,
      "ĠFinally": 7875,
      "Every": 7876,
      "UL": 7877,
      "ricane": 7878,
      "ackson": 7879,
      "Ġbreath": 7880,
      "OM": 7881,
      "Ġphotographs": 7882,
      "western": 7883,
      "sex": 7884,
      "otal": 7885,
      "Ġexisted": 7886,
      "icular": 7887,
      "uten": 7888,
      "ami": 7889,
      "Ġdemocracy": 7890,
      "lymp": 7891,
      "Ġpreventing": 7892,
      "Ġimagine": 7893,
      "Ġserves": 7894,
      "Once": 7895,
      "emb": 7896,
      "Ġliterary": 7897,
      "ĠRoad": 7898,
      "Ġvirtually": 7899,
      "ĠLos": 7900,
      "ĠGovernor": 7901,
      "Ġcorrel": 7902,
      "pes": 7903,
      "Ġhormone": 7904,
      "Ġhunting": 7905,
      "Ġgluc": 7906,
      "Ġcopper": 7907,
      "Ġassumed": 7908,
      "Ġroles": 7909,
      "Ġfaced": 7910,
      "Ġinformed": 7911,
      "kind": 7912,
      "ĠIce": 7913,
      "Ġforget": 7914,
      "eli": 7915,
      "Ġteams": 7916,
      "Ġdomain": 7917,
      "Ġnitrogen": 7918,
      "ĠFact": 7919,
      "ĠNever": 7920,
      "Ġchap": 7921,
      "Ġoverw": 7922,
      "ontal": 7923,
      "erly": 7924,
      "asts": 7925,
      "Ġeru": 7926,
      "ĠCurrent": 7927,
      "Ġupdated": 7928,
      "ĠHistorical": 7929,
      "emic": 7930,
      "Ġmyst": 7931,
      "2009": 7932,
      "Ġdropped": 7933,
      "Ġye": 7934,
      "pled": 7935,
      "Ġcompens": 7936,
      "ĠTable": 7937,
      "Ġadvis": 7938,
      "Ġversions": 7939,
      "Ġtobacco": 7940,
      "Ġft": 7941,
      "Ġvarieties": 7942,
      "Ġfaculty": 7943,
      "rite": 7944,
      "Ġsession": 7945,
      "Ġidentification": 7946,
      "People": 7947,
      "Hist": 7948,
      "ĠMinistry": 7949,
      "Ġmaintaining": 7950,
      "Ġaccommod": 7951,
      "Ġsurge": 7952,
      "Ġminerals": 7953,
      "Ġlowest": 7954,
      "Pre": 7955,
      "Ġsmart": 7956,
      "Ġillegal": 7957,
      "yer": 7958,
      "iger": 7959,
      "ĠLiter": 7960,
      "ĠQuest": 7961,
      "Ġtranslation": 7962,
      "Ġviolent": 7963,
      "Ġstopped": 7964,
      "health": 7965,
      "Ġrely": 7966,
      "Ġtheme": 7967,
      "bean": 7968,
      "Ġvariations": 7969,
      "foot": 7970,
      "Ġreward": 7971,
      "ivest": 7972,
      "Ġrepresentation": 7973,
      "Ġmigration": 7974,
      "olving": 7975,
      "ĠCross": 7976,
      "Ġelections": 7977,
      "Comm": 7978,
      "ORD": 7979,
      "67": 7980,
      "ceans": 7981,
      "Ġtribes": 7982,
      "ĠOpen": 7983,
      "Ġlogic": 7984,
      "inent": 7985,
      "ĠMethod": 7986,
      "this": 7987,
      "Ġ37": 7988,
      "Ġforming": 7989,
      "Ġalgorith": 7990,
      "Ġprosp": 7991,
      "ĠLight": 7992,
      "Ġdisk": 7993,
      "apping": 7994,
      "98": 7995,
      "ogs": 7996,
      "ĠHit": 7997,
      "Ġinterior": 7998,
      "Ġradical": 7999,
      "Ġlymph": 8000,
      "regation": 8001,
      "Ġinsulin": 8002,
      "2007": 8003,
      "Ġconstantly": 8004,
      "after": 8005,
      "Ġpin": 8006,
      "Ġdetection": 8007,
      "Ġmoisture": 8008,
      "ĠPy": 8009,
      "ĠOrig": 8010,
      "rical": 8011,
      "Ġspecified": 8012,
      "iability": 8013,
      "Ġcommitment": 8014,
      "Ġfought": 8015,
      "Ġstrike": 8016,
      "Ġchromos": 8017,
      "Ġclar": 8018,
      "plete": 8019,
      "Ġvisited": 8020,
      "orters": 8021,
      "Ġreaching": 8022,
      "Ġguidance": 8023,
      "Ġpoetry": 8024,
      "istant": 8025,
      "ĠDie": 8026,
      "ildren": 8027,
      "atively": 8028,
      "Ġconsidering": 8029,
      "Ġimprovements": 8030,
      "ĠCy": 8031,
      "Ġheating": 8032,
      "rive": 8033,
      "Ġthereby": 8034,
      "Ġplayers": 8035,
      "Ġfavorite": 8036,
      "Ġspoken": 8037,
      "bel": 8038,
      "Ġnom": 8039,
      "ĠDrug": 8040,
      "Ġsport": 8041,
      "ĠMissouri": 8042,
      "She": 8043,
      "Ġracial": 8044,
      "uled": 8045,
      "Ġobjectives": 8046,
      "Ġinitiative": 8047,
      "Rep": 8048,
      "alo": 8049,
      "IF": 8050,
      "opher": 8051,
      "Ġeveryday": 8052,
      "Ġstronger": 8053,
      "Ġstreets": 8054,
      "ricted": 8055,
      "Ġdisturb": 8056,
      "Ġcouncil": 8057,
      "Ġtraditions": 8058,
      "Ġdeer": 8059,
      "Ġanalys": 8060,
      "Ġlosses": 8061,
      "Ġpsychological": 8062,
      "Ġlifestyle": 8063,
      "Ġspons": 8064,
      "allow": 8065,
      "ĠStan": 8066,
      "Ġcarb": 8067,
      "Ġstatements": 8068,
      "Ġirrig": 8069,
      "onents": 8070,
      "itamin": 8071,
      "through": 8072,
      "ĠDiff": 8073,
      "ĠEconomic": 8074,
      "lines": 8075,
      "Ġbrand": 8076,
      "ĠDoc": 8077,
      "ecess": 8078,
      "Ġaccord": 8079,
      "ogy": 8080,
      "Ġcreatures": 8081,
      "Ġremoval": 8082,
      "ĠQueen": 8083,
      "chnology": 8084,
      "Ġmarks": 8085,
      "ĠDutch": 8086,
      "Ġperception": 8087,
      "Ġdraft": 8088,
      "Ð¾": 8089,
      "Ġrecover": 8090,
      "Ġproven": 8091,
      "Ġhence": 8092,
      "ĠJr": 8093,
      "Ġmusical": 8094,
      "eries": 8095,
      "imp": 8096,
      "ĠBack": 8097,
      "dule": 8098,
      "eh": 8099,
      "you": 8100,
      "itarian": 8101,
      "Ġcharacteristic": 8102,
      "Ġfocuses": 8103,
      "Ġpond": 8104,
      "ĠEss": 8105,
      "ensed": 8106,
      "Ġsimult": 8107,
      "ersonal": 8108,
      "Ġchannel": 8109,
      "ĠField": 8110,
      "Ġintent": 8111,
      "Ġgenome": 8112,
      "Ġdecor": 8113,
      "Ġmineral": 8114,
      "Ġ1986": 8115,
      "Ġenormous": 8116,
      "Ref": 8117,
      "mers": 8118,
      "ĠSeveral": 8119,
      "icity": 8120,
      "âĢĺ": 8121,
      "Ġreferences": 8122,
      "Ġburied": 8123,
      "being": 8124,
      "Ġfalling": 8125,
      "62": 8126,
      "isd": 8127,
      "Ġmir": 8128,
      "Ġpreserve": 8129,
      "Ġmeasuring": 8130,
      "Ġcolony": 8131,
      "ivestock": 8132,
      "iture": 8133,
      "ĠWorks": 8134,
      "ĠLee": 8135,
      "Ġexercises": 8136,
      "asant": 8137,
      "Ġscore": 8138,
      "ĠMuslims": 8139,
      "Ġthanks": 8140,
      "Ġgravity": 8141,
      "52": 8142,
      "ba": 8143,
      "bra": 8144,
      "Ġsons": 8145,
      "Ġsales": 8146,
      "adow": 8147,
      "Ġstructural": 8148,
      "Ġcab": 8149,
      "quit": 8150,
      "rav": 8151,
      "ĠCard": 8152,
      "ĠCapt": 8153,
      "ĠMult": 8154,
      "ĠFire": 8155,
      "Ġcontribution": 8156,
      "vernment": 8157,
      "Ġnervous": 8158,
      "Ġtort": 8159,
      "aming": 8160,
      "ĠMA": 8161,
      "izabeth": 8162,
      "Ġcoffee": 8163,
      "54": 8164,
      "Ġscores": 8165,
      "sembly": 8166,
      "Ġ1920": 8167,
      "Ġadolesc": 8168,
      "ĠSystems": 8169,
      "Ġfarms": 8170,
      "Ġcooking": 8171,
      "Ġuniversities": 8172,
      "Ġresid": 8173,
      "Ġprey": 8174,
      "Ġoptical": 8175,
      "nesota": 8176,
      "Ġphrase": 8177,
      "CA": 8178,
      "Ġcotton": 8179,
      "Ġplenty": 8180,
      "Ġsculpt": 8181,
      "Ġaimed": 8182,
      "Ġcorresponding": 8183,
      "Ġfet": 8184,
      "Ġatoms": 8185,
      "Ġlights": 8186,
      "ĠUr": 8187,
      "ĠAlaska": 8188,
      "Ġdivine": 8189,
      "Ġarmed": 8190,
      "worth": 8191,
      "CH": 8192,
      "Ġtables": 8193,
      "Ġachievement": 8194,
      "Ġassembly": 8195,
      "Mar": 8196,
      "non": 8197,
      "ĠTO": 8198,
      "ĠHor": 8199,
      "soft": 8200,
      "Ġoccupied": 8201,
      "vin": 8202,
      "atial": 8203,
      "aka": 8204,
      "Ġgram": 8205,
      "ĠOlymp": 8206,
      "ĠVietnam": 8207,
      "ĠTri": 8208,
      "thritis": 8209,
      "ĠOl": 8210,
      "Ġtempor": 8211,
      "icy": 8212,
      "Ġgent": 8213,
      "Ġinfect": 8214,
      "Ġtrem": 8215,
      "Ġcandidate": 8216,
      "92": 8217,
      "Ġwisdom": 8218,
      "ĠRail": 8219,
      "ĠSunday": 8220,
      "ĠMoreover": 8221,
      "Ġvictory": 8222,
      "ĠCP": 8223,
      "Ġresc": 8224,
      "ĠNeu": 8225,
      "Ġeliminate": 8226,
      "Ġremarkable": 8227,
      "iop": 8228,
      "Ġseg": 8229,
      "Ġunp": 8230,
      "Ġgrounds": 8231,
      "Ġven": 8232,
      "Ġextension": 8233,
      "Ġcollections": 8234,
      "Ġpanel": 8235,
      "Ġinspired": 8236,
      "Ġearthquake": 8237,
      "Ġworry": 8238,
      "onday": 8239,
      "Ġlanding": 8240,
      "Source": 8241,
      "hedule": 8242,
      "ĠPoint": 8243,
      "Ġemerging": 8244,
      "ĠSimilar": 8245,
      "ĠScotland": 8246,
      "Ġmaybe": 8247,
      "Ġhardware": 8248,
      "ĠTake": 8249,
      "Ġshapes": 8250,
      "thew": 8251,
      "Ġdistant": 8252,
      "Ġcontinuing": 8253,
      "chen": 8254,
      "ailing": 8255,
      "Ġpoem": 8256,
      "Ġremind": 8257,
      "Ġtag": 8258,
      "sis": 8259,
      "Ġsupplements": 8260,
      "Ġoccas": 8261,
      "Researchers": 8262,
      "Ġwing": 8263,
      "Ġgrid": 8264,
      "Ġthermal": 8265,
      "BM": 8266,
      "ĠMid": 8267,
      "Ġendangered": 8268,
      "nedy": 8269,
      "Ġoblig": 8270,
      "ribe": 8271,
      "Ġsitting": 8272,
      "ali": 8273,
      "Ġwindows": 8274,
      "Ġquantity": 8275,
      "Ġspoke": 8276,
      "Ġcontents": 8277,
      "coming": 8278,
      "Ġcopies": 8279,
      "OD": 8280,
      "kl": 8281,
      "run": 8282,
      "Ġintensity": 8283,
      "angle": 8284,
      "Ġdesert": 8285,
      "Ġattitude": 8286,
      "Ġfuels": 8287,
      "mun": 8288,
      "Ġrelax": 8289,
      "ghan": 8290,
      "ubs": 8291,
      "ycling": 8292,
      "ĠCop": 8293,
      "ĠFace": 8294,
      "ĠIslands": 8295,
      "Ġinteractive": 8296,
      "Ġbreed": 8297,
      "Ġwinds": 8298,
      "Ġalive": 8299,
      "ĠWay": 8300,
      "ptic": 8301,
      "ropol": 8302,
      "Ġtemporary": 8303,
      "Ġembry": 8304,
      "Ġthreats": 8305,
      "uma": 8306,
      "ĠForm": 8307,
      "outheast": 8308,
      "ati": 8309,
      "ilation": 8310,
      "Ġentitled": 8311,
      "gence": 8312,
      "essions": 8313,
      "Ġexploration": 8314,
      "ĠLouisiana": 8315,
      "lected": 8316,
      "Ġdiag": 8317,
      "ĠBang": 8318,
      "Ġquiet": 8319,
      "Ġdietary": 8320,
      "imensional": 8321,
      "Ġhall": 8322,
      "ĠSS": 8323,
      "Ġshoot": 8324,
      "Ġreporting": 8325,
      "2004": 8326,
      "Ġassociate": 8327,
      "ĠAbraham": 8328,
      "ĠAL": 8329,
      "Ġexcessive": 8330,
      "Ġlaser": 8331,
      "ĠCa": 8332,
      "ĠJackson": 8333,
      ".âĢĻ": 8334,
      "zo": 8335,
      "Ġprotecting": 8336,
      "ĠFurthermore": 8337,
      "61": 8338,
      "Ġcure": 8339,
      "ĠFar": 8340,
      "Ġwheel": 8341,
      "endar": 8342,
      "Ġgeomet": 8343,
      "Ġstreams": 8344,
      "Ġecosystems": 8345,
      "Ġreviewed": 8346,
      "ĠAlexander": 8347,
      "Ġdirections": 8348,
      "da": 8349,
      "Ġthr": 8350,
      "Ġshore": 8351,
      ".||": 8352,
      "ĠAT": 8353,
      "eting": 8354,
      "Ġstood": 8355,
      "Ġincident": 8356,
      "ymes": 8357,
      "Ġhypothesis": 8358,
      "unicipal": 8359,
      "Ġevening": 8360,
      "2005": 8361,
      "ĠMexican": 8362,
      "abulary": 8363,
      "App": 8364,
      "Ġtor": 8365,
      "Ġknowing": 8366,
      "Ġdress": 8367,
      "Ġexhaust": 8368,
      "Ġraising": 8369,
      "irms": 8370,
      "Ġvariables": 8371,
      "Ġminister": 8372,
      "print": 8373,
      "EG": 8374,
      "velt": 8375,
      "Ġ55": 8376,
      "Ġreduces": 8377,
      "2006": 8378,
      "borne": 8379,
      "Ġstrengthen": 8380,
      "Ġrelie": 8381,
      "Ġcontributions": 8382,
      "Ã¤": 8383,
      "Ġhidden": 8384,
      "Ġadverse": 8385,
      "Ġpriority": 8386,
      "ador": 8387,
      "ieval": 8388,
      "Ġboat": 8389,
      "aterials": 8390,
      "Ġconversion": 8391,
      "airy": 8392,
      "Ġdism": 8393,
      "Ġclassical": 8394,
      "Ð¸": 8395,
      "onym": 8396,
      "Ġcensus": 8397,
      "Ġmoderate": 8398,
      "Ġdevast": 8399,
      "Ġcomplications": 8400,
      "ĠCDC": 8401,
      "MA": 8402,
      "Ġmouse": 8403,
      "ols": 8404,
      "ĠAR": 8405,
      "pert": 8406,
      "Ġloved": 8407,
      "also": 8408,
      "ĠStation": 8409,
      "ovascular": 8410,
      "Ġprogramme": 8411,
      "ĠMaryland": 8412,
      "esh": 8413,
      "rooms": 8414,
      "Ġanywhere": 8415,
      "Ġcooperation": 8416,
      "Ġfur": 8417,
      "ifice": 8418,
      "Ġreasonable": 8419,
      "about": 8420,
      "ials": 8421,
      "Ġregulation": 8422,
      "Ġ1987": 8423,
      "2000": 8424,
      "Ġwelfare": 8425,
      "Ġpion": 8426,
      "ĠNob": 8427,
      "Ġnotion": 8428,
      "ĠNY": 8429,
      "Ġdisability": 8430,
      "rene": 8431,
      "claim": 8432,
      "Ġgraduate": 8433,
      "Ġvoltage": 8434,
      "lete": 8435,
      "Ġranging": 8436,
      "ĠSpirit": 8437,
      "ĠMinnesota": 8438,
      "Ġsediment": 8439,
      "Ġsect": 8440,
      "ĠLead": 8441,
      "action": 8442,
      "ĠIndepend": 8443,
      "rings": 8444,
      "Ġlens": 8445,
      "Ġstones": 8446,
      "Ġpreserved": 8447,
      "ĠArea": 8448,
      "Ġmetabol": 8449,
      "econ": 8450,
      "ĠSaint": 8451,
      "ocial": 8452,
      "osevelt": 8453,
      "obile": 8454,
      "Ġpsychology": 8455,
      "Ġwaiting": 8456,
      "Ġmi": 8457,
      "anger": 8458,
      "Ġglac": 8459,
      "Ġaims": 8460,
      "Ġtrigger": 8461,
      "Ġbiodiversity": 8462,
      "ĠBa": 8463,
      "ĠFind": 8464,
      "Ġthirty": 8465,
      "Ġconclus": 8466,
      "Ġvot": 8467,
      "hemistry": 8468,
      "ĠWithout": 8469,
      "800": 8470,
      "Ġdental": 8471,
      "aying": 8472,
      "Ġsacred": 8473,
      "Ġrhyth": 8474,
      "Ġsocieties": 8475,
      "ĠColl": 8476,
      "Ġpursu": 8477,
      "Ġholy": 8478,
      "Ġflower": 8479,
      "ĠAgain": 8480,
      "Ġhoney": 8481,
      "Ġentering": 8482,
      "ells": 8483,
      "ologically": 8484,
      "Ġheritage": 8485,
      "Ġliteracy": 8486,
      "Ġtransmitted": 8487,
      "ĠTurk": 8488,
      "Ġconversation": 8489,
      "Ġvegetation": 8490,
      "Ġgast": 8491,
      "Ġadvent": 8492,
      "ĠVolume": 8493,
      "Ġweakness": 8494,
      "Ġdynamic": 8495,
      "Ġcompound": 8496,
      "Ġindigenous": 8497,
      "Ġsubsid": 8498,
      "Ġoverwhel": 8499,
      "ician": 8500,
      "ĠHait": 8501,
      "Ġol": 8502,
      "oded": 8503,
      "ĠLess": 8504,
      "oga": 8505,
      "oline": 8506,
      "Ġgrains": 8507,
      "Ġsunlight": 8508,
      "Ġclouds": 8509,
      "2011": 8510,
      "green": 8511,
      "Ġbrows": 8512,
      "Ġfatal": 8513,
      "opl": 8514,
      "Ġcomprom": 8515,
      "uting": 8516,
      "aws": 8517,
      "Ġcoc": 8518,
      "ocity": 8519,
      "ĠRelig": 8520,
      "ĠAsk": 8521,
      "ranean": 8522,
      "2003": 8523,
      "ĠAntar": 8524,
      "Ġtong": 8525,
      "Ġinvasion": 8526,
      "Ġattempted": 8527,
      "Ġcort": 8528,
      "Ġdesignated": 8529,
      "Ġidentifying": 8530,
      "Ġautomatically": 8531,
      "51": 8532,
      "Ġvillages": 8533,
      "Ġlungs": 8534,
      "Ġneurons": 8535,
      "Ġcraft": 8536,
      "oli": 8537,
      "ustain": 8538,
      "Ġpromise": 8539,
      "Ġreign": 8540,
      "57": 8541,
      "uits": 8542,
      "Ä«": 8543,
      "Ġchurches": 8544,
      "books": 8545,
      "MP": 8546,
      "ĠSem": 8547,
      "ĠEll": 8548,
      "Ġparad": 8549,
      "Ġkingdom": 8550,
      "Ġcord": 8551,
      "Ġmagazine": 8552,
      "Ġcustomers": 8553,
      "asm": 8554,
      "ruit": 8555,
      "Ġreproductive": 8556,
      "Ġantibiotics": 8557,
      "96": 8558,
      "made": 8559,
      "arly": 8560,
      "Ġ42": 8561,
      "Â©": 8562,
      "Ġalph": 8563,
      "ĠNO": 8564,
      "Ġclock": 8565,
      "enter": 8566,
      "text": 8567,
      "Ġhappening": 8568,
      "Ġprotective": 8569,
      "Ġmanufacturers": 8570,
      "ĠKennedy": 8571,
      "Ġmammals": 8572,
      "ga": 8573,
      "Ġmood": 8574,
      "Ġlogical": 8575,
      "Scient": 8576,
      "Ġunw": 8577,
      "Ġhospitals": 8578,
      "EA": 8579,
      "Ġreturns": 8580,
      "Ġhouseholds": 8581,
      "riend": 8582,
      "ysical": 8583,
      "Ġabandoned": 8584,
      "itory": 8585,
      "Ġdeeper": 8586,
      "otype": 8587,
      "ĠAllah": 8588,
      "Ġirrit": 8589,
      "Ġcorrectly": 8590,
      "Click": 8591,
      "Ġtens": 8592,
      "ĠFed": 8593,
      "Ġprisoners": 8594,
      "Ġconverted": 8595,
      "Ġpill": 8596,
      "zes": 8597,
      "anted": 8598,
      "ĠLew": 8599,
      "ĠIndeed": 8600,
      "fe": 8601,
      "iva": 8602,
      "Ġbigger": 8603,
      "Ġpurchased": 8604,
      "ĠHitler": 8605,
      "Sc": 8606,
      "aning": 8607,
      "Ġobser": 8608,
      "uy": 8609,
      "Ġplot": 8610,
      "Ġneutral": 8611,
      "utation": 8612,
      "Ġsciences": 8613,
      "Ġavailability": 8614,
      "ĠStandard": 8615,
      "ket": 8616,
      "Ġgathered": 8617,
      "Ġhealthcare": 8618,
      "Ġsaved": 8619,
      "cking": 8620,
      "Ġinfluenza": 8621,
      "ĠMountain": 8622,
      "Ġtechnological": 8623,
      "Ġ1985": 8624,
      "Ġadapted": 8625,
      "HD": 8626,
      "erts": 8627,
      "ĠAndrew": 8628,
      "ocated": 8629,
      "rix": 8630,
      "Ġdefault": 8631,
      "Ġsensitivity": 8632,
      "Health": 8633,
      "ĠWilson": 8634,
      "host": 8635,
      "ĠMur": 8636,
      "Ġsuddenly": 8637,
      "agle": 8638,
      "Ġovercome": 8639,
      "oys": 8640,
      "Ġdoses": 8641,
      "Ġ120": 8642,
      "ĠMax": 8643,
      "ĠPope": 8644,
      "Sm": 8645,
      "zona": 8646,
      "Ġtelling": 8647,
      "Ġsuscept": 8648,
      "Ġempty": 8649,
      "Ġphosph": 8650,
      "CN": 8651,
      "Ġstability": 8652,
      "Ġmanager": 8653,
      "Ġsteam": 8654,
      "ĠWilliams": 8655,
      "ĠâĨĳ": 8656,
      "Ġthread": 8657,
      "ifted": 8658,
      "Ġ978": 8659,
      "Ġdescend": 8660,
      "Ġecological": 8661,
      "ugg": 8662,
      "Ġsoph": 8663,
      "ila": 8664,
      "Ġlun": 8665,
      "Ġspaces": 8666,
      "Ġuncle": 8667,
      "Ġresemb": 8668,
      "Ġcalculated": 8669,
      "ĠCode": 8670,
      "ĠEmer": 8671,
      "Ġ43": 8672,
      "Ġ44": 8673,
      "ĠArts": 8674,
      "Ġguess": 8675,
      "Ġtick": 8676,
      "Ġchose": 8677,
      "Ġplayer": 8678,
      "Ġpropag": 8679,
      "Ġatmospheric": 8680,
      "Ġglucose": 8681,
      "Ge": 8682,
      "shaped": 8683,
      "Copyright": 8684,
      "PD": 8685,
      "Ġexplicit": 8686,
      "Ġbene": 8687,
      "Ġathlet": 8688,
      "Ġnice": 8689,
      "agraph": 8690,
      "Ġprime": 8691,
      "ĠEgyptian": 8692,
      "Ġdominant": 8693,
      "brid": 8694,
      "Ġmixture": 8695,
      "Ġreplacement": 8696,
      "Ġdetermining": 8697,
      "operative": 8698,
      "Ġancestors": 8699,
      "Ġadvantages": 8700,
      "Ġtip": 8701,
      "Ġcran": 8702,
      "neys": 8703,
      "ĠImp": 8704,
      "Ġcollapse": 8705,
      "Ġfifth": 8706,
      "TH": 8707,
      "ĠCA": 8708,
      "Ġrealized": 8709,
      "Ġrepresentative": 8710,
      "Ġgirl": 8711,
      "zyme": 8712,
      "Ġproviders": 8713,
      "ĠMarine": 8714,
      "Ġcrown": 8715,
      "eut": 8716,
      "Ġwars": 8717,
      "ĠJefferson": 8718,
      "ĠAngeles": 8719,
      "pos": 8720,
      "Ġrecre": 8721,
      "Ġingredients": 8722,
      "leton": 8723,
      "aren": 8724,
      "osex": 8725,
      "Ġcomfortable": 8726,
      ",'": 8727,
      "wan": 8728,
      "Ġmissions": 8729,
      "asy": 8730,
      "aternal": 8731,
      "Ġrecon": 8732,
      "LA": 8733,
      "ĠTown": 8734,
      "ĠPur": 8735,
      "uscript": 8736,
      "Ġcommod": 8737,
      "Ġattribut": 8738,
      "ĠRoosevelt": 8739,
      "Ġboundaries": 8740,
      "Ġfra": 8741,
      "ĠCirc": 8742,
      "Ġeleph": 8743,
      "hester": 8744,
      "Ġbeneath": 8745,
      "Under": 8746,
      "bury": 8747,
      "rons": 8748,
      "attered": 8749,
      "Ġoccasionally": 8750,
      "Ġincidence": 8751,
      "Ġregardless": 8752,
      "Ġdance": 8753,
      "asma": 8754,
      "Ġmeteor": 8755,
      "Ġfix": 8756,
      "aya": 8757,
      "Ġsees": 8758,
      "Ġaddresses": 8759,
      "ĠElizabeth": 8760,
      "mm": 8761,
      "Ġhier": 8762,
      "ĠLater": 8763,
      "Ġpatent": 8764,
      "Ġorigins": 8765,
      "ĠReading": 8766,
      "ĠMess": 8767,
      "Ġunem": 8768,
      "Ġmagnitude": 8769,
      "Ġlivestock": 8770,
      "duction": 8771,
      "oked": 8772,
      "Ġauthent": 8773,
      "agnetic": 8774,
      "Ġsongs": 8775,
      "ĠCat": 8776,
      "ĠOs": 8777,
      "ĠVan": 8778,
      "ĠBlue": 8779,
      "vals": 8780,
      "imen": 8781,
      "Ġquantities": 8782,
      "ĠDaniel": 8783,
      "Back": 8784,
      "Cons": 8785,
      "iously": 8786,
      "Ġdegrad": 8787,
      "ĠKentucky": 8788,
      "Two": 8789,
      "athan": 8790,
      "Ġenthus": 8791,
      "ĠDavis": 8792,
      "umer": 8793,
      "ĠDown": 8794,
      "ĠBiology": 8795,
      "Ġbare": 8796,
      "sem": 8797,
      "ĠAssembly": 8798,
      "Ġannually": 8799,
      "Ġreflected": 8800,
      "eller": 8801,
      "issance": 8802,
      "Ġdiarr": 8803,
      "atories": 8804,
      "Ġacknowled": 8805,
      "Ġwise": 8806,
      "ĠID": 8807,
      "ĠDoes": 8808,
      "âĢĻ,": 8809,
      "Ġdistinction": 8810,
      "Ġinspir": 8811,
      "OP": 8812,
      "amins": 8813,
      "Ġreserv": 8814,
      "Ġrepresenting": 8815,
      "Ġsoils": 8816,
      "Ġfires": 8817,
      "Ġabol": 8818,
      "Ġempire": 8819,
      "Ġcelebrated": 8820,
      "Ġlecture": 8821,
      "Ġinhabitants": 8822,
      "Ġconvert": 8823,
      "Ġabstract": 8824,
      "Ġparticle": 8825,
      "Ġaffecting": 8826,
      "GE": 8827,
      "ois": 8828,
      "ĠSon": 8829,
      "neum": 8830,
      "Post": 8831,
      "gic": 8832,
      "Ġpairs": 8833,
      "ipher": 8834,
      "Ġaudio": 8835,
      "97": 8836,
      "Ġbibl": 8837,
      "ĠOffic": 8838,
      "ĠAlbert": 8839,
      "ĠReference": 8840,
      "ĠAvoid": 8841,
      "Ġmeals": 8842,
      "Ġerect": 8843,
      "rait": 8844,
      "Ġdisrupt": 8845,
      "Ġprivile": 8846,
      "Ġpries": 8847,
      "Ġ1984": 8848,
      "Ġminority": 8849,
      "ĠAction": 8850,
      "ĠLast": 8851,
      "Ġprecip": 8852,
      "Ġ)": 8853,
      "arks": 8854,
      "ĠFish": 8855,
      "Ġlighting": 8856,
      "Ġanticip": 8857,
      "Ġmovie": 8858,
      "Ġinnovation": 8859,
      "ĠSanta": 8860,
      "Sec": 8861,
      "Ġrestore": 8862,
      "Ġguns": 8863,
      "Then": 8864,
      "Ġclay": 8865,
      "pow": 8866,
      "Ġtut": 8867,
      "Ġidentical": 8868,
      "Ġprayer": 8869,
      "uan": 8870,
      "inian": 8871,
      "Ġreverse": 8872,
      "Ġentertain": 8873,
      "Ġ95": 8874,
      "Ġadvances": 8875,
      "ĠCentury": 8876,
      "ĠSamuel": 8877,
      "ĠTemple": 8878,
      "Ġdinosa": 8879,
      "Ġmerch": 8880,
      "ĠDev": 8881,
      "Ġoperated": 8882,
      "Ġhabitats": 8883,
      "Ġtransferred": 8884,
      "angel": 8885,
      "awa": 8886,
      "Ġbehavioral": 8887,
      "Ġcirculation": 8888,
      "Ġheaven": 8889,
      "oves": 8890,
      "ĠAsh": 8891,
      "ĠPeace": 8892,
      "Ġvaccines": 8893,
      "Rel": 8894,
      "Ġcough": 8895,
      "Ġhat": 8896,
      "Ġblo": 8897,
      "Ġgrows": 8898,
      "Ġemotions": 8899,
      "di": 8900,
      "ctors": 8901,
      "Just": 8902,
      "ĠSqu": 8903,
      "Ġjudgment": 8904,
      "Ġhopes": 8905,
      "Ġdriver": 8906,
      "Ġlifetime": 8907,
      "Ġimmigrants": 8908,
      "94": 8909,
      "ĠSpecies": 8910,
      "Car": 8911,
      "Eng": 8912,
      "ĠHa": 8913,
      "iative": 8914,
      "Ġbutton": 8915,
      "Ġgovernor": 8916,
      "Ġconsciousness": 8917,
      "feeding": 8918,
      "iph": 8919,
      "Ġclassic": 8920,
      "Ġruled": 8921,
      "omon": 8922,
      "who": 8923,
      "Ġinvestigate": 8924,
      "erally": 8925,
      "enh": 8926,
      "ĠClick": 8927,
      "ighth": 8928,
      "Ġliterally": 8929,
      "Ġsurprised": 8930,
      "irus": 8931,
      "Ġproductivity": 8932,
      "Ġconsumed": 8933,
      "Ġtelephone": 8934,
      "Ġemerged": 8935,
      "Ġseriously": 8936,
      "Ġrobot": 8937,
      "Ġrespiratory": 8938,
      "Ġschedule": 8939,
      "arians": 8940,
      "Ġbears": 8941,
      "ref": 8942,
      "Ġkeeps": 8943,
      "Ġpreferred": 8944,
      "idal": 8945,
      "Ġdiscussions": 8946,
      "imensions": 8947,
      "Ġbleeding": 8948,
      "Ġaccompanied": 8949,
      "ĠContin": 8950,
      "Ġsuspect": 8951,
      "ĠModel": 8952,
      "Ġelectrons": 8953,
      "Ġwatching": 8954,
      "Ġconstitutional": 8955,
      "ĠUnfortunately": 8956,
      "Ġampl": 8957,
      "Ġchallenging": 8958,
      "inth": 8959,
      "Ġdense": 8960,
      "section": 8961,
      "thur": 8962,
      "Ġgods": 8963,
      ".:": 8964,
      "Ġstrain": 8965,
      "Ġprocessed": 8966,
      "Ġdisplayed": 8967,
      "Ġunlikely": 8968,
      "Ġoceans": 8969,
      "Ġweigh": 8970,
      "Ġsurg": 8971,
      "Ġinvention": 8972,
      "Ġdeeply": 8973,
      "ĠKeep": 8974,
      "Ġdimin": 8975,
      "Ġmold": 8976,
      "Ġrestaur": 8977,
      "DS": 8978,
      "Os": 8979,
      "Ġ1981": 8980,
      "ĠStandards": 8981,
      "TA": 8982,
      "ĠWales": 8983,
      "Ġdiffer": 8984,
      "91": 8985,
      "Ġclient": 8986,
      "Ġclassified": 8987,
      "ĠFriday": 8988,
      "ĠGre": 8989,
      "Ġmilit": 8990,
      "Ġmembrane": 8991,
      "Ġmanifest": 8992,
      "ĠCost": 8993,
      "ĠPortug": 8994,
      "Ġburned": 8995,
      "Ġsister": 8996,
      "Ġ600": 8997,
      "Ġphilosoph": 8998,
      "fast": 8999,
      "Ġexpedition": 9000,
      "atus": 9001,
      "Inf": 9002,
      "icking": 9003,
      "Ġutility": 9004,
      "ĠProtest": 9005,
      "ĠHop": 9006,
      "rency": 9007,
      "Ġbroadcast": 9008,
      "ĠJersey": 9009,
      "Ġdramatically": 9010,
      "ĠArizona": 9011,
      "Ġherb": 9012,
      "Ġequality": 9013,
      "Ġfaces": 9014,
      "Ġ1979": 9015,
      "Ġsurvived": 9016,
      "Ġdocumented": 9017,
      "Ġinvolvement": 9018,
      "Ġjurisd": 9019,
      "Where": 9020,
      "omatic": 9021,
      "ĠNeg": 9022,
      "ĠAssessment": 9023,
      "87": 9024,
      "icts": 9025,
      "ĠType": 9026,
      "Ġpriest": 9027,
      "aware": 9028,
      "ĠDemocratic": 9029,
      "ĠPMID": 9030,
      "Ġdiscipline": 9031,
      "inates": 9032,
      "ĠFDA": 9033,
      "Ġmutations": 9034,
      "Ġholiday": 9035,
      ".),": 9036,
      "cre": 9037,
      "they": 9038,
      "Ġhumanity": 9039,
      "Ġtranslated": 9040,
      "Ðµ": 9041,
      "Ġcapabilities": 9042,
      "Ġverb": 9043,
      "ĠMarsh": 9044,
      "Ġinequ": 9045,
      "Ġash": 9046,
      "Ġvs": 9047,
      "Ġcheap": 9048,
      "door": 9049,
      "unct": 9050,
      "Ġincred": 9051,
      "Ġcouldn": 9052,
      "Ġcave": 9053,
      "uesday": 9054,
      "Ġ1983": 9055,
      "Before": 9056,
      "Ġpale": 9057,
      "Ġstyles": 9058,
      "Ġ1982": 9059,
      "ĠCheck": 9060,
      "Ġsplit": 9061,
      "ais": 9062,
      "ĠMath": 9063,
      "aven": 9064,
      "Ġperforming": 9065,
      "ĠHispan": 9066,
      "ĠJacob": 9067,
      "Ġ`": 9068,
      "Ġbees": 9069,
      "Ġ||": 9070,
      "Ġmile": 9071,
      "Ġunn": 9072,
      "Ġvaried": 9073,
      "Ġexciting": 9074,
      "Ġster": 9075,
      "izers": 9076,
      "Ġinsight": 9077,
      "Ġposted": 9078,
      "Ġcitizen": 9079,
      "ĠArabic": 9080,
      "acent": 9081,
      "iterranean": 9082,
      "har": 9083,
      "Ġwat": 9084,
      "isition": 9085,
      "rose": 9086,
      "Ġteens": 9087,
      "Ġforecast": 9088,
      "rity": 9089,
      "ico": 9090,
      "Ġdies": 9091,
      "Ġreaches": 9092,
      "ĠOS": 9093,
      "Ġunderground": 9094,
      "Ġintroduce": 9095,
      "93": 9096,
      "Ġincent": 9097,
      "ospel": 9098,
      "Ġexhibition": 9099,
      "ometer": 9100,
      "ĠSolar": 9101,
      "Ġsuit": 9102,
      "Ġextraord": 9103,
      "irable": 9104,
      "oil": 9105,
      "olves": 9106,
      "2001": 9107,
      "Ġsummary": 9108,
      "Ġ1945": 9109,
      "Ġcampus": 9110,
      "Ġtact": 9111,
      "ĠMoses": 9112,
      "ĠBuilding": 9113,
      "Ġhealing": 9114,
      "Ġlibraries": 9115,
      "Ġinch": 9116,
      "Ġreconst": 9117,
      "Ġdipl": 9118,
      "Ġeducators": 9119,
      "Ġversus": 9120,
      "Ġpermitted": 9121,
      "zymes": 9122,
      "emeter": 9123,
      "Ġhaven": 9124,
      "ĠIndones": 9125,
      "Ġpasses": 9126,
      "ĠTenn": 9127,
      "Ġpartly": 9128,
      "Ġreadily": 9129,
      "Ġcuts": 9130,
      "Ġsymbols": 9131,
      "Ġalarm": 9132,
      "ĠBon": 9133,
      "ĠJones": 9134,
      "Ġstrange": 9135,
      "Ġaggressive": 9136,
      "Get": 9137,
      "Ġcow": 9138,
      "ĠFarm": 9139,
      "ĠHur": 9140,
      "rue": 9141,
      "Ġsoy": 9142,
      "Ġmarg": 9143,
      "ĠClinical": 9144,
      "ught": 9145,
      "icing": 9146,
      "ĠJon": 9147,
      "erving": 9148,
      "teenth": 9149,
      "Ġproducers": 9150,
      "iscons": 9151,
      "Ġmeetings": 9152,
      "ĠMajor": 9153,
      "Ġliberal": 9154,
      "ĠTreatment": 9155,
      "Ġadministrative": 9156,
      "Ġprinting": 9157,
      "ogenic": 9158,
      "Ġpartnership": 9159,
      "Ġcontamination": 9160,
      "Ġregime": 9161,
      "Ġremed": 9162,
      "Ġconsequence": 9163,
      "Ġarise": 9164,
      "Sim": 9165,
      "iography": 9166,
      "Ġspray": 9167,
      "ĠHead": 9168,
      "Ġtreaty": 9169,
      "page": 9170,
      "Ġcul": 9171,
      "Ġease": 9172,
      "ĠLy": 9173,
      "Ġpersonality": 9174,
      "Ġprofound": 9175,
      "Ġbacterial": 9176,
      "isconsin": 9177,
      "trans": 9178,
      "ieth": 9179,
      "Ġrestricted": 9180,
      "Ġstruck": 9181,
      "Ġpace": 9182,
      "Ġtom": 9183,
      "ĠTro": 9184,
      "Ġreveals": 9185,
      "300": 9186,
      "ohyd": 9187,
      "Ġ^": 9188,
      "onal": 9189,
      "Ġamazing": 9190,
      "Ġbroke": 9191,
      "Ġvolunteers": 9192,
      "Each": 9193,
      "Ġpubl": 9194,
      "ĠPhD": 9195,
      "Ġpredicted": 9196,
      "Ġfing": 9197,
      "Ġninet": 9198,
      "Ġeverywhere": 9199,
      "Ġwings": 9200,
      "Ġlob": 9201,
      "Ġenlar": 9202,
      "Ġattitudes": 9203,
      "comp": 9204,
      "ĠPerhaps": 9205,
      "Ġcatal": 9206,
      "Ġscholar": 9207,
      "owa": 9208,
      "isting": 9209,
      "Ġtwelve": 9210,
      "Ġminds": 9211,
      "havior": 9212,
      "Ã´": 9213,
      "Ġdict": 9214,
      "Ġcurve": 9215,
      "Ġphysicians": 9216,
      "specific": 9217,
      "world": 9218,
      "Ġsovere": 9219,
      "Ġproposal": 9220,
      "Ġrepresentatives": 9221,
      "III": 9222,
      "ĠNazi": 9223,
      "ednes": 9224,
[...]
