{
  "version": "1.0",
  "truncation": null,
  "padding": null,
  "added_tokens": [
    {
      "id": 0,
      "content": "<|bos|>",
      "single_word": false,
      "lstrip": false,
      "rstrip": false,
      "normalized": false,
      "special": true
    },
    {
      "id": 1,
      "content": "<|user_start|>",
      "single_word": false,
      "lstrip": false,
      "rstrip": false,
      "normalized": false,
      "special": true
    },
    {
      "id": 2,
      "content": "<|user_end|>",
      "single_word": false,
      "lstrip": false,
      "rstrip": false,
      "normalized": false,
      "special": true
    },
    {
      "id": 3,
      "content": "<|assistant_start|>",
      "single_word": false,
      "lstrip": false,
      "rstrip": false,
      "normalized": false,
      "special": true
    },
    {
      "id": 4,
      "content": "<|assistant_end|>",
      "single_word": false,
      "lstrip": false,
      "rstrip": false,
      "normalized": false,
      "special": true
    },
    {
      "id": 5,
      "content": "<|python_start|>",
      "single_word": false,
      "lstrip": false,
      "rstrip": false,
      "normalized": false,
      "special": true
    },
    {
      "id": 6,
      "content": "<|python_end|>",
      "single_word": false,
      "lstrip": false,
      "rstrip": false,
      "normalized": false,
      "special": true
    },
    {
      "id": 7,
      "content": "<|output_start|>",
      "single_word": false,
      "lstrip": false,
      "rstrip": false,
      "normalized": false,
      "special": true
    },
    {
      "id": 8,
      "content": "<|output_end|>",
      "single_word": false,
      "lstrip": false,
      "rstrip": false,
      "normalized": false,
      "special": true
    },
    {
      "id": 131071,
      "content": "<|unk|>",
      "single_word": false,
      "lstrip": false,
      "rstrip": false,
      "normalized": false,
      "special": true
    }
  ],
  "normalizer": null,
  "pre_tokenizer": {
    "type": "Sequence",
    "pretokenizers": [
      {
        "type": "Split",
        "pattern": {
          "Regex": "'(?i:[sdmt]|ll|ve|re)|[^\\r\\n\\p{L}\\p{N}]?+\\p{L}+|\\p{N}{1,2}| ?[^\\s\\p{L}\\p{N}]++[\\r\\n]*|\\s*[\\r\\n]|\\s+(?!\\S)|\\s+"
        },
        "behavior": "Isolated",
        "invert": false
      },
      {
        "type": "ByteLevel",
        "add_prefix_space": false,
        "trim_offsets": true,
        "use_regex": false
      }
    ]
  },
  "post_processor": null,
  "decoder": {
    "type": "ByteLevel",
    "add_prefix_space": true,
    "trim_offsets": true,
    "use_regex": true
  },
  "model": {
    "type": "Unigram",
    "unk_id": 131071,
    "vocab": [
      [
        "<|bos|>",
        -1.0
      ],
      [
        "<|user_start|>",
        -1.0
      ],
      [
        "<|user_end|>",
        -1.0
      ],
      [
        "<|assistant_start|>",
        -1.0
      ],
      [
        "<|assistant_end|>",
        -1.0
      ],
      [
        "<|python_start|>",
        -1.0
      ],
      [
        "<|python_end|>",
        -1.0
      ],
      [
        "<|output_start|>",
        -1.0
      ],
      [
        "<|output_end|>",
        -1.0
      ],
      [
        "!",
        -1.0
      ],
      [
        "\"",
        -1.0
      ],
      [
        "#",
        -1.0
      ],
      [
        "$",
        -1.0
      ],
      [
        "%",
        -1.0
      ],
      [
        "&",
        -1.0
      ],
      [
        "'",
        -1.0
      ],
      [
        "(",
        -1.0
      ],
      [
        ")",
        -1.0
      ],
      [
        "*",
        -1.0
      ],
      [
        "+",
        -1.0
      ],
      [
        ",",
        -1.0
      ],
      [
        "-",
        -1.0
      ],
      [
        ".",
        -1.0
      ],
      [
        "/",
        -1.0
      ],
      [
        "0",
        -1.0
      ],
      [
        "1",
        -1.0
      ],
      [
        "2",
        -1.0
      ],
      [
        "3",
        -1.0
      ],
      [
        "4",
        -1.0
      ],
      [
        "5",
        -1.0
      ],
      [
        "6",
        -1.0
      ],
      [
        "7",
        -1.0
      ],
      [
        "8",
        -1.0
      ],
      [
        "9",
        -1.0
      ],
      [
        ":",
        -1.0
      ],
      [
        ";",
        -1.0
      ],
      [
        "<",
        -1.0
      ],
      [
        "=",
        -1.0
      ],
      [
        ">",
        -1.0
      ],
      [
        "?",
        -1.0
      ],
      [
        "@",
        -1.0
      ],
      [
        "A",
        -1.0
      ],
      [
        "B",
        -1.0
      ],
      [
        "C",
        -1.0
      ],
      [
        "D",
        -1.0
      ],
      [
        "E",
        -1.0
      ],
      [
        "F",
        -1.0
      ],
      [
        "G",
        -1.0
      ],
      [
        "H",
        -1.0
      ],
      [
        "I",
        -1.0
      ],
      [
        "J",
        -1.0
      ],
      [
        "K",
        -1.0
      ],
      [
        "L",
        -1.0
      ],
      [
        "M",
        -1.0
      ],
      [
        "N",
        -1.0
      ],
      [
        "O",
        -1.0
      ],
      [
        "P",
        -1.0
      ],
      [
        "Q",
        -1.0
      ],
      [
        "R",
        -1.0
      ],
      [
        "S",
        -1.0
      ],
      [
        "T",
        -1.0
      ],
      [
        "U",
        -1.0
      ],
      [
        "V",
        -1.0
      ],
      [
        "W",
        -1.0
      ],
      [
        "X",
        -1.0
      ],
      [
        "Y",
        -1.0
      ],
      [
        "Z",
        -1.0
      ],
      [
        "[",
        -1.0
      ],
      [
        "\\",
        -1.0
      ],
      [
        "]",
        -1.0
      ],
      [
        "^",
        -1.0
      ],
      [
        "_",
        -1.0
      ],
      [
        "`",
        -1.0
      ],
      [
        "a",
        -1.0
      ],
      [
        "b",
        -1.0
      ],
      [
        "c",
        -1.0
      ],
      [
        "d",
        -1.0
      ],
      [
        "e",
        -1.0
      ],
      [
        "f",
        -1.0
      ],
      [
        "g",
        -1.0
      ],
      [
        "h",
        -1.0
      ],
      [
        "i",
        -1.0
      ],
      [
        "j",
        -1.0
      ],
      [
        "k",
        -1.0
      ],
      [
        "l",
        -1.0
      ],
      [
        "m",
        -1.0
      ],
      [
        "n",
        -1.0
      ],
      [
        "o",
        -1.0
      ],
      [
        "p",
        -1.0
      ],
      [
        "q",
        -1.0
      ],
      [
        "r",
        -1.0
      ],
      [
        "s",
        -1.0
      ],
      [
        "t",
        -1.0
      ],
      [
        "u",
        -1.0
      ],
      [
        "v",
        -1.0
      ],
      [
        "w",
        -1.0
      ],
      [
        "x",
        -1.0
      ],
      [
        "y",
        -1.0
      ],
      [
        "z",
        -1.0
      ],
      [
        "{",
        -1.0
      ],
      [
        "|",
        -1.0
      ],
      [
        "}",
        -1.0
      ],
      [
        "~",
        -1.0
      ],
      [
        "¡",
        -1.0
      ],
      [
        "¢",
        -1.0
      ],
      [
        "£",
        -1.0
      ],
      [
        "¤",
        -1.0
      ],
      [
        "¥",
        -1.0
      ],
      [
        "¦",
        -1.0
      ],
      [
        "§",
        -1.0
      ],
      [
        "¨",
        -1.0
      ],
      [
        "©",
        -1.0
      ],
      [
        "ª",
        -1.0
      ],
      [
        "«",
        -1.0
      ],
      [
        "¬",
        -1.0
      ],
      [
        "®",
        -1.0
      ],
      [
        "¯",
        -1.0
      ],
      [
        "°",
        -1.0
      ],
      [
        "±",
        -1.0
      ],
      [
        "²",
        -1.0
      ],
      [
        "³",
        -1.0
      ],
      [
        "´",
        -1.0
      ],
      [
        "µ",
        -1.0
      ],
      [
        "¶",
        -1.0
      ],
      [
        "·",
        -1.0
      ],
      [
        "¸",
        -1.0
      ],
      [
        "¹",
        -1.0
      ],
      [
        "º",
        -1.0
      ],
      [
        "»",
        -1.0
      ],
      [
        "¼",
        -1.0
      ],
      [
        "½",
        -1.0
      ],
      [
        "¾",
        -1.0
      ],
      [
        "¿",
        -1.0
      ],
      [
        "À",
        -1.0
      ],
      [
        "Á",
        -1.0
      ],
      [
        "Â",
        -1.0
      ],
      [
        "Ã",
        -1.0
      ],
      [
        "Ä",
        -1.0
      ],
      [
        "Å",
        -1.0
      ],
      [
        "Æ",
        -1.0
      ],
      [
        "Ç",
        -1.0
      ],
      [
        "È",
        -1.0
      ],
      [
        "É",
        -1.0
      ],
      [
        "Ê",
        -1.0
      ],
      [
        "Ë",
        -1.0
      ],
      [
        "Ì",
        -1.0
      ],
      [
        "Í",
        -1.0
      ],
      [
        "Î",
        -1.0
      ],
      [
        "Ï",
        -1.0
      ],
      [
        "Ð",
        -1.0
      ],
      [
        "Ñ",
        -1.0
      ],
      [
        "Ò",
        -1.0
      ],
      [
        "Ó",
        -1.0
      ],
      [
        "Ô",
        -1.0
      ],
      [
        "Õ",
        -1.0
      ],
      [
        "Ö",
        -1.0
      ],
      [
        "×",
        -1.0
      ],
      [
        "Ø",
        -1.0
      ],
      [
        "Ù",
        -1.0
      ],
      [
        "Ú",
        -1.0
      ],
      [
        "Û",
        -1.0
      ],
      [
        "Ü",
        -1.0
      ],
      [
        "Ý",
        -1.0
      ],
      [
        "Þ",
        -1.0
      ],
      [
        "ß",
        -1.0
      ],
      [
        "à",
        -1.0
      ],
      [
        "á",
        -1.0
      ],
      [
        "â",
        -1.0
      ],
      [
        "ã",
        -1.0
      ],
      [
        "ä",
        -1.0
      ],
      [
        "å",
        -1.0
      ],
      [
        "æ",
        -1.0
      ],
      [
        "ç",
        -1.0
      ],
      [
        "è",
        -1.0
      ],
      [
        "é",
        -1.0
      ],
      [
        "ê",
        -1.0
      ],
      [
        "ë",
        -1.0
      ],
      [
        "ì",
        -1.0
      ],
      [
        "í",
        -1.0
      ],
      [
        "î",
        -1.0
      ],
      [
        "ï",
        -1.0
      ],
      [
        "ð",
        -1.0
      ],
      [
        "ñ",
        -1.0
      ],
      [
        "ò",
        -1.0
      ],
      [
        "ó",
        -1.0
      ],
      [
        "ô",
        -1.0
      ],
      [
        "õ",
        -1.0
      ],
      [
        "ö",
        -1.0
      ],
      [
        "÷",
        -1.0
      ],
      [
        "ø",
        -1.0
      ],
      [
        "ù",
        -1.0
      ],
      [
        "ú",
        -1.0
      ],
      [
        "û",
        -1.0
      ],
      [
        "ü",
        -1.0
      ],
      [
        "ý",
        -1.0
      ],
      [
        "þ",
        -1.0
      ],
      [
        "ÿ",
        -1.0
      ],
      [
        "Ā",
        -1.0
      ],
      [
        "ā",
        -1.0
      ],
      [
        "Ă",
        -1.0
      ],
      [
        "ă",
        -1.0
      ],
      [
        "Ą",
        -1.0
      ],
      [
        "ą",
        -1.0
      ],
      [
        "Ć",
        -1.0
      ],
      [
        "ć",
        -1.0
      ],
      [
        "Ĉ",
        -1.0
      ],
      [
        "ĉ",
        -1.0
      ],
      [
        "Ċ",
        -1.0
      ],
      [
        "ċ",
        -1.0
      ],
      [
        "Č",
        -1.0
      ],
      [
        "č",
        -1.0
      ],
      [
        "Ď",
        -1.0
      ],
      [
        "ď",
        -1.0
      ],
      [
        "Đ",
        -1.0
      ],
      [
        "đ",
        -1.0
      ],
      [
        "Ē",
        -1.0
      ],
      [
        "ē",
        -1.0
      ],
      [
        "Ĕ",
        -1.0
      ],
      [
        "ĕ",
        -1.0
      ],
      [
        "Ė",
        -1.0
      ],
      [
        "ė",
        -1.0
      ],
      [
        "Ę",
        -1.0
      ],
      [
        "ę",
        -1.0
      ],
      [
        "Ě",
        -1.0
      ],
      [
        "ě",
        -1.0
      ],
      [
        "Ĝ",
        -1.0
      ],
      [
        "ĝ",
        -1.0
      ],
      [
        "Ğ",
        -1.0
      ],
      [
        "ğ",
        -1.0
      ],
      [
        "Ġ",
        -1.0
      ],
      [
        "ġ",
        -1.0
      ],
      [
        "Ģ",
        -1.0
      ],
      [
        "ģ",
        -1.0
      ],
      [
        "Ĥ",
        -1.0
      ],
      [
        "ĥ",
        -1.0
      ],
      [
        "Ħ",
        -1.0
      ],
      [
        "ħ",
        -1.0
      ],
      [
        "Ĩ",
        -1.0
      ],
      [
        "ĩ",
        -1.0
      ],
      [
        "Ī",
        -1.0
      ],
      [
        "ī",
        -1.0
      ],
      [
        "Ĭ",
        -1.0
      ],
      [
        "ĭ",
        -1.0
      ],
      [
        "Į",
        -1.0
      ],
      [
        "į",
        -1.0
      ],
      [
        "İ",
        -1.0
      ],
      [
        "ı",
        -1.0
      ],
      [
        "Ĳ",
        -1.0
      ],
      [
        "ĳ",
        -1.0
      ],
      [
        "Ĵ",
        -1.0
      ],
      [
        "ĵ",
        -1.0
      ],
      [
        "Ķ",
        -1.0
      ],
      [
        "ķ",
        -1.0
      ],
      [
        "ĸ",
        -1.0
      ],
      [
        "Ĺ",
        -1.0
      ],
      [
        "ĺ",
        -1.0
      ],
      [
        "Ļ",
        -1.0
      ],
      [
        "ļ",
        -1.0
      ],
      [
        "Ľ",
        -1.0
      ],
      [
        "ľ",
        -1.0
      ],
      [
        "Ŀ",
        -1.0
      ],
      [
        "ŀ",
        -1.0
      ],
      [
        "Ł",
        -1.0
      ],
      [
        "ł",
        -1.0
      ],
      [
        "Ń",
        -1.0
      ],
      [
        "Ġt",
        -1.0
      ],
      [
        "Ġa",
        -1.0
      ],
      [
        "in",
        -1.0
      ],
      [
        "he",
        -1.0
      ],
      [
        "re",
        -1.0
      ],
      [
        "on",
        -1.0
      ],
      [
        "Ġthe",
        -1.0
      ],
      [
        "er",
        -1.0
      ],
      [
        "Ġs",
        -1.0
      ],
      [
        "at",
        -1.0
      ],
      [
        "Ġc",
        -1.0
      ],
      [
        "Ġo",
        -1.0
      ],
      [
        "es",
        -1.0
      ],
      [
        "en",
        -1.0
      ],
      [
        "Ġw",
        -1.0
      ],
      [
        "nd",
        -1.0
      ],
      [
        "it",
        -1.0
      ],
      [
        "ing",
        -1.0
      ],
      [
        "is",
        -1.0
      ],
      [
        "Ġp",
        -1.0
      ],
      [
        "or",
        -1.0
      ],
      [
        "Ġb",
        -1.0
      ],
      [
        "Ġf",
        -1.0
      ],
      [
        "ou",
        -1.0
      ],
      [
        "al",
        -1.0
      ],
      [
        "an",
        -1.0
      ],
      [
        "Ġm",
        -1.0
      ],
      [
        "ed",
        -1.0
      ],
      [
        "Ġto",
        -1.0
      ],
      [
        "Ġof",
        -1.0
      ],
      [
        "Ġin",
        -1.0
      ],
      [
        "ar",
        -1.0
      ],
      [
        "Ġand",
        -1.0
      ],
      [
        "Ġd",
        -1.0
      ],
      [
        "ion",
        -1.0
      ],
      [
        "ic",
        -1.0
      ],
      [
        "le",
        -1.0
      ],
      [
        "ro",
        -1.0
      ],
      [
        "as",
        -1.0
      ],
      [
        "Ġth",
        -1.0
      ],
      [
        "Ġh",
        -1.0
      ],
      [
        "ct",
        -1.0
      ],
      [
        "Ġe",
        -1.0
      ],
      [
        "ent",
        -1.0
      ],
      [
        "Ġl",
        -1.0
      ],
      [
        "ve",
        -1.0
      ],
      [
        "il",
        -1.0
      ],
      [
        "Ġre",
        -1.0
      ],
      [
        "om",
        -1.0
      ],
      [
        "us",
        -1.0
      ],
      [
        "Ġis",
        -1.0
      ],
      [
        ".Ċ",
        -1.0
      ],
      [
        "Ġn",
        -1.0
      ],
      [
        "Ġy",
        -1.0
      ],
      [
        "et",
        -1.0
      ],
      [
        "ly",
        -1.0
      ],
      [
        "Ġg",
        -1.0
      ],
      [
        "Ġyou",
        -1.0
      ],
      [
        "ow",
        -1.0
      ],
      [
        "Ġbe",
        -1.0
      ],
      [
        "ut",
        -1.0
      ],
      [
        "ot",
        -1.0
      ],
      [
        "im",
        -1.0
      ],
      [
        "ĠT",
        -1.0
      ],
      [
        "id",
        -1.0
      ],
      [
        "st",
        -1.0
      ],
      [
        "ol",
        -1.0
      ],
      [
        "ce",
        -1.0
      ],
      [
        "ig",
        -1.0
      ],
      [
        "Ġfor",
        -1.0
      ],
      [
        "ra",
        -1.0
      ],
      [
        "ch",
        -1.0
      ],
      [
        "ĠA",
        -1.0
      ],
      [
        "ur",
        -1.0
      ],
      [
        "ation",
        -1.0
      ],
      [
        "Ġon",
        -1.0
      ],
      [
        "ĠI",
        -1.0
      ],
      [
        "Ġst",
        -1.0
      ],
      [
        "Ġthat",
        -1.0
      ],
      [
        "ir",
        -1.0
      ],
      [
        "el",
        -1.0
      ],
      [
        "ver",
        -1.0
      ],
      [
        "ul",
        -1.0
      ],
      [
        "Ġit",
        -1.0
      ],
      [
        "Ġare",
        -1.0
      ],
      [
        "ay",
        -1.0
      ],
      [
        "ith",
        -1.0
      ],
      [
        "Ġpro",
        -1.0
      ],
      [
        "se",
        -1.0
      ],
      [
        "if",
        -1.0
      ],
      [
        "Ġan",
        -1.0
      ],
      [
        "Ġwith",
        -1.0
      ],
      [
        "ĠS",
        -1.0
      ],
      [
        "am",
        -1.0
      ],
      [
        "Ġor",
        -1.0
      ],
      [
        "Ġcon",
        -1.0
      ],
      [
        ".ĊĊ",
        -1.0
      ],
      [
        "Ġas",
        -1.0
      ],
      [
        "est",
        -1.0
      ],
      [
        "od",
        -1.0
      ],
      [
        "Ġal",
        -1.0
      ],
      [
        "her",
        -1.0
      ],
      [
        "ĠC",
        -1.0
      ],
      [
        "ĊĊ",
        -1.0
      ],
      [
        "ad",
        -1.0
      ],
      [
        "ter",
        -1.0
      ],
      [
        "ke",
        -1.0
      ],
      [
        "un",
        -1.0
      ],
      [
        "Ġcan",
        -1.0
      ],
      [
        "Ġwh",
        -1.0
      ],
      [
        "ge",
        -1.0
      ],
      [
        "ure",
        -1.0
      ],
      [
        "ess",
        -1.0
      ],
      [
        "ĠThe",
        -1.0
      ],
      [
        "Ġha",
        -1.0
      ],
      [
        "ate",
        -1.0
      ],
      [
        "ill",
        -1.0
      ],
      [
        "Ġcom",
        -1.0
      ],
      [
        "um",
        -1.0
      ],
      [
        "ab",
        -1.0
      ],
      [
        "Ġex",
        -1.0
      ],
      [
        "ant",
        -1.0
      ],
      [
        "ers",
        -1.0
      ],
      [
        "ĠW",
        -1.0
      ],
      [
        "Ġhe",
        -1.0
      ],
      [
        "pe",
        -1.0
      ],
      [
        "ore",
        -1.0
      ],
      [
        "qu",
        -1.0
      ],
      [
        "igh",
        -1.0
      ],
      [
        "th",
        -1.0
      ],
      [
        "ive",
        -1.0
      ],
      [
        "'s",
        -1.0
      ],
      [
        "Ġus",
        -1.0
      ],
      [
        "em",
        -1.0
      ],
      [
        "Ġyour",
        -1.0
      ],
      [
        "Ġv",
        -1.0
      ],
      [
        "ies",
        -1.0
      ],
      [
        "ment",
        -1.0
      ],
      [
        "op",
        -1.0
      ],
      [
        "Ġwe",
        -1.0
      ],
      [
        "ity",
        -1.0
      ],
      [
        "ac",
        -1.0
      ],
      [
        "os",
        -1.0
      ],
      [
        "ain",
        -1.0
      ],
      [
        "ist",
        -1.0
      ],
      [
        "Ġde",
        -1.0
      ],
      [
        "Ġ(",
        -1.0
      ],
      [
        "ĠP",
        -1.0
      ],
      [
        "ld",
        -1.0
      ],
      [
        "rom",
        -1.0
      ],
      [
        "ĠM",
        -1.0
      ],
      [
        "ect",
        -1.0
      ],
      [
        "Ġne",
        -1.0
      ],
      [
        "ĠB",
        -1.0
      ],
      [
        "pp",
        -1.0
      ],
      [
        "Ġch",
        -1.0
      ],
      [
        "Ġen",
        -1.0
      ],
      [
        "Ġr",
        -1.0
      ],
      [
        "Ġse",
        -1.0
      ],
      [
        "Ġsu",
        -1.0
      ],
      [
        "Ġat",
        -1.0
      ],
      [
        "Ġsh",
        -1.0
      ],
      [
        "ial",
        -1.0
      ],
      [
        "Ġhave",
        -1.0
      ],
      [
        "iv",
        -1.0
      ],
      [
        "Ġfrom",
        -1.0
      ],
      [
        "ort",
        -1.0
      ],
      [
        "Ġle",
        -1.0
      ],
      [
        "ight",
        -1.0
      ],
      [
        "Ġdo",
        -1.0
      ],
      [
        "nt",
        -1.0
      ],
      [
        "Ġby",
        -1.0
      ],
      [
        "res",
        -1.0
      ],
      [
        "ĠD",
        -1.0
      ],
      [
        "Ġpl",
        -1.0
      ],
      [
        "ĠH",
        -1.0
      ],
      [
        "Ġnot",
        -1.0
      ],
      [
        "and",
        -1.0
      ],
      [
        "oc",
        -1.0
      ],
      [
        "art",
        -1.0
      ],
      [
        "per",
        -1.0
      ],
      [
        "ud",
        -1.0
      ],
      [
        "ĠF",
        -1.0
      ],
      [
        "ust",
        -1.0
      ],
      [
        "all",
        -1.0
      ],
      [
        "ome",
        -1.0
      ],
      [
        "ical",
        -1.0
      ],
      [
        "Ġthis",
        -1.0
      ],
      [
        "ri",
        -1.0
      ],
      [
        "ide",
        -1.0
      ],
      [
        "Ġab",
        -1.0
      ],
      [
        "rou",
        -1.0
      ],
      [
        "Ġu",
        -1.0
      ],
      [
        "ould",
        -1.0
      ],
      [
        "ine",
        -1.0
      ],
      [
        "ĠE",
        -1.0
      ],
      [
        "pt",
        -1.0
      ],
      [
        "out",
        -1.0
      ],
      [
        "act",
        -1.0
      ],
      [
        "og",
        -1.0
      ],
      [
        "ns",
        -1.0
      ],
      [
        "Ġim",
        -1.0
      ],
      [
        "ost",
        -1.0
      ],
      [
        "ard",
        -1.0
      ],
      [
        "Ġma",
        -1.0
      ],
      [
        "ions",
        -1.0
      ],
      [
        "ell",
        -1.0
      ],
      [
        "du",
        -1.0
      ],
      [
        "âĢ",
        -1.0
      ],
      [
        "ĠR",
        -1.0
      ],
      [
        "Ġwhe",
        -1.0
      ],
      [
        "red",
        -1.0
      ],
      [
        "Ġcomp",
        -1.0
      ],
      [
        "ich",
        -1.0
      ],
      [
        "Ġwill",
        -1.0
      ],
      [
        "Ġwor",
        -1.0
      ],
      [
        "ff",
        -1.0
      ],
      [
        "ast",
        -1.0
      ],
      [
        "gh",
        -1.0
      ],
      [
        "our",
        -1.0
      ],
      [
        "Ġthey",
        -1.0
      ],
      [
        "Ġk",
        -1.0
      ],
      [
        "Ġint",
        -1.0
      ],
      [
        "Ġtheir",
        -1.0
      ],
      [
        "ther",
        -1.0
      ],
      [
        "ood",
        -1.0
      ],
      [
        "iz",
        -1.0
      ],
      [
        "age",
        -1.0
      ],
      [
        "king",
        -1.0
      ],
      [
        "pl",
        -1.0
      ],
      [
        "Ġad",
        -1.0
      ],
      [
        "ĠN",
        -1.0
      ],
      [
        "The",
        -1.0
      ],
      [
        "ater",
        -1.0
      ],
      [
        "ĠL",
        -1.0
      ],
      [
        "Ġall",
        -1.0
      ],
      [
        "Ġwas",
        -1.0
      ],
      [
        "ag",
        -1.0
      ],
      [
        "ated",
        -1.0
      ],
      [
        "able",
        -1.0
      ],
      [
        "Ġmore",
        -1.0
      ],
      [
        "end",
        -1.0
      ],
      [
        "ĠG",
        -1.0
      ],
      [
        "Ġcont",
        -1.0
      ],
      [
        "ere",
        -1.0
      ],
      [
        "hat",
        -1.0
      ],
      [
        "ult",
        -1.0
      ],
      [
        "ans",
        -1.0
      ],
      [
        "ib",
        -1.0
      ],
      [
        "Ġbut",
        -1.0
      ],
      [
        "ally",
        -1.0
      ],
      [
        "Ġso",
        -1.0
      ],
      [
        "oo",
        -1.0
      ],
      [
        "ks",
        -1.0
      ],
      [
        "ip",
        -1.0
      ],
      [
        "ous",
        -1.0
      ],
      [
        "ĠO",
        -1.0
      ],
      [
        "Ġinc",
        -1.0
      ],
      [
        "ru",
        -1.0
      ],
      [
        "wer",
        -1.0
      ],
      [
        "ind",
        -1.0
      ],
      [
        "Ġme",
        -1.0
      ],
      [
        "so",
        -1.0
      ],
      [
        "ep",
        -1.0
      ],
      [
        "Ġte",
        -1.0
      ],
      [
        "ry",
        -1.0
      ],
      [
        "Ġj",
        -1.0
      ],
      [
        "ike",
        -1.0
      ],
      [
        "Ġres",
        -1.0
      ],
      [
        "estion",
        -1.0
      ],
      [
        "cc",
        -1.0
      ],
      [
        "are",
        -1.0
      ],
      [
        "Ġcl",
        -1.0
      ],
      [
        "ong",
        -1.0
      ],
      [
        "Qu",
        -1.0
      ],
      [
        "ance",
        -1.0
      ],
      [
        "orm",
        -1.0
      ],
      [
        "Ġdis",
        -1.0
      ],
      [
        "Ġhas",
        -1.0
      ],
      [
        "Ġwhich",
        -1.0
      ],
      [
        "vel",
        -1.0
      ],
      [
        "Ġout",
        -1.0
      ],
      [
        "Ġ\"",
        -1.0
      ],
      [
        "ations",
        -1.0
      ],
      [
        "Ġsp",
        -1.0
      ],
      [
        "Ġimp",
        -1.0
      ],
      [
        "Ġun",
        -1.0
      ],
      [
        "ear",
        -1.0
      ],
      [
        "his",
        -1.0
      ],
      [
        "ie",
        -1.0
      ],
      [
        "Ġother",
        -1.0
      ],
      [
        "20",
        -1.0
      ],
      [
        "one",
        -1.0
      ],
      [
        "nswer",
        -1.0
      ],
      [
        "Ġalso",
        -1.0
      ],
      [
        "av",
        -1.0
      ],
      [
        "ents",
        -1.0
      ],
      [
        "Ġman",
        -1.0
      ],
      [
        "Question",
        -1.0
      ],
      [
        "'t",
        -1.0
      ],
      [
        "Ġone",
        -1.0
      ],
      [
        "Ġtim",
        -1.0
      ],
      [
        "ction",
        -1.0
      ],
      [
        "Ġspe",
        -1.0
      ],
      [
        "aus",
        -1.0
      ],
      [
        "reat",
        -1.0
      ],
      [
        "ĠAnswer",
        -1.0
      ],
      [
        "very",
        -1.0
      ],
      [
        "ens",
        -1.0
      ],
      [
        "ence",
        -1.0
      ],
      [
        "ign",
        -1.0
      ],
      [
        "ace",
        -1.0
      ],
      [
        "ice",
        -1.0
      ],
      [
        "ach",
        -1.0
      ],
      [
        "ap",
        -1.0
      ],
      [
        "Ġfe",
        -1.0
      ],
      [
        "ase",
        -1.0
      ],
      [
        "ition",
        -1.0
      ],
      [
        "ass",
        -1.0
      ],
      [
        "ĠIn",
        -1.0
      ],
      [
        "Ġthem",
        -1.0
      ],
      [
        "ĠU",
        -1.0
      ],
      [
        "Ġabout",
        -1.0
      ],
      [
        "Ġper",
        -1.0
      ],
      [
        "low",
        -1.0
      ],
      [
        "ack",
        -1.0
      ],
      [
        "ary",
        -1.0
      ],
      [
        "ors",
        -1.0
      ],
      [
        "Ġlike",
        -1.0
      ],
      [
        "ĠIt",
        -1.0
      ],
      [
        "Ġpre",
        -1.0
      ],
      [
        "Ġup",
        -1.0
      ],
      [
        "ress",
        -1.0
      ],
      [
        "Ġsc",
        -1.0
      ],
      [
        "Ġro",
        -1.0
      ],
      [
        "iff",
        -1.0
      ],
      [
        "Ġqu",
        -1.0
      ],
      [
        "Ġsome",
        -1.0
      ],
      [
        "Ġwhen",
        -1.0
      ],
      [
        "now",
        -1.0
      ],
      [
        "ire",
        -1.0
      ],
      [
        "Ġev",
        -1.0
      ],
      [
        "ue",
        -1.0
      ],
      [
        "ile",
        -1.0
      ],
      [
        "ild",
        -1.0
      ],
      [
        "Ġsy",
        -1.0
      ],
      [
        "Ġif",
        -1.0
      ],
      [
        "ia",
        -1.0
      ],
      [
        "ite",
        -1.0
      ],
      [
        "ound",
        -1.0
      ],
      [
        "Ġpart",
        -1.0
      ],
      [
        "Ġneed",
        -1.0
      ],
      [
        "ces",
        -1.0
      ],
      [
        "ose",
        -1.0
      ],
      [
        "Ġdiff",
        -1.0
      ],
      [
        "Ġinto",
        -1.0
      ],
      [
        "Ġuse",
        -1.0
      ],
      [
        "Ġtime",
        -1.0
      ],
      [
        "Ġcol",
        -1.0
      ],
      [
        "Ġmay",
        -1.0
      ],
      [
        "Ġhow",
        -1.0
      ],
      [
        "ĠThis",
        -1.0
      ],
      [
        "Ġapp",
        -1.0
      ],
      [
        "form",
        -1.0
      ],
      [
        "ak",
        -1.0
      ],
      [
        "..",
        -1.0
      ],
      [
        "ric",
        -1.0
      ],
      [
        "ĠY",
        -1.0
      ],
      [
        "ame",
        -1.0
      ],
      [
        "ll",
        -1.0
      ],
      [
        "Ġthan",
        -1.0
      ],
      [
        "ber",
        -1.0
      ],
      [
        "ays",
        -1.0
      ],
      [
        "ail",
        -1.0
      ],
      [
        "Ġthere",
        -1.0
      ],
      [
        "Ġhel",
        -1.0
      ],
      [
        "Ġits",
        -1.0
      ],
      [
        "row",
        -1.0
      ],
      [
        "Ġar",
        -1.0
      ],
      [
        "Ġbec",
        -1.0
      ],
      [
        "ings",
        -1.0
      ],
      [
        "lect",
        -1.0
      ],
      [
        "ree",
        -1.0
      ],
      [
        "Ġany",
        -1.0
      ],
      [
        "Ġtra",
        -1.0
      ],
      [
        "Ġpe",
        -1.0
      ],
      [
        "Ġover",
        -1.0
      ],
      [
        "ĠWhat",
        -1.0
      ],
      [
        "ause",
        -1.0
      ],
      [
        "Ġrec",
        -1.0
      ],
      [
        "Ġbl",
        -1.0
      ],
      [
        "Ġhelp",
        -1.0
      ],
      [
        "ific",
        -1.0
      ],
      [
        "als",
        -1.0
      ],
      [
        "Ġcomm",
        -1.0
      ],
      [
        "Ġbet",
        -1.0
      ],
      [
        "ating",
        -1.0
      ],
      [
        "cess",
        -1.0
      ],
      [
        "Ġcons",
        -1.0
      ],
      [
        "Ġspec",
        -1.0
      ],
      [
        "Ġknow",
        -1.0
      ],
      [
        "Ġthese",
        -1.0
      ],
      [
        "nder",
        -1.0
      ],
      [
        "ang",
        -1.0
      ],
      [
        "Ġgo",
        -1.0
      ],
      [
        "ove",
        -1.0
      ],
      [
        "ord",
        -1.0
      ],
      [
        "les",
        -1.0
      ],
      [
        "int",
        -1.0
      ],
      [
        "ough",
        -1.0
      ],
      [
        "ond",
        -1.0
      ],
      [
        "Ġget",
        -1.0
      ],
      [
        "ish",
        -1.0
      ],
      [
        "olog",
        -1.0
      ],
      [
        "Ġtr",
        -1.0
      ],
      [
        "hy",
        -1.0
      ],
      [
        "te",
        -1.0
      ],
      [
        "we",
        -1.0
      ],
      [
        "ake",
        -1.0
      ],
      [
        "Ġdes",
        -1.0
      ],
      [
        "ĠâĢ",
        -1.0
      ],
      [
        "Ġstud",
        -1.0
      ],
      [
        "Ġwater",
        -1.0
      ],
      [
        "ons",
        -1.0
      ],
      [
        "rough",
        -1.0
      ],
      [
        "Ġsa",
        -1.0
      ],
      [
        "Ġind",
        -1.0
      ],
      [
        "stem",
        -1.0
      ],
      [
        "Ġused",
        -1.0
      ],
      [
        "Ġprodu",
        -1.0
      ],
      [
        "Ġour",
        -1.0
      ],
      [
        "ount",
        -1.0
      ],
      [
        "Ġwhat",
        -1.0
      ],
      [
        "Ġco",
        -1.0
      ],
      [
        "ub",
        -1.0
      ],
      [
        "ory",
        -1.0
      ],
      [
        "Ġeff",
        -1.0
      ],
      [
        "ms",
        -1.0
      ],
      [
        "ature",
        -1.0
      ],
      [
        "ular",
        -1.0
      ],
      [
        "Ġra",
        -1.0
      ],
      [
        "Ġdiffere",
        -1.0
      ],
      [
        "ĠJ",
        -1.0
      ],
      [
        "ari",
        -1.0
      ],
      [
        "Ġgen",
        -1.0
      ],
      [
        "Ġfl",
        -1.0
      ],
      [
        "Ġmost",
        -1.0
      ],
      [
        "alth",
        -1.0
      ],
      [
        "Ġyear",
        -1.0
      ],
      [
        "lud",
        -1.0
      ],
      [
        "Ġoff",
        -1.0
      ],
      [
        "ning",
        -1.0
      ],
      [
        "ook",
        -1.0
      ],
      [
        "ting",
        -1.0
      ],
      [
        "ople",
        -1.0
      ],
      [
        "round",
        -1.0
      ],
      [
        "Ġact",
        -1.0
      ],
      [
        "Ġacc",
        -1.0
      ],
      [
        "Ġsuch",
        -1.0
      ],
      [
        "vers",
        -1.0
      ],
      [
        "Ġwho",
        -1.0
      ],
      [
        "ck",
        -1.0
      ],
      [
        "ick",
        -1.0
      ],
      [
        "ne",
        -1.0
      ],
      [
        "erv",
        -1.0
      ],
      [
        "Ġprov",
        -1.0
      ],
      [
        "Ġam",
        -1.0
      ],
      [
        "Ġunder",
        -1.0
      ],
      [
        "Ġmake",
        -1.0
      ],
      [
        "Ġwere",
        -1.0
      ],
      [
        "ient",
        -1.0
      ],
      [
        "ple",
        -1.0
      ],
      [
        "Ġag",
        -1.0
      ],
      [
        "Ġadd",
        -1.0
      ],
      [
        "Ġnew",
        -1.0
      ],
      [
        "eth",
        -1.0
      ],
      [
        "Ġshould",
        -1.0
      ],
      [
        "Ġsm",
        -1.0
      ],
      [
        "ates",
        -1.0
      ],
      [
        "xt",
        -1.0
      ],
      [
        "Ġtw",
        -1.0
      ],
      [
        "ility",
        -1.0
      ],
      [
        "ful",
        -1.0
      ],
      [
        "ĠSt",
        -1.0
      ],
      [
        "Ġbeen",
        -1.0
      ],
      [
        "10",
        -1.0
      ],
      [
        "Ġem",
        -1.0
      ],
      [
        "Ġcar",
        -1.0
      ],
      [
        "ject",
        -1.0
      ],
      [
        "Ġpeople",
        -1.0
      ],
      [
        "Ġwould",
        -1.0
      ],
      [
        "uring",
        -1.0
      ],
      [
        "irst",
        -1.0
      ],
      [
        "oth",
        -1.0
      ],
      [
        "ange",
        -1.0
      ],
      [
        "Ġinclud",
        -1.0
      ],
      [
        "erg",
        -1.0
      ],
      [
        "Ġthrough",
        -1.0
      ],
      [
        "Ġsystem",
        -1.0
      ],
      [
        "ments",
        -1.0
      ],
      [
        "ph",
        -1.0
      ],
      [
        "Ġwork",
        -1.0
      ],
      [
        "oss",
        -1.0
      ],
      [
        "Ġty",
        -1.0
      ],
      [
        "Ġjust",
        -1.0
      ],
      [
        "Ġdi",
        -1.0
      ],
      [
        "ov",
        -1.0
      ],
      [
        "hes",
        -1.0
      ],
      [
        "Ġpr",
        -1.0
      ],
      [
        "ble",
        -1.0
      ],
      [
        "Ġonly",
        -1.0
      ],
      [
        "ĠK",
        -1.0
      ],
      [
        "ics",
        -1.0
      ],
      [
        "Ġno",
        -1.0
      ],
      [
        "ower",
        -1.0
      ],
      [
        "Ġmy",
        -1.0
      ],
      [
        "Ġpo",
        -1.0
      ],
      [
        "ative",
        -1.0
      ],
      [
        "its",
        -1.0
      ],
      [
        "Ġplant",
        -1.0
      ],
      [
        "ities",
        -1.0
      ],
      [
        "ise",
        -1.0
      ],
      [
        "ob",
        -1.0
      ],
      [
        "ced",
        -1.0
      ],
      [
        "Ġinter",
        -1.0
      ],
      [
        "Ġke",
        -1.0
      ],
      [
        "ĠV",
        -1.0
      ],
      [
        "ten",
        -1.0
      ],
      [
        "Ġmany",
        -1.0
      ],
      [
        "Ġsur",
        -1.0
      ],
      [
        "ark",
        -1.0
      ],
      [
        "Ġhigh",
        -1.0
      ],
      [
        "Ġreg",
        -1.0
      ],
      [
        "Ġwell",
        -1.0
      ],
      [
        "Ġrel",
        -1.0
      ],
      [
        "velop",
        -1.0
      ],
      [
        "ible",
        -1.0
      ],
      [
        "hen",
        -1.0
      ],
      [
        "19",
        -1.0
      ],
      [
        "Ġhealth",
        -1.0
      ],
      [
        "own",
        -1.0
      ],
      [
        "Ġbu",
        -1.0
      ],
      [
        "old",
        -1.0
      ],
      [
        "ual",
        -1.0
      ],
      [
        "fore",
        -1.0
      ],
      [
        "Ġtwo",
        -1.0
      ],
      [
        "Ġdoes",
        -1.0
      ],
      [
        "Ġdifferent",
        -1.0
      ],
      [
        "chn",
        -1.0
      ],
      [
        "tain",
        -1.0
      ],
      [
        "ract",
        -1.0
      ],
      [
        "Ġac",
        -1.0
      ],
      [
        "Ġfirst",
        -1.0
      ],
      [
        "fter",
        -1.0
      ],
      [
        "ink",
        -1.0
      ],
      [
        "lic",
        -1.0
      ],
      [
        "Ġexper",
        -1.0
      ],
      [
        "Ġrem",
        -1.0
      ],
      [
        "Ġwhere",
        -1.0
      ],
      [
        "ience",
        -1.0
      ],
      [
        "ren",
        -1.0
      ],
      [
        "ween",
        -1.0
      ],
      [
        "ram",
        -1.0
      ],
      [
        "Ġ-",
        -1.0
      ],
      [
        "Ġmod",
        -1.0
      ],
      [
        "ft",
        -1.0
      ],
      [
        "Ġtrans",
        -1.0
      ],
      [
        "ased",
        -1.0
      ],
      [
        "Ġlong",
        -1.0
      ],
      [
        "hed",
        -1.0
      ],
      [
        "Ġdevelop",
        -1.0
      ],
      [
        "Ġche",
        -1.0
      ],
      [
        "Ġway",
        -1.0
      ],
      [
        "Ġimport",
        -1.0
      ],
      [
        "get",
        -1.0
      ],
      [
        "Ġrep",
        -1.0
      ],
      [
        "uch",
        -1.0
      ],
      [
        "Ġob",
        -1.0
      ],
      [
        "Ġbetween",
        -1.0
      ],
      [
        "cy",
        -1.0
      ],
      [
        "Ġsim",
        -1.0
      ],
      [
        "ize",
        -1.0
      ],
      [
        "Ġprocess",
        -1.0
      ],
      [
        "Ġsupp",
        -1.0
      ],
      [
        "ife",
        -1.0
      ],
      [
        "arm",
        -1.0
      ],
      [
        "Ġpat",
        -1.0
      ],
      [
        "Ġvari",
        -1.0
      ],
      [
        "Ġthen",
        -1.0
      ],
      [
        "Ġdec",
        -1.0
      ],
      [
        "ually",
        -1.0
      ],
      [
        "Ġusing",
        -1.0
      ],
      [
        "rit",
        -1.0
      ],
      [
        "ade",
        -1.0
      ],
      [
        "erm",
        -1.0
      ],
      [
        "ĠIf",
        -1.0
      ],
      [
        "In",
        -1.0
      ],
      [
        "ential",
        -1.0
      ],
      [
        "ef",
        -1.0
      ],
      [
        "Ġcould",
        -1.0
      ],
      [
        "ĠCh",
        -1.0
      ],
      [
        "?Ċ",
        -1.0
      ],
      [
        "Ġinv",
        -1.0
      ],
      [
        "Ġfood",
        -1.0
      ],
      [
        "Ġbecause",
        -1.0
      ],
      [
        "Ġdet",
        -1.0
      ],
      [
        "Ġass",
        -1.0
      ],
      [
        "Ġinst",
        -1.0
      ],
      [
        "ts",
        -1.0
      ],
      [
        "Ġinf",
        -1.0
      ],
      [
        "Ġeven",
        -1.0
      ],
      [
        "rib",
        -1.0
      ],
      [
        "Ġevery",
        -1.0
      ],
      [
        "00",
        -1.0
      ],
      [
        "iron",
        -1.0
      ],
      [
        "ious",
        -1.0
      ],
      [
        "Ġgrow",
        -1.0
      ],
      [
        "Ġatt",
        -1.0
      ],
      [
        "Ġcre",
        -1.0
      ],
      [
        "iss",
        -1.0
      ],
      [
        "wn",
        -1.0
      ],
      [
        "Ġph",
        -1.0
      ],
      [
        "ically",
        -1.0
      ],
      [
        "Ġform",
        -1.0
      ],
      [
        "ever",
        -1.0
      ],
      [
        "Ġmain",
        -1.0
      ],
      [
        "ĠHow",
        -1.0
      ],
      [
        "Ġtechn",
        -1.0
      ],
      [
        "Ġeffect",
        -1.0
      ],
      [
        "Ġvery",
        -1.0
      ],
      [
        "ĠThey",
        -1.0
      ],
      [
        "ily",
        -1.0
      ],
      [
        "gan",
        -1.0
      ],
      [
        "Ġsub",
        -1.0
      ],
      [
        "Ġsee",
        -1.0
      ],
      [
        "'re",
        -1.0
      ],
      [
        "pect",
        -1.0
      ],
      [
        "ps",
        -1.0
      ],
      [
        "ines",
        -1.0
      ],
      [
        "ural",
        -1.0
      ],
      [
        "iqu",
        -1.0
      ],
      [
        "oy",
        -1.0
      ],
      [
        "arch",
        -1.0
      ],
      [
        "ution",
        -1.0
      ],
      [
        "ĠYou",
        -1.0
      ],
      [
        ").",
        -1.0
      ],
      [
        "ins",
        -1.0
      ],
      [
        "Ġrequ",
        -1.0
      ],
      [
        "Ġlear",
        -1.0
      ],
      [
        "ool",
        -1.0
      ],
      [
        "Ġmuch",
        -1.0
      ],
      [
        "Ġeach",
        -1.0
      ],
      [
        "Ġext",
        -1.0
      ],
      [
        "Ġsk",
        -1.0
      ],
      [
        "ures",
        -1.0
      ],
      [
        "Ġnum",
        -1.0
      ],
      [
        "Ġlar",
        -1.0
      ],
      [
        "Ġrese",
        -1.0
      ],
      [
        "Ġsign",
        -1.0
      ],
      [
        "Ġhum",
        -1.0
      ],
      [
        "mer",
        -1.0
      ],
      [
        "ody",
        -1.0
      ],
      [
        "ness",
        -1.0
      ],
      [
        "ology",
        -1.0
      ],
      [
        "?ĊĊ",
        -1.0
      ],
      [
        "Ġins",
        -1.0
      ],
      [
        "Ġback",
        -1.0
      ],
      [
        "vent",
        -1.0
      ],
      [
        "Ġdon",
        -1.0
      ],
      [
        "gg",
        -1.0
      ],
      [
        "Ġexp",
        -1.0
      ],
      [
        "Ġlight",
        -1.0
      ],
      [
        "Ġimportant",
        -1.0
      ],
      [
        "Ġgener",
        -1.0
      ],
      [
        "Ġgood",
        -1.0
      ],
      [
        "cial",
        -1.0
      ],
      [
        "Ġwant",
        -1.0
      ],
      [
        "ian",
        -1.0
      ],
      [
        "Ġgra",
        -1.0
      ],
      [
        "ron",
        -1.0
      ],
      [
        "Ġset",
        -1.0
      ],
      [
        "Ġexam",
        -1.0
      ],
      [
        "ĠâĢĵ",
        -1.0
      ],
      [
        "ata",
        -1.0
      ],
      [
        "Ġhad",
        -1.0
      ],
      [
        "Ġfol",
        -1.0
      ],
      [
        "Ġyears",
        -1.0
      ],
      [
        "Ġmin",
        -1.0
      ],
      [
        "Ġsol",
        -1.0
      ],
      [
        "Ġpers",
        -1.0
      ],
      [
        "Ġdisc",
        -1.0
      ],
      [
        "ruct",
        -1.0
      ],
      [
        "Ġchild",
        -1.0
      ],
      [
        "Ġincre",
        -1.0
      ],
      [
        "viron",
        -1.0
      ],
      [
        "Ġfind",
        -1.0
      ],
      [
        "ergy",
        -1.0
      ],
      [
        "Ġsmall",
        -1.0
      ],
      [
        "uc",
        -1.0
      ],
      [
        "Ġfun",
        -1.0
      ],
      [
        "stand",
        -1.0
      ],
      [
        "elf",
        -1.0
      ],
      [
        "--",
        -1.0
      ],
      [
        "Ġwhile",
        -1.0
      ],
      [
        "Ġav",
        -1.0
      ],
      [
        "ety",
        -1.0
      ],
      [
        "Ġhis",
        -1.0
      ],
      [
        "ss",
        -1.0
      ],
      [
        "Ġcle",
        -1.0
      ],
      [
        "ec",
        -1.0
      ],
      [
        "Ġafter",
        -1.0
      ],
      [
        "),",
        -1.0
      ],
      [
        "Ġear",
        -1.0
      ],
      [
        "Ġpres",
        -1.0
      ],
      [
        "Ġelect",
        -1.0
      ],
      [
        "Ġve",
        -1.0
      ],
      [
        "ues",
        -1.0
      ],
      [
        "ĠWh",
        -1.0
      ],
      [
        "Ġdog",
        -1.0
      ],
      [
        "Ġstart",
        -1.0
      ],
      [
        "Ġloc",
        -1.0
      ],
      [
        "ality",
        -1.0
      ],
      [
        "Ġmed",
        -1.0
      ],
      [
        "Ġtake",
        -1.0
      ],
      [
        "ational",
        -1.0
      ],
      [
        "other",
        -1.0
      ],
      [
        "ied",
        -1.0
      ],
      [
        "Ġresult",
        -1.0
      ],
      [
        "Ġair",
        -1.0
      ],
      [
        "Ġfound",
        -1.0
      ],
      [
        "Ġcur",
        -1.0
      ],
      [
        "Ġgl",
        -1.0
      ],
      [
        "Ġref",
        -1.0
      ],
      [
        "Ġdesign",
        -1.0
      ],
      [
        "Ġbeing",
        -1.0
      ],
      [
        "ix",
        -1.0
      ],
      [
        "Ġsec",
        -1.0
      ],
      [
        "ists",
        -1.0
      ],
      [
        "ices",
        -1.0
      ],
      [
        "Ġart",
        -1.0
      ],
      [
        "Ġcell",
        -1.0
      ],
      [
        "urn",
        -1.0
      ],
      [
        "Ġworld",
        -1.0
      ],
      [
        "ĠWe",
        -1.0
      ],
      [
        "Ġlevel",
        -1.0
      ],
      [
        "nce",
        -1.0
      ],
      [
        "ds",
        -1.0
      ],
      [
        "tle",
        -1.0
      ],
      [
        "Ġfact",
        -1.0
      ],
      [
        "ases",
        -1.0
      ],
      [
        "Ġeas",
        -1.0
      ],
      [
        "Ġhand",
        -1.0
      ],
      [
        "aterial",
        -1.0
      ],
      [
        "cept",
        -1.0
      ],
      [
        "Ġcall",
        -1.0
      ],
      [
        "Ġbefore",
        -1.0
      ],
      [
        "Ġfollow",
        -1.0
      ],
      [
        "Ġduring",
        -1.0
      ],
      [
        "ĠUn",
        -1.0
      ],
      [
        "Ġval",
        -1.0
      ],
      [
        "Ġaround",
        -1.0
      ],
      [
        "Ġbre",
        -1.0
      ],
      [
        "ock",
        -1.0
      ],
      [
        "Ġpot",
        -1.0
      ],
      [
        "vironment",
        -1.0
      ],
      [
        "Ġher",
        -1.0
      ],
      [
        "Ġcomple",
        -1.0
      ],
      [
        "Ġcor",
        -1.0
      ],
      [
        "Ġinform",
        -1.0
      ],
      [
        "ages",
        -1.0
      ],
      [
        "Ġdep",
        -1.0
      ],
      [
        "Ġprog",
        -1.0
      ],
      [
        "Ġsame",
        -1.0
      ],
      [
        "eg",
        -1.0
      ],
      [
        "Ġallow",
        -1.0
      ],
      [
        "Ġdist",
        -1.0
      ],
      [
        "ider",
        -1.0
      ],
      [
        "Ġproble",
        -1.0
      ],
      [
        "ives",
        -1.0
      ],
      [
        "Ġdown",
        -1.0
      ],
      [
        "Ġbr",
        -1.0
      ],
      [
        "Ġshe",
        -1.0
      ],
      [
        "Ġstr",
        -1.0
      ],
      [
        "Ġown",
        -1.0
      ],
      [
        "Ġtem",
        -1.0
      ],
      [
        "ward",
        -1.0
      ],
      [
        "omm",
        -1.0
      ],
      [
        "rop",
        -1.0
      ],
      [
        "els",
        -1.0
      ],
      [
        "ized",
        -1.0
      ],
      [
        "Ġpartic",
        -1.0
      ],
      [
        "dition",
        -1.0
      ],
      [
        "Ġthose",
        -1.0
      ],
      [
        "Ġredu",
        -1.0
      ],
      [
        "Ġtyp",
        -1.0
      ],
      [
        "Ġexpl",
        -1.0
      ],
      [
        "Ġmon",
        -1.0
      ],
      [
        "ection",
        -1.0
      ],
      [
        "tern",
        -1.0
      ],
      [
        "Ġent",
        -1.0
      ],
      [
        "Ġlife",
        -1.0
      ],
      [
        "cer",
        -1.0
      ],
      [
        "cl",
        -1.0
      ],
      [
        "chool",
        -1.0
      ],
      [
        "Ġlead",
        -1.0
      ],
      [
        ".\"",
        -1.0
      ],
      [
        "air",
        -1.0
      ],
      [
        "Ġanim",
        -1.0
      ],
      [
        "ys",
        -1.0
      ],
      [
        "Ġoften",
        -1.0
      ],
      [
        "Ġbo",
        -1.0
      ],
      [
        "Ġright",
        -1.0
      ],
      [
        "Ġboth",
        -1.0
      ],
      [
        "Ġshow",
        -1.0
      ],
      [
        "Ġenergy",
        -1.0
      ],
      [
        "aw",
        -1.0
      ],
      [
        "Ġkeep",
        -1.0
      ],
      [
        "ident",
        -1.0
      ],
      [
        "Ġcontro",
        -1.0
      ],
      [
        "Ġaut",
        -1.0
      ],
      [
        "Ġbest",
        -1.0
      ],
      [
        "Ġdata",
        -1.0
      ],
      [
        "ather",
        -1.0
      ],
      [
        "Ġmaterial",
        -1.0
      ],
      [
        "io",
        -1.0
      ],
      [
        "ew",
        -1.0
      ],
      [
        "Ġread",
        -1.0
      ],
      [
        "Ġpower",
        -1.0
      ],
      [
        "ty",
        -1.0
      ],
      [
        "Ġtoo",
        -1.0
      ],
      [
        "ets",
        -1.0
      ],
      [
        "Ġbody",
        -1.0
      ],
      [
        "ides",
        -1.0
      ],
      [
        "Ġopt",
        -1.0
      ],
      [
        "ale",
        -1.0
      ],
      [
        "Ġgu",
        -1.0
      ],
      [
        "Ġed",
        -1.0
      ],
      [
        "ger",
        -1.0
      ],
      [
        "Ġvis",
        -1.0
      ],
      [
        "Ġmade",
        -1.0
      ],
      [
        "ium",
        -1.0
      ],
      [
        "iew",
        -1.0
      ],
      [
        "ien",
        -1.0
      ],
      [
        "Ġperson",
        -1.0
      ],
      [
        "ĠFor",
        -1.0
      ],
      [
        "Ġchar",
        -1.0
      ],
      [
        "read",
        -1.0
      ],
      [
        "Ġcat",
        -1.0
      ],
      [
        "Ġless",
        -1.0
      ],
      [
        "atter",
        -1.0
      ],
      [
        "Ġ'",
        -1.0
      ],
      [
        "Ġcommon",
        -1.0
      ],
      [
        "Ġpop",
        -1.0
      ],
      [
        "Ġsom",
        -1.0
      ],
      [
        "ving",
        -1.0
      ],
      [
        "Ġcare",
        -1.0
      ],
      [
        "Ġprot",
        -1.0
      ],
      [
        "Ġend",
        -1.0
      ],
      [
        "Ġdr",
        -1.0
      ],
      [
        "ull",
        -1.0
      ],
      [
        "ĠPro",
        -1.0
      ],
      [
        "Ġproduct",
        -1.0
      ],
      [
        ":Ċ",
        -1.0
      ],
      [
        "Ġposs",
        -1.0
      ],
      [
        "ted",
        -1.0
      ],
      [
        "Ġplay",
        -1.0
      ],
      [
        "Ġmet",
        -1.0
      ],
      [
        "-b",
        -1.0
      ],
      [
        "12",
        -1.0
      ],
      [
        "Ġtest",
        -1.0
      ],
      [
        "iel",
        -1.0
      ],
      [
        "rain",
        -1.0
      ],
      [
        "iving",
        -1.0
      ],
      [
        "ars",
        -1.0
      ],
      [
        "reen",
        -1.0
      ],
      [
        "What",
        -1.0
      ],
      [
        "ave",
        -1.0
      ],
      [
        "Ġenvironment",
        -1.0
      ],
      [
        "ĠAs",
        -1.0
      ],
      [
        "imate",
        -1.0
      ],
      [
        "ional",
        -1.0
      ],
      [
        "Ġeng",
        -1.0
      ],
      [
        "Ġadv",
        -1.0
      ],
      [
        "ĠHe",
        -1.0
      ],
      [
        "Ġunderstand",
        -1.0
      ],
      [
        "aking",
        -1.0
      ],
      [
        "ier",
        -1.0
      ],
      [
        "ited",
        -1.0
      ],
      [
        "ĠAl",
        -1.0
      ],
      [
        "eng",
        -1.0
      ],
      [
        "Ġday",
        -1.0
      ],
      [
        "Ġpoint",
        -1.0
      ],
      [
        "Ġdef",
        -1.0
      ],
      [
        "Ġhome",
        -1.0
      ],
      [
        "ĠAn",
        -1.0
      ],
      [
        "Ġresp",
        -1.0
      ],
      [
        "acter",
        -1.0
      ],
      [
        "Ġinformation",
        -1.0
      ],
      [
        "rent",
        -1.0
      ],
      [
        "hys",
        -1.0
      ],
      [
        "ath",
        -1.0
      ],
      [
        "ute",
        -1.0
      ],
      [
        "Ġcommun",
        -1.0
      ],
      [
        "Ġsaid",
        -1.0
      ],
      [
        "ivers",
        -1.0
      ],
      [
        "Ġlit",
        -1.0
      ],
      [
        "cing",
        -1.0
      ],
      [
        "Ġspecies",
        -1.0
      ],
      [
        "led",
        -1.0
      ],
      [
        "Ġorgan",
        -1.0
      ],
      [
        "up",
        -1.0
      ],
      [
        "ethod",
        -1.0
      ],
      [
        "ason",
        -1.0
      ],
      [
        "Ġtreat",
        -1.0
      ],
      [
        "ves",
        -1.0
      ],
      [
        "ved",
        -1.0
      ],
      [
        ",\"",
        -1.0
      ],
      [
        "Ġequ",
        -1.0
      ],
      [
        "Ġproper",
        -1.0
      ],
      [
        "ivid",
        -1.0
      ],
      [
        "Ġnumber",
        -1.0
      ],
      [
        "ict",
        -1.0
      ],
      [
        "rap",
        -1.0
      ],
      [
        "der",
        -1.0
      ],
      [
        "Ġsaf",
        -1.0
      ],
      [
        "perature",
        -1.0
      ],
      [
        "Ġben",
        -1.0
      ],
      [
        "ids",
        -1.0
      ],
      [
        "Ġens",
        -1.0
      ],
      [
        "oci",
        -1.0
      ],
      [
        "any",
        -1.0
      ],
      [
        "Ġnow",
        -1.0
      ],
      [
        "ven",
        -1.0
      ],
      [
        "Ġmight",
        -1.0
      ],
      [
        "ands",
        -1.0
      ],
      [
        "How",
        -1.0
      ],
      [
        "the",
        -1.0
      ],
      [
        "ork",
        -1.0
      ],
      [
        "-s",
        -1.0
      ],
      [
        "Ġplan",
        -1.0
      ],
      [
        "Ġprovide",
        -1.0
      ],
      [
        "ont",
        -1.0
      ],
      [
        "ĠThese",
        -1.0
      ],
      [
        "Ġlook",
        -1.0
      ],
      [
        "Ġpol",
        -1.0
      ],
      [
        "Ġserv",
        -1.0
      ],
      [
        "Ġstudy",
        -1.0
      ],
      [
        "Ġap",
        -1.0
      ],
      [
        "Ġdire",
        -1.0
      ],
      [
        "Ġresearch",
        -1.0
      ],
      [
        "Ġfam",
        -1.0
      ],
      [
        "Ġsupport",
        -1.0
      ],
      [
        "Ġaw",
        -1.0
      ],
      [
        "Ġbetter",
        -1.0
      ],
      [
        "bs",
        -1.0
      ],
      [
        "Ġcent",
        -1.0
      ],
      [
        "ĠTh",
        -1.0
      ],
      [
        "hip",
        -1.0
      ],
      [
        "Ġimpro",
        -1.0
      ],
      [
        "ining",
        -1.0
      ],
      [
        "cent",
        -1.0
      ],
      [
        "ng",
        -1.0
      ],
      [
        "ash",
        -1.0
      ],
      [
        "Ġdid",
        -1.0
      ],
      [
        "Ġwithout",
        -1.0
      ],
      [
        "Ġgreat",
        -1.0
      ],
      [
        "Ġpur",
        -1.0
      ],
      [
        "Ġclass",
        -1.0
      ],
      [
        "This",
        -1.0
      ],
      [
        "Ġmethod",
        -1.0
      ],
      [
        "ired",
        -1.0
      ],
      [
        "Ġop",
        -1.0
      ],
      [
        "und",
        -1.0
      ],
      [
        "itions",
        -1.0
      ],
      [
        "Ġstudents",
        -1.0
      ],
      [
        "ots",
        -1.0
      ],
      [
        "inal",
        -1.0
      ],
      [
        "Ġbeh",
        -1.0
      ],
      [
        "Ġaff",
        -1.0
      ],
      [
        "ĠAnd",
        -1.0
      ],
      [
        "ways",
        -1.0
      ],
      [
        "ead",
        -1.0
      ],
      [
        "Ġstill",
        -1.0
      ],
      [
        "15",
        -1.0
      ],
      [
        "ants",
        -1.0
      ],
      [
        "Ġtemperature",
        -1.0
      ],
      [
        "Ġdise",
        -1.0
      ],
      [
        "Ġactiv",
        -1.0
      ],
      [
        "Ġplants",
        -1.0
      ],
      [
        "...",
        -1.0
      ],
      [
        "âĢĻ",
        -1.0
      ],
      [
        "ince",
        -1.0
      ],
      [
        "ĠTo",
        -1.0
      ],
      [
        "less",
        -1.0
      ],
      [
        "Ġlarge",
        -1.0
      ],
      [
        "ulation",
        -1.0
      ],
      [
        "itive",
        -1.0
      ],
      [
        "kes",
        -1.0
      ],
      [
        ":ĊĊ",
        -1.0
      ],
      [
        "ined",
        -1.0
      ],
      [
        "Ġprof",
        -1.0
      ],
      [
        "Ġcreat",
        -1.0
      ],
      [
        "ering",
        -1.0
      ],
      [
        "Ġchange",
        -1.0
      ],
      [
        "Ġincluding",
        -1.0
      ],
      [
        "Ġgrou",
        -1.0
      ],
      [
        "Ġmem",
        -1.0
      ],
      [
        "Ġexample",
        -1.0
      ],
      [
        "ĠThere",
        -1.0
      ],
      [
        "Ġpos",
        -1.0
      ],
      [
        "ability",
        -1.0
      ],
      [
        "Ġhy",
        -1.0
      ],
      [
        "Ġmaking",
        -1.0
      ],
      [
        "day",
        -1.0
      ],
      [
        "Ġris",
        -1.0
      ],
      [
        "ĠBut",
        -1.0
      ],
      [
        "Ġthink",
        -1.0
      ],
      [
        "Ġnat",
        -1.0
      ],
      [
        "Ġbuild",
        -1.0
      ],
      [
        "Ġflow",
        -1.0
      ],
      [
        "Ġtop",
        -1.0
      ],
      [
        "Ġtext",
        -1.0
      ],
      [
        "oms",
        -1.0
      ],
      [
        "ert",
        -1.0
      ],
      [
        "Ġiss",
        -1.0
      ],
      [
        "Ġocc",
        -1.0
      ],
      [
        "Ġtype",
        -1.0
      ],
      [
        "-f",
        -1.0
      ],
      [
        "Ġfew",
        -1.0
      ],
      [
        "Ġpain",
        -1.0
      ],
      [
        "Ġcontrol",
        -1.0
      ],
      [
        "ention",
        -1.0
      ],
      [
        "If",
        -1.0
      ],
      [
        "Ġhapp",
        -1.0
      ],
      [
        "Ġbenef",
        -1.0
      ],
      [
        "ross",
        -1.0
      ],
      [
        "18",
        -1.0
      ],
      [
        "ior",
        -1.0
      ],
      [
        "Ġagain",
        -1.0
      ],
      [
        "Ġide",
        -1.0
      ],
      [
        "30",
        -1.0
      ],
      [
        "Ġchang",
        -1.0
      ],
      [
        "Ġey",
        -1.0
      ],
      [
        "Ġcreate",
        -1.0
      ],
      [
        "Ġknown",
        -1.0
      ],
      [
        "It",
        -1.0
      ],
      [
        "Ġhuman",
        -1.0
      ],
      [
        "Ġcontain",
        -1.0
      ],
      [
        "line",
        -1.0
      ],
      [
        "ouse",
        -1.0
      ],
      [
        "ism",
        -1.0
      ],
      [
        "ared",
        -1.0
      ],
      [
        "Ġser",
        -1.0
      ],
      [
        "Ġpract",
        -1.0
      ],
      [
        "apt",
        -1.0
      ],
      [
        "Ġcaus",
        -1.0
      ],
      [
        "Ġbel",
        -1.0
      ],
      [
        "Ġsl",
        -1.0
      ],
      [
        "hers",
        -1.0
      ],
      [
        "Ġperform",
        -1.0
      ],
      [
        "Ġthree",
        -1.0
      ],
      [
        "ording",
        -1.0
      ],
      [
        "ify",
        -1.0
      ],
      [
        "ital",
        -1.0
      ],
      [
        "Ġplace",
        -1.0
      ],
      [
        "rodu",
        -1.0
      ],
      [
        "Ġthough",
        -1.0
      ],
      [
        "Ġele",
        -1.0
      ],
      [
        "Ġsw",
        -1.0
      ],
      [
        "Ġbas",
        -1.0
      ],
      [
        "co",
        -1.0
      ],
      [
        "ator",
        -1.0
      ],
      [
        "Ġlearn",
        -1.0
      ],
      [
        "Ġcount",
        -1.0
      ],
      [
        "Ġrun",
        -1.0
      ],
      [
        "__",
        -1.0
      ],
      [
        "ats",
        -1.0
      ],
      [
        "Ġcal",
        -1.0
      ],
      [
        "Ġmus",
        -1.0
      ],
      [
        "Ġproject",
        -1.0
      ],
      [
        "ral",
        -1.0
      ],
      [
        "Ġfeel",
        -1.0
      ],
      [
        "Ġthings",
        -1.0
      ],
      [
        "11",
        -1.0
      ],
      [
        "Ġmust",
        -1.0
      ],
      [
        "Ġcause",
        -1.0
      ],
      [
        "Ġlow",
        -1.0
      ],
      [
        "ters",
        -1.0
      ],
      [
        "Ġess",
        -1.0
      ],
      [
        "oid",
        -1.0
      ],
      [
        "ooking",
        -1.0
      ],
      [
        "Ġschool",
        -1.0
      ],
      [
        "Ġdev",
        -1.0
      ],
      [
        "ex",
        -1.0
      ],
      [
        "here",
        -1.0
      ],
      [
        "ĠSo",
        -1.0
      ],
      [
        "'ll",
        -1.0
      ],
      [
        "iness",
        -1.0
      ],
      [
        "Ġchildren",
        -1.0
      ],
      [
        "Ġsure",
        -1.0
      ],
      [
        "Ġindivid",
        -1.0
      ],
      [
        "ner",
        -1.0
      ],
      [
        "Ġsurf",
        -1.0
      ],
      [
        "irc",
        -1.0
      ],
      [
        "Ġmeas",
        -1.0
      ],
      [
        "Ġarea",
        -1.0
      ],
      [
        "Ġdel",
        -1.0
      ],
      [
        "ĠHowever",
        -1.0
      ],
      [
        "gen",
        -1.0
      ],
      [
        "Ġappro",
        -1.0
      ],
      [
        "Ġconf",
        -1.0
      ],
      [
        "Ġpotential",
        -1.0
      ],
      [
        "Ġphys",
        -1.0
      ],
      [
        "Ġtre",
        -1.0
      ],
      [
        "Ġhard",
        -1.0
      ],
      [
        "ĠAd",
        -1.0
      ],
      [
        "Ġconst",
        -1.0
      ],
      [
        "ield",
        -1.0
      ],
      [
        "iven",
        -1.0
      ],
      [
        "Ġcurrent",
        -1.0
      ],
      [
        "omp",
        -1.0
      ],
      [
        "ax",
        -1.0
      ],
      [
        "ething",
        -1.0
      ],
      [
        "Ġwithin",
        -1.0
      ],
      [
        "ique",
        -1.0
      ],
      [
        "ole",
        -1.0
      ],
      [
        "Ġprevent",
        -1.0
      ],
      [
        "Ġpress",
        -1.0
      ],
      [
        "Ġcalled",
        -1.0
      ],
      [
        "Ġbir",
        -1.0
      ],
      [
        "Ġbi",
        -1.0
      ],
      [
        "Ġcost",
        -1.0
      ],
      [
        "Ġcontin",
        -1.0
      ],
      [
        "Ġconn",
        -1.0
      ],
      [
        "meric",
        -1.0
      ],
      [
        "me",
        -1.0
      ],
      [
        "ĠWhen",
        -1.0
      ],
      [
        "Ġdam",
        -1.0
      ],
      [
        "-c",
        -1.0
      ],
      [
        "ense",
        -1.0
      ],
      [
        "Ġsour",
        -1.0
      ],
      [
        "to",
        -1.0
      ],
      [
        "Ġclean",
        -1.0
      ],
      [
        "ĠSc",
        -1.0
      ],
      [
        "aring",
        -1.0
      ],
      [
        "Ġpub",
        -1.0
      ],
      [
        "'ve",
        -1.0
      ],
      [
        "Ġcap",
        -1.0
      ],
      [
        "Ġreal",
        -1.0
      ],
      [
        "ug",
        -1.0
      ],
      [
        "Ġphot",
        -1.0
      ],
      [
        "icle",
        -1.0
      ],
      [
        "Ġwhy",
        -1.0
      ],
      [
        "ern",
        -1.0
      ],
      [
        "Ġgr",
        -1.0
      ],
      [
        "ered",
        -1.0
      ],
      [
        "ination",
        -1.0
      ],
      [
        "Ġtry",
        -1.0
      ],
      [
        "Ġexperience",
        -1.0
      ],
      [
        "Ġreally",
        -1.0
      ],
      [
        "pr",
        -1.0
      ],
      [
        "Ġinclude",
        -1.0
      ],
      [
        "ills",
        -1.0
      ],
      [
        "Ġsomething",
        -1.0
      ],
      [
        "Ġmove",
        -1.0
      ],
      [
        "ling",
        -1.0
      ],
      [
        "br",
        -1.0
      ],
      [
        "Ġspecific",
        -1.0
      ],
      [
        "50",
        -1.0
      ],
      [
        "iver",
        -1.0
      ],
      [
        "ape",
        -1.0
      ],
      [
        "ime",
        -1.0
      ],
      [
        "ank",
        -1.0
      ],
      [
        "Ġmark",
        -1.0
      ],
      [
        "Ġsit",
        -1.0
      ],
      [
        "atch",
        -1.0
      ],
      [
        "Ġsignific",
        -1.0
      ],
      [
        "Ġsecond",
        -1.0
      ],
      [
        "ently",
        -1.0
      ],
      [
        "ental",
        -1.0
      ],
      [
        "erest",
        -1.0
      ],
      [
        "Ġstep",
        -1.0
      ],
      [
        "Ġrest",
        -1.0
      ],
      [
        "Ġconsider",
        -1.0
      ],
      [
        "Ġfollowing",
        -1.0
      ],
      [
        "Ġstand",
        -1.0
      ],
      [
        "Ġable",
        -1.0
      ],
      [
        "Ġident",
        -1.0
      ],
      [
        "Ġoper",
        -1.0
      ],
      [
        "ization",
        -1.0
      ],
      [
        "Ġpossible",
        -1.0
      ],
      [
        "ected",
        -1.0
      ],
      [
        "ients",
        -1.0
      ],
      [
        "Ġavail",
        -1.0
      ],
      [
        "Ġanother",
        -1.0
      ],
      [
        "Ġdue",
        -1.0
      ],
      [
        "Ġstate",
        -1.0
      ],
      [
        "Ġcour",
        -1.0
      ],
      [
        "Ġnatural",
        -1.0
      ],
      [
        "Ġgoing",
        -1.0
      ],
      [
        "Ġtool",
        -1.0
      ],
      [
        "Ġfunction",
        -1.0
      ],
      [
        "Ġhere",
        -1.0
      ],
      [
        "Ġimm",
        -1.0
      ],
      [
        "ertain",
        -1.0
      ],
      [
        "Ġprogram",
        -1.0
      ],
      [
        "Ġfil",
        -1.0
      ],
      [
        "ocus",
        -1.0
      ],
      [
        "Ġaddition",
        -1.0
      ],
      [
        "Ġdirect",
        -1.0
      ],
      [
        "Ġsym",
        -1.0
      ],
      [
        "of",
        -1.0
      ],
      [
        "Ġbus",
        -1.0
      ],
      [
        "port",
        -1.0
      ],
      [
        "iversity",
        -1.0
      ],
      [
        "Ġfree",
        -1.0
      ],
      [
        "etic",
        -1.0
      ],
      [
        "osed",
        -1.0
      ],
      [
        "Ġwee",
        -1.0
      ],
      [
        "Ġcells",
        -1.0
      ],
      [
        "Ġlot",
        -1.0
      ],
      [
        "Ġant",
        -1.0
      ],
      [
        "Ġsoil",
        -1.0
      ],
      [
        "uss",
        -1.0
      ],
      [
        "Ġbecome",
        -1.0
      ],
      [
        "raw",
        -1.0
      ],
      [
        "ĠAmeric",
        -1.0
      ],
      [
        "Ġamount",
        -1.0
      ],
      [
        "Ġcond",
        -1.0
      ],
      [
        "ends",
        -1.0
      ],
      [
        "Ġcolor",
        -1.0
      ],
      [
        "ĠPl",
        -1.0
      ],
      [
        "Ġvarious",
        -1.0
      ],
      [
        "akes",
        -1.0
      ],
      [
        "de",
        -1.0
      ],
      [
        "land",
        -1.0
      ],
      [
        "Ġhead",
        -1.0
      ],
      [
        "Ġcome",
        -1.0
      ],
      [
        "Ġblood",
        -1.0
      ],
      [
        "Ġput",
        -1.0
      ],
      [
        "Ġappe",
        -1.0
      ],
      [
        "Ġlittle",
        -1.0
      ],
      [
        "Ġalways",
        -1.0
      ],
      [
        "Ġpar",
        -1.0
      ],
      [
        "Ġfish",
        -1.0
      ],
      [
        "ration",
        -1.0
      ],
      [
        "Ġmeans",
        -1.0
      ],
      [
        "Ġimpact",
        -1.0
      ],
      [
        "Ġstruct",
        -1.0
      ],
      [
        "Ġold",
        -1.0
      ],
      [
        "ĠAr",
        -1.0
      ],
      [
        "ane",
        -1.0
      ],
      [
        "ished",
        -1.0
      ],
      [
        "eds",
        -1.0
      ],
      [
        "Ġopen",
        -1.0
      ],
      [
        "thing",
        -1.0
      ],
      [
        "Ġsever",
        -1.0
      ],
      [
        "Ġanal",
        -1.0
      ],
      [
        "Ġcomput",
        -1.0
      ],
      [
        "Ġsay",
        -1.0
      ],
      [
        "Ġinvol",
        -1.0
      ],
      [
        "Ġlim",
        -1.0
      ],
      [
        "Ġret",
        -1.0
      ],
      [
        "oot",
        -1.0
      ],
      [
        "Ġneeds",
        -1.0
      ],
      [
        "Ġpass",
        -1.0
      ],
      [
        "Ġcirc",
        -1.0
      ],
      [
        "icro",
        -1.0
      ],
      [
        "St",
        -1.0
      ],
      [
        "Ġlet",
        -1.0
      ],
      [
        "Ġlast",
        -1.0
      ],
      [
        "Ġest",
        -1.0
      ],
      [
        "Ġmult",
        -1.0
      ],
      [
        "Ġel",
        -1.0
      ],
      [
        "Ġpresent",
        -1.0
      ],
      [
        "Ġcomb",
        -1.0
      ],
      [
        "ccess",
        -1.0
      ],
      [
        "Ġvol",
        -1.0
      ],
      [
        "Ġhig",
        -1.0
      ],
      [
        "ption",
        -1.0
      ],
      [
        "Ġlay",
        -1.0
      ],
      [
        "Ġspace",
        -1.0
      ],
      [
        "Ġec",
        -1.0
      ],
      [
        "Ġnut",
        -1.0
      ],
      [
        "cle",
        -1.0
      ],
      [
        "Ġsize",
        -1.0
      ],
      [
        "ones",
        -1.0
      ],
      [
        "oad",
        -1.0
      ],
      [
        "aves",
        -1.0
      ],
      [
        "16",
        -1.0
      ],
      [
        "aper",
        -1.0
      ],
      [
        "ateg",
        -1.0
      ],
      [
        "ush",
        -1.0
      ],
      [
        "Ġsignificant",
        -1.0
      ],
      [
        "Ġproblem",
        -1.0
      ],
      [
        "Ġheat",
        -1.0
      ],
      [
        "aste",
        -1.0
      ],
      [
        "Ġcr",
        -1.0
      ],
      [
        "Ġes",
        -1.0
      ],
      [
        "ified",
        -1.0
      ],
      [
        "Ġrequire",
        -1.0
      ],
      [
        "Ġtypes",
        -1.0
      ],
      [
        "Ġmean",
        -1.0
      ],
      [
        "ee",
        -1.0
      ],
      [
        "Ġavailable",
        -1.0
      ],
      [
        "Ġet",
        -1.0
      ],
      [
        "bers",
        -1.0
      ],
      [
        "ĠEx",
        -1.0
      ],
      [
        "Ġprovid",
        -1.0
      ],
      [
        "Ġcy",
        -1.0
      ],
      [
        "14",
        -1.0
      ],
      [
        "ox",
        -1.0
      ],
      [
        "arent",
        -1.0
      ],
      [
        "arden",
        -1.0
      ],
      [
        "Ġfocus",
        -1.0
      ],
      [
        "Ġdevelopment",
        -1.0
      ],
      [
        "put",
        -1.0
      ],
      [
        "Ġcut",
        -1.0
      ],
      [
        "-d",
        -1.0
      ],
      [
        "iod",
        -1.0
      ],
      [
        "Ġareas",
        -1.0
      ],
      [
        "Ġfin",
        -1.0
      ],
      [
        "ilar",
        -1.0
      ],
      [
        "ably",
        -1.0
      ],
      [
        "over",
        -1.0
      ],
      [
        "Ġprom",
        -1.0
      ],
      [
        "Ġseveral",
        -1.0
      ],
      [
        "Ġfeature",
        -1.0
      ],
      [
        "ode",
        -1.0
      ],
      [
        "Ġinterest",
        -1.0
      ],
      [
        "Ġrange",
        -1.0
      ],
      [
        "ries",
        -1.0
      ],
      [
        "ieve",
        -1.0
      ],
      [
        "Ġlearning",
        -1.0
      ],
      [
        "Ġcam",
        -1.0
      ],
      [
        "ending",
        -1.0
      ],
      [
        "ocial",
        -1.0
      ],
      [
        "ĠIs",
        -1.0
      ],
      [
        "Ġ=",
        -1.0
      ],
      [
        "ards",
        -1.0
      ],
      [
        "Ġbased",
        -1.0
      ],
      [
        "Ġkey",
        -1.0
      ],
      [
        "Ġmot",
        -1.0
      ],
      [
        "Ġensure",
        -1.0
      ],
      [
        "Ġunt",
        -1.0
      ],
      [
        "Ġindust",
        -1.0
      ],
      [
        "ances",
        -1.0
      ],
      [
        "ote",
        -1.0
      ],
      [
        "Ġdem",
        -1.0
      ],
      [
        "Ġscient",
        -1.0
      ],
      [
        "âĢĶ",
        -1.0
      ],
      [
        "omes",
        -1.0
      ],
      [
        "-p",
        -1.0
      ],
      [
        "pecial",
        -1.0
      ],
      [
        "Ġapplic",
        -1.0
      ],
      [
        "ips",
        -1.0
      ],
      [
        "ended",
        -1.0
      ],
      [
        "Ġtimes",
        -1.0
      ],
      [
        "aces",
        -1.0
      ],
      [
        "Ġdisease",
        -1.0
      ],
      [
        "Ġprofess",
        -1.0
      ],
      [
        "Ġessential",
        -1.0
      ],
      [
        "ĠSh",
        -1.0
      ],
      [
        "ems",
        -1.0
      ],
      [
        "Ġgive",
        -1.0
      ],
      [
        "Ġfre",
        -1.0
      ],
      [
        "az",
        -1.0
      ],
      [
        "Ġsystems",
        -1.0
      ],
      [
        "Ġteam",
        -1.0
      ],
      [
        "Ġenough",
        -1.0
      ],
      [
        "Ġpost",
        -1.0
      ],
      [
        "orn",
        -1.0
      ],
      [
        "'m",
        -1.0
      ],
      [
        "Ġaccess",
        -1.0
      ],
      [
        "Ġmakes",
        -1.0
      ],
      [
        "Ġusually",
        -1.0
      ],
      [
        "ision",
        -1.0
      ],
      [
        "Ġeffective",
        -1.0
      ],
      [
        "ĠWhich",
        -1.0
      ],
      [
        "Ġoccur",
        -1.0
      ],
      [
        "Ġanimals",
        -1.0
      ],
      [
        "Ġsens",
        -1.0
      ],
      [
        "Ġbeg",
        -1.0
      ],
      [
        "Ġquality",
        -1.0
      ],
      [
        "13",
        -1.0
      ],
      [
        "Ġoil",
        -1.0
      ],
      [
        "Ġdeterm",
        -1.0
      ],
      [
        "Ġrisk",
        -1.0
      ],
      [
        "ton",
        -1.0
      ],
      [
        "Ġbig",
        -1.0
      ],
      [
        "ĠCl",
        -1.0
      ],
      [
        "oes",
        -1.0
      ],
      [
        "Ġconditions",
        -1.0
      ],
      [
        "ours",
        -1.0
      ],
      [
        "atic",
        -1.0
      ],
      [
        "Ġmonth",
        -1.0
      ],
      [
        "Ġsurface",
        -1.0
      ],
      [
        "Ġobject",
        -1.0
      ],
      [
        "be",
        -1.0
      ],
      [
        "outh",
        -1.0
      ],
      [
        "af",
        -1.0
      ],
      [
        "Ġhist",
        -1.0
      ],
      [
        "gn",
        -1.0
      ],
      [
        "Ġchem",
        -1.0
      ],
      [
        "Ġsal",
        -1.0
      ],
      [
        "ency",
        -1.0
      ],
      [
        "Ġspecial",
        -1.0
      ],
      [
        "alk",
        -1.0
      ],
      [
        "Ġnon",
        -1.0
      ],
      [
        "We",
        -1.0
      ],
      [
        "Ġdesc",
        -1.0
      ],
      [
        "Ġcertain",
        -1.0
      ],
      [
        "Ġengine",
        -1.0
      ],
      [
        "Ġside",
        -1.0
      ],
      [
        "fort",
        -1.0
      ],
      [
        "Ġopp",
        -1.0
      ],
      [
        "arc",
        -1.0
      ],
      [
        "Ġparticular",
        -1.0
      ],
      [
        "Ġcho",
        -1.0
      ],
      [
        "Ġlist",
        -1.0
      ],
      [
        "ĠCan",
        -1.0
      ],
      [
        "urther",
        -1.0
      ],
      [
        "Ġorder",
        -1.0
      ],
      [
        "ĠRe",
        -1.0
      ],
      [
        "ological",
        -1.0
      ],
      [
        "Ġline",
        -1.0
      ],
      [
        "au",
        -1.0
      ],
      [
        "par",
        -1.0
      ],
      [
        "Ġmaterials",
        -1.0
      ],
      [
        "view",
        -1.0
      ],
      [
        "Ġtechnology",
        -1.0
      ],
      [
        "Ġdig",
        -1.0
      ],
      [
        "Ġ$",
        -1.0
      ],
      [
        "Ġz",
        -1.0
      ],
      [
        "ples",
        -1.0
      ],
      [
        "NA",
        -1.0
      ],
      [
        "ĠInd",
        -1.0
      ],
      [
        "Ġeffic",
        -1.0
      ],
      [
        "ories",
        -1.0
      ],
      [
        "ĠĠ",
        -1.0
      ],
      [
        "bon",
        -1.0
      ],
      [
        "Ġmill",
        -1.0
      ],
      [
        "aut",
        -1.0
      ],
      [
        "Ġgroup",
        -1.0
      ],
      [
        "olution",
        -1.0
      ],
      [
        "ring",
        -1.0
      ],
      [
        "ires",
        -1.0
      ],
      [
        "ah",
        -1.0
      ],
      [
        "Ġimprove",
        -1.0
      ],
      [
        "oose",
        -1.0
      ],
      [
        "Ġbehav",
        -1.0
      ],
      [
        "Ġsince",
        -1.0
      ],
      [
        "Ġconsum",
        -1.0
      ],
      [
        "inc",
        -1.0
      ],
      [
        "Ġprim",
        -1.0
      ],
      [
        "17",
        -1.0
      ],
      [
        "hor",
        -1.0
      ],
      [
        "ĠWith",
        -1.0
      ],
      [
        "Ġ[",
        -1.0
      ],
      [
        "ustom",
        -1.0
      ],
      [
        "ication",
        -1.0
      ],
      [
        "Ġ&",
        -1.0
      ],
      [
        "Ġeduc",
        -1.0
      ],
      [
        "Ġpressure",
        -1.0
      ],
      [
        "Ġreport",
        -1.0
      ],
      [
        "Ġtoget",
        -1.0
      ],
      [
        "Ġtogether",
        -1.0
      ],
      [
        "Ġmil",
        -1.0
      ],
      [
        "Ġlevels",
        -1.0
      ],
      [
        "cul",
        -1.0
      ],
      [
        "oring",
        -1.0
      ],
      [
        "----",
        -1.0
      ],
      [
        "Ġuntil",
        -1.0
      ],
      [
        "Ġweight",
        -1.0
      ],
      [
        "lu",
        -1.0
      ],
      [
        "Ġwind",
        -1.0
      ],
      [
        "asing",
        -1.0
      ],
      [
        "Ġter",
        -1.0
      ],
      [
        "ĠBy",
        -1.0
      ],
      [
        "Ġsound",
        -1.0
      ],
      [
        "Ġproblems",
        -1.0
      ],
      [
        "ĠRes",
        -1.0
      ],
      [
        "ĠBe",
        -1.0
      ],
      [
        ")Ċ",
        -1.0
      ],
      [
        "Ġrecomm",
        -1.0
      ],
      [
        "iting",
        -1.0
      ],
      [
        "aster",
        -1.0
      ],
      [
        "let",
        -1.0
      ],
      [
        "ains",
        -1.0
      ],
      [
        "ables",
        -1.0
      ],
      [
        "Ġmar",
        -1.0
      ],
      [
        "Ġsuccess",
        -1.0
      ],
      [
        "Ġmov",
        -1.0
      ],
      [
        "Ġfeed",
        -1.0
      ],
      [
        "Ġfamily",
        -1.0
      ],
      [
        "When",
        -1.0
      ],
      [
        "ately",
        -1.0
      ],
      [
        "As",
        -1.0
      ],
      [
        "Ġworks",
        -1.0
      ],
      [
        "Ġcase",
        -1.0
      ],
      [
        "Ġnear",
        -1.0
      ],
      [
        "Ġaway",
        -1.0
      ],
      [
        "Ġenc",
        -1.0
      ],
      [
        "self",
        -1.0
      ],
      [
        "fer",
        -1.0
      ],
      [
        "oint",
        -1.0
      ],
      [
        "omen",
        -1.0
      ],
      [
        "Ġshort",
        -1.0
      ],
      [
        "Ġresults",
        -1.0
      ],
      [
        "ĠNew",
        -1.0
      ],
      [
        "uture",
        -1.0
      ],
      [
        "Ġfore",
        -1.0
      ],
      [
        "Ġname",
        -1.0
      ],
      [
        "ware",
        -1.0
      ],
      [
        "Ġworking",
        -1.0
      ],
      [
        "Ġchall",
        -1.0
      ],
      [
        "Ġbra",
        -1.0
      ],
      [
        "Ġhaving",
        -1.0
      ],
      [
        "Ġsun",
        -1.0
      ],
      [
        "ury",
        -1.0
      ],
      [
        "Ġcult",
        -1.0
      ],
      [
        "Ġcomplete",
        -1.0
      ],
      [
        "ember",
        -1.0
      ],
      [
        "ored",
        -1.0
      ],
      [
        "Ġincrease",
        -1.0
      ],
      [
        "Ġkind",
        -1.0
      ],
      [
        "Ġnext",
        -1.0
      ],
      [
        "pecially",
        -1.0
      ],
      [
        "Ġmaintain",
        -1.0
      ],
      [
        "utes",
        -1.0
      ],
      [
        "Ġnecess",
        -1.0
      ],
      [
        "Ġperiod",
        -1.0
      ],
      [
        "âĢ¦",
        -1.0
      ],
      [
        "Ġproducts",
        -1.0
      ],
      [
        "Ġsing",
        -1.0
      ],
      [
        "ĠThat",
        -1.0
      ],
      [
        "Ġalong",
        -1.0
      ],
      [
        "ither",
        -1.0
      ],
      [
        "Ġrepl",
        -1.0
      ],
      [
        "Ġsugg",
        -1.0
      ],
      [
        "jor",
        -1.0
      ],
      [
        "Ġdays",
        -1.0
      ],
      [
        "inter",
        -1.0
      ],
      [
        "Ġrele",
        -1.0
      ],
      [
        "Ġleg",
        -1.0
      ],
      [
        "You",
        -1.0
      ],
      [
        "Ġtru",
        -1.0
      ],
      [
        "osp",
        -1.0
      ],
      [
        "agement",
        -1.0
      ],
      [
        "work",
        -1.0
      ],
      [
        "Ġcomes",
        -1.0
      ],
      [
        "Ġquick",
        -1.0
      ],
      [
        "-l",
        -1.0
      ],
      [
        "Ġrad",
        -1.0
      ],
      [
        "ump",
        -1.0
      ],
      [
        "Ġprote",
        -1.0
      ],
      [
        "Ġcou",
        -1.0
      ],
      [
        "Ġturn",
        -1.0
      ],
      [
        "icult",
        -1.0
      ],
      [
        "oney",
        -1.0
      ],
      [
        "Ġprotect",
        -1.0
      ],
      [
        "onom",
        -1.0
      ],
      [
        "Ġhigher",
        -1.0
      ],
      [
        "Ġlocal",
        -1.0
      ],
      [
        "ĠAt",
        -1.0
      ],
      [
        "Ġearly",
        -1.0
      ],
      [
        "fact",
        -1.0
      ],
      [
        "imes",
        -1.0
      ],
      [
        "Ġcourse",
        -1.0
      ],
      [
        "Ġeasy",
        -1.0
      ],
      [
        "Ġothers",
        -1.0
      ],
      [
        "Ġgrowth",
        -1.0
      ],
      [
        "ret",
        -1.0
      ],
      [
        "25",
        -1.0
      ],
      [
        "ogn",
        -1.0
      ],
      [
        "une",
        -1.0
      ],
      [
        "Ġlikely",
        -1.0
      ],
      [
        "por",
        -1.0
      ],
      [
        "Ġchanges",
        -1.0
      ],
      [
        "Ġstrong",
        -1.0
      ],
      [
        "Ġmach",
        -1.0
      ],
      [
        "ĠSe",
        -1.0
      ],
      [
        "Ġmodel",
        -1.0
      ],
      [
        "-m",
        -1.0
      ],
      [
        "Ġsimilar",
        -1.0
      ],
      [
        "Ġtreatment",
        -1.0
      ],
      [
        "Ġbusiness",
        -1.0
      ],
      [
        "Ġlab",
        -1.0
      ],
      [
        "Ġmeasure",
        -1.0
      ],
      [
        "Ġreduce",
        -1.0
      ],
      [
        "âĢĻs",
        -1.0
      ],
      [
        "erc",
        -1.0
      ],
      [
        "Ġgarden",
        -1.0
      ],
      [
        "Ġfull",
        -1.0
      ],
      [
        "Ġsuggest",
        -1.0
      ],
      [
        "Ġsocial",
        -1.0
      ],
      [
        "not",
        -1.0
      ],
      [
        "Ġactually",
        -1.0
      ],
      [
        ".,",
        -1.0
      ],
      [
        "40",
        -1.0
      ],
      [
        "Ġleast",
        -1.0
      ],
      [
        "ĠUniversity",
        -1.0
      ],
      [
        "oor",
        -1.0
      ],
      [
        "ler",
        -1.0
      ],
      [
        "Ġhealthy",
        -1.0
      ],
      [
        "Ġfri",
        -1.0
      ],
      [
        "Ġlower",
        -1.0
      ],
      [
        "There",
        -1.0
      ],
      [
        "uro",
        -1.0
      ],
      [
        "Ġste",
        -1.0
      ],
      [
        "Ġfac",
        -1.0
      ],
      [
        "Ġvalue",
        -1.0
      ],
      [
        "ators",
        -1.0
      ],
      [
        "Ġdoesn",
        -1.0
      ],
      [
        "Ġground",
        -1.0
      ],
      [
        "ooks",
        -1.0
      ],
      [
        "Ġsoft",
        -1.0
      ],
      [
        "Ġgreen",
        -1.0
      ],
      [
        "Ġrece",
        -1.0
      ],
      [
        "light",
        -1.0
      ],
      [
        "ann",
        -1.0
      ],
      [
        "ream",
        -1.0
      ],
      [
        "Ġissues",
        -1.0
      ],
      [
        "Ġi",
        -1.0
      ],
      [
        "ised",
        -1.0
      ],
      [
        "Ġrole",
        -1.0
      ],
      [
        "ches",
        -1.0
      ],
      [
        "Ġorig",
        -1.0
      ],
      [
        "duct",
        -1.0
      ],
      [
        "Ġdry",
        -1.0
      ],
      [
        "bit",
        -1.0
      ],
      [
        "aging",
        -1.0
      ],
      [
        "Ġtur",
        -1.0
      ],
      [
        "Ġsimple",
        -1.0
      ],
      [
        "ivity",
        -1.0
      ],
      [
        "Ġmajor",
        -1.0
      ],
      [
        "-t",
        -1.0
      ],
      [
        "Ġdogs",
        -1.0
      ],
      [
        "Ġwarm",
        -1.0
      ],
      [
        "Ġans",
        -1.0
      ],
      [
        "vious",
        -1.0
      ],
      [
        "Ġpred",
        -1.0
      ],
      [
        "Ġreason",
        -1.0
      ],
      [
        "agn",
        -1.0
      ],
      [
        "Ġresour",
        -1.0
      ],
      [
        "rect",
        -1.0
      ],
      [
        "Ġassoci",
        -1.0
      ],
      [
        "ipp",
        -1.0
      ],
      [
        "Ġred",
        -1.0
      ],
      [
        "Ġfuture",
        -1.0
      ],
      [
        "Ġlive",
        -1.0
      ],
      [
        "Ġvir",
        -1.0
      ],
      [
        "atory",
        -1.0
      ],
      [
        "Ġsum",
        -1.0
      ],
      [
        "Ġespecially",
        -1.0
      ],
      [
        "Ġfrequ",
        -1.0
      ],
      [
        "ĠDe",
        -1.0
      ],
      [
        "ĠTe",
        -1.0
      ],
      [
        "Ġwrit",
        -1.0
      ],
      [
        "Ġbro",
        -1.0
      ],
      [
        "Ġcharacter",
        -1.0
      ],
      [
        "An",
        -1.0
      ],
      [
        "Ġmicro",
        -1.0
      ],
      [
        "Ġcustom",
        -1.0
      ],
      [
        "Ġhim",
        -1.0
      ],
      [
        "Ġunique",
        -1.0
      ],
      [
        "izing",
        -1.0
      ],
      [
        "Ġinvest",
        -1.0
      ],
      [
        ")ĊĊ",
        -1.0
      ],
      [
        "rag",
        -1.0
      ],
      [
        "Ġdiet",
        -1.0
      ],
      [
        "Ġfar",
        -1.0
      ],
      [
        "ames",
        -1.0
      ],
      [
        "Ġways",
        -1.0
      ],
      [
        "Ġavoid",
        -1.0
      ],
      [
        "hem",
        -1.0
      ],
      [
        "ilities",
        -1.0
      ],
      [
        "Ġmind",
        -1.0
      ],
      [
        "ĠCon",
        -1.0
      ],
      [
        "Ġthing",
        -1.0
      ],
      [
        "Ġproduction",
        -1.0
      ],
      [
        "Ġabove",
        -1.0
      ],
      [
        "Ġfour",
        -1.0
      ],
      [
        "ression",
        -1.0
      ],
      [
        "Ġacross",
        -1.0
      ],
      [
        "Ġfield",
        -1.0
      ],
      [
        "Ġobs",
        -1.0
      ],
      [
        "Ġreact",
        -1.0
      ],
      [
        "orth",
        -1.0
      ],
      [
        "usion",
        -1.0
      ],
      [
        "astic",
        -1.0
      ],
      [
        "Ġage",
        -1.0
      ],
      [
        "ym",
        -1.0
      ],
      [
        "Ġheart",
        -1.0
      ],
      [
        "Ġcheck",
        -1.0
      ],
      [
        "Ġsafe",
        -1.0
      ],
      [
        "Ġnorm",
        -1.0
      ],
      [
        "Ġvide",
        -1.0
      ],
      [
        "Ġpie",
        -1.0
      ],
      [
        "Ġeat",
        -1.0
      ],
      [
        "Ġnever",
        -1.0
      ],
      [
        "ission",
        -1.0
      ],
      [
        "fect",
        -1.0
      ],
      [
        "Ġdone",
        -1.0
      ],
      [
        "Ġprob",
        -1.0
      ],
      [
        "verage",
        -1.0
      ],
      [
        "ĠZ",
        -1.0
      ],
      [
        "Ġagainst",
        -1.0
      ],
      [
        "chan",
        -1.0
      ],
      [
        "ledge",
        -1.0
      ],
      [
        "ived",
        -1.0
      ],
      [
        "Ġmarket",
        -1.0
      ],
      [
        "ustain",
        -1.0
      ],
      [
        "Ġgiven",
        -1.0
      ],
      [
        "Ġbit",
        -1.0
      ],
      [
        "Ġaccording",
        -1.0
      ],
      [
        "Ġaffect",
        -1.0
      ],
      [
        "ĠSp",
        -1.0
      ],
      [
        "iple",
        -1.0
      ],
      [
        "lish",
        -1.0
      ],
      [
        "ott",
        -1.0
      ],
      [
        "though",
        -1.0
      ],
      [
        "ĠSome",
        -1.0
      ],
      [
        "Ġgas",
        -1.0
      ],
      [
        "Ġdifficult",
        -1.0
      ],
      [
        "ffic",
        -1.0
      ],
      [
        "estions",
        -1.0
      ],
      [
        "idence",
        -1.0
      ],
      [
        "Ġbegin",
        -1.0
      ],
      [
        "Ġflu",
        -1.0
      ],
      [
        "ray",
        -1.0
      ],
      [
        "Ġeye",
        -1.0
      ],
      [
        "Ġdamage",
        -1.0
      ],
      [
        "Ġbook",
        -1.0
      ],
      [
        "Ġpaper",
        -1.0
      ],
      [
        "joy",
        -1.0
      ],
      [
        "Ġloss",
        -1.0
      ],
      [
        "Ġhouse",
        -1.0
      ],
      [
        "Ġpublic",
        -1.0
      ],
      [
        "Ġcompon",
        -1.0
      ],
      [
        "Ġskin",
        -1.0
      ],
      [
        "most",
        -1.0
      ],
      [
        "ĠEn",
        -1.0
      ],
      [
        "Ġabs",
        -1.0
      ],
      [
        "Ġgre",
        -1.0
      ],
      [
        "amm",
        -1.0
      ],
      [
        "Ġregular",
        -1.0
      ],
      [
        "Ġeffects",
        -1.0
      ],
      [
        "anced",
        -1.0
      ],
      [
        "Ġcool",
        -1.0
      ],
      [
        "Ġpast",
        -1.0
      ],
      [
        "Ġsingle",
        -1.0
      ],
      [
        "yle",
        -1.0
      ],
      [
        "side",
        -1.0
      ],
      [
        "Ġrespons",
        -1.0
      ],
      [
        "Ġclear",
        -1.0
      ],
      [
        "bo",
        -1.0
      ],
      [
        "wards",
        -1.0
      ],
      [
        "Ġach",
        -1.0
      ],
      [
        "Ġsays",
        -1.0
      ],
      [
        "Ġintern",
        -1.0
      ],
      [
        "Ġrepres",
        -1.0
      ],
      [
        "omet",
        -1.0
      ],
      [
        "21",
        -1.0
      ],
      [
        "igns",
        -1.0
      ],
      [
        "Ġhelps",
        -1.0
      ],
      [
        "Ġterm",
        -1.0
      ],
      [
        "!ĊĊ",
        -1.0
      ],
      [
        "Ġbenefits",
        -1.0
      ],
      [
        "ibility",
        -1.0
      ],
      [
        "Ġleft",
        -1.0
      ],
      [
        "Ġparts",
        -1.0
      ],
      [
        "ĠCol",
        -1.0
      ],
      [
        "Ġland",
        -1.0
      ],
      [
        "Ġelectric",
        -1.0
      ],
      [
        "Ġcontrib",
        -1.0
      ],
      [
        "Ġphysical",
        -1.0
      ],
      [
        "Ġchemical",
        -1.0
      ],
      [
        "Ġwhite",
        -1.0
      ],
      [
        ",Ċ",
        -1.0
      ],
      [
        "Ġdiscuss",
        -1.0
      ],
      [
        "Ġer",
        -1.0
      ],
      [
        "ĠYour",
        -1.0
      ],
      [
        "Ġlooking",
        -1.0
      ],
      [
        "Ġdetail",
        -1.0
      ],
      [
        "Ġbatter",
        -1.0
      ],
      [
        "Ġpopular",
        -1.0
      ],
      [
        "lement",
        -1.0
      ],
      [
        "Ġfactors",
        -1.0
      ],
      [
        "Ġunderstanding",
        -1.0
      ],
      [
        "ER",
        -1.0
      ],
      [
        "Ġview",
        -1.0
      ],
      [
        "Ġwr",
        -1.0
      ],
      [
        "Ġsource",
        -1.0
      ],
      [
        "Ġwide",
        -1.0
      ],
      [
        "Ġclose",
        -1.0
      ],
      [
        "âĢĵ",
        -1.0
      ],
      [
        "uals",
        -1.0
      ],
      [
        "Ġsubst",
        -1.0
      ],
      [
        "Ġresearc",
        -1.0
      ],
      [
        "ptoms",
        -1.0
      ],
      [
        "Ġcomplex",
        -1.0
      ],
      [
        "ising",
        -1.0
      ],
      [
        "ĠBl",
        -1.0
      ],
      [
        "ploy",
        -1.0
      ],
      [
        "resh",
        -1.0
      ],
      [
        "avor",
        -1.0
      ],
      [
        "ĠPh",
        -1.0
      ],
      [
        "Ġnet",
        -1.0
      ],
      [
        "Ġcondition",
        -1.0
      ],
      [
        "Ġtraining",
        -1.0
      ],
      [
        "Ġdesigned",
        -1.0
      ],
      [
        "ina",
        -1.0
      ],
      [
        "Ġeither",
        -1.0
      ],
      [
        "ĠâĢĶ",
        -1.0
      ],
      [
        "ensive",
        -1.0
      ],
      [
        "Ġmass",
        -1.0
      ],
      [
        "Ġclimate",
        -1.0
      ],
      [
        "ification",
        -1.0
      ],
      [
        "Ġbal",
        -1.0
      ],
      [
        "raft",
        -1.0
      ],
      [
        "Ġexpect",
        -1.0
      ],
      [
        "lection",
        -1.0
      ],
      [
        "orts",
        -1.0
      ],
      [
        "ope",
        -1.0
      ],
      [
        "Ġweek",
        -1.0
      ],
      [
        "Ġoffer",
        -1.0
      ],
      [
        "Ġamong",
        -1.0
      ],
      [
        "ĠOr",
        -1.0
      ],
      [
        "Ġonce",
        -1.0
      ],
      [
        "ores",
        -1.0
      ],
      [
        "To",
        -1.0
      ],
      [
        "Ġproduce",
        -1.0
      ],
      [
        "Ġhold",
        -1.0
      ],
      [
        "Ġthin",
        -1.0
      ],
      [
        "Ġfurther",
        -1.0
      ],
      [
        "Ġstress",
        -1.0
      ],
      [
        "Ġcru",
        -1.0
      ],
      [
        "com",
        -1.0
      ],
      [
        "angu",
        -1.0
      ],
      [
        "Ġquestion",
        -1.0
      ],
      [
        "ruction",
        -1.0
      ],
      [
        "Ġdeg",
        -1.0
      ],
      [
        "Ġenjoy",
        -1.0
      ],
      [
        "alf",
        -1.0
      ],
      [
        "Ġallows",
        -1.0
      ],
      [
        "Ġdescrib",
        -1.0
      ],
      [
        "ufact",
        -1.0
      ],
      [
        "Ġtoday",
        -1.0
      ],
      [
        "Ġprovides",
        -1.0
      ],
      [
        "ĠUS",
        -1.0
      ],
      [
        "ystem",
        -1.0
      ],
      [
        "ortun",
        -1.0
      ],
      [
        "Ġability",
        -1.0
      ],
      [
        "Ġfall",
        -1.0
      ],
      [
        "Ġwhether",
        -1.0
      ],
      [
        "Ġanimal",
        -1.0
      ],
      [
        "Ġcarbon",
        -1.0
      ],
      [
        "Ġstop",
        -1.0
      ],
      [
        "24",
        -1.0
      ],
      [
        "idd",
        -1.0
      ],
      [
        "ĠOn",
        -1.0
      ],
      [
        "Ġindic",
        -1.0
      ],
      [
        "lished",
        -1.0
      ],
      [
        "Ġgetting",
        -1.0
      ],
      [
        "Ġwild",
        -1.0
      ],
      [
        "Ġvers",
        -1.0
      ],
      [
        "Ġgame",
        -1.0
      ],
      [
        "Ġwood",
        -1.0
      ],
      [
        "Ġspeed",
        -1.0
      ],
      [
        "ready",
        -1.0
      ],
      [
        "Ġpercent",
        -1.0
      ],
      [
        "Ġcomputer",
        -1.0
      ],
      [
        "Ġdraw",
        -1.0
      ],
      [
        "Ġskills",
        -1.0
      ],
      [
        "For",
        -1.0
      ],
      [
        "Wh",
        -1.0
      ],
      [
        "Ġmatter",
        -1.0
      ],
      [
        "Ġpet",
        -1.0
      ],
      [
        "Ġscience",
        -1.0
      ],
      [
        "ery",
        -1.0
      ],
      [
        "ae",
        -1.0
      ],
      [
        "Ġparent",
        -1.0
      ],
      [
        "istic",
        -1.0
      ],
      [
        "ĠInst",
        -1.0
      ],
      [
        "ik",
        -1.0
      ],
      [
        "Ġauthor",
        -1.0
      ],
      [
        "60",
        -1.0
      ],
      [
        "Ġnecessary",
        -1.0
      ],
      [
        "Ġegg",
        -1.0
      ],
      [
        "raph",
        -1.0
      ],
      [
        "Ġhyd",
        -1.0
      ],
      [
        "Ġinteract",
        -1.0
      ],
      [
        "mit",
        -1.0
      ],
      [
        "ming",
        -1.0
      ],
      [
        "hing",
        -1.0
      ],
      [
        "Ġbelow",
        -1.0
      ],
      [
        "for",
        -1.0
      ],
      [
        "Ġenh",
        -1.0
      ],
      [
        "Ġvariety",
        -1.0
      ],
      [
        "Ġcoll",
        -1.0
      ],
      [
        "Ġveh",
        -1.0
      ],
      [
        "Ġsmo",
        -1.0
      ],
      [
        "Ġill",
        -1.0
      ],
      [
        "Ġdifference",
        -1.0
      ],
      [
        "ength",
        -1.0
      ],
      [
        "aching",
        -1.0
      ],
      [
        "Ġlif",
        -1.0
      ],
      [
        "22",
        -1.0
      ],
      [
        "ales",
        -1.0
      ],
      [
        "ried",
        -1.0
      ],
      [
        "Ġstructure",
        -1.0
      ],
      [
        "ĠOne",
        -1.0
      ],
      [
        "Ġexperien",
        -1.0
      ],
      [
        "itch",
        -1.0
      ],
      [
        "Ġmechan",
        -1.0
      ],
      [
        "ĠEng",
        -1.0
      ],
      [
        "Ġpurp",
        -1.0
      ],
      [
        "Ġperformance",
        -1.0
      ],
      [
        "ĠIm",
        -1.0
      ],
      [
        "ird",
        -1.0
      ],
      [
        "Ġblack",
        -1.0
      ],
      [
        "Ġhours",
        -1.0
      ],
      [
        "lying",
        -1.0
      ],
      [
        "Ġ.",
        -1.0
      ],
      [
        "Ġfu",
        -1.0
      ],
      [
        "Ġtell",
        -1.0
      ],
      [
        "Ġcrit",
        -1.0
      ],
      [
        "Ġbacter",
        -1.0
      ],
      [
        "Ġbrain",
        -1.0
      ],
      [
        "Ġpersonal",
        -1.0
      ],
      [
        "Ġknowledge",
        -1.0
      ],
      [
        "Ġlove",
        -1.0
      ],
      [
        "Ġindividual",
        -1.0
      ],
      [
        "aken",
        -1.0
      ],
      [
        "Ġalready",
        -1.0
      ],
      [
        "Ġdoing",
        -1.0
      ],
      [
        "rel",
        -1.0
      ],
      [
        "Ġox",
        -1.0
      ],
      [
        "Ġneeded",
        -1.0
      ],
      [
        "Ġveget",
        -1.0
      ],
      [
        "ument",
        -1.0
      ],
      [
        "edi",
        -1.0
      ],
      [
        "Ġconcer",
        -1.0
      ],
      [
        "iques",
        -1.0
      ],
      [
        "rate",
        -1.0
      ],
      [
        "Ġcommunity",
        -1.0
      ],
      [
        "ĠAI",
        -1.0
      ],
      [
        "Ġsn",
        -1.0
      ],
      [
        "Ġglob",
        -1.0
      ],
      [
        "ask",
        -1.0
      ],
      [
        "man",
        -1.0
      ],
      [
        "Ġconnect",
        -1.0
      ],
      [
        "Ġfeatures",
        -1.0
      ],
      [
        "sc",
        -1.0
      ],
      [
        "ney",
        -1.0
      ],
      [
        "Ġcontent",
        -1.0
      ],
      [
        "utions",
        -1.0
      ],
      [
        "Ġsafety",
        -1.0
      ],
      [
        "Ġexist",
        -1.0
      ],
      [
        "Ġevent",
        -1.0
      ],
      [
        "Ġinit",
        -1.0
      ],
      [
        "Ġhistory",
        -1.0
      ],
      [
        "Ġselect",
        -1.0
      ],
      [
        "eral",
        -1.0
      ],
      [
        "Ġhappen",
        -1.0
      ],
      [
        "leep",
        -1.0
      ],
      [
        "erence",
        -1.0
      ],
      [
        "Ġtree",
        -1.0
      ],
      [
        "Ġimage",
        -1.0
      ],
      [
        "!Ċ",
        -1.0
      ],
      [
        "Ġfru",
        -1.0
      ],
      [
        "Ġresist",
        -1.0
      ],
      [
        "overed",
        -1.0
      ],
      [
        "Ġbuy",
        -1.0
      ],
      [
        "Ġrecord",
        -1.0
      ],
      [
        "Ch",
        -1.0
      ],
      [
        "Ġmo",
        -1.0
      ],
      [
        "Ġmix",
        -1.0
      ],
      [
        "Ġindustry",
        -1.0
      ],
      [
        "ĠAll",
        -1.0
      ],
      [
        "Ġpath",
        -1.0
      ],
      [
        "aps",
        -1.0
      ],
      [
        "Ġrate",
        -1.0
      ],
      [
        "rown",
        -1.0
      ],
      [
        "ĠNo",
        -1.0
      ],
      [
        "ditional",
        -1.0
      ],
      [
        "ograp",
        -1.0
      ],
      [
        "igure",
        -1.0
      ],
      [
        "by",
        -1.0
      ],
      [
        "Ġleaves",
        -1.0
      ],
      [
        "ysis",
        -1.0
      ],
      [
        "just",
        -1.0
      ],
      [
        "Ġseen",
        -1.0
      ],
      [
        "ront",
        -1.0
      ],
      [
        "Ġask",
        -1.0
      ],
      [
        "Ġsustain",
        -1.0
      ],
      [
        "osing",
        -1.0
      ],
      [
        "Ġemb",
        -1.0
      ],
      [
        "Ġsymptoms",
        -1.0
      ],
      [
        "Ġever",
        -1.0
      ],
      [
        "Ġbreak",
        -1.0
      ],
      [
        "ilt",
        -1.0
      ],
      [
        "Ġrequired",
        -1.0
      ],
      [
        "Ġhot",
        -1.0
      ],
      [
        "Ġprop",
        -1.0
      ],
      [
        "Ġsuper",
        -1.0
      ],
      [
        "Ġstrateg",
        -1.0
      ],
      [
        "Ġonline",
        -1.0
      ],
      [
        "ply",
        -1.0
      ],
      [
        "Ġtot",
        -1.0
      ],
      [
        "**",
        -1.0
      ],
      [
        "Ġaddress",
        -1.0
      ],
      [
        "Ġactivities",
        -1.0
      ],
      [
        "ows",
        -1.0
      ],
      [
        "Ġmanufact",
        -1.0
      ],
      [
        "Ġinside",
        -1.0
      ],
      [
        "Ġtools",
        -1.0
      ],
      [
        "ule",
        -1.0
      ],
      [
        "Ġquestions",
        -1.0
      ],
      [
        "ibr",
        -1.0
      ],
      [
        "Ġuser",
        -1.0
      ],
      [
        "Ġchalleng",
        -1.0
      ],
      [
        "ĠEar",
        -1.0
      ],
      [
        "Ġfat",
        -1.0
      ],
      [
        "nam",
        -1.0
      ],
      [
        "app",
        -1.0
      ],
      [
        "Ġarticle",
        -1.0
      ],
      [
        "vert",
        -1.0
      ],
      [
        "Ġneg",
        -1.0
      ],
      [
        "iment",
        -1.0
      ],
      [
        "Ġlonger",
        -1.0
      ],
      [
        "Ġslow",
        -1.0
      ],
      [
        "aling",
        -1.0
      ],
      [
        "Ġtar",
        -1.0
      ],
      [
        "Ġminim",
        -1.0
      ],
      [
        "Ġfarm",
        -1.0
      ],
      [
        "Ġbar",
        -1.0
      ],
      [
        "Ġmethods",
        -1.0
      ],
      [
        "upp",
        -1.0
      ],
      [
        "Ġprec",
        -1.0
      ],
      [
        "Ġbuilding",
        -1.0
      ],
      [
        "Ġself",
        -1.0
      ],
      [
        "Ġpay",
        -1.0
      ],
      [
        "fully",
        -1.0
      ],
      [
        "Ġresearchers",
        -1.0
      ],
      [
        "Ġcorrect",
        -1.0
      ],
      [
        "Ġhumans",
        -1.0
      ],
      [
        "ĠQu",
        -1.0
      ],
      [
        "Ġdeep",
        -1.0
      ],
      [
        "Ġopportun",
        -1.0
      ],
      [
        "way",
        -1.0
      ],
      [
        "Ġactivity",
        -1.0
      ],
      [
        "aving",
        -1.0
      ],
      [
        "Ġgeneral",
        -1.0
      ],
      [
        "sel",
        -1.0
      ],
      [
        "reng",
        -1.0
      ],
      [
        "Ġcontact",
        -1.0
      ],
      [
        "nces",
        -1.0
      ],
      [
        "Ġidea",
        -1.0
      ],
      [
        "ĠAmerican",
        -1.0
      ],
      [
        "ervation",
        -1.0
      ],
      [
        "Ġenvironmental",
        -1.0
      ],
      [
        "ung",
        -1.0
      ],
      [
        "Ġcompany",
        -1.0
      ],
      [
        "Ġwhole",
        -1.0
      ],
      [
        "ura",
        -1.0
      ],
      [
        "use",
        -1.0
      ],
      [
        "Ġpositive",
        -1.0
      ],
      [
        "Ġapproach",
        -1.0
      ],
      [
        "Ġport",
        -1.0
      ],
      [
        "Ġtaking",
        -1.0
      ],
      [
        "ites",
        -1.0
      ],
      [
        "Ġpan",
        -1.0
      ],
      [
        "Ġliving",
        -1.0
      ],
      [
        "inary",
        -1.0
      ],
      [
        "gar",
        -1.0
      ],
      [
        "Ġrelations",
        -1.0
      ],
      [
        "Ġexerc",
        -1.0
      ],
      [
        "Ġindividuals",
        -1.0
      ],
      [
        "Ġnature",
        -1.0
      ],
      [
        "Ġmat",
        -1.0
      ],
      [
        "Ġappear",
        -1.0
      ],
      [
        "Ġsomeone",
        -1.0
      ],
      [
        "amp",
        -1.0
      ],
      [
        "Ġencou",
        -1.0
      ],
      [
        "ctor",
        -1.0
      ],
      [
        "Ġbehavior",
        -1.0
      ],
      [
        "Ġseason",
        -1.0
      ],
      [
        "Ġperfect",
        -1.0
      ],
      [
        "idered",
        -1.0
      ],
      [
        "Ġtrees",
        -1.0
      ],
      [
        "Ġmonths",
        -1.0
      ],
      [
        "Ġmention",
        -1.0
      ],
      [
        "Ġtypically",
        -1.0
      ],
      [
        "Ġelectr",
        -1.0
      ],
      [
        "Ġremov",
        -1.0
      ],
      [
        "Ġinstall",
        -1.0
      ],
      [
        "Ġprint",
        -1.0
      ],
      [
        "Ġposition",
        -1.0
      ],
      [
        "Ġtravel",
        -1.0
      ],
      [
        "erve",
        -1.0
      ],
      [
        "ties",
        -1.0
      ],
      [
        "Ġfit",
        -1.0
      ],
      [
        "Ġintrodu",
        -1.0
      ],
      [
        "Ġeasily",
        -1.0
      ],
      [
        "Ġlaw",
        -1.0
      ],
      [
        "ises",
        -1.0
      ],
      [
        "ĠCent",
        -1.0
      ],
      [
        "room",
        -1.0
      ],
      [
        "ume",
        -1.0
      ],
      [
        "illed",
        -1.0
      ],
      [
        "selves",
        -1.0
      ],
      [
        "Ġsitu",
        -1.0
      ],
      [
        "Ġcases",
        -1.0
      ],
      [
        "80",
        -1.0
      ],
      [
        "Ġmagn",
        -1.0
      ],
      [
        "Ġmole",
        -1.0
      ],
      [
        "Ġut",
        -1.0
      ],
      [
        "Al",
        -1.0
      ],
      [
        "aches",
        -1.0
      ],
      [
        "Ġprep",
        -1.0
      ],
      [
        "iency",
        -1.0
      ],
      [
        "cell",
        -1.0
      ],
      [
        "Ġsqu",
        -1.0
      ],
      [
        "Ġvac",
        -1.0
      ],
      [
        "urs",
        -1.0
      ],
      [
        "Ġanswer",
        -1.0
      ],
      [
        "Ġyoung",
        -1.0
      ],
      [
        "ĠWor",
        -1.0
      ],
      [
        "onst",
        -1.0
      ],
      [
        "Ġgrowing",
        -1.0
      ],
      [
        "Ġassociated",
        -1.0
      ],
      [
        "Ġisn",
        -1.0
      ],
      [
        "Ġetc",
        -1.0
      ],
      [
        "Ġjob",
        -1.0
      ],
      [
        "Ġsam",
        -1.0
      ],
      [
        ".\"ĊĊ",
        -1.0
      ],
      [
        "ding",
        -1.0
      ],
      [
        "Ġcancer",
        -1.0
      ],
      [
        "het",
        -1.0
      ],
      [
        "reme",
        -1.0
      ],
      [
        "Ġentire",
        -1.0
      ],
      [
        "Ġhor",
        -1.0
      ],
      [
        "Ġextra",
        -1.0
      ],
      [
        "Ġmoney",
        -1.0
      ],
      [
        "ĠNe",
        -1.0
      ],
      [
        "Ġtechniques",
        -1.0
      ],
      [
        "Ġla",
        -1.0
      ],
      [
        "Ġmanagement",
        -1.0
      ],
      [
        "Ġconsidered",
        -1.0
      ],
      [
        "Ġjour",
        -1.0
      ],
      [
        "amin",
        -1.0
      ],
      [
        "ze",
        -1.0
      ],
      [
        "anguage",
        -1.0
      ],
      [
        "osis",
        -1.0
      ],
      [
        "Ġroom",
        -1.0
      ],
      [
        "Ġminutes",
        -1.0
      ],
      [
        "Ġbring",
        -1.0
      ],
      [
        "Ġmeet",
        -1.0
      ],
      [
        "Ġgot",
        -1.0
      ],
      [
        "Ġoverall",
        -1.0
      ],
      [
        "23",
        -1.0
      ],
      [
        "Ġvideo",
        -1.0
      ],
      [
        "____",
        -1.0
      ],
      [
        "uck",
        -1.0
      ],
      [
        ").Ċ",
        -1.0
      ],
      [
        "Ġcollect",
        -1.0
      ],
      [
        "Ġcrucial",
        -1.0
      ],
      [
        "Ġresources",
        -1.0
      ],
      [
        "ulations",
        -1.0
      ],
      [
        "rams",
        -1.0
      ],
      [
        "verse",
        -1.0
      ],
      [
        "Ġmen",
        -1.0
      ],
      [
        "Ġrather",
        -1.0
      ],
      [
        "Ġsolution",
        -1.0
      ],
      [
        "Ġmillion",
        -1.0
      ],
      [
        "Ġinteg",
        -1.0
      ],
      [
        "Ġlater",
        -1.0
      ],
      [
        "eter",
        -1.0
      ],
      [
        "Ġaud",
        -1.0
      ],
      [
        "Ġpatients",
        -1.0
      ],
      [
        "iation",
        -1.0
      ],
      [
        "aced",
        -1.0
      ],
      [
        "Ġwall",
        -1.0
      ],
      [
        "Ġharm",
        -1.0
      ],
      [
        "Ġdevice",
        -1.0
      ],
      [
        "Ġrepresent",
        -1.0
      ],
      [
        "uit",
        -1.0
      ],
      [
        "Ġrecogn",
        -1.0
      ],
      [
        "Ġmedical",
        -1.0
      ],
      [
        "IN",
        -1.0
      ],
      [
        "So",
        -1.0
      ],
      [
        "lor",
        -1.0
      ],
      [
        "Ġpoll",
        -1.0
      ],
      [
        "Ġgover",
        -1.0
      ],
      [
        "ges",
        -1.0
      ],
      [
        "ĠWhile",
        -1.0
      ],
      [
        "Ġcreating",
        -1.0
      ],
      [
        "rug",
        -1.0
      ],
      [
        "Ġsepar",
        -1.0
      ],
      [
        "Ġstay",
        -1.0
      ],
      [
        "ĠDr",
        -1.0
      ],
      [
        "play",
        -1.0
      ],
      [
        "Ġprimary",
        -1.0
      ],
      [
        "Ġcold",
        -1.0
      ],
      [
        "ese",
        -1.0
      ],
      [
        "Ġinflu",
        -1.0
      ],
      [
        "Ġcover",
        -1.0
      ],
      [
        "ival",
        -1.0
      ],
      [
        "ĠX",
        -1.0
      ],
      [
        "Ġcapt",
        -1.0
      ],
      [
        "Ġuses",
        -1.0
      ],
      [
        "Ġbeaut",
        -1.0
      ],
      [
        "Ġhowever",
        -1.0
      ],
      [
        "Th",
        -1.0
      ],
      [
        "-based",
        -1.0
      ],
      [
        "Ġstreng",
        -1.0
      ],
      [
        "ĠShe",
        -1.0
      ],
      [
        "Ġpopulation",
        -1.0
      ],
      [
        "ĠLe",
        -1.0
      ],
      [
        "Ġing",
        -1.0
      ],
      [
        "Ġchoose",
        -1.0
      ],
      [
        "ene",
        -1.0
      ],
      [
        "Ġquickly",
        -1.0
      ],
      [
        "Ġwomen",
        -1.0
      ],
      [
        "Ġthroughout",
        -1.0
      ],
      [
        "Ġexc",
        -1.0
      ],
      [
        "Ġyourself",
        -1.0
      ],
      [
        "Ġaverage",
        -1.0
      ],
      [
        "sect",
        -1.0
      ],
      [
        "Ġrelationship",
        -1.0
      ],
      [
        "Ġcomfort",
        -1.0
      ],
      [
        "Ġwar",
        -1.0
      ],
      [
        "Ġtarget",
        -1.0
      ],
      [
        "ĠCar",
        -1.0
      ],
      [
        "val",
        -1.0
      ],
      [
        "Ġfund",
        -1.0
      ],
      [
        "Ġservice",
        -1.0
      ],
      [
        "Ġsense",
        -1.0
      ],
      [
        "eding",
        -1.0
      ],
      [
        "ging",
        -1.0
      ],
      [
        "lex",
        -1.0
      ],
      [
        "pro",
        -1.0
      ],
      [
        "Ġprofessional",
        -1.0
      ],
      [
        "Ġprotein",
        -1.0
      ],
      [
        "ĠCO",
        -1.0
      ],
      [
        "oll",
        -1.0
      ],
      [
        "Ġincludes",
        -1.0
      ],
      [
        "Ġthought",
        -1.0
      ],
      [
        "aily",
        -1.0
      ],
      [
        "Ġsubject",
        -1.0
      ],
      [
        "xim",
        -1.0
      ],
      [
        "uff",
        -1.0
      ],
      [
        "ounds",
        -1.0
      ],
      [
        "Ġeconom",
        -1.0
      ],
      [
        "Ġappl",
        -1.0
      ],
      [
        "Ġmultiple",
        -1.0
      ],
      [
        "Ġconcept",
        -1.0
      ],
      [
        "era",
        -1.0
      ],
      [
        "rated",
        -1.0
      ],
      [
        "Ġemploy",
        -1.0
      ],
      [
        "ES",
        -1.0
      ],
      [
        "aged",
        -1.0
      ],
      [
        "ĠComp",
        -1.0
      ],
      [
        "Ġidentify",
        -1.0
      ],
      [
        "Ġconsist",
        -1.0
      ],
      [
        "Ġoptions",
        -1.0
      ],
      [
        "Ġoutside",
        -1.0
      ],
      [
        "Ġincreased",
        -1.0
      ],
      [
        "yl",
        -1.0
      ],
      [
        "icles",
        -1.0
      ],
      [
        "Ġpractice",
        -1.0
      ],
      [
        "Ġpack",
        -1.0
      ],
      [
        "erous",
        -1.0
      ],
      [
        "Ġsleep",
        -1.0
      ],
      [
        "Ġbirds",
        -1.0
      ],
      [
        "cks",
        -1.0
      ],
      [
        "Ġtakes",
        -1.0
      ],
      [
        "Ġsimply",
        -1.0
      ],
      [
        "Ġacid",
        -1.0
      ],
      [
        "Ġprobably",
        -1.0
      ],
      [
        "Ġdeveloped",
        -1.0
      ],
      [
        "Ġnormal",
        -1.0
      ],
      [
        "Ġadult",
        -1.0
      ],
      [
        "earch",
        -1.0
      ],
      [
        "Ġhalf",
        -1.0
      ],
      [
        "Ġbad",
        -1.0
      ],
      [
        "Ġeyes",
        -1.0
      ],
      [
        "ĠComm",
        -1.0
      ],
      [
        "Ġrelated",
        -1.0
      ],
      [
        "Ġfoot",
        -1.0
      ],
      [
        "ils",
        -1.0
      ],
      [
        "Ġgovern",
        -1.0
      ],
      [
        "âĢĿ",
        -1.0
      ],
      [
        "Ġcreated",
        -1.0
      ],
      [
        "Ġur",
        -1.0
      ],
      [
        "-w",
        -1.0
      ],
      [
        "Ġcannot",
        -1.0
      ],
      [
        "rict",
        -1.0
      ],
      [
        "Ġheav",
        -1.0
      ],
      [
        "aff",
        -1.0
      ],
      [
        "Ġwebs",
        -1.0
      ],
      [
        "Ġfeet",
        -1.0
      ],
      [
        "Ġcompan",
        -1.0
      ],
      [
        "Ġcook",
        -1.0
      ],
      [
        "ipment",
        -1.0
      ],
      [
        "mb",
        -1.0
      ],
      [
        ".\"Ċ",
        -1.0
      ],
      [
        "Ġcop",
        -1.0
      ],
      [
        "Ġstudies",
        -1.0
      ],
      [
        "Ġquant",
        -1.0
      ],
      [
        "Ġtend",
        -1.0
      ],
      [
        "Ġstra",
        -1.0
      ],
      [
        "Ġissue",
        -1.0
      ],
      [
        "Ġcompet",
        -1.0
      ],
      [
        "lease",
        -1.0
      ],
      [
        "AT",
        -1.0
      ],
      [
        "Ġbur",
        -1.0
      ],
      [
        "ĠDo",
        -1.0
      ],
      [
        "Ġnight",
        -1.0
      ],
      [
        "Ġservices",
        -1.0
      ],
      [
        "Ġoptim",
        -1.0
      ],
      [
        "Ġcauses",
        -1.0
      ],
      [
        "Ġmodern",
        -1.0
      ],
      [
        "Ġsat",
        -1.0
      ],
      [
        "urope",
        -1.0
      ],
      [
        "Ġalmost",
        -1.0
      ],
      [
        "Ġeducation",
        -1.0
      ],
      [
        "Ġmachine",
        -1.0
      ],
      [
        "Ġparticip",
        -1.0
      ],
      [
        "Ġfast",
        -1.0
      ],
      [
        "ively",
        -1.0
      ],
      [
        "Ġfram",
        -1.0
      ],
      [
        "cies",
        -1.0
      ],
      [
        "Ġelements",
        -1.0
      ],
      [
        "Ġfoods",
        -1.0
      ],
      [
        "ellow",
        -1.0
      ],
      [
        "ĠUnited",
        -1.0
      ],
      [
        ".S",
        -1.0
      ],
      [
        "Ġrob",
        -1.0
      ],
      [
        "Ġwaste",
        -1.0
      ],
      [
        "Ġann",
        -1.0
      ],
      [
        "AR",
        -1.0
      ],
      [
        "Ġteac",
        -1.0
      ],
      [
        "Ġconduct",
        -1.0
      ],
      [
        "Ġinstead",
        -1.0
      ],
      [
        "Ġsomet",
        -1.0
      ],
      [
        "Ġlayer",
        -1.0
      ],
      [
        "Ġlog",
        -1.0
      ],
      [
        "Ġsil",
        -1.0
      ],
      [
        "elling",
        -1.0
      ],
      [
        "Ġremain",
        -1.0
      ],
      [
        "-in",
        -1.0
      ],
      [
        "Ġlarger",
        -1.0
      ],
      [
        "Ġpri",
        -1.0
      ],
      [
        "ison",
        -1.0
      ],
      [
        "Ġfive",
        -1.0
      ],
      [
        "Ġattention",
        -1.0
      ],
      [
        "ured",
        -1.0
      ],
      [
        "onse",
        -1.0
      ],
      [
        "Ġglobal",
        -1.0
      ],
      [
        "Ġlength",
        -1.0
      ],
      [
        "Ġincreasing",
        -1.0
      ],
      [
        "augh",
        -1.0
      ],
      [
        "abor",
        -1.0
      ],
      [
        "Ġpict",
        -1.0
      ],
      [
        "Ġwinter",
        -1.0
      ],
      [
        "Ġcountry",
        -1.0
      ],
      [
        "itor",
        -1.0
      ],
      [
        "ift",
        -1.0
      ],
      [
        "nov",
        -1.0
      ],
      [
        "ĠTr",
        -1.0
      ],
      [
        "Ġaccount",
        -1.0
      ],
      [
        "aim",
        -1.0
      ],
      [
        "Ġtraditional",
        -1.0
      ],
      [
        "itud",
        -1.0
      ],
      [
        "Ġshape",
        -1.0
      ],
      [
        "Ġshows",
        -1.0
      ],
      [
        "Ġaltern",
        -1.0
      ],
      [
        "Ġextreme",
        -1.0
      ],
      [
        "90",
        -1.0
      ],
      [
        "Ġapplications",
        -1.0
      ],
      [
        "Ġestab",
        -1.0
      ],
      [
        "urity",
        -1.0
      ],
      [
        "Ġdetermine",
        -1.0
      ],
      [
        "Ġbab",
        -1.0
      ],
      [
        ").ĊĊ",
        -1.0
      ],
      [
        "Ġfuel",
        -1.0
      ],
      [
        "Ġtotal",
        -1.0
      ],
      [
        "Ġdom",
        -1.0
      ],
      [
        "Ġsite",
        -1.0
      ],
      [
        "Ġge",
        -1.0
      ],
      [
        "Ġscientists",
        -1.0
      ],
      [
        "Ġang",
        -1.0
      ],
      [
        "Ġcompared",
        -1.0
      ],
      [
        "cre",
        -1.0
      ],
      [
        "ĠNational",
        -1.0
      ],
      [
        "ĠHere",
        -1.0
      ],
      [
        "Ġwa",
        -1.0
      ],
      [
        "ĠMed",
        -1.0
      ],
      [
        "Ġfail",
        -1.0
      ],
      [
        "ians",
        -1.0
      ],
      [
        "Ġhabit",
        -1.0
      ],
      [
        "Ġautom",
        -1.0
      ],
      [
        "oh",
        -1.0
      ],
      [
        "Ġspread",
        -1.0
      ],
      [
        "Ġshown",
        -1.0
      ],
      [
        "Ġefficient",
        -1.0
      ],
      [
        "ropri",
        -1.0
      ],
      [
        "ners",
        -1.0
      ],
      [
        "rogen",
        -1.0
      ],
      [
        "Ġsometimes",
        -1.0
      ],
      [
        "Ġweather",
        -1.0
      ],
      [
        "asc",
        -1.0
      ],
      [
        "Ġbasic",
        -1.0
      ],
      [
        "Ġcra",
        -1.0
      ],
      [
        "asons",
        -1.0
      ],
      [
        "Ġproviding",
        -1.0
      ],
      [
        "ĠUs",
        -1.0
      ],
      [
        "ED",
        -1.0
      ],
      [
        "Ġyet",
        -1.0
      ],
      [
        "Ġchoice",
        -1.0
      ],
      [
        "Ġanything",
        -1.0
      ],
      [
        "Ġremove",
        -1.0
      ],
      [
        "Ġeverything",
        -1.0
      ],
      [
        "ĠCont",
        -1.0
      ],
      [
        "ograph",
        -1.0
      ],
      [
        "Ġfresh",
        -1.0
      ],
      [
        "Ġadvant",
        -1.0
      ],
      [
        "acks",
        -1.0
      ],
      [
        "umb",
        -1.0
      ],
      [
        "isc",
        -1.0
      ],
      [
        "Ġface",
        -1.0
      ],
      [
        "Ġstory",
        -1.0
      ],
      [
        "Ġdevices",
        -1.0
      ],
      [
        "Ġbattery",
        -1.0
      ],
      [
        "70",
        -1.0
      ],
      [
        "Ġoffers",
        -1.0
      ],
      [
        "Ġtrue",
        -1.0
      ],
      [
        "Ġcaused",
        -1.0
      ],
      [
        "Ġexplain",
        -1.0
      ],
      [
        "ctions",
        -1.0
      ],
      [
        "gest",
        -1.0
      ],
      [
        "ned",
        -1.0
      ],
      [
        "Ġwon",
        -1.0
      ],
      [
        "Ġadapt",
        -1.0
      ],
      [
        "Ġrelative",
        -1.0
      ],
      [
        "Ġnutri",
        -1.0
      ],
      [
        "where",
        -1.0
      ],
      [
        "Ġtaken",
        -1.0
      ],
      [
        "Ġcomponents",
        -1.0
      ],
      [
        "rig",
        -1.0
      ],
      [
        "Ġseem",
        -1.0
      ],
      [
        "ged",
        -1.0
      ],
      [
        "Ġgenerally",
        -1.0
      ],
      [
        "Ġquite",
        -1.0
      ],
      [
        "ĠCal",
        -1.0
      ],
      [
        "Ad",
        -1.0
      ],
      [
        "sy",
        -1.0
      ],
      [
        "Ġadjust",
        -1.0
      ],
      [
        "rip",
        -1.0
      ],
      [
        "ground",
        -1.0
      ],
      [
        "osition",
        -1.0
      ],
      [
        "Ġmetal",
        -1.0
      ],
      [
        "ĠApp",
        -1.0
      ],
      [
        "Ġprevious",
        -1.0
      ],
      [
        "ĠEurope",
        -1.0
      ],
      [
        "cean",
        -1.0
      ],
      [
        "rad",
        -1.0
      ],
      [
        "icy",
        -1.0
      ],
      [
        "Ġfib",
        -1.0
      ],
      [
        "ley",
        -1.0
      ],
      [
        "Ġsurv",
        -1.0
      ],
      [
        "Ġfem",
        -1.0
      ],
      [
        "izes",
        -1.0
      ],
      [
        "Ġexact",
        -1.0
      ],
      [
        "Ġstandard",
        -1.0
      ],
      [
        "ronic",
        -1.0
      ],
      [
        "ules",
        -1.0
      ],
      [
        "Ġterms",
        -1.0
      ],
      [
        "Ġbacteria",
        -1.0
      ],
      [
        "Ġanalysis",
        -1.0
      ],
      [
        "One",
        -1.0
      ],
      [
        "Ġones",
        -1.0
      ],
      [
        "isms",
        -1.0
      ],
      [
        "ement",
        -1.0
      ],
      [
        "ĠEarth",
        -1.0
      ],
      [
        "Ġbox",
        -1.0
      ],
      [
        "Ġcontinu",
        -1.0
      ],
      [
        "Ġsoftware",
        -1.0
      ],
      [
        "Ġstarted",
        -1.0
      ],
      [
        "Ġfire",
        -1.0
      ],
      [
        "go",
        -1.0
      ],
      [
        "ched",
        -1.0
      ],
      [
        "OT",
        -1.0
      ],
      [
        "Ġsuit",
        -1.0
      ],
      [
        "Ġmedic",
        -1.0
      ],
      [
        "hib",
        -1.0
      ],
      [
        "Ġgroups",
        -1.0
      ],
      [
        "icial",
        -1.0
      ],
      [
        "imately",
        -1.0
      ],
      [
        "mon",
        -1.0
      ],
      [
        "Ġequipment",
        -1.0
      ],
      [
        "Ġlanguage",
        -1.0
      ],
      [
        "Ġfront",
        -1.0
      ],
      [
        "istics",
        -1.0
      ],
      [
        "ĠAf",
        -1.0
      ],
      [
        "ON",
        -1.0
      ],
      [
        "Ġshare",
        -1.0
      ],
      [
        "AS",
        -1.0
      ],
      [
        "Ġbott",
        -1.0
      ],
      [
        "Ġassess",
        -1.0
      ],
      [
        "Ġinj",
        -1.0
      ],
      [
        "ests",
        -1.0
      ],
      [
        "ights",
        -1.0
      ],
      [
        "ension",
        -1.0
      ],
      [
        "rapy",
        -1.0
      ],
      [
        "Ġtrying",
        -1.0
      ],
      [
        "hern",
        -1.0
      ],
      [
        "ĠCons",
        -1.0
      ],
      [
        "Ġbelie",
        -1.0
      ],
      [
        "Ġrot",
        -1.0
      ],
      [
        "ino",
        -1.0
      ],
      [
        "ext",
        -1.0
      ],
      [
        "Ġitself",
        -1.0
      ],
      [
        "ĠAm",
        -1.0
      ],
      [
        "ĠAfter",
        -1.0
      ],
      [
        "Ġdark",
        -1.0
      ],
      [
        "Ġago",
        -1.0
      ],
      [
        "Ġprovided",
        -1.0
      ],
      [
        "Ġdy",
        -1.0
      ],
      [
        "Ġcode",
        -1.0
      ],
      [
        "li",
        -1.0
      ],
      [
        "Ġwords",
        -1.0
      ],
      [
        "Ġlo",
        -1.0
      ],
      [
        "acy",
        -1.0
      ],
      [
        "Ġmom",
        -1.0
      ],
      [
        "Ġthemselves",
        -1.0
      ],
      [
        "Ġaspect",
        -1.0
      ],
      [
        "oses",
        -1.0
      ],
      [
        "Ġpurpose",
        -1.0
      ],
      [
        "ography",
        -1.0
      ],
      [
        "Ġsummer",
        -1.0
      ],
      [
        "ecause",
        -1.0
      ],
      [
        "Ġball",
        -1.0
      ],
      [
        "Ġbelieve",
        -1.0
      ],
      [
        "ditionally",
        -1.0
      ],
      [
        "Ġtable",
        -1.0
      ],
      [
        "arily",
        -1.0
      ],
      [
        "Ġbase",
        -1.0
      ],
      [
        "Ġregard",
        -1.0
      ],
      [
        "Ġkids",
        -1.0
      ],
      [
        "Ġdigital",
        -1.0
      ],
      [
        "Ġproperties",
        -1.0
      ],
      [
        "Ġsteps",
        -1.0
      ],
      [
        "Ġreading",
        -1.0
      ],
      [
        "Ġarr",
        -1.0
      ],
      [
        "ening",
        -1.0
      ],
      [
        "ĠDNA",
        -1.0
      ],
      [
        "Ġsea",
        -1.0
      ],
      [
        "Ġdoc",
        -1.0
      ],
      [
        "Ġachieve",
        -1.0
      ],
      [
        "Ġrequires",
        -1.0
      ],
      [
        "Ġmentioned",
        -1.0
      ],
      [
        "ĠMan",
        -1.0
      ],
      [
        "Ġgain",
        -1.0
      ],
      [
        "Ġload",
        -1.0
      ],
      [
        "ĠCo",
        -1.0
      ],
      [
        "Ġdistrib",
        -1.0
      ],
      [
        "Ġdaily",
        -1.0
      ],
      [
        "Ġdrug",
        -1.0
      ],
      [
        "alking",
        -1.0
      ],
      [
        "Ġice",
        -1.0
      ],
      [
        "iot",
        -1.0
      ],
      [
        "Ġmeat",
        -1.0
      ],
      [
        "Ġswe",
        -1.0
      ],
      [
        "Ġobserv",
        -1.0
      ],
      [
        "Ġir",
        -1.0
      ],
      [
        "Ġemot",
        -1.0
      ],
      [
        "ĠHealth",
        -1.0
      ],
      [
        "ĠDes",
        -1.0
      ],
      [
        "Ġresponse",
        -1.0
      ],
      [
        "Ġmoist",
        -1.0
      ],
      [
        "Pro",
        -1.0
      ],
      [
        "Ġdefin",
        -1.0
      ],
      [
        "Ġforce",
        -1.0
      ],
      [
        "ĠStates",
        -1.0
      ],
      [
        "Ġadded",
        -1.0
      ],
      [
        "Ġaction",
        -1.0
      ],
      [
        "Ġrout",
        -1.0
      ],
      [
        "emic",
        -1.0
      ],
      [
        "Ġadditional",
        -1.0
      ],
      [
        "Ġtiss",
        -1.0
      ],
      [
        "Ġeating",
        -1.0
      ],
      [
        "Ġsmaller",
        -1.0
      ],
      [
        "aries",
        -1.0
      ],
      [
        "Ġplastic",
        -1.0
      ],
      [
        "Ġparticularly",
        -1.0
      ],
      [
        "Ġfamil",
        -1.0
      ],
      [
        "Ġbehind",
        -1.0
      ],
      [
        "ID",
        -1.0
      ],
      [
        "Ġexplore",
        -1.0
      ],
      [
        "ipe",
        -1.0
      ],
      [
        "Ġglass",
        -1.0
      ],
      [
        "ences",
        -1.0
      ],
      [
        "Ġlink",
        -1.0
      ],
      [
        "ĠPr",
        -1.0
      ],
      [
        "Ġwond",
        -1.0
      ],
      [
        "Ġmaxim",
        -1.0
      ],
      [
        "min",
        -1.0
      ],
      [
        "tenance",
        -1.0
      ],
      [
        "ccording",
        -1.0
      ],
      [
        "osure",
        -1.0
      ],
      [
        "Ġdiseases",
        -1.0
      ],
      [
        "Ġregion",
        -1.0
      ],
      [
        "Ġoption",
        -1.0
      ],
      [
        "Ġ/",
        -1.0
      ],
      [
        "pid",
        -1.0
      ],
      [
        "Ex",
        -1.0
      ],
      [
        "Ġcard",
        -1.0
      ],
      [
        "'d",
        -1.0
      ],
      [
        "Ġimplement",
        -1.0
      ],
      [
        "Ġcapac",
        -1.0
      ],
      [
        "Ġmess",
        -1.0
      ],
      [
        "Ġtou",
        -1.0
      ],
      [
        "Ġblue",
        -1.0
      ],
      [
        "ricult",
        -1.0
      ],
      [
        "Ġmilk",
        -1.0
      ],
      [
        "Ġ+",
        -1.0
      ],
      [
        "Ġdirectly",
        -1.0
      ],
      [
        "Ġassist",
        -1.0
      ],
      [
        "Ġpoints",
        -1.0
      ],
      [
        "inct",
        -1.0
      ],
      [
        "Ġtowards",
        -1.0
      ],
      [
        "Ġinsect",
        -1.0
      ],
      [
        "Ġparents",
        -1.0
      ],
      [
        "ulate",
        -1.0
      ],
      [
        "iddle",
        -1.0
      ],
      [
        "ai",
        -1.0
      ],
      [
        "Ġdiagn",
        -1.0
      ],
      [
        "nter",
        -1.0
      ],
      [
        "Ġleading",
        -1.0
      ],
      [
        "oles",
        -1.0
      ],
      [
        "iring",
        -1.0
      ],
      [
        "ĠStud",
        -1.0
      ],
      [
        "Ġx",
        -1.0
      ],
      [
        "Ġhighly",
        -1.0
      ],
      [
        "Ġevidence",
        -1.0
      ],
      [
        "ĠMay",
        -1.0
      ],
      [
        "Ġnegative",
        -1.0
      ],
      [
        "Ġsignal",
        -1.0
      ],
      [
        "Ġcolors",
        -1.0
      ],
      [
        "rition",
        -1.0
      ],
      [
        "reg",
        -1.0
      ],
      [
        "Why",
        -1.0
      ],
      [
        "Ġdest",
        -1.0
      ],
      [
        "Ġingred",
        -1.0
      ],
      [
        "ĠOf",
        -1.0
      ],
      [
        "Ġaware",
        -1.0
      ],
      [
        "Ġcontinue",
        -1.0
      ],
      [
        "Ġrespect",
        -1.0
      ],
      [
        "Ġinvolved",
        -1.0
      ],
      [
        "Â°",
        -1.0
      ],
      [
        "oon",
        -1.0
      ],
      [
        "Ġcats",
        -1.0
      ],
      [
        "iding",
        -1.0
      ],
      [
        "ĠAfric",
        -1.0
      ],
      [
        "ĠAust",
        -1.0
      ],
      [
        "Ġvehicle",
        -1.0
      ],
      [
        "Ġstudent",
        -1.0
      ],
      [
        "like",
        -1.0
      ],
      [
        "sh",
        -1.0
      ],
      [
        "Ġconcent",
        -1.0
      ],
      [
        "Ġoutput",
        -1.0
      ],
      [
        "Ġmodels",
        -1.0
      ],
      [
        "Ġappropri",
        -1.0
      ],
      [
        "ĠPre",
        -1.0
      ],
      [
        "vant",
        -1.0
      ],
      [
        "rist",
        -1.0
      ],
      [
        "ades",
        -1.0
      ],
      [
        "ĠNorth",
        -1.0
      ],
      [
        "Ġeggs",
        -1.0
      ],
      [
        "Ġreach",
        -1.0
      ],
      [
        "Ġemerg",
        -1.0
      ],
      [
        "ĠâĢľ",
        -1.0
      ],
      [
        "Ġweeks",
        -1.0
      ],
      [
        "Ġreview",
        -1.0
      ],
      [
        "Ġproduced",
        -1.0
      ],
      [
        "Ġdou",
        -1.0
      ],
      [
        "Ġbul",
        -1.0
      ],
      [
        "oph",
        -1.0
      ],
      [
        "But",
        -1.0
      ],
      [
        "Ġsearch",
        -1.0
      ],
      [
        "head",
        -1.0
      ],
      [
        "Ġgenetic",
        -1.0
      ],
      [
        "illing",
        -1.0
      ],
      [
        "-st",
        -1.0
      ],
      [
        "Ġsugar",
        -1.0
      ],
      [
        "sequ",
        -1.0
      ],
      [
        "Ġkit",
        -1.0
      ],
      [
        "alu",
        -1.0
      ],
      [
        "ĠMy",
        -1.0
      ],
      [
        "Ġeveryone",
        -1.0
      ],
      [
        "Ġpoly",
        -1.0
      ],
      [
        "Ġapplication",
        -1.0
      ],
      [
        "Ġhar",
        -1.0
      ],
      [
        "Ġstat",
        -1.0
      ],
      [
        "Ġsources",
        -1.0
      ],
      [
        "yp",
        -1.0
      ],
      [
        "Ġful",
        -1.0
      ],
      [
        "vere",
        -1.0
      ],
      [
        "clusion",
        -1.0
      ],
      [
        "Ġpurch",
        -1.0
      ],
      [
        "Ġrecommend",
        -1.0
      ],
      [
        "ror",
        -1.0
      ],
      [
        "Ġmembers",
        -1.0
      ],
      [
        "ĠNot",
        -1.0
      ],
      [
        "anks",
        -1.0
      ],
      [
        "Ġhun",
        -1.0
      ],
      [
        "Ġimages",
        -1.0
      ],
      [
        "Ġlives",
        -1.0
      ],
      [
        "ĠFe",
        -1.0
      ],
      [
        "rid",
        -1.0
      ],
      [
        "Ġvit",
        -1.0
      ],
      [
        "cri",
        -1.0
      ],
      [
        "ĠGu",
        -1.0
      ],
      [
        "wh",
        -1.0
      ],
      [
        "artment",
        -1.0
      ],
      [
        "new",
        -1.0
      ],
      [
        "ĠMe",
        -1.0
      ],
      [
        "Ġsolar",
        -1.0
      ],
      [
        "ĠInt",
        -1.0
      ],
      [
        "-g",
        -1.0
      ],
      [
        "Ġdecre",
        -1.0
      ],
      [
        "Ġmor",
        -1.0
      ],
      [
        "Ġcalcul",
        -1.0
      ],
      [
        "Ġrecommended",
        -1.0
      ],
      [
        "Ġlands",
        -1.0
      ],
      [
        "Ġteeth",
        -1.0
      ],
      [
        "Ġtransform",
        -1.0
      ],
      [
        "01",
        -1.0
      ],
      [
        "Ġeasier",
        -1.0
      ],
      [
        "orpor",
        -1.0
      ],
      [
        "Ġblock",
        -1.0
      ],
      [
        "Ġhair",
        -1.0
      ],
      [
        "nal",
        -1.0
      ],
      [
        "ma",
        -1.0
      ],
      [
        "Ġpret",
        -1.0
      ],
      [
        "itation",
        -1.0
      ],
      [
        "Ġrecent",
        -1.0
      ],
      [
        "Ġevents",
        -1.0
      ],
      [
        "ops",
        -1.0
      ],
      [
        "ĠAre",
        -1.0
      ],
      [
        "Ġprior",
        -1.0
      ],
      [
        "Ġinput",
        -1.0
      ],
      [
        "Ġforest",
        -1.0
      ],
      [
        "Ġguide",
        -1.0
      ],
      [
        "unch",
        -1.0
      ],
      [
        "Ġgoal",
        -1.0
      ],
      [
        "-h",
        -1.0
      ],
      [
        "Ġtransport",
        -1.0
      ],
      [
        "ĠKe",
        -1.0
      ],
      [
        "Ġstrength",
        -1.0
      ],
      [
        "ĠYes",
        -1.0
      ],
      [
        "Ġroad",
        -1.0
      ],
      [
        "cles",
        -1.0
      ],
      [
        "aur",
        -1.0
      ],
      [
        "Ġitems",
        -1.0
      ],
      [
        "Ġelse",
        -1.0
      ],
      [
        "Ġstore",
        -1.0
      ],
      [
        "Ġconstant",
        -1.0
      ],
      [
        "Ġspeak",
        -1.0
      ],
      [
        "-to",
        -1.0
      ],
      [
        "Ġtips",
        -1.0
      ],
      [
        "Ġdidn",
        -1.0
      ],
      [
        "Ġbed",
        -1.0
      ],
      [
        "ĠGen",
        -1.0
      ],
      [
        "Ġexercise",
        -1.0
      ],
      [
        "Ġcountries",
        -1.0
      ],
      [
        "Ġlines",
        -1.0
      ],
      [
        "ĠSchool",
        -1.0
      ],
      [
        "Ġnumbers",
        -1.0
      ],
      [
        "Ġword",
        -1.0
      ],
      [
        "Ġwebsite",
        -1.0
      ],
      [
        "Ġearth",
        -1.0
      ],
      [
        "ancy",
        -1.0
      ],
      [
        "AC",
        -1.0
      ],
      [
        "Ġprocesses",
        -1.0
      ],
      [
        "Ġliqu",
        -1.0
      ],
      [
        "Ġprefer",
        -1.0
      ],
      [
        "Ġrunning",
        -1.0
      ],
      [
        "ĠâĢ¦",
        -1.0
      ],
      [
        "Ġ,",
        -1.0
      ],
      [
        "Ġtemperatures",
        -1.0
      ],
      [
        "Sh",
        -1.0
      ],
      [
        "Ġaim",
        -1.0
      ],
      [
        "Ġreplace",
        -1.0
      ],
      [
        "Ġmeaning",
        -1.0
      ],
      [
        "att",
        -1.0
      ],
      [
        "Ġscreen",
        -1.0
      ],
      [
        "Ġcompletely",
        -1.0
      ],
      [
        "--------",
        -1.0
      ],
      [
        "....",
        -1.0
      ],
      [
        "Ġdeath",
        -1.0
      ],
      [
        "ĠAss",
        -1.0
      ],
      [
        "Ġbreat",
        -1.0
      ],
      [
        "Ġuseful",
        -1.0
      ],
      [
        "Ġseeds",
        -1.0
      ],
      [
        "oming",
        -1.0
      ],
      [
        "Ġdang",
        -1.0
      ],
      [
        "ygen",
        -1.0
      ],
      [
        "Ġgreater",
        -1.0
      ],
      [
        "Ġflowers",
        -1.0
      ],
      [
        "issions",
        -1.0
      ],
      [
        "ĠScience",
        -1.0
      ],
      [
        "Ġsand",
        -1.0
      ],
      [
        "rast",
        -1.0
      ],
      [
        "Ġalg",
        -1.0
      ],
      [
        "icate",
        -1.0
      ],
      [
        "vest",
        -1.0
      ],
      [
        "Ġmovement",
        -1.0
      ],
      [
        "Is",
        -1.0
      ],
      [
        "Ġactive",
        -1.0
      ],
      [
        "ĠMost",
        -1.0
      ],
      [
        "aks",
        -1.0
      ],
      [
        "Ġbrand",
        -1.0
      ],
      [
        "Ġcontroll",
        -1.0
      ],
      [
        "terns",
        -1.0
      ],
      [
        "Ġsupply",
        -1.0
      ],
      [
        "ociety",
        -1.0
      ],
      [
        "ĠMore",
        -1.0
      ],
      [
        "Ġsequ",
        -1.0
      ],
      [
        "ocks",
        -1.0
      ],
      [
        "Ġbalance",
        -1.0
      ],
      [
        "Ġfix",
        -1.0
      ],
      [
        "rial",
        -1.0
      ],
      [
        "ucle",
        -1.0
      ],
      [
        "Ġcross",
        -1.0
      ],
      [
        "IS",
        -1.0
      ],
      [
        "Ġproperly",
        -1.0
      ],
      [
        "Ġpatient",
        -1.0
      ],
      [
        "epend",
        -1.0
      ],
      [
        "Ġmedia",
        -1.0
      ],
      [
        "water",
        -1.0
      ],
      [
        "ensity",
        -1.0
      ],
      [
        "Ġwear",
        -1.0
      ],
      [
        "irm",
        -1.0
      ],
      [
        "Ġfriend",
        -1.0
      ],
      [
        "Ġunit",
        -1.0
      ],
      [
        "Ġprinc",
        -1.0
      ],
      [
        "Ġserious",
        -1.0
      ],
      [
        "pper",
        -1.0
      ],
      [
        "Ġinitial",
        -1.0
      ],
      [
        "Ġrefer",
        -1.0
      ],
      [
        "Ġanaly",
        -1.0
      ],
      [
        "come",
        -1.0
      ],
      [
        "iny",
        -1.0
      ],
      [
        "Ġseries",
        -1.0
      ],
      [
        "Ġevolution",
        -1.0
      ],
      [
        "Ġclaim",
        -1.0
      ],
      [
        "AN",
        -1.0
      ],
      [
        "orage",
        -1.0
      ],
      [
        "Ġpiece",
        -1.0
      ],
      [
        "Ġstyle",
        -1.0
      ],
      [
        "back",
        -1.0
      ],
      [
        "abric",
        -1.0
      ],
      [
        "Ġthreat",
        -1.0
      ],
      [
        "Ġvalues",
        -1.0
      ],
      [
        "Ġtalk",
        -1.0
      ],
      [
        "Ġfert",
        -1.0
      ],
      [
        "Ġreflect",
        -1.0
      ],
      [
        "bol",
        -1.0
      ],
      [
        "Ġchallenges",
        -1.0
      ],
      [
        "life",
        -1.0
      ],
      [
        "imin",
        -1.0
      ],
      [
        "EN",
        -1.0
      ],
      [
        "ellig",
        -1.0
      ],
      [
        "...ĊĊ",
        -1.0
      ],
      [
        "Ġ--",
        -1.0
      ],
      [
        "iles",
        -1.0
      ],
      [
        "iful",
        -1.0
      ],
      [
        "Ġhands",
        -1.0
      ],
      [
        "uted",
        -1.0
      ],
      [
        "Ġvisual",
        -1.0
      ],
      [
        "Ġsix",
        -1.0
      ],
      [
        "Ġefficiency",
        -1.0
      ],
      [
        "Ġspring",
        -1.0
      ],
      [
        "onn",
        -1.0
      ],
      [
        "abet",
        -1.0
      ],
      [
        "Ġcommunication",
        -1.0
      ],
      [
        "ections",
        -1.0
      ],
      [
        "Ġcamera",
        -1.0
      ],
      [
        "Ġcontains",
        -1.0
      ],
      [
        "ĠFrom",
        -1.0
      ],
      [
        "Ġmoving",
        -1.0
      ],
      [
        "Ġguid",
        -1.0
      ],
      [
        "Ġscientific",
        -1.0
      ],
      [
        "35",
        -1.0
      ],
      [
        "Ġgoes",
        -1.0
      ],
      [
        "Ġusers",
        -1.0
      ],
      [
        "Ġvisit",
        -1.0
      ],
      [
        "Ġorganic",
        -1.0
      ],
      [
        "Ġvirus",
        -1.0
      ],
      [
        "Ġprograms",
        -1.0
      ],
      [
        "Ġabsor",
        -1.0
      ],
      [
        "itute",
        -1.0
      ],
      [
        "Ġsus",
        -1.0
      ],
      [
        "Ġcritical",
        -1.0
      ],
      [
        "Ġlocation",
        -1.0
      ],
      [
        "Ġdrive",
        -1.0
      ],
      [
        "Ġcarry",
        -1.0
      ],
      [
        "OR",
        -1.0
      ],
      [
        "Ġbenefit",
        -1.0
      ],
      [
        "rees",
        -1.0
      ],
      [
        "Ġprojects",
        -1.0
      ],
      [
        "Ġforms",
        -1.0
      ],
      [
        "tings",
        -1.0
      ],
      [
        "ached",
        -1.0
      ],
      [
        "ster",
        -1.0
      ],
      [
        "Ġthick",
        -1.0
      ],
      [
        "Ġcry",
        -1.0
      ],
      [
        "fl",
        -1.0
      ],
      [
        "Ġgovernment",
        -1.0
      ],
      [
        "Ġbuilt",
        -1.0
      ],
      [
        "ĠDep",
        -1.0
      ],
      [
        "Ġpatterns",
        -1.0
      ],
      [
        "Ġarg",
        -1.0
      ],
      [
        "Ġplat",
        -1.0
      ],
      [
        "Be",
        -1.0
      ],
      [
        "Ġcosts",
        -1.0
      ],
      [
        "istry",
        -1.0
      ],
      [
        "fficient",
        -1.0
      ],
      [
        "ĠSouth",
        -1.0
      ],
      [
        "Ġmusic",
        -1.0
      ],
      [
        "Ġcompanies",
        -1.0
      ],
      [
        "elt",
        -1.0
      ],
      [
        "Can",
        -1.0
      ],
      [
        "Ġdepending",
        -1.0
      ],
      [
        "Ġmemory",
        -1.0
      ],
      [
        "Ġtheory",
        -1.0
      ],
      [
        "atives",
        -1.0
      ],
      [
        "sych",
        -1.0
      ],
      [
        "Ġimmedi",
        -1.0
      ],
      [
        "rec",
        -1.0
      ],
      [
        "ĠGo",
        -1.0
      ],
      [
        "Ġinnov",
        -1.0
      ],
      [
        "Ġfriends",
        -1.0
      ],
      [
        "Cl",
        -1.0
      ],
      [
        "Ġreasons",
        -1.0
      ],
      [
        "ightly",
        -1.0
      ],
      [
        "Ġinstruct",
        -1.0
      ],
      [
        "Ġdemonst",
        -1.0
      ],
      [
        "ĠAmerica",
        -1.0
      ],
      [
        "Ġdisplay",
        -1.0
      ],
      [
        "rs",
        -1.0
      ],
      [
        "load",
        -1.0
      ],
      [
        "Ġdeveloping",
        -1.0
      ],
      [
        "ÂŃ",
        -1.0
      ],
      [
        "Ġwatch",
        -1.0
      ],
      [
        "Ġdeal",
        -1.0
      ],
      [
        "Ġallowing",
        -1.0
      ],
      [
        "Ġprice",
        -1.0
      ],
      [
        "Ġchick",
        -1.0
      ],
      [
        "ĠPe",
        -1.0
      ],
      [
        "ĠMany",
        -1.0
      ],
      [
        "Ġleave",
        -1.0
      ],
      [
        "Ġseems",
        -1.0
      ],
      [
        "Ġhappens",
        -1.0
      ],
      [
        "Ġgets",
        -1.0
      ],
      [
        "Ġenhance",
        -1.0
      ],
      [
        "Ġappropriate",
        -1.0
      ],
      [
        "overy",
        -1.0
      ],
      [
        "ocol",
        -1.0
      ],
      [
        "Ġattract",
        -1.0
      ],
      [
        "Ġnews",
        -1.0
      ],
      [
        "Ġsurround",
        -1.0
      ],
      [
        "Ġfruit",
        -1.0
      ],
      [
        "oe",
        -1.0
      ],
      [
        "ĠWhy",
        -1.0
      ],
      [
        "ĠUse",
        -1.0
      ],
      [
        "hens",
        -1.0
      ],
      [
        "Ġbird",
        -1.0
      ],
      [
        "Ġprotection",
        -1.0
      ],
      [
        "-e",
        -1.0
      ],
      [
        "ĠAustral",
        -1.0
      ],
      [
        "term",
        -1.0
      ],
      [
        "Ġlimited",
        -1.0
      ],
      [
        "itude",
        -1.0
      ],
      [
        "rum",
        -1.0
      ],
      [
        "ping",
        -1.0
      ],
      [
        "Ġcommonly",
        -1.0
      ],
      [
        "airs",
        -1.0
      ],
      [
        "Ġmotor",
        -1.0
      ],
      [
        "Ġsuff",
        -1.0
      ],
      [
        "set",
        -1.0
      ],
      [
        "Ġdirection",
        -1.0
      ],
      [
        "Ġbag",
        -1.0
      ],
      [
        "ĠMar",
        -1.0
      ],
      [
        "ĠThen",
        -1.0
      ],
      [
        "iable",
        -1.0
      ],
      [
        "Ġdistance",
        -1.0
      ],
      [
        "Ġmaintenance",
        -1.0
      ],
      [
        "ĠAb",
        -1.0
      ],
      [
        "eration",
        -1.0
      ],
      [
        "ĠWorld",
        -1.0
      ],
      [
        "cape",
        -1.0
      ],
      [
        "ube",
        -1.0
      ],
      [
        "odies",
        -1.0
      ],
      [
        "Ġpage",
        -1.0
      ],
      [
        "Ġimportance",
        -1.0
      ],
      [
        "board",
        -1.0
      ],
      [
        "rol",
        -1.0
      ],
      [
        "Ġresistance",
        -1.0
      ],
      [
        "Ġmental",
        -1.0
      ],
      [
        "Ġrain",
        -1.0
      ],
      [
        "onds",
        -1.0
      ],
      [
        "27",
        -1.0
      ],
      [
        "Ġnetwork",
        -1.0
      ],
      [
        "uge",
        -1.0
      ],
      [
        "cient",
        -1.0
      ],
      [
        "Ġbecomes",
        -1.0
      ],
      [
        "ĠResearch",
        -1.0
      ],
      [
        "Ġstates",
        -1.0
      ],
      [
        "mosp",
        -1.0
      ],
      [
        "Ġremember",
        -1.0
      ],
      [
        "Ġsigns",
        -1.0
      ],
      [
        "Ġce",
        -1.0
      ],
      [
        "ula",
        -1.0
      ],
      [
        "Ġpretty",
        -1.0
      ],
      [
        "Ġpen",
        -1.0
      ],
      [
        "Ġoriginal",
        -1.0
      ],
      [
        "Ġcenter",
        -1.0
      ],
      [
        "Ġaccur",
        -1.0
      ],
      [
        "28",
        -1.0
      ],
      [
        "Ġpublished",
        -1.0
      ],
      [
        "Ġevalu",
        -1.0
      ],
      [
        "Ġcame",
        -1.0
      ],
      [
        "26",
        -1.0
      ],
      [
        "Ġfine",
        -1.0
      ],
      [
        "Ġvacc",
        -1.0
      ],
      [
        "Ġupon",
        -1.0
      ],
      [
        "Ġther",
        -1.0
      ],
      [
        "Ġgar",
        -1.0
      ],
      [
        "Ġcooking",
        -1.0
      ],
      [
        "\",",
        -1.0
      ],
      [
        "Ġorigin",
        -1.0
      ],
      [
        "Ġtail",
        -1.0
      ],
      [
        "Ġobjects",
        -1.0
      ],
      [
        "Ġvision",
        -1.0
      ],
      [
        "45",
        -1.0
      ],
      [
        "ologies",
        -1.0
      ],
      [
        "Ġideas",
        -1.0
      ],
      [
        "Ġult",
        -1.0
      ],
      [
        "Ġproced",
        -1.0
      ],
      [
        "Ġpick",
        -1.0
      ],
      [
        "Ġreturn",
        -1.0
      ],
      [
        "Ġarch",
        -1.0
      ],
      [
        "wise",
        -1.0
      ],
      [
        "Ġsave",
        -1.0
      ],
      [
        "Ġcircuit",
        -1.0
      ],
      [
        "yond",
        -1.0
      ],
      [
        "asks",
        -1.0
      ],
      [
        "Ġinfection",
        -1.0
      ],
      [
        "Ġvary",
        -1.0
      ],
      [
        "rops",
        -1.0
      ],
      [
        "Ġdetect",
        -1.0
      ],
      [
        "Ġrare",
        -1.0
      ],
      [
        "Ġdisord",
        -1.0
      ],
      [
        "Ġsoon",
        -1.0
      ],
      [
        "Ġpractices",
        -1.0
      ],
      [
        "Ġbaby",
        -1.0
      ],
      [
        "Ġseed",
        -1.0
      ],
      [
        "Ġelement",
        -1.0
      ],
      [
        "Ġutil",
        -1.0
      ],
      [
        "mission",
        -1.0
      ],
      [
        "ony",
        -1.0
      ],
      [
        "Ġelectrical",
        -1.0
      ],
      [
        "wor",
        -1.0
      ],
      [
        "Ġgrass",
        -1.0
      ],
      [
        "Ġbottom",
        -1.0
      ],
      [
        "Ġkn",
        -1.0
      ],
      [
        "Ġmount",
        -1.0
      ],
      [
        "Ġshap",
        -1.0
      ],
      [
        "aly",
        -1.0
      ],
      [
        "hol",
        -1.0
      ],
      [
        "iate",
        -1.0
      ],
      [
        "While",
        -1.0
      ],
      [
        "Ġroot",
        -1.0
      ],
      [
        "Ġvolt",
        -1.0
      ],
      [
        "Ġlate",
        -1.0
      ],
      [
        "Ġexcept",
        -1.0
      ],
      [
        "Ġfavor",
        -1.0
      ],
      [
        "Ġexcess",
        -1.0
      ],
      [
        "Ġaccept",
        -1.0
      ],
      [
        "He",
        -1.0
      ],
      [
        "ĠChe",
        -1.0
      ],
      [
        "Ġhost",
        -1.0
      ],
      [
        "zz",
        -1.0
      ],
      [
        "Ġcity",
        -1.0
      ],
      [
        "Ġobtain",
        -1.0
      ],
      [
        "ero",
        -1.0
      ],
      [
        "more",
        -1.0
      ],
      [
        "irt",
        -1.0
      ],
      [
        "Ġexcell",
        -1.0
      ],
      [
        "Ġgives",
        -1.0
      ],
      [
        "ros",
        -1.0
      ],
      [
        "Ġoxygen",
        -1.0
      ],
      [
        "Ġpriv",
        -1.0
      ],
      [
        "Ġrat",
        -1.0
      ],
      [
        ".g",
        -1.0
      ],
      [
        "ran",
        -1.0
      ],
      [
        "32",
        -1.0
      ],
      [
        "Ġwriting",
        -1.0
      ],
      [
        "umin",
        -1.0
      ],
      [
        "ĠPer",
        -1.0
      ],
      [
        "Ġsustainable",
        -1.0
      ],
      [
        "Ġready",
        -1.0
      ],
      [
        "By",
        -1.0
      ],
      [
        "Ġver",
        -1.0
      ],
      [
        "vey",
        -1.0
      ],
      [
        "ching",
        -1.0
      ],
      [
        "Ġsection",
        -1.0
      ],
      [
        "ields",
        -1.0
      ],
      [
        "Ġlens",
        -1.0
      ],
      [
        "Ġinvolves",
        -1.0
      ],
      [
        "ĠReg",
        -1.0
      ],
      [
        "hood",
        -1.0
      ],
      [
        "ky",
        -1.0
      ],
      [
        "mber",
        -1.0
      ],
      [
        "Ġreducing",
        -1.0
      ],
      [
        "ls",
        -1.0
      ],
      [
        "With",
        -1.0
      ],
      [
        "Ġfabric",
        -1.0
      ],
      [
        "Ġimmune",
        -1.0
      ],
      [
        "ulated",
        -1.0
      ],
      [
        "Ġideal",
        -1.0
      ],
      [
        "Ġcycle",
        -1.0
      ],
      [
        "Ġbill",
        -1.0
      ],
      [
        "Ġsolutions",
        -1.0
      ],
      [
        "ogen",
        -1.0
      ],
      [
        "enn",
        -1.0
      ],
      [
        "Ġfile",
        -1.0
      ],
      [
        "Ġaren",
        -1.0
      ],
      [
        "rage",
        -1.0
      ],
      [
        "Ġhearing",
        -1.0
      ],
      [
        "Ġworth",
        -1.0
      ],
      [
        "Ġthinking",
        -1.0
      ],
      [
        "Ġtesting",
        -1.0
      ],
      [
        "Ġresponsible",
        -1.0
      ],
      [
        "cking",
        -1.0
      ],
      [
        "Ġplatform",
        -1.0
      ],
      [
        "Ġjo",
        -1.0
      ],
      [
        "Ġgold",
        -1.0
      ],
      [
        "Ġhope",
        -1.0
      ],
      [
        "Ġantib",
        -1.0
      ],
      [
        "ĠIntern",
        -1.0
      ],
      [
        "isions",
        -1.0
      ],
      [
        "Ġmanufacture",
        -1.0
      ],
      [
        "Ġsuitable",
        -1.0
      ],
      [
        "Ġrequirements",
        -1.0
      ],
      [
        "These",
        -1.0
      ],
      [
        "oud",
        -1.0
      ],
      [
        "Ġexpress",
        -1.0
      ],
      [
        "ĠSm",
        -1.0
      ],
      [
        "lege",
        -1.0
      ],
      [
        "Ġrock",
        -1.0
      ],
      [
        "Ġlack",
        -1.0
      ],
      [
        "Ġdisp",
        -1.0
      ],
      [
        "Ġpull",
        -1.0
      ],
      [
        "Ġvalu",
        -1.0
      ],
      [
        "ixt",
        -1.0
      ],
      [
        "Ġcleaning",
        -1.0
      ],
      [
        "Ġstorage",
        -1.0
      ],
      [
        "Ġstage",
        -1.0
      ],
      [
        "At",
        -1.0
      ],
      [
        "ball",
        -1.0
      ],
      [
        "ĠAlso",
        -1.0
      ],
      [
        "Ġsignificantly",
        -1.0
      ],
      [
        "Ġensuring",
        -1.0
      ],
      [
        "IC",
        -1.0
      ],
      [
        "Ġimpl",
        -1.0
      ],
      [
        "Ġprogress",
        -1.0
      ],
      [
        "Ġboard",
        -1.0
      ],
      [
        "Ġfinal",
        -1.0
      ],
      [
        "Ġpow",
        -1.0
      ],
      [
        "IT",
        -1.0
      ],
      [
        "Ġlimit",
        -1.0
      ],
      [
        "hold",
        -1.0
      ],
      [
        "Ġsent",
        -1.0
      ],
      [
        "ĠNow",
        -1.0
      ],
      [
        "Ġrev",
        -1.0
      ],
      [
        "ana",
        -1.0
      ],
      [
        "Ġthr",
        -1.0
      ],
      [
        "hel",
        -1.0
      ],
      [
        "ĠOur",
        -1.0
      ],
      [
        "Ġstarting",
        -1.0
      ],
      [
        "Ġnothing",
        -1.0
      ],
      [
        "ĠGe",
        -1.0
      ],
      [
        "Ġrich",
        -1.0
      ],
      [
        "ously",
        -1.0
      ],
      [
        "den",
        -1.0
      ],
      [
        "Ġbeautiful",
        -1.0
      ],
      [
        "09",
        -1.0
      ],
      [
        "Ġnutrients",
        -1.0
      ],
      [
        "ifically",
        -1.0
      ],
      [
        "Ġcommit",
        -1.0
      ],
      [
        "Ġsevere",
        -1.0
      ],
      [
        "rought",
        -1.0
      ],
      [
        "Con",
        -1.0
      ],
      [
        "âĢ¢",
        -1.0
      ],
      [
        "empt",
        -1.0
      ],
      [
        "ĠLet",
        -1.0
      ],
      [
        "Ġfro",
        -1.0
      ],
      [
        "Ġroll",
        -1.0
      ],
      [
        "And",
        -1.0
      ],
      [
        "Ġinvestig",
        -1.0
      ],
      [
        "Ġconstruction",
        -1.0
      ],
      [
        "Ġinfl",
        -1.0
      ],
      [
        "Ġdri",
        -1.0
      ],
      [
        "Ġweb",
        -1.0
      ],
      [
        "char",
        -1.0
      ],
      [
        "abetes",
        -1.0
      ],
      [
        "08",
        -1.0
      ],
      [
        "Ġiron",
        -1.0
      ],
      [
        "Ġtook",
        -1.0
      ],
      [
        "Ġpoor",
        -1.0
      ],
      [
        "\".",
        -1.0
      ],
      [
        "Ġspot",
        -1.0
      ],
      [
        "Ġfactor",
        -1.0
      ],
      [
        "Ġgames",
        -1.0
      ],
      [
        "Ġatmosp",
        -1.0
      ],
      [
        "Ġmiss",
        -1.0
      ],
      [
        "inks",
        -1.0
      ],
      [
        "Ġtechnique",
        -1.0
      ],
      [
        "Ġadding",
        -1.0
      ],
      [
        "Ġcommer",
        -1.0
      ],
      [
        "Ġapplied",
        -1.0
      ],
      [
        "Ġliquid",
        -1.0
      ],
      [
        "Ġthird",
        -1.0
      ],
      [
        ".com",
        -1.0
      ],
      [
        "ibly",
        -1.0
      ],
      [
        "Ġtransfer",
        -1.0
      ],
      [
        "Ġingredients",
        -1.0
      ],
      [
        "AL",
        -1.0
      ],
      [
        "Ġjoint",
        -1.0
      ],
      [
        "Ġep",
        -1.0
      ],
      [
        "Ġreaction",
        -1.0
      ],
      [
        "Ġpowerful",
        -1.0
      ],
      [
        "iet",
        -1.0
      ],
      [
        "ffect",
        -1.0
      ],
      [
        "Ġoutd",
        -1.0
      ],
      [
        "Ġtrack",
        -1.0
      ],
      [
        "acing",
        -1.0
      ],
      [
        "Ġled",
        -1.0
      ],
      [
        "Ġmoment",
        -1.0
      ],
      [
        "Ġnutrition",
        -1.0
      ],
      [
        "Ġheavy",
        -1.0
      ],
      [
        "Ġyellow",
        -1.0
      ],
      [
        "Ġpattern",
        -1.0
      ],
      [
        "They",
        -1.0
      ],
      [
        "Ġfa",
        -1.0
      ],
      [
        "ĠGl",
        -1.0
      ],
      [
        "On",
        -1.0
      ],
      [
        "ha",
        -1.0
      ],
      [
        "Ġsetting",
        -1.0
      ],
      [
        "pite",
        -1.0
      ],
      [
        "05",
        -1.0
      ],
      [
        "osystem",
        -1.0
      ],
      [
        "Ġsalt",
        -1.0
      ],
      [
        "Ġbroad",
        -1.0
      ],
      [
        "inking",
        -1.0
      ],
      [
        "Ġsmooth",
        -1.0
      ],
      [
        "Ġfully",
        -1.0
      ],
      [
        "craft",
        -1.0
      ],
      [
        "Ġbehavi",
        -1.0
      ],
      [
        "lands",
        -1.0
      ],
      [
        "oun",
        -1.0
      ],
      [
        "Ġplaces",
        -1.0
      ],
      [
        "Ġdiam",
        -1.0
      ],
      [
        "Ġcentury",
        -1.0
      ],
      [
        "rehens",
        -1.0
      ],
      [
        "Ġpromot",
        -1.0
      ],
      [
        "Ġinteresting",
        -1.0
      ],
      [
        "Ġswitch",
        -1.0
      ],
      [
        "Ġbud",
        -1.0
      ],
      [
        "Ġcurrently",
        -1.0
      ],
      [
        "Ġpieces",
        -1.0
      ],
      [
        "Ġconvers",
        -1.0
      ],
      [
        "ĠĠĠĠ",
        -1.0
      ],
      [
        "Ġdead",
        -1.0
      ],
      [
        "Ġgraph",
        -1.0
      ],
      [
        "standing",
        -1.0
      ],
      [
        "ĠTheir",
        -1.0
      ],
      [
        "ister",
        -1.0
      ],
      [
        "Ġsituation",
        -1.0
      ],
      [
        "Ġapply",
        -1.0
      ],
      [
        "Ġrapid",
        -1.0
      ],
      [
        "Ġfilm",
        -1.0
      ],
      [
        "Ġwrong",
        -1.0
      ],
      [
        "odes",
        -1.0
      ],
      [
        "arr",
        -1.0
      ],
      [
        "ĠRem",
        -1.0
      ],
      [
        "hetic",
        -1.0
      ],
      [
        "rew",
        -1.0
      ],
      [
        "Ġconnected",
        -1.0
      ],
      [
        "Ġ|",
        -1.0
      ],
      [
        "Ġcausing",
        -1.0
      ],
      [
        "Ġsecurity",
        -1.0
      ],
      [
        "Ġowners",
        -1.0
      ],
      [
        "ĠAc",
        -1.0
      ],
      [
        "Ġdepend",
        -1.0
      ],
      [
        "Ġsuccessful",
        -1.0
      ],
      [
        "Ġimag",
        -1.0
      ],
      [
        "Ġlocated",
        -1.0
      ],
      [
        "Ġvegetables",
        -1.0
      ],
      [
        "Ġexperiment",
        -1.0
      ],
      [
        "arian",
        -1.0
      ],
      [
        "Ġestim",
        -1.0
      ],
      [
        "Ġfunctions",
        -1.0
      ],
      [
        "apter",
        -1.0
      ],
      [
        "Ġsex",
        -1.0
      ],
      [
        "Ġagricult",
        -1.0
      ],
      [
        "Ġfaster",
        -1.0
      ],
      [
        "ĠOnce",
        -1.0
      ],
      [
        "Ġnucle",
        -1.0
      ],
      [
        "Ġwire",
        -1.0
      ],
      [
        "mat",
        -1.0
      ],
      [
        "Ġtox",
        -1.0
      ],
      [
        "Ġinterf",
        -1.0
      ],
      [
        "imens",
        -1.0
      ],
      [
        "Ġdocument",
        -1.0
      ],
      [
        "Ġfrequency",
        -1.0
      ],
      [
        "Ġinsp",
        -1.0
      ],
      [
        "Ġmuscle",
        -1.0
      ],
      [
        "02",
        -1.0
      ],
      [
        "Ġincorpor",
        -1.0
      ],
      [
        "cular",
        -1.0
      ],
      [
        "Ġocean",
        -1.0
      ],
      [
        "amb",
        -1.0
      ],
      [
        "ĠLear",
        -1.0
      ],
      [
        "Ġwalk",
        -1.0
      ],
      [
        "Ġgene",
        -1.0
      ],
      [
        "ificial",
        -1.0
      ],
      [
        "ok",
        -1.0
      ],
      [
        "roll",
        -1.0
      ],
      [
        "29",
        -1.0
      ],
      [
        "Re",
        -1.0
      ],
      [
        "Ġexactly",
        -1.0
      ],
      [
        "pan",
        -1.0
      ],
      [
        "Ġlat",
        -1.0
      ],
      [
        "hether",
        -1.0
      ],
      [
        "ashion",
        -1.0
      ],
      [
        "ĠWho",
        -1.0
      ],
      [
        "Ġanyone",
        -1.0
      ],
      [
        "Ġcommercial",
        -1.0
      ],
      [
        "Ġreve",
        -1.0
      ],
      [
        "iction",
        -1.0
      ],
      [
        "Ġvia",
        -1.0
      ],
      [
        "Ġculture",
        -1.0
      ],
      [
        "Ġdecision",
        -1.0
      ],
      [
        "amed",
        -1.0
      ],
      [
        "Ġbreed",
        -1.0
      ],
      [
        "Ġexposure",
        -1.0
      ],
      [
        "Ġbirth",
        -1.0
      ],
      [
        "ened",
        -1.0
      ],
      [
        "Ġoccurs",
        -1.0
      ],
      [
        "Ġopportunity",
        -1.0
      ],
      [
        "Im",
        -1.0
      ],
      [
        "Ġcoming",
        -1.0
      ],
      [
        "Ġstraight",
        -1.0
      ],
      [
        "Ġcharge",
        -1.0
      ],
      [
        "-term",
        -1.0
      ],
      [
        "ĠArt",
        -1.0
      ],
      [
        "Ġdescribed",
        -1.0
      ],
      [
        "ancing",
        -1.0
      ],
      [
        "ester",
        -1.0
      ],
      [
        "ĠAdditionally",
        -1.0
      ],
      [
        "Ġsolid",
        -1.0
      ],
      [
        "pping",
        -1.0
      ],
      [
        "Ġdemand",
        -1.0
      ],
      [
        "duc",
        -1.0
      ],
      [
        "Ġcapacity",
        -1.0
      ],
      [
        "07",
        -1.0
      ],
      [
        "estic",
        -1.0
      ],
      [
        "Ġhorse",
        -1.0
      ],
      [
        "Ġeffectively",
        -1.0
      ],
      [
        "enge",
        -1.0
      ],
      [
        "ĠAg",
        -1.0
      ],
      [
        "ĠAir",
        -1.0
      ],
      [
        "Ġscale",
        -1.0
      ],
      [
        "Ġexcellent",
        -1.0
      ],
      [
        "Ġsymbol",
        -1.0
      ],
      [
        "Ġresid",
        -1.0
      ],
      [
        "ĠTechn",
        -1.0
      ],
      [
        "Ġprocessing",
        -1.0
      ],
      [
        "ycl",
        -1.0
      ],
      [
        "Ġstrategies",
        -1.0
      ],
      [
        "Ġmoisture",
        -1.0
      ],
      [
        "Ġliter",
        -1.0
      ],
      [
        "ĠWater",
        -1.0
      ],
      [
        "Ġexpert",
        -1.0
      ],
      [
        "Ġnote",
        -1.0
      ],
      [
        "ĠÂ",
        -1.0
      ],
      [
        "Ġreceive",
        -1.0
      ],
      [
        "Ġtank",
        -1.0
      ],
      [
        "care",
        -1.0
      ],
      [
        "Ġcombination",
        -1.0
      ],
      [
        "Ġtissue",
        -1.0
      ],
      [
        "ĠAct",
        -1.0
      ],
      [
        "Ġswim",
        -1.0
      ],
      [
        "roduction",
        -1.0
      ],
      [
        "Ġtherefore",
        -1.0
      ],
      [
        "oration",
        -1.0
      ],
      [
        "OS",
        -1.0
      ],
      [
        "itis",
        -1.0
      ],
      [
        "Ġincluded",
        -1.0
      ],
      [
        "Ġcars",
        -1.0
      ],
      [
        "Ġclin",
        -1.0
      ],
      [
        "omb",
        -1.0
      ],
      [
        "ĠBecause",
        -1.0
      ],
      [
        "Do",
        -1.0
      ],
      [
        "Ġexamples",
        -1.0
      ],
      [
        "Ġproperty",
        -1.0
      ],
      [
        "ĠWest",
        -1.0
      ],
      [
        "Ġtaste",
        -1.0
      ],
      [
        "Ġreduced",
        -1.0
      ],
      [
        "Ġ#",
        -1.0
      ],
      [
        "Ġpump",
        -1.0
      ],
      [
        "bor",
        -1.0
      ],
      [
        "RE",
        -1.0
      ],
      [
        "Ġmouth",
        -1.0
      ],
      [
        "Ġshar",
        -1.0
      ],
      [
        "erson",
        -1.0
      ],
      [
        "Ġbecame",
        -1.0
      ],
      [
        "Ġvoltage",
        -1.0
      ],
      [
        "Ġtherapy",
        -1.0
      ],
      [
        "ĠOver",
        -1.0
      ],
      [
        "ĠOther",
        -1.0
      ],
      [
        "Ġcloth",
        -1.0
      ],
      [
        "Ġinches",
        -1.0
      ],
      [
        "Ġcontribute",
        -1.0
      ],
      [
        "Ġdrain",
        -1.0
      ],
      [
        "Ġcontext",
        -1.0
      ],
      [
        "Ġforward",
        -1.0
      ],
      [
        "Ġtask",
        -1.0
      ],
      [
        "Ġcollabor",
        -1.0
      ],
      [
        "Ġintellig",
        -1.0
      ],
      [
        "Ġroof",
        -1.0
      ],
      [
        "Ġlooks",
        -1.0
      ],
      [
        "ĠEm",
        -1.0
      ],
      [
        "Ġund",
        -1.0
      ],
      [
        "ada",
        -1.0
      ],
      [
        "urt",
        -1.0
      ],
      [
        "Ġthus",
        -1.0
      ],
      [
        "erences",
        -1.0
      ],
      [
        "my",
        -1.0
      ],
      [
        "ĠSim",
        -1.0
      ],
      [
        "Step",
        -1.0
      ],
      [
        "ender",
        -1.0
      ],
      [
        "right",
        -1.0
      ],
      [
        "Ġwet",
        -1.0
      ],
      [
        "Ġflex",
        -1.0
      ],
      [
        "Ġjourney",
        -1.0
      ],
      [
        "ĠEach",
        -1.0
      ],
      [
        "Ġbutter",
        -1.0
      ],
      [
        "Pl",
        -1.0
      ],
      [
        "Ġwat",
        -1.0
      ],
      [
        "Ġ...",
        -1.0
      ],
      [
        "Ġpref",
        -1.0
      ],
      [
        "Ġgradu",
        -1.0
      ],
      [
        "ancial",
        -1.0
      ],
      [
        "Ġdoctor",
        -1.0
      ],
      [
        "cohol",
        -1.0
      ],
      [
        "ĠSw",
        -1.0
      ],
      [
        "Ġcamp",
        -1.0
      ],
      [
        "avig",
        -1.0
      ],
      [
        "Ġexperiences",
        -1.0
      ],
      [
        "ĠDis",
        -1.0
      ],
      [
        "Ġwrite",
        -1.0
      ],
      [
        "Ġdetails",
        -1.0
      ],
      [
        "Ġschools",
        -1.0
      ],
      [
        "Ġbeyond",
        -1.0
      ],
      [
        "Ġchance",
        -1.0
      ],
      [
        "ober",
        -1.0
      ],
      [
        "31",
        -1.0
      ],
      [
        "Ġgiving",
        -1.0
      ],
      [
        "ĠRed",
        -1.0
      ],
      [
        "zy",
        -1.0
      ],
      [
        "hest",
        -1.0
      ],
      [
        "Ġâ",
        -1.0
      ],
      [
        "orith",
        -1.0
      ],
      [
        "ica",
        -1.0
      ],
      [
        "ĠBrit",
        -1.0
      ],
      [
        "Ġmob",
        -1.0
      ],
      [
        "book",
        -1.0
      ],
      [
        "anging",
        -1.0
      ],
      [
        "Ġadvanced",
        -1.0
      ],
      [
        "ĠTra",
        -1.0
      ],
      [
        "xi",
        -1.0
      ],
      [
        "36",
        -1.0
      ],
      [
        "Ġpresence",
        -1.0
      ],
      [
        "Ġkeeping",
        -1.0
      ],
      [
        "met",
        -1.0
      ],
      [
        "Now",
        -1.0
      ],
      [
        "ĠJust",
        -1.0
      ],
      [
        "Ġwin",
        -1.0
      ],
      [
        "Ġbrown",
        -1.0
      ],
      [
        "Ġfertil",
        -1.0
      ],
      [
        "iar",
        -1.0
      ],
      [
        "Ġtherm",
        -1.0
      ],
      [
        "othes",
        -1.0
      ],
      [
        "Ġstream",
        -1.0
      ],
      [
        "off",
        -1.0
      ],
      [
        "ided",
        -1.0
      ],
      [
        "Ġextremely",
        -1.0
      ],
      [
        "Ġeffort",
        -1.0
      ],
      [
        "Ġbooks",
        -1.0
      ],
      [
        "ĠRec",
        -1.0
      ],
      [
        "Ġheight",
        -1.0
      ],
      [
        "Ġtouch",
        -1.0
      ],
      [
        "Ġalternative",
        -1.0
      ],
      [
        "Ġpsych",
        -1.0
      ],
      [
        "Ġsaw",
        -1.0
      ],
      [
        "Ġpaint",
        -1.0
      ],
      [
        "Ġupd",
        -1.0
      ],
      [
        "ĠChrist",
        -1.0
      ],
      [
        "ĠNOT",
        -1.0
      ],
      [
        "Ġmiddle",
        -1.0
      ],
      [
        "Ġgenes",
        -1.0
      ],
      [
        "Ġexpected",
        -1.0
      ],
      [
        "Ġmaximum",
        -1.0
      ],
      [
        "olar",
        -1.0
      ],
      [
        "lier",
        -1.0
      ],
      [
        "izations",
        -1.0
      ],
      [
        "Ġpregn",
        -1.0
      ],
      [
        "Ġexpensive",
        -1.0
      ],
      [
        "04",
        -1.0
      ],
      [
        "Ġrecently",
        -1.0
      ],
      [
        "uration",
        -1.0
      ],
      [
        "</",
        -1.0
      ],
      [
        "apan",
        -1.0
      ],
      [
        "alt",
        -1.0
      ],
      [
        "place",
        -1.0
      ],
      [
        "Ġthous",
        -1.0
      ],
      [
        "Ġagg",
        -1.0
      ],
      [
        "Ġnative",
        -1.0
      ],
      [
        "Ġcoast",
        -1.0
      ],
      [
        "Ġparticles",
        -1.0
      ],
      [
        "zing",
        -1.0
      ],
      [
        "Ġhandle",
        -1.0
      ],
      [
        "Ġelectricity",
        -1.0
      ],
      [
        "ails",
        -1.0
      ],
      [
        "Ġeth",
        -1.0
      ],
      [
        "Ġsites",
        -1.0
      ],
      [
        "Ġphotos",
        -1.0
      ],
      [
        "Ġstructures",
        -1.0
      ],
      [
        "ĠFl",
        -1.0
      ],
      [
        "Ġfigure",
        -1.0
      ],
      [
        "Ġalthough",
        -1.0
      ],
      [
        "ĠMin",
        -1.0
      ],
      [
        "Ġhuge",
        -1.0
      ],
      [
        "Ġ:",
        -1.0
      ],
      [
        "Ġconsumption",
        -1.0
      ],
      [
        "iling",
        -1.0
      ],
      [
        "rench",
        -1.0
      ],
      [
        "iforn",
        -1.0
      ],
      [
        "06",
        -1.0
      ],
      [
        "haps",
        -1.0
      ],
      [
        "Ġaqu",
        -1.0
      ],
      [
        "ĠGerm",
        -1.0
      ],
      [
        "abilities",
        -1.0
      ],
      [
        "Ġolder",
        -1.0
      ],
      [
        "Ġecosystem",
        -1.0
      ],
      [
        "Ġmother",
        -1.0
      ],
      [
        "ipl",
        -1.0
      ],
      [
        "Ġnotice",
        -1.0
      ],
      [
        "oman",
        -1.0
      ],
      [
        "Ġproteins",
        -1.0
      ],
      [
        "ĠState",
        -1.0
      ],
      [
        "Ġfair",
        -1.0
      ],
      [
        "Ġincreases",
        -1.0
      ],
      [
        "Ġlost",
        -1.0
      ],
      [
        "Ġtri",
        -1.0
      ],
      [
        "Ġconservation",
        -1.0
      ],
      [
        "tes",
        -1.0
      ],
      [
        "Ġtasks",
        -1.0
      ],
      [
        "pped",
        -1.0
      ],
      [
        "Ġonto",
        -1.0
      ],
      [
        "rick",
        -1.0
      ],
      [
        "Ġsteel",
        -1.0
      ],
      [
        "ĠEnglish",
        -1.0
      ],
      [
        "Ġslightly",
        -1.0
      ],
      [
        "ĠMake",
        -1.0
      ],
      [
        "Ġnoise",
        -1.0
      ],
      [
        "Ġaffected",
        -1.0
      ],
      [
        "Ġtests",
        -1.0
      ],
      [
        "Ġmotion",
        -1.0
      ],
      [
        "Ġdifferences",
        -1.0
      ],
      [
        "Ġmonit",
        -1.0
      ],
      [
        "03",
        -1.0
      ],
      [
        "Ġrelease",
        -1.0
      ],
      [
        "Ġmut",
        -1.0
      ],
      [
        "fish",
        -1.0
      ],
      [
        "Ġdegrees",
        -1.0
      ],
      [
        "ĠCenter",
        -1.0
      ],
      [
        "Ġgoals",
        -1.0
      ],
      [
        "Ġsynt",
        -1.0
      ],
      [
        "Ġmedium",
        -1.0
      ],
      [
        "Ġattempt",
        -1.0
      ],
      [
        "Ġreported",
        -1.0
      ],
      [
        "Un",
        -1.0
      ],
      [
        "Some",
        -1.0
      ],
      [
        "Ġlargest",
        -1.0
      ],
      [
        "Ġcommunities",
        -1.0
      ],
      [
        "ĠSystem",
        -1.0
      ],
      [
        "ams",
        -1.0
      ],
      [
        "uries",
        -1.0
      ],
      [
        "Ġdiv",
        -1.0
      ],
      [
        "ipes",
        -1.0
      ],
      [
        "Ġsmart",
        -1.0
      ],
      [
        "Ġremains",
        -1.0
      ],
      [
        "Ġrelatively",
        -1.0
      ],
      [
        "ban",
        -1.0
      ],
      [
        "Ġchanging",
        -1.0
      ],
      [
        "ĠJoh",
        -1.0
      ],
      [
        "ĠEven",
        -1.0
      ],
      [
        "Ġvolume",
        -1.0
      ],
      [
        "Ġplaced",
        -1.0
      ],
      [
        "enty",
        -1.0
      ],
      [
        "Ġcharacteristics",
        -1.0
      ],
      [
        "Ġversion",
        -1.0
      ],
      [
        "Ġflavor",
        -1.0
      ],
      [
        "hyd",
        -1.0
      ],
      [
        "Ġmid",
        -1.0
      ],
      [
        "Ġpicture",
        -1.0
      ],
      [
        "can",
        -1.0
      ],
      [
        "ifornia",
        -1.0
      ],
      [
        "75",
        -1.0
      ],
      [
        "Ġdepth",
        -1.0
      ],
      [
        "Ġtrend",
        -1.0
      ],
      [
        "Ġteachers",
        -1.0
      ],
      [
        "Ġopportunities",
        -1.0
      ],
      [
        "Ġplanet",
        -1.0
      ],
      [
        "ĠGra",
        -1.0
      ],
      [
        "Ġfemale",
        -1.0
      ],
      [
        "Ġadults",
        -1.0
      ],
      [
        "Ġvaluable",
        -1.0
      ],
      [
        "Ġcutting",
        -1.0
      ],
      [
        "AM",
        -1.0
      ],
      [
        "Ġhyp",
        -1.0
      ],
      [
        "Ġdiscovered",
        -1.0
      ],
      [
        "inding",
        -1.0
      ],
      [
        "Ġstim",
        -1.0
      ],
      [
        "Ġcateg",
        -1.0
      ],
      [
        "Ġcred",
        -1.0
      ],
      [
        "gery",
        -1.0
      ],
      [
        "Ġemissions",
        -1.0
      ],
      [
        "Ġstri",
        -1.0
      ],
      [
        "gram",
        -1.0
      ],
      [
        "Ġhit",
        -1.0
      ],
      [
        "cast",
        -1.0
      ],
      [
        "Ġclim",
        -1.0
      ],
      [
        "Ġbran",
        -1.0
      ],
      [
        "Ġcomfortable",
        -1.0
      ],
      [
        "cules",
        -1.0
      ],
      [
        "Ġspect",
        -1.0
      ],
      [
        "ĠAccording",
        -1.0
      ],
      [
        "Ġdepends",
        -1.0
      ],
      [
        "riend",
        -1.0
      ],
      [
        "ĠIts",
        -1.0
      ],
      [
        "Ġdriving",
        -1.0
      ],
      [
        "bits",
        -1.0
      ],
      [
        "Ġflat",
        -1.0
      ],
      [
        "rates",
        -1.0
      ],
      [
        "Ġmeasures",
        -1.0
      ],
      [
        "rier",
        -1.0
      ],
      [
        "Ġadop",
        -1.0
      ],
      [
        "ĠGod",
        -1.0
      ],
      [
        "Ġteaching",
        -1.0
      ],
      [
        "Ġsnow",
        -1.0
      ],
      [
        "Ġfilter",
        -1.0
      ],
      [
        "Ġsounds",
        -1.0
      ],
      [
        "Ġinstance",
        -1.0
      ],
      [
        "Ġapprox",
        -1.0
      ],
      [
        "Ġphone",
        -1.0
      ],
      [
        "Ġexpand",
        -1.0
      ],
      [
        "ĠHigh",
        -1.0
      ],
      [
        "Ġsess",
        -1.0
      ],
      [
        "Ġcomprehens",
        -1.0
      ],
      [
        "dom",
        -1.0
      ],
      [
        "ĠTw",
        -1.0
      ],
      [
        "Ġindepend",
        -1.0
      ],
      [
        "Ġtit",
        -1.0
      ],
      [
        "Ġbone",
        -1.0
      ],
      [
        "ĠQ",
        -1.0
      ],
      [
        "Ġadvantage",
        -1.0
      ],
      [
        "aught",
        -1.0
      ],
      [
        "lebr",
        -1.0
      ],
      [
        "Ġphase",
        -1.0
      ],
      [
        "Ġconnection",
        -1.0
      ],
      [
        "celer",
        -1.0
      ],
      [
        "ĠFirst",
        -1.0
      ],
      [
        "Ġmag",
        -1.0
      ],
      [
        "urally",
        -1.0
      ],
      [
        "Ġtechnologies",
        -1.0
      ],
      [
        "Ġfluid",
        -1.0
      ],
      [
        "rim",
        -1.0
      ],
      [
        "-y",
        -1.0
      ],
      [
        "Ġdat",
        -1.0
      ],
      [
        "Ġround",
        -1.0
      ],
      [
        "Ġvirt",
        -1.0
      ],
      [
        "Ġstuff",
        -1.0
      ],
      [
        "\":",
        -1.0
      ],
      [
        "Ġalgorith",
        -1.0
      ],
      [
        "Res",
        -1.0
      ],
      [
        "Ġalone",
        -1.0
      ],
      [
        "crete",
        -1.0
      ],
      [
        "ĠAut",
        -1.0
      ],
      [
        "Ġresulting",
        -1.0
      ],
      [
        "Ã©",
        -1.0
      ],
      [
        "Ġast",
        -1.0
      ],
      [
        "raction",
        -1.0
      ],
      [
        "pre",
        -1.0
      ],
      [
        "ĠBi",
        -1.0
      ],
      [
        "Ġmanage",
        -1.0
      ],
      [
        "ĠMod",
        -1.0
      ],
      [
        "Ġprofession",
        -1.0
      ],
      [
        "oors",
        -1.0
      ],
      [
        "Ġbow",
        -1.0
      ],
      [
        "ĠAlthough",
        -1.0
      ],
      [
        "onic",
        -1.0
      ],
      [
        "eed",
        -1.0
      ],
      [
        "Ġdistinct",
        -1.0
      ],
      [
        "Ġtrig",
        -1.0
      ],
      [
        "Ġflight",
        -1.0
      ],
      [
        "ĠIndia",
        -1.0
      ],
      [
        "Ġsold",
        -1.0
      ],
      [
        "Ġnit",
        -1.0
      ],
      [
        "know",
        -1.0
      ],
      [
        "Ġdeb",
        -1.0
      ],
      [
        "Ġefforts",
        -1.0
      ],
      [
        "Ġachie",
        -1.0
      ],
      [
        "vity",
        -1.0
      ],
      [
        "house",
        -1.0
      ],
      [
        "ses",
        -1.0
      ],
      [
        "Ġbackground",
        -1.0
      ],
      [
        "Ġpopulations",
        -1.0
      ],
      [
        "Ġtrou",
        -1.0
      ],
      [
        "Ġkill",
        -1.0
      ],
      [
        "ternal",
        -1.0
      ],
      [
        "ĠRep",
        -1.0
      ],
      [
        "ogs",
        -1.0
      ],
      [
        "Ġwent",
        -1.0
      ],
      [
        "Ġstar",
        -1.0
      ],
      [
        "wers",
        -1.0
      ],
      [
        "Ġaspects",
        -1.0
      ],
      [
        "unction",
        -1.0
      ],
      [
        "Ġinsects",
        -1.0
      ],
      [
        "Ġlabor",
        -1.0
      ],
      [
        "Ġrules",
        -1.0
      ],
      [
        "Ġder",
        -1.0
      ],
      [
        "Ġbright",
        -1.0
      ],
      [
        "Ġinfluence",
        -1.0
      ],
      [
        "Ġroots",
        -1.0
      ],
      [
        "Ġhistor",
        -1.0
      ],
      [
        "EM",
        -1.0
      ],
      [
        "semb",
        -1.0
      ],
      [
        "ĠPart",
        -1.0
      ],
      [
        "Ġdiabetes",
        -1.0
      ],
      [
        "Ġbegan",
        -1.0
      ],
      [
        "Ġfinancial",
        -1.0
      ],
      [
        "uild",
        -1.0
      ],
      [
        "Ġfeeling",
        -1.0
      ],
      [
        "Ġrecycl",
        -1.0
      ],
      [
        "Ġevol",
        -1.0
      ],
      [
        "Ġsweet",
        -1.0
      ],
      [
        "-up",
        -1.0
      ],
      [
        "ET",
        -1.0
      ],
      [
        "Ġexisting",
        -1.0
      ],
      [
        "bing",
        -1.0
      ],
      [
        "Ġrates",
        -1.0
      ],
      [
        "Ġcomponent",
        -1.0
      ],
      [
        "ĠJapan",
        -1.0
      ],
      [
        "ĠCalifornia",
        -1.0
      ],
      [
        "Ġspir",
        -1.0
      ],
      [
        "99",
        -1.0
      ],
      [
        "Ġattack",
        -1.0
      ],
      [
        "resp",
        -1.0
      ],
      [
        "PS",
        -1.0
      ],
      [
        "Ġpool",
        -1.0
      ],
      [
        "ãģ",
        -1.0
      ],
      [
        "oom",
        -1.0
      ],
      [
        "Ġrespond",
        -1.0
      ],
      [
        "Ġmale",
        -1.0
      ],
      [
        "Ġequal",
        -1.0
      ],
      [
        "Ġsurpr",
        -1.0
      ],
      [
        "Ġdate",
        -1.0
      ],
      [
        "ken",
        -1.0
      ],
      [
        "ogle",
        -1.0
      ],
      [
        "Ġplanning",
        -1.0
      ],
      [
        "Here",
        -1.0
      ],
      [
        "xiety",
        -1.0
      ],
      [
        "iments",
        -1.0
      ],
      [
        "Ġwritten",
        -1.0
      ],
      [
        "undred",
        -1.0
      ],
      [
        "ĠPhot",
        -1.0
      ],
      [
        "ype",
        -1.0
      ],
      [
        "Ġdynam",
        -1.0
      ],
      [
        "Ġactual",
        -1.0
      ],
      [
        "ups",
        -1.0
      ],
      [
        "Ġhear",
        -1.0
      ],
      [
        "Ġwonder",
        -1.0
      ],
      [
        "Ġpush",
        -1.0
      ],
      [
        "encies",
        -1.0
      ],
      [
        "alle",
        -1.0
      ],
      [
        "Ġserve",
        -1.0
      ],
      [
        "Ġtooth",
        -1.0
      ],
      [
        "ressive",
        -1.0
      ],
      [
        "Ġdoor",
        -1.0
      ],
      [
        "ĠServ",
        -1.0
      ],
      [
        "Ġchallenge",
        -1.0
      ],
      [
        "ille",
        -1.0
      ],
      [
        "Ġmaintaining",
        -1.0
      ],
      [
        "Ġformed",
        -1.0
      ],
      [
        "urance",
        -1.0
      ],
      [
        "Ġfight",
        -1.0
      ],
      [
        "que",
        -1.0
      ],
      [
        "Ġappearance",
        -1.0
      ],
      [
        "ĠDon",
        -1.0
      ],
      [
        "izer",
        -1.0
      ],
      [
        "Ġdegree",
        -1.0
      ],
      [
        "ocal",
        -1.0
      ],
      [
        "ĠInstitute",
        -1.0
      ],
      [
        "Ġded",
        -1.0
      ],
      [
        "Ġcore",
        -1.0
      ],
      [
        "Ġclos",
        -1.0
      ],
      [
        "ĠTH",
        -1.0
      ],
      [
        "chen",
        -1.0
      ],
      [
        "key",
        -1.0
      ],
      [
        "ĠSince",
        -1.0
      ],
      [
        "Ġrub",
        -1.0
      ],
      [
        "che",
        -1.0
      ],
      [
        "Ġregions",
        -1.0
      ],
      [
        "Ġfinding",
        -1.0
      ],
      [
        "ĠSpe",
        -1.0
      ],
      [
        "Ġcentral",
        -1.0
      ],
      [
        "Ġbeginning",
        -1.0
      ],
      [
        "Ġrise",
        -1.0
      ],
      [
        "Ġchann",
        -1.0
      ],
      [
        "Ġcollection",
        -1.0
      ],
      [
        "Ġpric",
        -1.0
      ],
      [
        "rows",
        -1.0
      ],
      [
        "ST",
        -1.0
      ],
      [
        "Ġimmediately",
        -1.0
      ],
      [
        "Ġspecifically",
        -1.0
      ],
      [
        "Ġallowed",
        -1.0
      ],
      [
        "Ġsample",
        -1.0
      ],
      [
        "AD",
        -1.0
      ],
      [
        "oice",
        -1.0
      ],
      [
        "ĠPar",
        -1.0
      ],
      [
        "Ġseparate",
        -1.0
      ],
      [
        "Ġinstructions",
        -1.0
      ],
      [
        "flow",
        -1.0
      ],
      [
        "ĠRead",
        -1.0
      ],
      [
        "Ġmatch",
        -1.0
      ],
      [
        "Ġtrust",
        -1.0
      ],
      [
        "hop",
        -1.0
      ],
      [
        "Ġhighlight",
        -1.0
      ],
      [
        "Ġfurn",
        -1.0
      ],
      [
        "Ġhabitat",
        -1.0
      ],
      [
        "Ġfloor",
        -1.0
      ],
      [
        "iant",
        -1.0
      ],
      [
        "fess",
        -1.0
      ],
      [
        "ying",
        -1.0
      ],
      [
        "Ġwave",
        -1.0
      ],
      [
        "Ġnational",
        -1.0
      ],
      [
        "Ġconsult",
        -1.0
      ],
      [
        "However",
        -1.0
      ],
      [
        "Ġfashion",
        -1.0
      ],
      [
        "ads",
        -1.0
      ],
      [
        "Ġillust",
        -1.0
      ],
      [
        "Ġsort",
        -1.0
      ],
      [
        "Ġcustomers",
        -1.0
      ],
      [
        "Ġscen",
        -1.0
      ],
      [
        "Ġparam",
        -1.0
      ],
      [
        "Ġdiscover",
        -1.0
      ],
      [
        "IG",
        -1.0
      ],
      [
        "Ġcovered",
        -1.0
      ],
      [
        "Ġregularly",
        -1.0
      ],
      [
        "Ġaccurate",
        -1.0
      ],
      [
        "uce",
        -1.0
      ],
      [
        "agram",
        -1.0
      ],
      [
        "Ġrepe",
        -1.0
      ],
      [
        "Ġoperation",
        -1.0
      ],
      [
        "aled",
        -1.0
      ],
      [
        "Ġbound",
        -1.0
      ],
      [
        "Ġlights",
        -1.0
      ],
      [
        "Ġasked",
        -1.0
      ],
      [
        "Ġfoss",
        -1.0
      ],
      [
        "inally",
        -1.0
      ],
      [
        "Ġestablish",
        -1.0
      ],
      [
        "oly",
        -1.0
      ],
      [
        "Ġplease",
        -1.0
      ],
      [
        "Ġinternal",
        -1.0
      ],
      [
        "abol",
        -1.0
      ],
      [
        "Ġfly",
        -1.0
      ],
      [
        "Ġalcohol",
        -1.0
      ],
      [
        "rupt",
        -1.0
      ],
      [
        "Ġfamilies",
        -1.0
      ],
      [
        "ollow",
        -1.0
      ],
      [
        "Ġtax",
        -1.0
      ],
      [
        "Ġcompar",
        -1.0
      ],
      [
        "Ġspend",
        -1.0
      ],
      [
        "Ġchicken",
        -1.0
      ],
      [
        "Ġelectron",
        -1.0
      ],
      [
        "33",
        -1.0
      ],
      [
        "Ġcalc",
        -1.0
      ],
      [
        "gs",
        -1.0
      ],
      [
        "iverse",
        -1.0
      ],
      [
        "cription",
        -1.0
      ],
      [
        "Ġqual",
        -1.0
      ],
      [
        "Ġwel",
        -1.0
      ],
      [
        "ĠTherefore",
        -1.0
      ],
      [
        "Ġselection",
        -1.0
      ],
      [
        "Ġcomplic",
        -1.0
      ],
      [
        "Ġpets",
        -1.0
      ],
      [
        "Ġvital",
        -1.0
      ],
      [
        "ibrary",
        -1.0
      ],
      [
        "Ġdish",
        -1.0
      ],
      [
        "Ġnearly",
        -1.0
      ],
      [
        "used",
        -1.0
      ],
      [
        "Ġhelping",
        -1.0
      ],
      [
        "Ġphen",
        -1.0
      ],
      [
        "Ġpromote",
        -1.0
      ],
      [
        "Ġcouple",
        -1.0
      ],
      [
        "ĠTrans",
        -1.0
      ],
      [
        "Ġmolecules",
        -1.0
      ],
      [
        "Ġpig",
        -1.0
      ],
      [
        "-like",
        -1.0
      ],
      [
        "Ġrisks",
        -1.0
      ],
      [
        "ĠSec",
        -1.0
      ],
      [
        "Ġbasis",
        -1.0
      ],
      [
        "inger",
        -1.0
      ],
      [
        "eters",
        -1.0
      ],
      [
[...]
