{
  "version": "1.0",
  "truncation": null,
  "padding": null,
  "added_tokens": [
    {
      "id": 0,
      "content": "<|bos|>",
      "single_word": false,
      "lstrip": false,
      "rstrip": false,
      "normalized": false,
      "special": true
    },
    {
      "id": 1,
      "content": "<|user_start|>",
      "single_word": false,
      "lstrip": false,
      "rstrip": false,
      "normalized": false,
      "special": true
    },
    {
      "id": 2,
      "content": "<|user_end|>",
      "single_word": false,
      "lstrip": false,
      "rstrip": false,
      "normalized": false,
      "special": true
    },
    {
      "id": 3,
      "content": "<|assistant_start|>",
      "single_word": false,
      "lstrip": false,
      "rstrip": false,
      "normalized": false,
      "special": true
    },
    {
      "id": 4,
      "content": "<|assistant_end|>",
      "single_word": false,
      "lstrip": false,
      "rstrip": false,
      "normalized": false,
      "special": true
    },
    {
      "id": 5,
      "content": "<|python_start|>",
      "single_word": false,
      "lstrip": false,
      "rstrip": false,
      "normalized": false,
      "special": true
    },
    {
      "id": 6,
      "content": "<|python_end|>",
      "single_word": false,
      "lstrip": false,
      "rstrip": false,
      "normalized": false,
      "special": true
    },
    {
      "id": 7,
      "content": "<|output_start|>",
      "single_word": false,
      "lstrip": false,
      "rstrip": false,
      "normalized": false,
      "special": true
    },
    {
      "id": 8,
      "content": "<|output_end|>",
      "single_word": false,
      "lstrip": false,
      "rstrip": false,
      "normalized": false,
      "special": true
    },
    {
      "id": 9,
      "content": "<|unk|>",
      "single_word": false,
      "lstrip": false,
      "rstrip": false,
      "normalized": false,
      "special": true
    }
  ],
  "normalizer": null,
  "pre_tokenizer": {
    "type": "Sequence",
    "pretokenizers": [
      {
        "type": "Split",
        "pattern": {
          "Regex": "'(?i:[sdmt]|ll|ve|re)|[^\\r\\n\\p{L}\\p{N}]?+\\p{L}+|\\p{N}{1,2}| ?[^\\s\\p{L}\\p{N}]++[\\r\\n]*|\\s*[\\r\\n]|\\s+(?!\\S)|\\s+"
        },
        "behavior": "Isolated",
        "invert": false
      },
      {
        "type": "ByteLevel",
        "add_prefix_space": false,
        "trim_offsets": true,
        "use_regex": false
      }
    ]
  },
  "post_processor": {
    "type": "TemplateProcessing",
    "single": [
      {
        "Sequence": {
          "id": "A",
          "type_id": 0
        }
      }
    ],
    "pair": [
      {
        "Sequence": {
          "id": "A",
          "type_id": 0
        }
      },
      {
        "Sequence": {
          "id": "B",
          "type_id": 1
        }
      }
    ],
    "special_tokens": {}
  },
  "decoder": null,
  "model": {
    "type": "Unigram",
    "unk_id": 9,
    "vocab": [
      [
        "<|bos|>",
        0.0
      ],
      [
        "<|user_start|>",
        0.0
      ],
      [
        "<|user_end|>",
        0.0
      ],
      [
        "<|assistant_start|>",
        0.0
      ],
      [
        "<|assistant_end|>",
        0.0
      ],
      [
        "<|python_start|>",
        0.0
      ],
      [
        "<|python_end|>",
        0.0
      ],
      [
        "<|output_start|>",
        0.0
      ],
      [
        "<|output_end|>",
        0.0
      ],
      [
        "<|unk|>",
        0.0
      ],
      [
        "Ġ",
        -2.6610740359475145
      ],
      [
        "s",
        -3.2489552800630044
      ],
      [
        "Ġthe",
        -3.516121248432654
      ],
      [
        ",",
        -3.566313764105761
      ],
      [
        "a",
        -3.70978177802008
      ],
      [
        ".",
        -3.850481766505986
      ],
      [
        "Ġand",
        -4.064479018930385
      ],
      [
        "Ġto",
        -4.091857107159559
      ],
      [
        "Ġof",
        -4.104637705366743
      ],
      [
        "t",
        -4.488844389182015
      ],
      [
        "Ġin",
        -4.566337128123221
      ],
      [
        "e",
        -4.644053715058135
      ],
      [
        "Ġis",
        -4.733022501517727
      ],
      [
        "i",
        -4.984213752565552
      ],
      [
        "o",
        -5.007691815963204
      ],
      [
        "'",
        -5.028984150872457
      ],
      [
        "ing",
        -5.032504551157658
      ],
      [
        "Ġthat",
        -5.145865906216672
      ],
      [
        "Ġfor",
        -5.14992338178809
      ],
      [
        "0",
        -5.1532197926195185
      ],
      [
        "d",
        -5.190198574974714
      ],
      [
        "-",
        -5.269014818699631
      ],
      [
        "1",
        -5.283333074821041
      ],
      [
        "Ġare",
        -5.333163886376106
      ],
      [
        "n",
        -5.345427071954919
      ],
      [
        ":",
        -5.357593136985246
      ],
      [
        "r",
        -5.401128408325297
      ],
      [
        "Ġyou",
        -5.414735855603695
      ],
      [
        "Ċ",
        -5.442405722446672
      ],
      [
        ".Ċ",
        -5.449913324578937
      ],
      [
        "Ġit",
        -5.462581286861415
      ],
      [
        ".ĊĊ",
        -5.480576739846315
      ],
      [
        "ed",
        -5.483382367134192
      ],
      [
        "2",
        -5.492291681780632
      ],
      [
        "Ġwith",
        -5.497599013590463
      ],
      [
        "Ġbe",
        -5.5764651095197895
      ],
      [
        "y",
        -5.577307849593389
      ],
      [
        "I",
        -5.619956729356545
      ],
      [
        "Ġcan",
        -5.622191293435904
      ],
      [
        "Ġon",
        -5.628536753844704
      ],
      [
        "Ġas",
        -5.631042345303072
      ],
      [
        "Ġor",
        -5.641626983141746
      ],
      [
        "f",
        -5.713803120663778
      ],
      [
        "m",
        -5.719811409649559
      ],
      [
        "(",
        -5.73730865232749
      ],
      [
        "\"",
        -5.808847008578844
      ],
      [
        "ĊĊ",
        -5.817845246688089
      ],
      [
        "Ġyour",
        -5.821247366190683
      ],
      [
        "A",
        -5.935617004086502
      ],
      [
        "Ġhave",
        -5.994783147317948
      ],
      [
        "Ġfrom",
        -6.01584670015712
      ],
      [
        "ĠThe",
        -6.024582463351532
      ],
      [
        "re",
        -6.034669062432817
      ],
      [
        "l",
        -6.049350495668277
      ],
      [
        "p",
        -6.057200877997488
      ],
      [
        "Ġby",
        -6.0882837456712515
      ],
      [
        "c",
        -6.090096457970791
      ],
      [
        ")",
        -6.114571262191985
      ],
      [
        "Ġan",
        -6.119155634489378
      ],
      [
        "ly",
        -6.130633064645679
      ],
      [
        "3",
        -6.131935913686593
      ],
      [
        "Ġthis",
        -6.1747779771002715
      ],
      [
        "5",
        -6.194550580145899
      ],
      [
        "?",
        -6.203645560148217
      ],
      [
        "Ġnot",
        -6.217731096546071
      ],
      [
        "b",
        -6.239295608050739
      ],
      [
        "in",
        -6.291050043235501
      ],
      [
        "Ġwill",
        -6.322339815688611
      ],
      [
        "al",
        -6.326911523484577
      ],
      [
        "4",
        -6.342991524283633
      ],
      [
        "Ġtheir",
        -6.345528941196569
      ],
      [
        "u",
        -6.351965884791742
      ],
      [
        "or",
        -6.379012165469005
      ],
      [
        "g",
        -6.391374977508473
      ],
      [
        "Ġthey",
        -6.407852914005284
      ],
      [
        "9",
        -6.443899391286266
      ],
      [
        "Ġmore",
        -6.464004092974136
      ],
      [
        "Ġwas",
        -6.477871686343418
      ],
      [
        "h",
        -6.501601840291029
      ],
      [
        "The",
        -6.502241626883675
      ],
      [
        "Ġwe",
        -6.536537627710665
      ],
      [
        "Ġbut",
        -6.602527292838452
      ],
      [
        "6",
        -6.603541087468576
      ],
      [
        "an",
        -6.604722602811865
      ],
      [
        "Ġhas",
        -6.6161153720159245
      ],
      [
        "Ġwhich",
        -6.616121687472173
      ],
      [
        "on",
        -6.616336337787001
      ],
      [
        "S",
        -6.635154336191208
      ],
      [
        "8",
        -6.636278813293671
      ],
      [
        "Ġone",
        -6.684641172454313
      ],
      [
        "Question",
        -6.695716304014093
      ],
      [
        "is",
        -6.704139713643022
      ],
      [
        "Ġalso",
        -6.707973409242491
      ],
      [
        "ĠAnswer",
        -6.734762598905389
      ],
      [
        "7",
        -6.744874750516951
      ],
      [
        "Ġall",
        -6.759208018393251
      ],
      [
        "k",
        -6.7592246441514146
      ],
      [
        "D",
        -6.769001564789365
      ],
      [
        "Ġabout",
        -6.785765146621733
      ],
      [
        "Ġother",
        -6.82676046457928
      ],
      [
        "ĠIt",
        -6.843313339964624
      ],
      [
        "Ġdo",
        -6.847479249412885
      ],
      [
        "Ġwhen",
        -6.873945015072444
      ],
      [
        "w",
        -6.882721525606549
      ],
      [
        "Ġtime",
        -6.89990779040283
      ],
      [
        "Ġup",
        -6.937248152714734
      ],
      [
        "Ġlike",
        -6.9489662037162105
      ],
      [
        "v",
        -6.949075793322622
      ],
      [
        "Ġinto",
        -6.951327894095487
      ],
      [
        "Ġthem",
        -6.9770104337182985
      ],
      [
        "Ġout",
        -6.987017416119018
      ],
      [
        "ĠThis",
        -6.98851658023003
      ],
      [
        "Ġuse",
        -7.001062533129428
      ],
      [
        "ĠIn",
        -7.0026942717951
      ],
      [
        "Ġsome",
        -7.00621099314616
      ],
      [
        "th",
        -7.0123912314549965
      ],
      [
        "Ġmay",
        -7.012704301446384
      ],
      [
        "Ġthan",
        -7.026370997074464
      ],
      [
        "T",
        -7.053107481678383
      ],
      [
        "ĠWhat",
        -7.057004688410039
      ],
      [
        "/",
        -7.066968963673714
      ],
      [
        "it",
        -7.079970610039988
      ],
      [
        "Ġwater",
        -7.085621860924757
      ],
      [
        "Ġthese",
        -7.086784399611799
      ],
      [
        "Ġhow",
        -7.088515298727316
      ],
      [
        "ĠB",
        -7.124744106484419
      ],
      [
        "M",
        -7.128862461577917
      ],
      [
        "Ġused",
        -7.153838178631153
      ],
      [
        "Ġwhat",
        -7.154696686049672
      ],
      [
        "ion",
        -7.1668859299538425
      ],
      [
        "able",
        -7.168389748190579
      ],
      [
        "Ġthere",
        -7.173763536432819
      ],
      [
        "he",
        -7.185958978576679
      ],
      [
        "Ġmake",
        -7.188334021324229
      ],
      [
        "Ġour",
        -7.195364591376933
      ],
      [
        "Ġsuch",
        -7.224668480790543
      ],
      [
        "ation",
        -7.231730926487142
      ],
      [
        "ĠC",
        -7.234212119322048
      ],
      [
        "Ġwere",
        -7.247431175517873
      ],
      [
        "Ġmost",
        -7.254697464976003
      ],
      [
        "B",
        -7.261280286763846
      ],
      [
        "le",
        -7.263195759110898
      ],
      [
        "Ġover",
        -7.265505547435916
      ],
      [
        "W",
        -7.280181772599551
      ],
      [
        "Ġpeople",
        -7.287577718864066
      ],
      [
        "Ġany",
        -7.288612867244961
      ],
      [
        "Ġbeen",
        -7.29078138272005
      ],
      [
        "Ġhelp",
        -7.299175774620849
      ],
      [
        "Ġshould",
        -7.30625291657225
      ],
      [
        "O",
        -7.310532072557549
      ],
      [
        "Ġnew",
        -7.323233809626185
      ],
      [
        "Ġits",
        -7.329415478595664
      ],
      [
        "C",
        -7.333086368164526
      ],
      [
        "Ġjust",
        -7.341565654152433
      ],
      [
        "ve",
        -7.342491604193183
      ],
      [
        "Ġneed",
        -7.345081957826309
      ],
      [
        "Ġwould",
        -7.349425068209992
      ],
      [
        "Ġget",
        -7.351069130247701
      ],
      [
        "x",
        -7.363773375012727
      ],
      [
        "P",
        -7.369247382148988
      ],
      [
        "Ġonly",
        -7.371430763300019
      ],
      [
        "Ġwho",
        -7.371714815591579
      ],
      [
        "Ġmany",
        -7.397750788200449
      ],
      [
        ";",
        -7.40139824549725
      ],
      [
        "F",
        -7.409523965894476
      ],
      [
        "ar",
        -7.420856154979935
      ],
      [
        "Ġtwo",
        -7.441678580554278
      ],
      [
        "Ġwell",
        -7.441722115911071
      ],
      [
        "ers",
        -7.443913150567933
      ],
      [
        "ive",
        -7.453863299708736
      ],
      [
        "Ġno",
        -7.46203458498711
      ],
      [
        "ll",
        -7.464413458245108
      ],
      [
        "Ġmy",
        -7.465845707366587
      ],
      [
        "Ġwork",
        -7.4676794310384
      ],
      [
        "Ġfirst",
        -7.467881887622596
      ],
      [
        "Ġdifferent",
        -7.491004080326714
      ],
      [
        "Ġthrough",
        -7.495483006472016
      ],
      [
        "Ġway",
        -7.502978223995068
      ],
      [
        "In",
        -7.510314911326475
      ],
      [
        "Ġwhere",
        -7.525629666736945
      ],
      [
        "Ġbetween",
        -7.537590791578367
      ],
      [
        "ĠF",
        -7.548637721880869
      ],
      [
        "G",
        -7.550121099914486
      ],
      [
        "Ġusing",
        -7.567210875844744
      ],
      [
        "!",
        -7.56980784711044
      ],
      [
        "Ġcould",
        -7.573507146126628
      ],
      [
        "Ġbecause",
        -7.586404019197641
      ],
      [
        "ĠE",
        -7.586476386122403
      ],
      [
        "Ġeven",
        -7.587831736681359
      ],
      [
        "?Ċ",
        -7.591579635685854
      ],
      [
        "ur",
        -7.60349012476026
      ],
      [
        "ĠIf",
        -7.60878377374206
      ],
      [
        "us",
        -7.611330517226309
      ],
      [
        "ĠP",
        -7.616140257150779
      ],
      [
        "Ġsystem",
        -7.626969942106179
      ],
      [
        "Ġvery",
        -7.636332251529465
      ],
      [
        "to",
        -7.651620399313151
      ],
      [
        "Ġhigh",
        -7.653702960671723
      ],
      [
        "ment",
        -7.659066674433383
      ],
      [
        "Ġknow",
        -7.669435211725496
      ],
      [
        "ter",
        -7.670370258902182
      ],
      [
        "ĠThey",
        -7.670710071756263
      ],
      [
        "ent",
        -7.675526468688664
      ],
      [
        "Ġmuch",
        -7.6919210672522205
      ],
      [
        "Ġeach",
        -7.692666771581875
      ],
      [
        "ity",
        -7.694640747222998
      ],
      [
        "Ġhis",
        -7.710485195197037
      ],
      [
        "Ġimportant",
        -7.721362288072248
      ],
      [
        "Ġgood",
        -7.72409573822336
      ],
      [
        "E",
        -7.730175961539357
      ],
      [
        "?ĊĊ",
        -7.73353193647848
      ],
      [
        "Ġdon",
        -7.735818344427052
      ],
      [
        "Ġhad",
        -7.742476162209496
      ],
      [
        "ĠYou",
        -7.746774970440574
      ],
      [
        "V",
        -7.753031233705555
      ],
      [
        "L",
        -7.756003512885778
      ],
      [
        "H",
        -7.7579495504898
      ],
      [
        "Ġdoes",
        -7.759185798945905
      ],
      [
        "Ġtake",
        -7.759665465271135
      ],
      [
        "ĠâĢĵ",
        -7.760317655323057
      ],
      [
        "Ġfood",
        -7.763899633526293
      ],
      [
        "ate",
        -7.768606699528219
      ],
      [
        "est",
        -7.768841330576219
      ],
      [
        "R",
        -7.770899983577014
      ],
      [
        ").",
        -7.771718724348778
      ],
      [
        "Ġyears",
        -7.772234891666372
      ],
      [
        "ch",
        -7.777418752110934
      ],
      [
        "Ġwhile",
        -7.777587246537879
      ],
      [
        "Ġlong",
        -7.778396572775867
      ],
      [
        "z",
        -7.786721249977862
      ],
      [
        "and",
        -7.787987445009566
      ],
      [
        "ĠRe",
        -7.797298664193383
      ],
      [
        "Ġun",
        -7.805403743907142
      ],
      [
        "Ġafter",
        -7.817248050411248
      ],
      [
        "ĠTo",
        -7.826880257857175
      ],
      [
        "Ġsee",
        -7.836020783971108
      ],
      [
        "Ġwant",
        -7.836964975922555
      ],
      [
        "Ġme",
        -7.843045539267632
      ],
      [
        "Ġback",
        -7.852433560243293
      ],
      [
        "Ġbeing",
        -7.853012627010944
      ],
      [
        "ĠR",
        -7.86183883951405
      ],
      [
        "Ġbefore",
        -7.86363172593096
      ],
      [
        "Ġduring",
        -7.864223302451528
      ],
      [
        "Ġaround",
        -7.8656148549102785
      ],
      [
        "um",
        -7.871851153580776
      ],
      [
        "ĠG",
        -7.874308920995883
      ],
      [
        "Ġsame",
        -7.875633542945712
      ],
      [
        "age",
        -7.885639680672304
      ],
      [
        "the",
        -7.899540224128712
      ],
      [
        "Ġhealth",
        -7.899603058018483
      ],
      [
        "Ġlife",
        -7.900596978427471
      ],
      [
        "Ġprocess",
        -7.900891097733538
      ],
      [
        "Ġthose",
        -7.907133619683604
      ],
      [
        "ĠFor",
        -7.907603931085436
      ],
      [
        "Ġboth",
        -7.911448202565049
      ],
      [
        "ĠWe",
        -7.91998193706819
      ],
      [
        "Ġfound",
        -7.928726430890531
      ],
      [
        "Ġgo",
        -7.929419895470998
      ],
      [
        "Ġworld",
        -7.931701534740975
      ],
      [
        "N",
        -7.93688164858292
      ],
      [
        "Ġdown",
        -7.93741219453681
      ],
      [
        "Ġoften",
        -7.938672201821607
      ],
      [
        "%",
        -7.942434480395807
      ],
      [
        "What",
        -7.943400872720691
      ],
      [
        "Ġenergy",
        -7.943546486564534
      ],
      [
        "ĠM",
        -7.943990763956194
      ],
      [
        "Ġdata",
        -7.944961186981756
      ],
      [
        "Ġright",
        -7.945804421805541
      ],
      [
        "Ġher",
        -7.953029387324204
      ],
      [
        "Ġpart",
        -7.953237019489318
      ],
      [
        "Ġbest",
        -7.953620055814039
      ],
      [
        "),",
        -7.959168884197622
      ],
      [
        "Ġlight",
        -7.972462807490691
      ],
      [
        "Ġbody",
        -7.977224486010805
      ],
      [
        "Ġmade",
        -7.978771584935268
      ],
      [
        "Ġfind",
        -7.990976568954871
      ],
      [
        "ĠSo",
        -7.994273335392213
      ],
      [
        "Ġday",
        -8.014051140064785
      ],
      [
        "ul",
        -8.016551690941526
      ],
      [
        "Ġsmall",
        -8.01723603994858
      ],
      [
        "âĢĶ",
        -8.022587430115083
      ],
      [
        "me",
        -8.028436082387193
      ],
      [
        "ĠN",
        -8.0337497620483
      ],
      [
        "Ġyear",
        -8.033960886918594
      ],
      [
        "Ġinformation",
        -8.047407468615784
      ],
      [
        "Ġnumber",
        -8.048255287910532
      ],
      [
        "Ġhome",
        -8.056251226724536
      ],
      [
        "ness",
        -8.057857048969701
      ],
      [
        "ĠH",
        -8.05933229478639
      ],
      [
        "Ġcar",
        -8.060769667551154
      ],
      [
        "ous",
        -8.063627299120812
      ],
      [
        ":Ċ",
        -8.066688056867799
      ],
      [
        "Ġsaid",
        -8.069071530980565
      ],
      [
        "Ġprovide",
        -8.06978478815645
      ],
      [
        "Ġspecies",
        -8.07349528120856
      ],
      [
        "=",
        -8.075567234575313
      ],
      [
        "Ġair",
        -8.080937436039662
      ],
      [
        "ary",
        -8.088358411420776
      ],
      [
        "This",
        -8.090337302028226
      ],
      [
        "ke",
        -8.103530973603254
      ],
      [
        "Ġend",
        -8.10839455624544
      ],
      [
        "Ġpower",
        -8.108659644655095
      ],
      [
        "Ġmight",
        -8.10915049150571
      ],
      [
        "ĠAs",
        -8.10966497542829
      ],
      [
        "Ġcreate",
        -8.112238963234663
      ],
      [
        "Ġkeep",
        -8.113415031817796
      ],
      [
        "Ġresearch",
        -8.11888256039644
      ],
      [
        "[",
        -8.123685542652973
      ],
      [
        "Ġplant",
        -8.136541918595341
      ],
      [
        "Ġlook",
        -8.137159201449592
      ],
      [
        "ill",
        -8.137434554687177
      ],
      [
        "ĠThese",
        -8.13973376553859
      ],
      [
        "Ġunder",
        -8.139975385885695
      ],
      [
        "Ġbetter",
        -8.144180493163166
      ],
      [
        "Ġnow",
        -8.148833744398386
      ],
      [
        "Ġchange",
        -8.150644840665178
      ],
      [
        "Ġus",
        -8.160800963049212
      ],
      [
        "Ġwithout",
        -8.161680131521564
      ],
      [
        "Ġexample",
        -8.161923429121922
      ],
      [
        "Y",
        -8.167776100123302
      ],
      [
        "Ġthink",
        -8.168609135598313
      ],
      [
        "Ġevery",
        -8.16987549857901
      ],
      [
        "K",
        -8.169933051864485
      ],
      [
        "Ġown",
        -8.17352556717324
      ],
      [
        "...",
        -8.174665194083707
      ],
      [
        "Ġstill",
        -8.175114738495612
      ],
      [
        "per",
        -8.177843908309054
      ],
      [
        "Ġstudents",
        -8.182246296372204
      ],
      [
        "be",
        -8.182486070363794
      ],
      [
        "ies",
        -8.18771583574582
      ],
      [
        "der",
        -8.189622737310483
      ],
      [
        "ge",
        -8.190908618271994
      ],
      [
        "ĠAnd",
        -8.19513454784316
      ],
      [
        "Ġtype",
        -8.197667745041173
      ],
      [
        "Ġincluding",
        -8.20076612067257
      ],
      [
        "Ġper",
        -8.202329122392804
      ],
      [
        "Ġmaking",
        -8.206760520252425
      ],
      [
        "If",
        -8.207267588917631
      ],
      [
        "tic",
        -8.209415932283829
      ],
      [
        "Ġhuman",
        -8.213953121339486
      ],
      [
        "Ġdog",
        -8.215712021709269
      ],
      [
        "How",
        -8.217216997425536
      ],
      [
        "Ġplace",
        -8.22015120947573
      ],
      [
        "Ġplants",
        -8.224716789191193
      ],
      [
        "Ġstudy",
        -8.225272739823799
      ],
      [
        "Ġcommon",
        -8.22624938210572
      ],
      [
        "Ġfew",
        -8.231785323154797
      ],
      [
        "Ġcontrol",
        -8.235860740015529
      ],
      [
        "ĠK",
        -8.23953358141603
      ],
      [
        "Ġless",
        -8.245606472361011
      ],
      [
        "ĠBut",
        -8.247716021797958
      ],
      [
        ":ĊĊ",
        -8.249237883326462
      ],
      [
        "Ġcause",
        -8.250136999032817
      ],
      [
        "$",
        -8.254763948800447
      ],
      [
        "Ġoff",
        -8.257044849053408
      ],
      [
        "Ġpre",
        -8.257444179159446
      ],
      [
        "Ġknown",
        -8.259747673670889
      ],
      [
        "ance",
        -8.260046732032965
      ],
      [
        "Ġthree",
        -8.262026482067666
      ],
      [
        "Ġlarge",
        -8.262488770388801
      ],
      [
        "Ġlot",
        -8.264626106729304
      ],
      [
        "Ġdis",
        -8.283399790604383
      ],
      [
        "ĠHe",
        -8.288473533535088
      ],
      [
        "Ġmust",
        -8.294029030112034
      ],
      [
        "ĠSt",
        -8.298633091169068
      ],
      [
        "Ġpoint",
        -8.299633916852613
      ],
      [
        "Ġspace",
        -8.30256537742421
      ],
      [
        "Ġchildren",
        -8.303835627790857
      ],
      [
        "Ġcon",
        -8.30717709829189
      ],
      [
        "Ġgreat",
        -8.310364563839876
      ],
      [
        "Ġset",
        -8.313721062646866
      ],
      [
        "Ġthings",
        -8.317723787882885
      ],
      [
        "Ġsure",
        -8.318190905303709
      ],
      [
        "Ġsupport",
        -8.319982180702286
      ],
      [
        "U",
        -8.320698377612777
      ],
      [
        "ĠHowever",
        -8.328974072227009
      ],
      [
        "ĠV",
        -8.331817696901274
      ],
      [
        "Ġexperience",
        -8.331894980023085
      ],
      [
        "Ġcalled",
        -8.333291425062974
      ],
      [
        "Ġinclude",
        -8.333599739850074
      ],
      [
        "ĠL",
        -8.345075710544487
      ],
      [
        "Ġshe",
        -8.351686555227653
      ],
      [
        "eat",
        -8.356332698969066
      ],
      [
        "Ġdesign",
        -8.358849546473833
      ],
      [
        "Ġwithin",
        -8.360054217663194
      ],
      [
        "Ġstart",
        -8.366364690223064
      ],
      [
        "Ġwhy",
        -8.368352049546866
      ],
      [
        "Ġco",
        -8.37136283784986
      ],
      [
        "Ġreally",
        -8.378868717430473
      ],
      [
        "Ġsomething",
        -8.379161103604185
      ],
      [
        "ĠAn",
        -8.37971387260203
      ],
      [
        "ating",
        -8.381178592641167
      ],
      [
        "ĠWhen",
        -8.381936089593573
      ],
      [
        "Ġform",
        -8.38287023378368
      ],
      [
        "]",
        -8.383123245324574
      ],
      [
        "Ġcolor",
        -8.385572731205706
      ],
      [
        "Ġcome",
        -8.388429488075849
      ],
      [
        "Ġspecific",
        -8.389767886411283
      ],
      [
        "Ġbecome",
        -8.397543298937537
      ],
      [
        "Ġdue",
        -8.401587224425331
      ],
      [
        "Ġfollowing",
        -8.402312170909545
      ],
      [
        "Ġpossible",
        -8.403264993923907
      ],
      [
        "ring",
        -8.405153528238637
      ],
      [
        "ard",
        -8.405997737090846
      ],
      [
        "Ġanother",
        -8.406009864075314
      ],
      [
        "Ġlevel",
        -8.407284741528558
      ],
      [
        "Ġnatural",
        -8.41084029761371
      ],
      [
        "&",
        -8.411665314823324
      ],
      [
        "ated",
        -8.413698016790669
      ],
      [
        "Ġhere",
        -8.417903151424579
      ],
      [
        "ĠHow",
        -8.42165375610283
      ],
      [
        "Ġgoing",
        -8.422019775495434
      ],
      [
        "Ġpro",
        -8.425295301182775
      ],
      [
        "Ġlow",
        -8.427124224109694
      ],
      [
        "Ġlearn",
        -8.42927653395874
      ],
      [
        "ver",
        -8.429710040672568
      ],
      [
        "Ġsize",
        -8.430008597620196
      ],
      [
        "Ġsoil",
        -8.434170718433416
      ],
      [
        "Ġheat",
        -8.437301479926328
      ],
      [
        "Ġside",
        -8.43873809846932
      ],
      [
        "Ġrange",
        -8.441556828002154
      ],
      [
        "Ġcare",
        -8.443035258444306
      ],
      [
        "j",
        -8.443316378619521
      ],
      [
        "Ġvarious",
        -8.444538308284066
      ],
      [
        "ĠU",
        -8.448684014631539
      ],
      [
        "Ġblood",
        -8.450600329979089
      ],
      [
        "Ġlittle",
        -8.45248370681509
      ],
      [
        "Ġalways",
        -8.455117266101425
      ],
      [
        "ĠBe",
        -8.456328526416463
      ],
      [
        "+",
        -8.45961433808342
      ],
      [
        "Ġcells",
        -8.460732899135506
      ],
      [
        "Ġtemperature",
        -8.463396747375338
      ],
      [
        "Ġhand",
        -8.463773276006474
      ],
      [
        "Ġdevelopment",
        -8.464538328766375
      ],
      [
        "Ġtext",
        -8.46475001615968
      ],
      [
        "one",
        -8.465511915498984
      ],
      [
        "Ġproblem",
        -8.468653515269377
      ],
      [
        "ĠThere",
        -8.468898527814575
      ],
      [
        "Ġmain",
        -8.480181363189093
      ],
      [
        "Ġprevent",
        -8.481959074765088
      ],
      [
        "Ġmeans",
        -8.48218780312599
      ],
      [
        "Ġdid",
        -8.48340030789803
      ],
      [
        "line",
        -8.487566250176638
      ],
      [
        "Ġenvironment",
        -8.487960428020411
      ],
      [
        "less",
        -8.488323690522368
      ],
      [
        "Ġpotential",
        -8.49093195350163
      ],
      [
        "ling",
        -8.496279996776353
      ],
      [
        "Ġname",
        -8.496670706859003
      ],
      [
        "Ġorder",
        -8.497949126329853
      ],
      [
        "Ġnon",
        -8.501476421582248
      ],
      [
        "Ġdisease",
        -8.502208804558023
      ],
      [
        "Ġensure",
        -8.506615111096572
      ],
      [
        "ide",
        -8.508796777881743
      ],
      [
        "Ġgive",
        -8.516515039749923
      ],
      [
        "Ġavailable",
        -8.516979864555422
      ],
      [
        "min",
        -8.519570476314389
      ],
      [
        "Ġlast",
        -8.521925830913958
      ],
      [
        "Ġfeel",
        -8.52574835105864
      ],
      [
        "Ġsecond",
        -8.52578252938889
      ],
      [
        "Ġschool",
        -8.528119949866445
      ],
      [
        "Ġrisk",
        -8.5298911468889
      ],
      [
        "Ġseveral",
        -8.53416807277555
      ],
      [
        "Ġsurface",
        -8.538110615736294
      ],
      [
        "Ġlearning",
        -8.543573243430725
      ],
      [
        "Ġresult",
        -8.546789963180714
      ],
      [
        "Ġreduce",
        -8.546842951431413
      ],
      [
        "Ġbased",
        -8.54743274617493
      ],
      [
        "mer",
        -8.561045899274982
      ],
      [
        "ĠDe",
        -8.561856543991128
      ],
      [
        "_",
        -8.566213833674444
      ],
      [
        "Ġenough",
        -8.566724417738387
      ],
      [
        "Ġteam",
        -8.566902785173603
      ],
      [
        "Ġtypes",
        -8.568217967389453
      ],
      [
        "Ġcourse",
        -8.572050364501687
      ],
      [
        "Ġusually",
        -8.574229600851238
      ],
      [
        "Ġopen",
        -8.574871777259778
      ],
      [
        "Ġquality",
        -8.575419254674266
      ],
      [
        "ĠWhich",
        -8.577462420712221
      ],
      [
        "Ġoil",
        -8.577616551749538
      ],
      [
        "Ġareas",
        -8.578223582379001
      ],
      [
        "Ġhard",
        -8.579461404000767
      ],
      [
        "ally",
        -8.584238196209034
      ],
      [
        "When",
        -8.587741937891508
      ],
      [
        "Ġperson",
        -8.588392916980327
      ],
      [
        "Ġgroup",
        -8.590299116696592
      ],
      [
        "Ġunderstand",
        -8.590962746566234
      ],
      [
        "To",
        -8.591902200812637
      ],
      [
        "Ġpressure",
        -8.595703182455862
      ],
      [
        "Ġfish",
        -8.596512781361664
      ],
      [
        "Ġproject",
        -8.597023687274412
      ],
      [
        "lic",
        -8.598452876398682
      ],
      [
        "Ġneeds",
        -8.600512676647007
      ],
      [
        "Ġanimals",
        -8.601692582894785
      ],
      [
        "Ġhead",
        -8.602394112516295
      ],
      [
        "Ġconditions",
        -8.605817092083008
      ],
      [
        "Ġex",
        -8.606701424935254
      ],
      [
        "Ġlocal",
        -8.612949816986283
      ],
      [
        "our",
        -8.61376369168024
      ],
      [
        "Ġadd",
        -8.616800479410276
      ],
      [
        "Ġtechnology",
        -8.617120064095094
      ],
      [
        "up",
        -8.618538187225473
      ],
      [
        "Ġcurrent",
        -8.618570287518937
      ],
      [
        "Ġimpact",
        -8.619684738593696
      ],
      [
        "You",
        -8.624737520096982
      ],
      [
        "Ġkey",
        -8.625154670279183
      ],
      [
        "Ġplay",
        -8.62575147311538
      ],
      [
        "Ġstate",
        -8.627010739934166
      ],
      [
        "We",
        -8.6312362551324
      ],
      [
        "Ġamount",
        -8.632409740929178
      ],
      [
        "Ġsince",
        -8.633828551115421
      ],
      [
        "Ġcase",
        -8.634016180653171
      ],
      [
        "Ġgrow",
        -8.6397005992335
      ],
      [
        "Ġcheck",
        -8.63973656787285
      ],
      [
        "Ġput",
        -8.641811122941233
      ],
      [
        "ure",
        -8.641975667911792
      ],
      [
        "ten",
        -8.64276215038202
      ],
      [
        "ĠNo",
        -8.643562999853266
      ],
      [
        "Ġlead",
        -8.643837017145374
      ],
      [
        "Ġsay",
        -8.645163775537547
      ],
      [
        "Ġrole",
        -8.646709681838933
      ],
      [
        "Ġmaterials",
        -8.648006001718898
      ],
      [
        "ized",
        -8.64994884964397
      ],
      [
        "Ġincrease",
        -8.650104816811986
      ],
      [
        "Ġtogether",
        -8.650162326110177
      ],
      [
        "Ġfree",
        -8.651532993183556
      ],
      [
        "Ġtest",
        -8.651692891750754
      ],
      [
        "Ġmethod",
        -8.651807045339297
      ],
      [
        "Ġuntil",
        -8.652413104900788
      ],
      [
        "Ġmaterial",
        -8.652471358209775
      ],
      [
        "Ġreal",
        -8.6540189495368
      ],
      [
        "gu",
        -8.661555200438006
      ],
      [
        "ions",
        -8.6624088371736
      ],
      [
        "ex",
        -8.663442737553376
      ],
      [
        "Ġmodel",
        -8.667240660535402
      ],
      [
        "Ġweight",
        -8.668143617753458
      ],
      [
        "Ġsub",
        -8.668450894288615
      ],
      [
        "Ġsystems",
        -8.669172378409217
      ],
      [
        "Ġfamily",
        -8.671275374088065
      ],
      [
        "Ġfunction",
        -8.674505554082437
      ],
      [
        "Ġshort",
        -8.677620906922973
      ],
      [
        "Ġessential",
        -8.678371781037434
      ],
      [
        "Ġaway",
        -8.679185721294973
      ],
      [
        "Ġage",
        -8.680850118705411
      ],
      [
        "Ġvalue",
        -8.682969806308448
      ],
      [
        "ĠJ",
        -8.684179356299753
      ],
      [
        "ize",
        -8.68645918218064
      ],
      [
        "*",
        -8.689300872240912
      ],
      [
        "Ġshow",
        -8.689362332457634
      ],
      [
        "Ġline",
        -8.690832389769753
      ],
      [
        "Ġhaving",
        -8.69248024910391
      ],
      [
        "ĠNew",
        -8.695984484560533
      ],
      [
        "Ġpost",
        -8.69600207293778
      ],
      [
        "Ġnext",
        -8.696554254546951
      ],
      [
        "ĠCo",
        -8.697280143620791
      ],
      [
        "land",
        -8.701081803680136
      ],
      [
        "Ġlevels",
        -8.70195010503687
      ],
      [
        "Ġtreatment",
        -8.702468115428792
      ],
      [
        "ĠBy",
        -8.703971872541825
      ],
      [
        "ence",
        -8.70413767145379
      ],
      [
        "ĠMa",
        -8.704513952705016
      ],
      [
        "Ġproblems",
        -8.706203577289592
      ],
      [
        "Ġrun",
        -8.706291394707584
      ],
      [
        "man",
        -8.706577169519363
      ],
      [
        "con",
        -8.708882321629304
      ],
      [
        "Ġsimple",
        -8.708935609239374
      ],
      [
        "Ġprogram",
        -8.710809240161497
      ],
      [
        "Ġcost",
        -8.711847347073192
      ],
      [
        "ative",
        -8.711880419071617
      ],
      [
        "Ġworking",
        -8.711971099368297
      ],
      [
        "Ġeye",
        -8.713102459184544
      ],
      [
        "Ġlet",
        -8.713544141091731
      ],
      [
        ")Ċ",
        -8.71554518548602
      ],
      [
        "Ġlower",
        -8.715571459491247
      ],
      [
        "Ġmove",
        -8.716773635108087
      ],
      [
        "J",
        -8.718111365787301
      ],
      [
        "ization",
        -8.718656217426979
      ],
      [
        "end",
        -8.719096207001877
      ],
      [
        "ĠThat",
        -8.723101095371891
      ],
      [
        "Ġchild",
        -8.724772740079402
      ],
      [
        "Ġhigher",
        -8.725603901419092
      ],
      [
        "Ġfact",
        -8.725981254591835
      ],
      [
        "Ġearly",
        -8.726691460171757
      ],
      [
        "Ġeasy",
        -8.728113673710148
      ],
      [
        "Ġresults",
        -8.729639037247948
      ],
      [
        "Ġgrowth",
        -8.73039391962464
      ],
      [
        "Ġconsider",
        -8.731292336508796
      ],
      [
        "ner",
        -8.732384853959207
      ],
      [
        "Ġproducts",
        -8.732490396830322
      ],
      [
        "Ġpaper",
        -8.732925664425617
      ],
      [
        "Ġpresent",
        -8.733510181904037
      ],
      [
        "mm",
        -8.73502050059919
      ],
      [
        "ful",
        -8.736952929128172
      ],
      [
        "Ġfull",
        -8.740952005883903
      ],
      [
        "Ġmakes",
        -8.741767391957053
      ],
      [
        "Ġcat",
        -8.742387377406738
      ],
      [
        "Re",
        -8.743548408164646
      ],
      [
        "les",
        -8.743967782667617
      ],
      [
        "ium",
        -8.744041565281522
      ],
      [
        "Ġlikely",
        -8.744695733261944
      ],
      [
        "Ġsocial",
        -8.746921919986967
      ],
      [
        "Ġactually",
        -8.749736845417043
      ],
      [
        "Ġleast",
        -8.753074058380042
      ],
      [
        "ĠUniversity",
        -8.757329108073554
      ],
      [
        "Ġbit",
        -8.757857104303547
      ],
      [
        "Ġdevelop",
        -8.758943910975052
      ],
      [
        "There",
        -8.759379835613103
      ],
      [
        "Ġphysical",
        -8.760758025972526
      ],
      [
        "ice",
        -8.76243431112441
      ],
      [
        "âĢĻs",
        -8.762610774619683
      ],
      [
        "Ġdoesn",
        -8.763540767439244
      ],
      [
        "Ġhealthy",
        -8.764187009520487
      ],
      [
        "Ġcomes",
        -8.769239990482282
      ],
      [
        "Ġtimes",
        -8.772626593218519
      ],
      [
        "Ġpast",
        -8.773737935569597
      ],
      [
        "out",
        -8.773824393097685
      ],
      [
        "Ġfar",
        -8.774353908842421
      ],
      [
        "Ġcell",
        -8.774445620021197
      ],
      [
        "her",
        -8.774629260793668
      ],
      [
        "Ġstep",
        -8.775546011525233
      ],
      [
        "For",
        -8.775566216324918
      ],
      [
        "Ġthing",
        -8.775947190348644
      ],
      [
        "Ġtop",
        -8.77596107264138
      ],
      [
        "Ġground",
        -8.777593385526766
      ],
      [
        "ail",
        -8.777697936073416
      ],
      [
        "ĠWith",
        -8.777818153046777
      ],
      [
        "Ġlive",
        -8.780730579602295
      ],
      [
        "Ġclean",
        -8.783331888819925
      ],
      [
        "Ġfuture",
        -8.783436213358248
      ],
      [
        "Ġdamage",
        -8.783787072433027
      ],
      [
        "Ġdays",
        -8.785759326287605
      ],
      [
        "Ġunique",
        -8.786404428522413
      ],
      [
        "ight",
        -8.786431083013726
      ],
      [
        "ha",
        -8.787117360936984
      ],
      [
        "ster",
        -8.788056916988056
      ],
      [
        "Ġfield",
        -8.788421089557518
      ],
      [
        "Ġimprove",
        -8.79019888760885
      ],
      [
        "Ġavoid",
        -8.790732734346587
      ],
      [
        "Ġsimilar",
        -8.791474698440739
      ],
      [
        "ĠDo",
        -8.792353929942896
      ],
      [
        "Ġdi",
        -8.79591680254168
      ],
      [
        "Ġwhite",
        -8.800178520324383
      ],
      [
        "ack",
        -8.801188937550682
      ],
      [
        "Ġproduction",
        -8.801342189050631
      ],
      [
        "cal",
        -8.801579012301174
      ],
      [
        "Ġalong",
        -8.801633021441006
      ],
      [
        "Ġissues",
        -8.802555363116346
      ],
      [
        "Ġespecially",
        -8.803346350298346
      ],
      [
        "ĠDr",
        -8.804625739932966
      ],
      [
        "Ġskin",
        -8.804645625658212
      ],
      [
        "Ġspeed",
        -8.805869303743085
      ],
      [
        "Ġchanges",
        -8.806961007993047
      ],
      [
        "Ġfour",
        -8.809688848910776
      ],
      [
        "ile",
        -8.810759620435197
      ],
      [
        "Ġabove",
        -8.812185252764145
      ],
      [
        "Ġold",
        -8.812440505223094
      ],
      [
        "Ġcertain",
        -8.812645222791787
      ],
      [
        "ĠMe",
        -8.813635609818718
      ],
      [
        "ang",
        -8.81391774288559
      ],
      [
        "Ġacross",
        -8.814472901694524
      ],
      [
        "Ġbook",
        -8.814561465278393
      ],
      [
        "ĠCon",
        -8.817789924463895
      ],
      [
        "Ġaccess",
        -8.818243085335396
      ],
      [
        "Ġheart",
        -8.819704260725024
      ],
      [
        "âĢĵ",
        -8.82108138813397
      ],
      [
        "Ġbuilding",
        -8.823494400911965
      ],
      [
        "Ġclimate",
        -8.823686510503864
      ],
      [
        "Ġlove",
        -8.824602129933492
      ],
      [
        "Ġnever",
        -8.82515711087638
      ],
      [
        "Ġgas",
        -8.825298242869442
      ],
      [
        "Ġsource",
        -8.8262664213256
      ],
      [
        "fer",
        -8.826277634234353
      ],
      [
        "ĠSome",
        -8.826984342804074
      ],
      [
        "Ġproduce",
        -8.828900050826489
      ],
      [
        "Ġagainst",
        -8.829245140322604
      ],
      [
        "we",
        -8.831802985278156
      ],
      [
        "Ġaccording",
        -8.835948985386038
      ],
      [
        "ture",
        -8.83598656909454
      ],
      [
        "Ġgarden",
        -8.837286441857373
      ],
      [
        "Ġgiven",
        -8.838455199211808
      ],
      [
        "ĠAt",
        -8.8389309689173
      ],
      [
        "Ġsafe",
        -8.841307255351966
      ],
      [
        "X",
        -8.843496814515406
      ],
      [
        "Ġdiet",
        -8.844299728831759
      ],
      [
        "ology",
        -8.84445612069573
      ],
      [
        "Ġsingle",
        -8.845559794549338
      ],
      [
        "Ġcall",
        -8.845584142237794
      ],
      [
        "Ġarticle",
        -8.845596162148171
      ],
      [
        "Ġauthor",
        -8.84610134373604
      ],
      [
        "Ġdone",
        -8.846626573670187
      ],
      [
        "Ġdry",
        -8.848588638080418
      ],
      [
        "Q",
        -8.849222218947299
      ],
      [
        "Ġgame",
        -8.850666558558132
      ],
      [
        "Ġdogs",
        -8.856886314337215
      ],
      [
        "ities",
        -8.857374091642907
      ],
      [
        "Ġbehavior",
        -8.858553627108783
      ],
      [
        "ical",
        -8.859459652300497
      ],
      [
        "Ġcut",
        -8.863651743104393
      ],
      [
        "Ġreason",
        -8.864198271392755
      ],
      [
        ")ĊĊ",
        -8.864619466177166
      ],
      [
        "ĠPo",
        -8.86969877882801
      ],
      [
        "Ġturn",
        -8.870390024051119
      ],
      [
        "Ġleft",
        -8.874405582954669
      ],
      [
        "ĠIs",
        -8.87890137609447
      ],
      [
        "Ġcontent",
        -8.880648715386654
      ],
      [
        "ĠAmerican",
        -8.881236424814462
      ],
      [
        "Ġscience",
        -8.88263704147049
      ],
      [
        "Ġindividual",
        -8.885203027619543
      ],
      [
        "Ġtry",
        -8.887109466474527
      ],
      [
        "Ġarea",
        -8.888821116564364
      ],
      [
        "Ġunderstanding",
        -8.89023138387343
      ],
      [
        "ĠYour",
        -8.893988845507778
      ],
      [
        "Ġsignificant",
        -8.894300231033373
      ],
      [
        "Ġman",
        -8.895128973214524
      ],
      [
        "Ġeffects",
        -8.895388724066684
      ],
      [
        "Ġlooking",
        -8.89568422363198
      ],
      [
        "king",
        -8.896152507092815
      ],
      [
        "So",
        -8.896417329869672
      ],
      [
        "Ġbenefits",
        -8.896583896462744
      ],
      [
        "tion",
        -8.897632656395132
      ],
      [
        "Ġpo",
        -8.897725309538087
      ],
      [
        "for",
        -8.898160916685052
      ],
      [
        "!ĊĊ",
        -8.898924964282994
      ],
      [
        "cur",
        -8.89904552511216
      ],
      [
        "Ġbrain",
        -8.899280818698246
      ],
      [
        "Ġanimal",
        -8.904356478217128
      ],
      [
        "Ġfocus",
        -8.904381495825461
      ],
      [
        "Ġtraining",
        -8.904605878639119
      ],
      [
        "Ġimage",
        -8.905220281953875
      ],
      [
        "ping",
        -8.907960617359153
      ],
      [
        "ier",
        -8.909208052221512
      ],
      [
        "Ġred",
        -8.909844504715636
      ],
      [
        "row",
        -8.911520296009526
      ],
      [
        "Ġmillion",
        -8.91178519355462
      ],
      [
        "Ġspecial",
        -8.912081795581221
      ],
      [
        "Ġfactors",
        -8.912454086041018
      ],
      [
        "Ġbreak",
        -8.912682024918707
      ],
      [
        "Ġeither",
        -8.913924595589119
      ],
      [
        "Ġcomputer",
        -8.915336561880801
      ],
      [
        "Ġsays",
        -8.915910588449018
      ],
      [
        "Ġmetal",
        -8.916682476152818
      ],
      [
        "Ġdesigned",
        -8.917689380228268
      ],
      [
        "ĠAl",
        -8.918119321657189
      ],
      [
        "Ġsea",
        -8.920272684418622
      ],
      [
        "ĠSe",
        -8.926338186219414
      ],
      [
        "Ġallow",
        -8.926847463952392
      ],
      [
        "Ġeffect",
        -8.92718397601003
      ],
      [
        ">",
        -8.927583972362216
      ],
      [
        "Ġonce",
        -8.927977234930927
      ],
      [
        "Ġthought",
        -8.928367286407317
      ],
      [
        "Ġaddition",
        -8.92890254730398
      ],
      [
        "ability",
        -8.92904911164799
      ],
      [
        "Ġfurther",
        -8.929465291995488
      ],
      [
        "Ġdifference",
        -8.93115235473562
      ],
      [
        "Ġgreen",
        -8.931286004809113
      ],
      [
        "Ġstress",
        -8.931572069120792
      ],
      [
        "Ġquestion",
        -8.931963052549275
      ],
      [
        "ĠPa",
        -8.933208466197977
      ],
      [
        "Ġread",
        -8.933386812063896
      ],
      [
        "tal",
        -8.934094285316903
      ],
      [
        "Ġface",
        -8.93432271597034
      ],
      [
        "cu",
        -8.934926755166433
      ],
      [
        "ell",
        -8.935026092095756
      ],
      [
        "Ġmarket",
        -8.935718093710081
      ],
      [
        "Ġtoday",
        -8.93610965683762
      ],
      [
        "Ġmind",
        -8.936940148039534
      ],
      [
        "Ġperformance",
        -8.937352194264562
      ],
      [
        "Ġoffer",
        -8.938587109225333
      ],
      [
        "\\",
        -8.938961945218024
      ],
      [
        "ĠLe",
        -8.941430731666497
      ],
      [
        "Ġwhether",
        -8.94299719444048
      ],
      [
        "Ġstructure",
        -8.944664104920216
      ],
      [
        "Ġeffective",
        -8.945680252601058
      ],
      [
        "Ġfun",
        -8.945913051068711
      ],
      [
        "Ġgetting",
        -8.948073511155945
      ],
      [
        "Ġengine",
        -8.94915383771913
      ],
      [
        "Ġart",
        -8.949641251920498
      ],
      [
        "Ġproduct",
        -8.949870854979432
      ],
      [
        "Ġmatter",
        -8.951439630122982
      ],
      [
        "Ġcarbon",
        -8.952522488712452
      ],
      [
        "Ġposition",
        -8.953965138113096
      ],
      [
        "Ġfall",
        -8.95466743229492
      ],
      [
        "Ġflow",
        -8.955155220487637
      ],
      [
        "ĠTr",
        -8.95623676223531
      ],
      [
        "Ġhim",
        -8.956316008367983
      ],
      [
        "Ġland",
        -8.956357699082501
      ],
      [
        "Ġkind",
        -8.957562147575715
      ],
      [
        "Ġenvironmental",
        -8.957566989973111
      ],
      [
        "Ġtree",
        -8.95967947755087
      ],
      [
        "Ġpain",
        -8.96038923828479
      ],
      [
        "Ġblack",
        -8.96042390129457
      ],
      [
        "Ġnecessary",
        -8.960626331183224
      ],
      [
        "Ġhouse",
        -8.960730920106219
      ],
      [
        "Ġmean",
        -8.960981646604692
      ],
      [
        "ear",
        -8.964557760636552
      ],
      [
        "ĠSa",
        -8.965108566473877
      ],
      [
        "Ġvariety",
        -8.96548539599566
      ],
      [
        "Ġbelow",
        -8.966006874024092
      ],
      [
        "Ġskills",
        -8.967404389255469
      ],
      [
        "Ġview",
        -8.968627454974198
      ],
      [
        "red",
        -8.96957652006821
      ],
      [
        "Ġapproach",
        -8.969819369776907
      ],
      [
        "Ġloss",
        -8.970971297607456
      ],
      [
        "Ġclear",
        -8.971751222045025
      ],
      [
        "ĠDi",
        -8.97213139024239
      ],
      [
        "let",
        -8.973105150566601
      ],
      [
        "ĠBo",
        -8.973851257144464
      ],
      [
        "Ġallows",
        -8.97420751836709
      ],
      [
        "ric",
        -8.97561046036913
      ],
      [
        "Ġparts",
        -8.97787369204888
      ],
      [
        "Ġfat",
        -8.979436226325769
      ],
      [
        "Ġcondition",
        -8.980474639255219
      ],
      [
        "Ġbig",
        -8.982334085419472
      ],
      [
        "Ġsound",
        -8.985209114316339
      ],
      [
        "use",
        -8.985442714559305
      ],
      [
        "Ġways",
        -8.986440583121365
      ],
      [
        "ler",
        -8.986608304868525
      ],
      [
        "Ġknowledge",
        -8.987611697496451
      ],
      [
        "Ġpublic",
        -8.988096025561552
      ],
      [
        "Ġrequire",
        -8.989810980848773
      ],
      [
        "Ġalready",
        -8.990141513529885
      ],
      [
        "ĠRo",
        -8.992315082303225
      ],
      [
        "ĠAr",
        -8.995879502518425
      ],
      [
        "Ġamong",
        -8.996403706761763
      ],
      [
        "Ġcommunity",
        -8.996552146948085
      ],
      [
        "Ġanswer",
        -8.997154053043333
      ],
      [
        "mat",
        -8.998639247870777
      ],
      [
        "âĢ¦",
        -8.998838264537476
      ],
      [
        "Ġpet",
        -8.999785556209435
      ],
      [
        "Ġweek",
        -8.99978697277843
      ],
      [
        "Ġhours",
        -9.000589917439275
      ],
      [
        "Ġclose",
        -9.001239900054511
      ],
      [
        "Ġsafety",
        -9.001470506655904
      ],
      [
        "Ġhistory",
        -9.002963719579414
      ],
      [
        "ign",
        -9.004692034999024
      ],
      [
        "ĠAI",
        -9.005478949268023
      ],
      [
        "Ġroom",
        -9.005589823495038
      ],
      [
        "Ġperiod",
        -9.006502641347742
      ],
      [
        "Ġrate",
        -9.009860405278712
      ],
      [
        "ze",
        -9.010471910546638
      ],
      [
        "Ġbuild",
        -9.010981650780169
      ],
      [
        "pos",
        -9.011162106717444
      ],
      [
        "Ġability",
        -9.012505827756808
      ],
      [
        "Ġneeded",
        -9.013769281851628
      ],
      [
        "Ġthough",
        -9.01566419720038
      ],
      [
        "Ġindustry",
        -9.015761885354438
      ],
      [
        "Ġclass",
        -9.01587361180674
      ],
      [
        "Ġplan",
        -9.016968353078912
      ],
      [
        "ward",
        -9.01717716042187
      ],
      [
        "Ġwhole",
        -9.01832299438485
      ],
      [
        "lan",
        -9.018393052818627
      ],
      [
        "ger",
        -9.018880751076694
      ],
      [
        "Ġcancer",
        -9.01946385567656
      ],
      [
        "Ġuser",
        -9.0202735955937
      ],
      [
        "Ġfeatures",
        -9.02131603029658
      ],
      [
        "Ġothers",
        -9.023137123122174
      ],
      [
        "ach",
        -9.024666588584289
      ],
      [
        "Ġidea",
        -9.02575549434415
      ],
      [
        "Ġfollow",
        -9.027986018791523
      ],
      [
        "Ġcontinue",
        -9.029643703677486
      ],
      [
        "Ġpopular",
        -9.030709788322197
      ],
      [
        "Ġwide",
        -9.030725219929668
      ],
      [
        "Ġinside",
        -9.030908718375764
      ],
      [
        "ĠOne",
        -9.031201051396016
      ],
      [
        "Ġprovides",
        -9.031978634470258
      ],
      [
        "Ġstay",
        -9.032037917885214
      ],
      [
        "!Ċ",
        -9.033263111389694
      ],
      [
        "qui",
        -9.034464944569008
      ],
      [
        "Ġsymptoms",
        -9.03479268332305
      ],
      [
        "chi",
        -9.035097299606056
      ],
      [
        "ries",
        -9.035707927991174
      ],
      [
        "Ġmajor",
        -9.035934841676054
      ],
      [
        "Ġrequired",
        -9.038055145434353
      ],
      [
        "Ġaddress",
        -9.038894248383368
      ],
      [
        "lar",
        -9.039337544878713
      ],
      [
        "ĠCan",
        -9.039655152939051
      ],
      [
        "Ġactivities",
        -9.039937503970126
      ],
      [
        "amp",
        -9.040339598855146
      ],
      [
        "Ġonline",
        -9.04169093429194
      ],
      [
        "act",
        -9.042017543887264
      ],
      [
        "Ġseen",
        -9.04336960075501
      ],
      [
        "Ġmaintain",
        -9.04477036884231
      ],
      [
        "Ġdoing",
        -9.04743493869468
      ],
      [
        "Ġlonger",
        -9.04878912510254
      ],
      [
        "Ġleaves",
        -9.050508376961815
      ],
      [
        "ven",
        -9.051101612428054
      ],
      [
        "ash",
        -9.054462557228204
      ],
      [
        "Ġagain",
        -9.055559045368833
      ],
      [
        "Ġbusiness",
        -9.05625474520701
      ],
      [
        "ĠUn",
        -9.056616735153968
      ],
      [
        "Ġgeneral",
        -9.056950420396037
      ],
      [
        "Ġpositive",
        -9.057708247797144
      ],
      [
        "way",
        -9.058065216622998
      ],
      [
        "Ġstrong",
        -9.060872261259812
      ],
      [
        "Ġwaste",
        -9.061085911813064
      ],
      [
        "Ġsense",
        -9.061952234501604
      ],
      [
        "Ġcold",
        -9.062198398214804
      ],
      [
        "Ġcomplex",
        -9.062814631323851
      ],
      [
        "Ġlist",
        -9.065416137528608
      ],
      [
        "Ġvideo",
        -9.065528654244718
      ],
      [
        "Ġactivity",
        -9.066509447674528
      ],
      [
        "nd",
        -9.066783077796437
      ],
      [
        "Ġresearchers",
        -9.067770012014028
      ],
      [
        "Ġcontact",
        -9.06874388102766
      ],
      [
        "ĠSp",
        -9.069260516111058
      ],
      [
        "Ġpa",
        -9.069333031839797
      ],
      [
        "Ġbase",
        -9.069513204340048
      ],
      [
        "ĠAll",
        -9.070032015404486
      ],
      [
        "Ġissue",
        -9.070500795477882
      ],
      [
        "Ġcompany",
        -9.070542043583066
      ],
      [
        "all",
        -9.070642058408197
      ],
      [
        "ĠTe",
        -9.07113732472772
      ],
      [
        "ĠLa",
        -9.073659467637777
      ],
      [
        "ĠMo",
        -9.073692504669054
      ],
      [
        "ade",
        -9.074029021606911
      ],
      [
        "Ġtell",
        -9.074107144772858
      ],
      [
        "Ġfuel",
        -9.074180072599132
      ],
      [
        "Ġhelps",
        -9.075205273577163
      ],
      [
        "ng",
        -9.07612192490403
      ],
      [
        "Ġliving",
        -9.07799568241191
      ],
      [
        "Ġtools",
        -9.078583779958628
      ],
      [
        "pro",
        -9.079080850426005
      ],
      [
        "Ġself",
        -9.079563456396397
      ],
      [
        "Ġbring",
        -9.081249574470023
      ],
      [
        "Ġever",
        -9.082527797682578
      ],
      [
        "Ġnature",
        -9.084606255131252
      ],
      [
        "Ġetc",
        -9.084786264411516
      ],
      [
        "Ġsomeone",
        -9.085023561322268
      ],
      [
        "Ġhot",
        -9.086080963060272
      ],
      [
        "Ġtaking",
        -9.08615950170401
      ],
      [
        "Ġquestions",
        -9.087208549604965
      ],
      [
        "Ġprotect",
        -9.087549320823715
      ],
      [
        "Ġresponse",
        -9.090152905946526
      ],
      [
        "Ġseason",
        -9.091717202732871
      ],
      [
        "Ġtypically",
        -9.091851345268816
      ],
      [
        "Ġcover",
        -9.091953146795737
      ],
      [
        "ations",
        -9.092245758608046
      ],
      [
        "Ġpractice",
        -9.093074747414024
      ],
      [
        "Ġtravel",
        -9.093852109541553
      ],
      [
        "Ġeasily",
        -9.095852324454489
      ],
      [
        "ĠEx",
        -9.096378436891392
      ],
      [
        "Ġnear",
        -9.097475324947007
      ],
      [
        "che",
        -9.097767214230204
      ],
      [
        "Ġaffect",
        -9.099356559266454
      ],
      [
        "qu",
        -9.099426801581233
      ],
      [
        "Ġbasic",
        -9.099591521410549
      ],
      [
        "Ġdevice",
        -9.099796158982246
      ],
      [
        "air",
        -9.102586963186166
      ],
      [
        "An",
        -9.1029390557219
      ],
      [
        "Ġsolution",
        -9.102944381750174
      ],
      [
        "cor",
        -9.103474352586524
      ],
      [
        "Ġshare",
        -9.10638565106484
      ],
      [
        "Ġpersonal",
        -9.1066742312844
      ],
      [
        "Ġprofessional",
        -9.107059964235452
      ],
      [
        "Ġdetermine",
        -9.109839338464877
      ],
      [
        "ship",
        -9.110534209405053
      ],
      [
        "#",
        -9.110741625991848
      ],
      [
        "Ġservice",
        -9.111021837845884
      ],
      [
        "Ġassociated",
        -9.111823072161346
      ],
      [
        "old",
        -9.11264339855867
      ],
      [
        "Ġact",
        -9.112794057165544
      ],
      [
        ".\"ĊĊ",
        -9.114331348397616
      ],
      [
        "Ġyoung",
        -9.114449425169534
      ],
      [
        "Ġblock",
        -9.114466720891471
      ],
      [
        "Ġmethods",
        -9.11463557063926
      ],
      [
        "Ġjob",
        -9.114681065488094
      ],
      [
        "ĠOr",
        -9.114774308178712
      ],
      [
        "Ġaverage",
        -9.115032816036646
      ],
      [
        "Ġca",
        -9.115449685584204
      ],
      [
        "Ġwood",
        -9.11641040131681
      ],
      [
        "Ġmonths",
        -9.116435447556444
      ],
      [
        "Ġcode",
        -9.117269902893216
      ],
      [
        "Ġmoney",
        -9.119871894410952
      ],
      [
        "Ġmedical",
        -9.119961077777736
      ],
      [
        "Ġgrowing",
        -9.12097935395184
      ],
      [
        "Ġmanagement",
        -9.12113927618976
      ],
      [
        "Ġpopulation",
        -9.12175164741981
      ],
      [
        "Ġfire",
        -9.12516529391941
      ],
      [
        "Ġgenetic",
        -9.125943890022764
      ],
      [
        "Ġminutes",
        -9.127878864203293
      ],
      [
        "Ġconsidered",
        -9.129363096434078
      ],
      [
        "Ġoverall",
        -9.129522562912989
      ],
      [
        "Ġenjoy",
        -9.12970824142491
      ],
      [
        "ĠPro",
        -9.12995358766118
      ],
      [
        "Ġlanguage",
        -9.130211546609717
      ],
      [
        "Ġstore",
        -9.130296669253326
      ],
      [
        "Ġcrucial",
        -9.130941517684931
      ],
      [
        "Ġchoose",
        -9.13195529391375
      ],
      [
        "Ġindividuals",
        -9.13215716760164
      ],
      [
        "Ġshape",
        -9.133316132361813
      ],
      [
        "Ġtrees",
        -9.13344827818321
      ],
      [
        "Ġrather",
        -9.133535036979753
      ],
      [
        "Ġdifficult",
        -9.134679955009997
      ],
      [
        "Ġlayer",
        -9.135353227347858
      ],
      [
        "nic",
        -9.135755859109723
      ],
      [
        "Ġtool",
        -9.137835445490053
      ],
      [
        "Ġbelieve",
        -9.138914104510429
      ],
      [
        "Ġexercise",
        -9.141009244057646
      ],
      [
        "Ġbio",
        -9.14161551656678
      ],
      [
        "|",
        -9.141986739119565
      ],
      [
        "Ġglobal",
        -9.144093589250788
      ],
      [
        "Ġprotein",
        -9.144704010182105
      ],
      [
        "Ġma",
        -9.144763964214018
      ],
      [
        "Ġtechniques",
        -9.144920219803389
      ],
      [
        "side",
        -9.145858881179198
      ],
      [
        "Ġresources",
        -9.14745255423488
      ],
      [
        "Ġanti",
        -9.147516405279935
      ],
      [
        "Ġcreating",
        -9.148464543491311
      ],
      [
        "ĠOn",
        -9.151305830476062
      ],
      [
        "Ġprimary",
        -9.151819227982132
      ],
      [
        "Ġexplore",
        -9.152473208036623
      ],
      [
        "tory",
        -9.154942014518411
      ],
      [
        "Ġhumans",
        -9.155371730890222
      ],
      [
        "âĢ¢",
        -9.155439592225028
      ],
      [
        "Ġhowever",
        -9.158850173738236
      ],
      [
        "-based",
        -9.16022097739067
      ],
      [
        "Ġwomen",
        -9.16035379003424
      ],
      [
        "ĠShe",
        -9.160565806826575
      ],
      [
        "Ġtraditional",
        -9.162741443577776
      ],
      [
        "Ġcases",
        -9.163511010073078
      ],
      [
        "Ġquickly",
        -9.164377619871637
      ],
      [
        "Ġsun",
        -9.164720691467831
      ],
      [
        "Ġrest",
        -9.164786948367013
      ],
      [
        "Ġterm",
        -9.165049601682773
      ],
      [
        "over",
        -9.165109116460163
      ],
      [
        "{",
        -9.165357158787806
      ],
      [
        "Ġthroughout",
        -9.16562941736844
      ],
      [
        "Ġpatients",
        -9.165692313645556
      ],
      [
        "Ġyourself",
        -9.167398928609677
      ],
      [
        "Ġdeep",
        -9.167603668580265
      ],
      [
        "que",
        -9.167803865734548
      ],
      [
        "Ġmachine",
        -9.16917818429552
      ],
      [
        "Ġmultiple",
        -9.169436288275
      ],
      [
        "Ġnetwork",
        -9.169470190382068
      ],
      [
        "Ġremove",
        -9.170175743486697
      ],
      [
        "pp",
        -9.173140203710483
      ],
      [
        "Ġstop",
        -9.173364991619264
      ],
      [
        "Ġoutside",
        -9.174594262570418
      ],
      [
        "ĠTa",
        -9.175280854128635
      ],
      [
        "Ġsleep",
        -9.175611559668468
      ],
      [
        "ible",
        -9.176514997388344
      ],
      [
        "art",
        -9.17763544657724
      ],
      [
        "dic",
        -9.178276641946075
      ],
      [
        "ĠZ",
        -9.178346923225758
      ],
      [
        "ration",
        -9.180968166081726
      ],
      [
        "Ġsubject",
        -9.181155065047532
      ],
      [
        "Ġwinter",
        -9.183391011701367
      ],
      [
        "Ġinter",
        -9.183976954365772
      ],
      [
        "mal",
        -9.18552621609622
      ],
      [
        "ĠLi",
        -9.186174459886672
      ],
      [
        "Ġtable",
        -9.186920990323882
      ],
      [
        "set",
        -9.18776262689888
      ],
      [
        "light",
        -9.18800207446799
      ],
      [
        "of",
        -9.190288995429311
      ],
      [
        "Ġnormal",
        -9.19076244701638
      ],
      [
        "Ġmis",
        -9.192255460081856
      ],
      [
        "Ġsimply",
        -9.193287453167851
      ],
      [
        "Ġhold",
        -9.19379745841123
      ],
      [
        "Ġhalf",
        -9.194052569661707
      ],
      [
        "Ġprobably",
        -9.194877387725857
      ],
      [
        "ĠWhile",
        -9.19547394548692
      ],
      [
        "Ġcamera",
        -9.197670922734892
      ],
      [
        "Ġincreased",
        -9.198695722211786
      ],
      [
        "gen",
        -9.199027280224636
      ],
      [
        "Ġrelated",
        -9.20161920085636
      ],
      [
        "ĠGa",
        -9.20177163788322
      ],
      [
        "Ġdeveloped",
        -9.202113924060267
      ],
      [
        "Ġstyle",
        -9.202861057739849
      ],
      [
        "Ġsuper",
        -9.20314150341232
      ],
      [
        ".\"Ċ",
        -9.203152123803378
      ],
      [
        "Ġbad",
        -9.204138365714694
      ],
      [
        "Ġchemical",
        -9.206553116423908
      ],
      [
        "--",
        -9.207744872731428
      ],
      [
        "Ġcannot",
        -9.20843809083111
      ],
      [
        "Ġstudies",
        -9.21132929548174
      ],
      [
        "led",
        -9.21133134127088
      ],
      [
        "Ġfeet",
        -9.21165760468448
      ],
      [
        "lin",
        -9.214861903802744
      ],
      [
        "Ġguide",
        -9.214928142046745
      ],
      [
        "Ġnight",
        -9.216391920026515
      ],
      [
        "ĠOf",
        -9.2166423049281
      ],
      [
        "ble",
        -9.216871164659556
      ],
      [
        "Ġapp",
        -9.217159644200558
      ],
      [
        "Ġbirds",
        -9.218419889329494
      ],
      [
        "ious",
        -9.218805884749834
      ],
      [
        "Ġcreated",
        -9.219341255829947
      ],
      [
        "Ġmodern",
        -9.21936859685364
      ],
      [
        "Ġparticular",
        -9.220282757010995
      ],
      [
        "mark",
        -9.2206538283136
      ],
      [
        "ace",
        -9.22100127794732
      ],
      [
        "Ġeducation",
        -9.221863062991076
      ],
      [
        "Ġlength",
        -9.22240642470378
      ],
      [
        "Ġalmost",
        -9.222548550798573
      ],
      [
        "Ġoptions",
        -9.224436349087396
      ],
      [
        "Ġfast",
        -9.225973249305436
      ],
      [
        "ound",
        -9.228400420872696
      ],
      [
        "Ġmicro",
        -9.228797852113368
      ],
      [
        "ĠUnited",
        -9.230302034781523
      ],
      [
        "}",
        -9.231026687262544
      ],
      [
        "Ġsignal",
        -9.23189541364414
      ],
      [
        "ĠSu",
        -9.23205545530554
      ],
      [
        "Ġlater",
        -9.232526312487751
      ],
      [
        "Ġplastic",
        -9.232825611745715
      ],
      [
        "ck",
        -9.234402507277732
      ],
      [
        "ments",
        -9.235401638018685
      ],
      [
        "Ġinstead",
        -9.236776764532346
      ],
      [
        "Ġchoice",
        -9.237161394089751
      ],
      [
        "Ġreport",
        -9.23723840648111
      ],
      [
        "One",
        -9.238733790168622
      ],
      [
        "Ġattention",
        -9.23879658864243
      ],
      [
        "Ġgot",
        -9.2397734605154
      ],
      [
        "ĠMar",
        -9.241347256589345
      ],
      [
        "Ġfive",
        -9.241794704801825
      ],
      [
        "ĠUS",
        -9.242914870749726
      ],
      [
        ").Ċ",
        -9.243494455529188
      ],
      [
        "Ġmass",
        -9.243625884201508
      ],
      [
        "cent",
        -9.244906679971235
      ],
      [
        "Ġsugar",
        -9.245562906780338
      ],
      [
        "RE",
        -9.245812314589662
      ],
      [
        "Ġwon",
        -9.246179512582753
      ],
      [
        "Ġwebsite",
        -9.246936807663738
      ],
      [
        "Ġmeat",
        -9.24750621150949
      ],
      [
        "Ġwind",
        -9.248854397975444
      ],
      [
        "Ġcountry",
        -9.24921383735522
      ],
      [
        "Ġaccount",
        -9.250603916394669
      ],
      [
        "cer",
        -9.250853885066514
      ],
      [
        "Ġlarger",
        -9.250909061768036
      ],
      [
        "Ġtotal",
        -9.25172452970694
      ],
      [
        "cul",
        -9.25208856351616
      ],
      [
        "Ġelements",
        -9.252209251183848
      ],
      [
        "val",
        -9.253895274112228
      ],
      [
        "Ġsite",
        -9.255447923290363
      ],
      [
        "ĠX",
        -9.256010677736644
      ],
      [
        "ray",
        -9.25696936465504
      ],
      [
        "Ġweather",
        -9.258190533254943
      ],
      [
        "Ġtrack",
        -9.259299966751566
      ],
      [
        "Ġreading",
        -9.259461434121077
      ],
      [
        "Ġperfect",
        -9.259816232993918
      ],
      [
        "Ġeyes",
        -9.26018010810472
      ],
      [
        "Ġenhance",
        -9.260185727227077
      ],
      [
        "Ġscientists",
        -9.26108695667949
      ],
      [
        "ĠNational",
        -9.261816523275767
      ],
      [
        "Ġservices",
        -9.261994187890362
      ],
      [
        "ĠScience",
        -9.262353930917245
      ],
      [
        "qua",
        -9.262748231580067
      ],
      [
        "Ġstandard",
        -9.263049355671235
      ],
      [
        "tur",
        -9.26447554280772
      ],
      [
        "Ġcompared",
        -9.264565876100296
      ],
      [
        "Ġcenter",
        -9.264713988457276
      ],
      [
        "Ġbar",
        -9.265305069638169
      ],
      [
        "Ġpath",
        -9.265758882511369
      ],
      [
        "Ġoption",
        -9.266936723915812
      ],
      [
        "Ġspread",
        -9.267046380756494
      ],
      [
        "Ġvisual",
        -9.268119560729438
      ],
      [
        "ĠBr",
        -9.268308794505792
      ],
      [
        "Ġpercent",
        -9.268590593841184
      ],
      [
        "Ġsometimes",
        -9.269558618686697
      ],
      [
        "time",
        -9.269630030029491
      ],
      [
        "Z",
        -9.269798169382788
      ],
      [
        "Ġincludes",
        -9.272433341105508
      ],
      [
        "Ġcomplete",
        -9.273153850291685
      ],
      [
        "Ġproviding",
        -9.274730903443198
      ],
      [
        "Ġregular",
        -9.27505246059456
      ],
      [
        "izing",
        -9.275489333864286
      ],
      [
        "Ġshown",
        -9.275561833203628
      ],
      [
        "Ġyet",
        -9.276137226263677
      ],
      [
        "Ġanything",
        -9.276589467562498
      ],
      [
        "Ġeverything",
        -9.277405983792349
      ],
      [
        "tract",
        -9.277530913327132
      ],
      [
        "form",
        -9.277890015716986
      ],
      [
        "Ġtrue",
        -9.278320314751376
      ],
      [
        "my",
        -9.279357277228646
      ],
      [
        "Ġblue",
        -9.28009756326946
      ],
      [
        "Ġha",
        -9.280199931011152
      ],
      [
        "Ġbattery",
        -9.282214002001188
      ],
      [
        "Ġstory",
        -9.284375093121817
      ],
      [
        "Ġstand",
        -9.28535626597001
      ],
      [
        "Ġcl",
        -9.286086690688204
      ],
      [
        "Ġstar",
        -9.286820445341936
      ],
      [
        "ick",
        -9.287217439365138
      ],
      [
        "ever",
        -9.28771934705868
      ],
      [
        "ped",
        -9.288844186246832
      ],
      [
        "Ġapplications",
        -9.290526604540023
      ],
      [
        "Ġsummer",
        -9.291281385479223
      ],
      [
        "Ġtarget",
        -9.291514348781943
      ],
      [
        "Ġcorrect",
        -9.29154684373844
      ],
      [
        "Ġquite",
        -9.293456491162928
      ],
      [
        "Ġacid",
        -9.29373458528628
      ],
      [
        "ction",
        -9.294362031545605
      ],
      [
        "Ġpurpose",
        -9.294532529998532
      ],
      [
        "Ġtend",
        -9.294730546376224
      ],
      [
        "Ġforce",
        -9.294883619501272
      ],
      [
        "ook",
        -9.29541248076912
      ],
      [
        "nce",
        -9.295937515913636
      ],
      [
        "Ġgenerally",
        -9.295978434432785
      ],
      [
        "ants",
        -9.296908060131706
      ],
      [
        "Ġadditional",
        -9.297181626055972
      ],
      [
        "Ġwarm",
        -9.297209870763146
      ],
      [
        "Ġconnect",
        -9.297392448602906
      ],
      [
        "Ġbacteria",
        -9.29907979875602
      ],
      [
        "Ġworks",
        -9.30048865117161
      ],
      [
        "Ġequipment",
        -9.301655676142886
      ],
      [
        "Ġcaused",
        -9.30172708276287
      ],
      [
        "Ġsave",
        -9.303138382923184
      ],
      [
        "ĠEarth",
        -9.303140456645751
      ],
      [
        "Ġmulti",
        -9.303505298604032
      ],
      [
        "work",
        -9.30417443524936
      ],
      [
        "ĠTh",
        -9.304400116033152
      ],
      [
        "ĠUse",
        -9.304501835259074
      ],
      [
        "Ġanalysis",
        -9.304766573252165
      ],
      [
        "Ġsoftware",
        -9.305755599035844
      ],
      [
        "Ġmedia",
        -9.305782530879018
      ],
      [
        "ĠHere",
        -9.307079558497325
      ],
      [
        "ĠCar",
        -9.307601231898271
      ],
      [
        "Ġdigital",
        -9.308853321475224
      ],
      [
        "col",
        -9.309328122172143
      ],
      [
        "Ġdirection",
        -9.309686035033607
      ],
      [
        "ĠLo",
        -9.30985123493122
      ],
      [
        "Ġfront",
        -9.309965646697531
      ],
      [
        "Ġago",
        -9.311616462379762
      ],
      [
        "Ġvisit",
        -9.312167557771224
      ],
      [
        "by",
        -9.31251110191302
      ],
      [
        "Ġba",
        -9.312781801874396
      ],
      [
        "Ġsearch",
        -9.313239828819055
      ],
      [
        "Ġcomponents",
        -9.313336190289167
      ],
      [
        "Ġtaken",
        -9.313431765913014
      ],
      [
        "Ġscreen",
        -9.31357321136093
      ],
      [
        "Ġfit",
        -9.3165775811985
      ],
      [
        "Ġtreat",
        -9.316762381329465
      ],
      [
        "Ġinterest",
        -9.319498856998155
      ],
      [
        "Ġstarted",
        -9.320493937692216
      ],
      [
        "ification",
        -9.320841363205014
      ],
      [
        "Ġspot",
        -9.32106162098613
      ],
      [
        "serv",
        -9.321876027116272
      ],
      [
        "Ġshows",
        -9.322475648497743
      ],
      [
        "ĠNe",
        -9.324861609732096
      ],
      [
        "Ġcauses",
        -9.32636986380236
      ],
      [
        "Why",
        -9.32652154903296
      ],
      [
        "Ġreach",
        -9.327727911940697
      ],
      [
        "Ġwear",
        -9.329446743979792
      ],
      [
        "Ġdevices",
        -9.329802612976454
      ],
      [
        "Ġitself",
        -9.330300936050753
      ],
      [
        "Ġdrive",
        -9.330427791068653
      ],
      [
        "AR",
        -9.330977956006372
      ],
      [
        "ĠHa",
        -9.332962028158011
      ],
      [
        "Ġthemselves",
        -9.333516900048696
      ],
      [
        "Ġtrying",
        -9.334237228344143
      ],
      [
        "Ġunit",
        -9.335167692435792
      ],
      [
        "ore",
        -9.335721088177324
      ],
      [
        "Ġextra",
        -9.338822462781897
      ],
      [
        "Ġdisplay",
        -9.339261268274576
      ],
      [
        "Ġwar",
        -9.33987448792046
      ],
      [
        "mic",
        -9.340399865104851
      ],
      [
        "ĠSi",
        -9.340685413750084
      ],
      [
        "Ġfactor",
        -9.341270632908344
      ],
      [
        "Ġproperties",
        -9.341888687829256
      ],
      [
        "Ġdistance",
        -9.341987217192186
      ],
      [
        "Ġoffers",
        -9.342484407725845
      ],
      [
        "Ġregion",
        -9.342646041410548
      ],
      [
        "Ġenter",
        -9.34272459712832
      ],
      [
        "Ġphoto",
        -9.342930209725656
      ],
      [
        "ST",
        -9.34453972073943
      ],
      [
        "Ġmilk",
        -9.345221831019622
      ],
      [
        "âĢĿ",
        -9.345592635137896
      ],
      [
        "ĠDNA",
        -9.34585442086829
      ],
      [
        "Ġsection",
        -9.34705304221417
      ],
      [
        "Ġterms",
        -9.347879564685806
      ],
      [
        "rate",
        -9.348543548979444
      ],
      [
        "Ġkids",
        -9.35020264610314
      ],
      [
        "Ġaction",
        -9.350246727433907
      ],
      [
        "Ġprovided",
        -9.350879876811144
      ],
      [
        "Ġmentioned",
        -9.351022451513025
      ],
      [
        "Ġdaily",
        -9.35155902744145
      ],
      [
        "Ġreceive",
        -9.35319384307834
      ],
      [
        "ĠNorth",
        -9.357231788869358
      ],
      [
        "Ġproper",
        -9.358338419645028
      ],
      [
        "But",
        -9.358674594289116
      ],
      [
        "Ġdrop",
        -9.358956128612862
      ],
      [
        "Ġgovernment",
        -9.359174703278049
      ],
      [
        "wing",
        -9.36003918866526
      ],
      [
        "Ġobject",
        -9.362079074332629
      ],
      [
        "Ġcommunication",
        -9.362627607069236
      ],
      [
        "Ġstudent",
        -9.363578985955144
      ],
      [
        "Ġpay",
        -9.363733870171718
      ],
      [
        "pha",
        -9.363828166823524
      ],
      [
        "Ġtissue",
        -9.364150385317837
      ],
      [
        "Ġvehicle",
        -9.3643453595083
      ],
      [
        "Ġsmaller",
        -9.364824474519285
      ],
      [
        "Ġevidence",
        -9.364973242881524
      ],
      [
        "Ġwords",
        -9.366695168816916
      ],
      [
        "Ġbehind",
        -9.36752168682677
      ],
      [
        "Ġeating",
        -9.367616141218615
      ],
      [
        "ĠAfter",
        -9.367809606198454
      ],
      [
        "Ġtakes",
        -9.369143168297027
      ],
      [
        "hal",
        -9.369482375374956
      ],
      [
        "Ġparticularly",
        -9.369777469767536
      ],
      [
        "ĠHealth",
        -9.370532383079471
      ],
      [
        "Ġimp",
        -9.37079862333122
      ],
      [
        "Ġadded",
        -9.370996037279289
      ],
      [
        "Ġcycle",
        -9.37341004222644
      ],
      [
        "Ġcard",
        -9.373714155480563
      ],
      [
        "Ġnegative",
        -9.373970950129271
      ],
      [
        "Ġvi",
        -9.374213632016804
      ],
      [
        "Ġcharge",
        -9.37489888837452
      ],
      [
        "Ġapplication",
        -9.378882006456903
      ],
      [
        "tter",
        -9.379834963318036
      ],
      [
        "Step",
        -9.380126071239165
      ],
      [
        "Ġfeed",
        -9.380454793471216
      ],
      [
        "men",
        -9.38174175498413
      ],
      [
        "Ġseem",
        -9.38276723606966
      ],
      [
        "cho",
        -9.382998728292511
      ],
      [
        "gra",
        -9.383371877462547
      ],
      [
        "Ġtalk",
        -9.383592612212466
      ],
      [
        "Ġdirectly",
        -9.384914389897482
      ],
      [
        "Ġbuy",
        -9.384949328701229
      ],
      [
        "ole",
        -9.385985313151137
      ],
      [
        "Ġfresh",
        -9.387214448998977
      ],
      [
        ").ĊĊ",
        -9.387324961082816
      ],
      [
        "ĠStates",
        -9.388590301920972
      ],
      [
        "-in",
        -9.389927469428676
      ],
      [
        "lie",
        -9.390856196421351
      ],
      [
        "**",
        -9.391335133492914
      ],
      [
        "Ġmusic",
        -9.392904508718315
      ],
      [
        "AT",
        -9.392977322184931
      ],
      [
        "Ġlink",
        -9.392994548656988
      ],
      [
        "Ġreview",
        -9.39443886194217
      ],
      [
        "Ġelectric",
        -9.394484833182624
      ],
      [
        "Ġculture",
        -9.394630019639727
      ],
      [
        "Ġgroups",
        -9.394948500070631
      ],
      [
        "Ġreturn",
        -9.396485401546505
      ],
      [
        "den",
        -9.39684877420368
      ],
      [
        "pho",
        -9.397671529671864
      ],
      [
        "Ġfoods",
        -9.39982722691462
      ],
      [
        "cha",
        -9.40115823068888
      ],
      [
        "Ġinvolved",
        -9.402989033429716
      ],
      [
        "Ġcontain",
        -9.40455742370088
      ],
      [
        "port",
        -9.4046433435349
      ],
      [
        "Ġrequires",
        -9.405107231509522
      ],
      [
        "Ġhair",
        -9.405760310563544
      ],
      [
        "Ġleading",
        -9.4061773444158
      ],
      [
        "Ġentire",
        -9.406924546784808
      ],
      [
        "Ġoutput",
        -9.40732272996092
      ],
      [
        "Ġchance",
        -9.40748533066595
      ],
      [
        "Ġhighly",
        -9.40763733579417
      ],
      [
        "<",
        -9.40802674640401
      ],
      [
        "Ġtowards",
        -9.40814916944251
      ],
      [
        "Ġcool",
        -9.408833959830812
      ],
      [
        "Ġmeet",
        -9.409718985397452
      ],
      [
        "board",
        -9.410325264054556
      ],
      [
        "Ġcircuit",
        -9.4104613471733
      ],
      [
        "Ġfine",
        -9.410634367309042
      ],
      [
        "Ġparents",
        -9.411556616657188
      ],
      [
        "ĠMi",
        -9.411622337538418
      ],
      [
        "Ġsteps",
        -9.412213941257646
      ],
      [
        "Ġgene",
        -9.412977887676588
      ],
      [
        "Ġsuccess",
        -9.414148092659884
      ],
      [
        "Ġspring",
        -9.41464889189018
      ],
      [
        "Ġeveryone",
        -9.416488439039869
      ],
      [
        "Ġgoal",
        -9.41690090597934
      ],
      [
        "Ġidentify",
        -9.417158288425018
      ],
      [
        "Ġhope",
        -9.417442940787826
      ],
      [
        "Can",
        -9.41745772735274
      ],
      [
        "-to",
        -9.41893084291807
      ],
      [
        "Ġcritical",
        -9.41906621493868
      ],
      [
        "Ġteeth",
        -9.420316883853218
      ],
      [
        "Ġpoly",
        -9.421478329362689
      ],
      [
        "Ġproduced",
        -9.421654872261136
      ],
      [
        "ĠCom",
        -9.421960469822396
      ],
      [
        "ery",
        -9.422674675460508
      ],
      [
        "meter",
        -9.42309381014502
      ],
      [
        "Ġsupply",
        -9.423393589971596
      ],
      [
        "ĠSouth",
        -9.423532998181592
      ],
      [
        "Ġbenefit",
        -9.423686068131072
      ],
      [
        "Ġfemale",
        -9.423804148576634
      ],
      [
        "Ġdocument",
        -9.424140002714038
      ],
      [
        "Ġcontribute",
        -9.4246607501873
      ],
      [
        "ĠHo",
        -9.425539036067232
      ],
      [
        "low",
        -9.426989617425956
      ],
      [
        "Ġappropriate",
        -9.428688653208177
      ],
      [
        "ĠâĢľ",
        -9.42871079331054
      ],
      [
        "Ġseparate",
        -9.429056084131794
      ],
      [
        "Ġlimit",
        -9.429422150330796
      ],
      [
        "ral",
        -9.431619550754158
      ],
      [
        "ome",
        -9.431702184856745
      ],
      [
        "rry",
        -9.43178315747982
      ],
      [
        "Ġword",
        -9.431926699654692
      ],
      [
        "Ġsolar",
        -9.43221061220463
      ],
      [
        "Ġeggs",
        -9.432212936059736
      ],
      [
        "Ġbalance",
        -9.434367189249944
      ],
      [
        "uck",
        -9.43613386496821
      ],
      [
        "lam",
        -9.437092109694262
      ],
      [
        "vent",
        -9.437600698949094
      ],
      [
        "Ġfilter",
        -9.437603746190058
      ],
      [
        "aid",
        -9.438240067193686
      ],
      [
        "Ġoccur",
        -9.438458634354074
      ],
      [
        "Ġevent",
        -9.439295402026346
      ],
      [
        "lat",
        -9.43999421276205
      ],
      [
        "Ġprice",
        -9.44040511013147
      ],
      [
        "Ġwild",
        -9.4408435997267
      ],
      [
        "Ġeasier",
        -9.441497668891843
      ],
      [
        "ĠCr",
        -9.442593163181124
      ],
      [
        "Ġrecent",
        -9.442980764972653
      ],
      [
        "Ġrecommended",
        -9.443193180725162
      ],
      [
        "til",
        -9.44392595631411
      ],
      [
        "Ġattack",
        -9.444351289272545
      ],
      [
        "Ġmovement",
        -9.444725912011346
      ],
      [
        "Ġdidn",
        -9.445518528307584
      ],
      [
        "Ġgain",
        -9.445802320085567
      ],
      [
        "Ġdark",
        -9.446265960351504
      ],
      [
        "âĢĻ",
        -9.44692807163682
      ],
      [
        "Ġstrength",
        -9.446962661096617
      ],
      [
        "Ġcross",
        -9.44759882458754
      ],
      [
        "Ġscientific",
        -9.447709795278342
      ],
      [
        "Ġlack",
        -9.448426968660188
      ],
      [
        "Ġfruit",
        -9.451813056515835
      ],
      [
        "Ġscale",
        -9.452446442147872
      ],
      [
        "Ġpatient",
        -9.4524837184016
      ],
      [
        "Ġocean",
        -9.452508560578806
      ],
      [
        "ulation",
        -9.452680069014075
      ],
      [
        "Do",
        -9.452903677853916
      ],
      [
        "ches",
        -9.453519512240788
      ],
      [
        "Ġinput",
        -9.455148383259402
      ],
      [
        "Ġmental",
        -9.455501495240282
      ],
      [
        "ĠMy",
        -9.456478152284228
      ],
      [
        "Ġadapt",
        -9.457064196754606
      ],
      [
        "Ġbu",
        -9.457854076407232
      ],
      [
        "Ġcountries",
        -9.458270179405242
      ],
      [
        "Ġmoment",
        -9.45910535942867
      ],
      [
        "Ġmonth",
        -9.46179469429048
      ],
      [
        "Ġhandle",
        -9.461875475979047
      ],
      [
        "AS",
        -9.461904514626298
      ],
      [
        "ES",
        -9.465049582633515
      ],
      [
        "Ġprocesses",
        -9.466237255631883
      ],
      [
        "ĠSchool",
        -9.46675254315304
      ],
      [
        "ists",
        -9.466922026639706
      ],
      [
        "Ġice",
        -9.467194499054251
      ],
      [
        "Ġrunning",
        -9.46723299215637
      ],
      [
        "Ġitems",
        -9.468001040125491
      ],
      [
        "Ġcor",
        -9.46918030683604
      ],
      [
        "har",
        -9.46936328806789
      ],
      [
        "Ġpiece",
        -9.469384260276389
      ],
      [
        "Ġserve",
        -9.469462108352436
      ],
      [
        "Ġweeks",
        -9.469595329626111
      ],
      [
        "Ġdoctor",
        -9.470170178014188
      ],
      [
        "Ġmar",
        -9.470694762557484
      ],
      [
        "Ġdiseases",
        -9.470713565518366
      ],
      [
        "Ġdeath",
        -9.4707228341157
      ],
      [
        "Ġuseful",
        -9.470837231540878
      ],
      [
        "Ġfeeling",
        -9.47174348834666
      ],
      [
        "ĠAre",
        -9.472134008140891
      ],
      [
        "Ġtips",
        -9.472538050298006
      ],
      [
        "Ġcompletely",
        -9.472694561173295
      ],
      [
        "Ġroad",
        -9.472890417330117
      ],
      [
        "ĠWa",
        -9.473825795625206
      ],
      [
        "pic",
        -9.474182290179709
      ],
      [
        "Be",
        -9.47429732245706
      ],
      [
        "water",
        -9.474955886728216
      ],
      [
        "Ġsix",
        -9.475133201900404
      ],
      [
        "He",
        -9.475554149774142
      ],
      [
        "Ġgreater",
        -9.475580238378896
      ],
      [
        "und",
        -9.476904696018378
      ],
      [
        "Ġlocation",
        -9.476971896272303
      ],
      [
        "ĠYes",
        -9.477769931341571
      ],
      [
        "ĠAmerica",
        -9.479652923245192
      ],
      [
        "Ġsalt",
        -9.480247168032214
      ],
      [
        "Ġarm",
        -9.480292190684654
      ],
      [
        "Ġpaint",
        -9.480537508725996
      ],
      [
        "Ġmale",
        -9.48121532775938
      ],
      [
        "Ġcats",
        -9.481387738775055
      ],
      [
        "Ġcount",
        -9.481481773887058
      ],
      [
        "cle",
        -9.481578758843863
      ],
      [
        "ER",
        -9.48219098046794
      ],
      [
        "Ġask",
        -9.482266407682763
      ],
      [
        "istic",
        -9.483077646979956
      ],
      [
        "IN",
        -9.483106536873528
      ],
      [
        "Ġleave",
        -9.48314665899726
      ],
      [
        "Ġwall",
        -9.483459360409842
      ],
      [
        "ably",
        -9.483928814971694
      ],
      [
        "ja",
        -9.484439813699217
      ],
      [
        "Ġbreed",
        -9.484505768298853
      ],
      [
        "Ġbrand",
        -9.485529739826744
      ],
      [
        "Ġsuggest",
        -9.485552559506178
      ],
      [
        "Ġdemand",
        -9.486259200310217
      ],
      [
        "Ġfilm",
        -9.48674140397262
      ],
      [
        "Ġswitch",
        -9.486976694936844
      ],
      [
        "Ġhabitat",
        -9.487224981474515
      ],
      [
        "mil",
        -9.488109357335055
      ],
      [
        "com",
        -9.488584980278809
      ],
      [
        "Ġevents",
        -9.489018465030648
      ],
      [
        "Ġremember",
        -9.489105562954087
      ],
      [
        "Ġflavor",
        -9.489341325951546
      ],
      [
        "Ġalternative",
        -9.490422519481692
      ],
      [
        "ological",
        -9.490539475835885
      ],
      [
        "ĠRi",
        -9.490557143760096
      ],
      [
        "Ġorganic",
        -9.49074243094824
      ],
      [
        "Ġmodels",
        -9.492299042855365
      ],
      [
        "Ġsources",
        -9.49232788114164
      ],
      [
        "ition",
        -9.492704315719507
      ],
      [
        "Ġpick",
        -9.492905572778271
      ],
      [
        "Ġproperly",
        -9.494179208350168
      ],
      [
        "Ġserious",
        -9.494464737536084
      ],
      [
        "Ġmotor",
        -9.496091655422807
      ],
      [
        "Ġimages",
        -9.496347742332333
      ],
      [
        "Ġseries",
        -9.496960806515348
      ],
      [
        "Ġbird",
        -9.498011464930856
      ],
      [
        "Ġprogress",
        -9.498017932621936
      ],
      [
        "ual",
        -9.4995792005369
      ],
      [
        "Ġload",
        -9.499872160101113
      ],
      [
        "Ã",
        -9.50295395425738
      ],
      [
        "Ġseeds",
        -9.503021249934172
      ],
      [
        "Ġbi",
        -9.503459485374336
      ],
      [
        "ĠNot",
        -9.50500310836042
      ],
      [
        "Ġfile",
        -9.505350047807037
      ],
      [
        "...ĊĊ",
        -9.506083041104835
      ],
      [
        "Ġlives",
        -9.506361338032953
      ],
      [
        "Ġboard",
        -9.506577848915612
      ],
      [
        "Ġflowers",
        -9.507946862720422
      ],
      [
        "Ġappear",
        -9.509251304691231
      ],
      [
        "Ġefficiency",
        -9.50931689012584
      ],
      [
        "Ġcook",
        -9.50942662064453
      ],
      [
        "Ġpoints",
        -9.50956670586706
      ],
      [
        "ĠSc",
        -9.510630230160652
      ],
      [
        "Ġcame",
        -9.511212730104534
      ],
      [
        "Ġcolors",
        -9.51131208868972
      ],
      [
        "Ġball",
        -9.51261681430511
      ],
      [
        "Ġmoving",
        -9.513203430532684
      ],
      [
        "ĠGo",
        -9.51437298432757
      ],
      [
        "Â",
        -9.514852459443327
      ],
      [
        "top",
        -9.51530020201903
      ],
      [
        "par",
        -9.515875067704778
      ],
      [
        "Ġgoes",
        -9.516429229871695
      ],
      [
        "Ġprotection",
        -9.517256131858296
      ],
      [
        "Ġachieve",
        -9.517310830530262
      ],
      [
        "Ġinfluence",
        -9.518719717787713
      ],
      [
        "Ġtank",
        -9.519094609752017
      ],
      [
        "Ġtra",
        -9.520434796636252
      ],
      [
        "Ġpage",
        -9.520472094449277
      ],
      [
        "Ġactive",
        -9.5209418016133
      ],
      [
        "Ġkill",
        -9.52376868246242
      ],
      [
        "While",
        -9.524092364002472
      ],
      [
        "nes",
        -9.524191136965474
      ],
      [
        "ĠMost",
        -9.524409779761536
      ],
      [
        "Ġliquid",
        -9.524506710038926
      ],
      [
        "Another",
        -9.524661476668983
      ],
      [
        "ĠTi",
        -9.524880328869946
      ],
      [
        "Ġideal",
        -9.525969628881043
      ],
      [
        "uch",
        -9.526917672859812
      ],
      [
        "Ġcomp",
        -9.527186704493367
      ],
      [
        "Ġfigure",
        -9.527756239696128
      ],
      [
        "Ġcompanies",
        -9.52866165330386
      ],
      [
        "Ġpot",
        -9.528753968156972
      ],
      [
        "Ġbuilt",
        -9.530314505412935
      ],
      [
        "Ġmemory",
        -9.531059455809071
      ],
      [
        "kin",
        -9.531515012865691
      ],
      [
        "Ġelectrical",
        -9.532298571609076
      ],
      [
        "ĠPi",
        -9.53288067712912
      ],
      [
        "Ġmembers",
        -9.533632062906578
      ],
      [
        "Ġpromote",
        -9.534122872192729
      ],
      [
        "Ġtheory",
        -9.535012704352528
      ],
      [
        "Ġchallenges",
        -9.535393833432597
      ],
      [
        "ivity",
        -9.53727200729916
      ],
      [
        "ĠBu",
        -9.538849439595412
      ],
      [
        "Ġcombination",
        -9.539008478161902
      ],
      [
        "ÂŃ",
        -9.53974301995875
      ],
      [
        "Ġtouch",
        -9.54107278493634
      ],
      [
        "ĠFrom",
        -9.541819847314166
      ],
      [
        "Ġdirect",
        -9.541821637796293
      ],
      [
        "depending",
        -9.542260681058943
      ],
      [
        "Ġpara",
        -9.542900656348875
      ],
      [
        "Ġtaste",
        -9.543296863357083
      ],
      [
        "ates",
        -9.54544067701048
      ],
      [
        "Ġinfection",
        -9.546239078587584
      ],
      [
        "Ġversion",
        -9.546668712096846
      ],
      [
        "With",
        -9.547198600423076
      ],
      [
        "rant",
        -9.548504804062429
      ],
      [
        "Ġbegin",
        -9.549188375726745
      ],
      [
        "Ġslow",
        -9.549732537877407
      ],
      [
        "â",
        -9.549833980059502
      ],
      [
        "Ġoriginal",
        -9.549879638628742
      ],
      [
        "Ġedge",
        -9.550705019698496
      ],
      [
        "Ġsign",
        -9.55116162082327
      ],
      [
        "lid",
        -9.55293670157848
      ],
      [
        "bra",
        -9.553156155834705
      ],
      [
        "Ġdeveloping",
        -9.553642232522156
      ],
      [
        "Ġallowing",
        -9.554106296989096
      ],
      [
        "Ġresistance",
        -9.554529087636098
      ],
      [
        "IS",
        -9.55489657798564
      ],
      [
        "Ġcontains",
        -9.555022736937806
      ],
      [
        "Ġlimited",
        -9.555799890776758
      ],
      [
        "ĠVi",
        -9.556043735734695
      ],
      [
        "Ġreflect",
        -9.556867552951855
      ],
      [
        "Ġpan",
        -9.556920901974246
      ],
      [
        "Ġuses",
        -9.557556637999587
      ],
      [
        "OR",
        -9.5576491853638
      ],
      [
        "ĠDu",
        -9.55860814777382
      ],
      [
        "Ġmaintenance",
        -9.55905927554631
      ],
      [
        "Ġbottom",
        -9.559118019997385
      ],
      [
        "Ġpatterns",
        -9.559814308486246
      ],
      [
        "No",
        -9.559957273382675
      ],
      [
        "Ġcommonly",
        -9.560523647816185
      ],
      [
        "Ġgeneration",
        -9.564072356634474
      ],
      [
        "log",
        -9.564852551980085
      ],
      [
        "Ġimportance",
        -9.56492862030864
      ],
      [
        "Ġsoft",
        -9.566329951074184
      ],
      [
        "ĠResearch",
        -9.567101502331148
      ],
      [
        "ĠEn",
        -9.567821722553832
      ],
      [
        "ĠWorld",
        -9.569216446859778
      ],
      [
        "Ġlate",
        -9.569626832554611
      ],
      [
        "Ġroot",
        -9.56976506511257
      ],
      [
        "Ġdate",
        -9.571443260813563
      ],
      [
        "Ġdeal",
        -9.572232289780034
      ],
      [
        "Ġfloor",
        -9.572581784347287
      ],
      [
        "Ġpull",
        -9.57269617639683
      ],
      [
        "These",
        -9.573117734632769
      ],
      [
        "Ġpretty",
        -9.573300785663044
      ],
      [
        "Ġdoor",
        -9.574783947117686
      ],
      [
        "Ġrecommend",
        -9.575190282115717
      ],
      [
        "By",
        -9.57546353291718
      ],
      [
        "Ġbaby",
        -9.57554512420988
      ],
      [
        "SE",
        -9.575755315418697
      ],
      [
        "ple",
        -9.575772348571052
      ],
      [
        "Ġconcept",
        -9.575903322128532
      ],
      [
        "Ġwire",
        -9.576312437611174
      ],
      [
        "Ġpair",
        -9.576824228122382
      ],
      [
        "Ġfeature",
        -9.577846306096124
      ],
      [
        "ified",
        -9.579004773863945
      ],
      [
        "Ġtemperatures",
        -9.580223177671831
      ],
      [
        "mol",
        -9.580239786015763
      ],
      [
        "uff",
        -9.580332386353978
      ],
      [
        "Ġstem",
        -9.580437386512177
      ],
      [
        "Ġpublished",
        -9.580506870397231
      ],
      [
        "len",
        -9.581624280654882
      ],
      [
        "Ġtrans",
        -9.582254275150335
      ],
      [
        "Ġbag",
        -9.582262210648729
      ],
      [
        "Ġmeasure",
        -9.582624252848095
      ],
      [
        "onic",
        -9.58280760293808
      ],
      [
        "Ġhappens",
        -9.583988770768482
      ],
      [
        "Ġwalk",
        -9.584741944864003
      ],
      [
        "Ġwriting",
        -9.584848668737765
      ],
      [
        "Ġvary",
        -9.585991975318809
      ],
      [
        "Ġperform",
        -9.586048009237478
      ],
      [
        "Ġcooking",
        -9.58613947748776
      ],
      [
        "ĠMany",
        -9.586159093887144
      ],
      [
        "ker",
        -9.586493300605309
      ],
      [
        "Ġusers",
        -9.58716656000698
      ],
      [
        "ham",
        -9.587468342154772
      ],
      [
        "cial",
        -9.587495254774362
      ],
      [
        "Ġrepair",
        -9.587898910524505
      ],
      [
        "rus",
        -9.588813449778812
      ],
      [
        "Ġrich",
        -9.588944574744737
      ],
      [
        "Ġmix",
        -9.589724876421949
      ],
      [
        "Ġdraw",
        -9.589770159585065
      ],
      [
        "ĠWi",
        -9.589905136041647
      ],
      [
        "Ġsoon",
        -9.590906812081627
      ],
      [
        "Ġstage",
        -9.59154864761765
      ],
      [
        "Ġefficient",
        -9.59294282165602
      ],
      [
        "Ġseems",
        -9.59304617855516
      ],
      [
        "van",
        -9.593215200566396
      ],
      [
        "Ġphone",
        -9.593653395465466
      ],
      [
        "Ġvision",
        -9.594146333958854
      ],
      [
        "graph",
        -9.594829781742645
      ],
      [
        "Ġvalues",
        -9.595067895583378
      ],
      [
        "Ġfinal",
        -9.59577765196597
      ],
      [
        "Ġupon",
        -9.59719368257976
      ],
      [
        "Ġhappen",
        -9.597242341766975
      ],
      [
        "Ġlines",
        -9.597558425183806
      ],
      [
        "unt",
        -9.598391742554004
      ],
      [
        "ock",
        -9.59853735931284
      ],
      [
        "late",
        -9.601001114626548
      ],
      [
        "Con",
        -9.601607584269376
      ],
      [
        "Ġhost",
        -9.601659704460156
      ],
      [
        "Ġfoot",
        -9.603039400531438
      ],
      [
        "Ġcity",
        -9.603390245598334
      ],
      [
        "ley",
        -9.603394212575472
      ],
      [
        "lit",
        -9.603765799254177
      ],
      [
        "Ġbox",
        -9.604188235122152
      ],
      [
        "Ġoxygen",
        -9.60517010606508
      ],
      [
        "Ġprograms",
        -9.605980356578518
      ],
      [
        "Ġclaim",
        -9.607249729071832
      ],
      [
        "Ġexist",
        -9.607305281489916
      ],
      [
        "Ġelse",
        -9.607321897025582
      ],
      [
        "And",
        -9.60899903989753
      ],
      [
        "ease",
        -9.60953148813733
      ],
      [
        "Ġsolid",
        -9.611085052335614
      ],
      [
        "Ġsigns",
        -9.611123239224757
      ],
      [
        "pur",
        -9.611461720858031
      ],
      [
        "ID",
        -9.61235198786524
      ],
      [
        "body",
        -9.61269870393792
      ],
      [
        "Ġpoor",
        -9.612746040718193
      ],
      [
        "Ġsustainable",
        -9.613451261049685
      ],
      [
        "Ġreasons",
        -9.614654778978071
      ],
      [
        "Ġincreasing",
        -9.615502461146225
      ],
      [
        "not",
        -9.616400200626428
      ],
      [
        "Ġcosts",
        -9.61668992396646
      ],
      [
        "Ġwrite",
        -9.617821538936852
      ],
      [
        "Ġfluid",
        -9.617940118199336
      ],
      [
        "Ġready",
        -9.618518767691334
      ],
      [
        "Ġreducing",
        -9.618993124066394
      ],
      [
        "rid",
        -9.619692448574042
      ],
      [
        "Ġprojects",
        -9.619866456385086
      ],
      [
        "ĠFi",
        -9.620608744864084
      ],
      [
        "fish",
        -9.62116625854824
      ],
      [
        "Ġfabric",
        -9.62121073592846
      ],
      [
        "Ġimmune",
        -9.62155492082612
      ],
      [
        "Ġconduct",
        -9.6221398684727
      ],
      [
        ".S",
        -9.622610035681683
      ],
      [
        "acc",
        -9.623369094716866
      ],
      [
        "ĠMon",
        -9.623435348808284
      ],
      [
        "Ġhearing",
        -9.625418369001707
      ],
      [
        "ung",
        -9.627116664854915
      ],
      [
        "vers",
        -9.627606003663466
      ],
      [
        "Ġrelease",
        -9.62793151013125
      ],
      [
        "ĠWho",
        -9.628219828469293
      ],
      [
        "Ġpattern",
        -9.62856899107214
      ],
      [
        "ump",
        -9.62891893246891
      ],
      [
        "ĠSan",
        -9.62903972909316
      ],
      [
        "Ġobjects",
        -9.629117423776195
      ],
      [
        "Ġworth",
        -9.630356503572608
      ],
      [
        "Ġresponsible",
        -9.631744728177267
      ],
      [
        "Ġmeaning",
        -9.632012955391737
      ],
      [
        "Ġcleaning",
        -9.632026352304797
      ],
      [
        "Ġhands",
        -9.632078987152884
      ],
      [
        "Ġinstance",
        -9.6324568213944
      ],
      [
        "On",
        -9.6326112738963
      ],
      [
        "ĠJo",
        -9.63279377275679
      ],
      [
        "Ġnumbers",
        -9.6330957097209
      ],
      [
        "Ġplatform",
        -9.633579945366897
      ],
      [
        "Ġframe",
        -9.63543171195916
      ],
      [
        "Ġtechnique",
        -9.635744981984292
      ],
      [
        "rian",
        -9.636315834035894
      ],
      [
        "Ġsuitable",
        -9.637725799406414
      ],
      [
        "can",
        -9.639232987921968
      ],
      [
        "Ġrelationship",
        -9.640291025680142
      ],
      [
        "Ġconstruction",
        -9.640592690208042
      ],
      [
        "ĠWhy",
        -9.64060636207419
      ],
      [
        "Ġinvolves",
        -9.64095669919462
      ],
      [
        "Ġphase",
        -9.641368180974457
      ],
      [
        "Ġflight",
        -9.642400392034697
      ],
      [
        "Ġreaction",
        -9.642827315074417
      ],
      [
        "Ġstorage",
        -9.643190297008932
      ],
      [
        "Ġchicken",
        -9.6433498650322
      ],
      [
        "Ġsituation",
        -9.643354724858703
      ],
      [
        "ensuring",
        -9.643701785021191
      ],
      [
        "ĠAir",
        -9.644146815606138
      ],
      [
        "Ġvitamin",
        -9.6442461516237
      ],
      [
        "Ġaim",
        -9.644402814941609
      ],
      [
        "Ġheight",
        -9.647258541525284
      ],
      [
        "Ġrequirements",
        -9.648088809581957
      ],
      [
        "Ġtesting",
        -9.648639271536416
      ],
      [
        "Ġglass",
        -9.64872560293427
      ],
      [
        "mun",
        -9.648954042218088
      ],
      [
        "ĠWar",
        -9.64913313671194
      ],
      [
        "Ġthird",
        -9.649355893760545
      ],
      [
        "Ġnoise",
        -9.649617063903742
      ],
      [
        "press",
        -9.64989737553666
      ],
      [
        "Ġmen",
        -9.65017585553586
      ],
      [
        "Ġsignificantly",
        -9.65135532270851
      ],
      [
        "Ġspin",
        -9.651816410584216
      ],
      [
        "Ġideas",
        -9.65182268832259
      ],
      [
        "Ġweb",
        -9.652259245794802
      ],
      [
        "Ġsetting",
        -9.65307651914036
      ],
      [
        "Ġfiber",
        -9.65353698246276
      ],
      [
        "Ġplanet",
        -9.65426238037034
      ],
      [
        "Ġmode",
        -9.654626775350875
      ],
      [
        "Ġpractices",
        -9.654909013194509
      ],
      [
        "pen",
        -9.655457590204568
      ],
      [
        "Ġiron",
        -9.656517386218118
      ],
      [
        "ĠCO",
        -9.656786452404354
      ],
      [
        "read",
        -9.656867836963054
      ],
      [
        "matic",
        -9.65708861440866
      ],
      [
        "Ġexposure",
        -9.65774816093116
      ],
      [
        "Ġnothing",
        -9.657909946482537
      ],
      [
        "Ġthinking",
        -9.65919983507205
      ],
      [
        "Ġvolume",
        -9.659211381425909
      ],
      [
        "q",
        -9.659409860840514
      ],
      [
        "like",
        -9.660685096612086
      ],
      [
        "Ġbeautiful",
        -9.66070483854328
      ],
      [
        "ĠPer",
        -9.66091457695627
      ],
      [
        "AL",
        -9.66139035960405
      ],
      [
        "Ġencourage",
        -9.661587508074003
      ],
      [
        "Ġforms",
        -9.66180584054214
      ],
      [
        "IT",
        -9.662503326691072
      ],
      [
        "era",
        -9.662676789548057
      ],
      [
        "Ġoffice",
        -9.663439035659827
      ],
      [
        "Ġearth",
        -9.666843267346424
      ],
      [
        "Ġpurchase",
        -9.667103144007315
      ],
      [
        "Ġfriends",
        -9.668178020925694
      ],
      [
        "Ġyellow",
        -9.668184444895854
      ],
      [
        "ogen",
        -9.668830836919271
      ],
      [
        "Ġoperation",
        -9.669248577362154
      ],
      [
        "rac",
        -9.66984617911604
      ],
      [
        "rating",
        -9.670479912614564
      ],
      [
        "lim",
        -9.671139671161388
      ],
      [
        "Ġsmooth",
        -9.671726382232324
      ],
      [
        "Ġstick",
        -9.671914684205364
      ],
      [
        "Ġpowerful",
        -9.672321619534404
      ],
      [
        "Ġeconomic",
        -9.672690397401324
      ],
      [
        "ĠAlso",
        -9.672912929886335
      ],
      [
        "ĠMan",
        -9.673045401379026
      ],
      [
        "Ġhu",
        -9.673406424486314
      ],
      [
        "Ġmuscle",
        -9.673763795129512
      ],
      [
        "ised",
        -9.67383755944496
      ],
      [
        "Ġtook",
        -9.673933046176408
      ],
      [
        "pri",
        -9.674301344916069
      ],
      [
        "Ġhorse",
        -9.674378370987238
      ],
      [
        "Ġvoltage",
        -9.674796129543362
      ],
      [
        "ĠCor",
        -9.67537161292937
      ],
      [
        "Ġbear",
        -9.676509549228085
      ],
      [
        "aging",
        -9.676605241105074
      ],
      [
        "ĠHis",
        -9.676704447012764
      ],
      [
        "AN",
        -9.676762846967518
      ],
      [
        "Ġapplied",
        -9.677241796977547
      ],
      [
        "Ġstates",
        -9.677283311998965
      ],
      [
        "ĠPre",
        -9.67808902326783
      ],
      [
        "Ġplate",
        -9.678132809963463
      ],
      [
        "Ġangle",
        -9.678886694481912
      ],
      [
        "bu",
        -9.678896670434506
      ],
      [
        "Ġtire",
        -9.679028718346876
      ],
      [
        "Ġnutrients",
        -9.680365011325604
      ],
      [
        "Ġlaw",
        -9.680365945401205
      ],
      [
        "Ġstarting",
        -9.682173896563578
      ],
      [
        "try",
        -9.682727396768003
      ],
      [
        "ĠMay",
        -9.682758949771497
      ],
      [
        "vel",
        -9.683278534187275
      ],
      [
        "Ġfight",
        -9.683893478306269
      ],
      [
        "ju",
        -9.684085467574166
      ],
      [
        "Ġrecord",
        -9.684620407465918
      ],
      [
        "tag",
        -9.684697719294787
      ],
      [
        "Ġjoint",
        -9.685109259547032
      ],
      [
        "Ġten",
        -9.685473196794309
      ],
      [
        "Ġdecision",
        -9.685698370611943
      ],
      [
        "Ġcutting",
        -9.685825663583223
      ],
      [
        "Ġdescribe",
        -9.686418645650129
      ],
      [
        "ĠGu",
        -9.686424931965462
      ],
      [
        "Some",
        -9.68695046544535
      ],
      [
        "Ġwatch",
        -9.68714835034675
      ],
      [
        "Ġpump",
        -9.68845156270412
      ],
      [
        "Ġheavy",
        -9.688485854145748
      ],
      [
        "å",
        -9.688753465558122
      ],
      [
        "itis",
        -9.690682260994528
      ],
      [
        "Ġingredients",
        -9.69286872445918
      ],
      [
        "ĠDa",
        -9.693629935437045
      ],
      [
        "Ġremain",
        -9.693934044375196
      ],
      [
        "tting",
        -9.694054391772507
      ],
      [
        "mber",
        -9.694345107488369
      ],
      [
        ".com",
        -9.694851440323278
      ],
      [
        "gar",
        -9.695546732929992
      ],
      [
        "Ġadding",
        -9.69570437892861
      ],
      [
        "Ġsolutions",
        -9.69578430456706
      ],
      [
        "Ġcontainer",
        -9.69613961778112
      ],
      [
        "book",
        -9.696160085860402
      ],
      [
        "Ġjourney",
        -9.696210546559552
      ],
      [
        "ĠCenter",
        -9.696949294113988
      ],
      [
        "Ġcentury",
        -9.697493727936916
      ],
      [
        "Ġrise",
        -9.697670423843224
      ],
      [
        "-up",
        -9.69794023768619
      ],
      [
        "ĠCl",
        -9.698566209758171
      ],
      [
        "Ġmanage",
        -9.698742661263848
      ],
      [
        "put",
        -9.701107347060724
      ],
      [
        "Ġselect",
        -9.701108227652329
      ],
      [
        "ĠOur",
        -9.701246896014696
      ],
      [
        "Ġapply",
        -9.701335345846685
      ],
      [
        "Ġexperiment",
        -9.701602548356856
      ],
      [
        "type",
        -9.701620507947364
      ],
      [
        "Ġbecomes",
        -9.701840299135744
      ],
      [
        "Ġdead",
        -9.702313722622778
      ],
      [
        "Ġbright",
        -9.702558178323384
      ],
      [
        "Ġenable",
        -9.702736905552642
      ],
      [
        "ĠMake",
        -9.703042659095663
      ],
      [
        "Ġfarm",
        -9.703619701928012
      ],
      [
        "They",
        -9.704416323211818
      ],
      [
        "ĠTheir",
        -9.704512060976144
      ],
      [
        "Ġwrong",
        -9.704607603544416
      ],
      [
        "Ġdeliver",
        -9.704982794302058
      ],
      [
        "Ġcausing",
        -9.706121660106636
      ],
      [
        "Ġsuccessful",
        -9.706356728186186
      ],
      [
        "gal",
        -9.70636655438036
      ],
      [
        "Ġcurrently",
        -9.706607841072248
      ],
      [
        "Ġcap",
        -9.70676653652994
      ],
      [
        "Ġnotice",
        -9.707048962734882
      ],
      [
        "ong",
        -9.707393860002362
      ],
      [
        "Ġinteresting",
        -9.708156340056329
      ],
      [
        "Ġchain",
        -9.708675356138
      ],
      [
        "Now",
        -9.70908316375716
      ],
      [
        "Ġorigin",
        -9.70955790651594
      ],
      [
        "Ġflower",
        -9.70963084218234
      ],
      [
        "Ġlocated",
        -9.710277405856958
      ],
      [
        "ĠWater",
        -9.710407146697746
      ],
      [
        "Ġbrown",
        -9.710462285196051
      ],
      [
        "-term",
        -9.711052385179164
      ],
      [
        "Ġconnected",
        -9.71240347619619
      ],
      [
        "Ġsort",
        -9.712592862369414
      ],
      [
        "Ġfaster",
        -9.71260363395039
      ],
      [
        "fect",
        -9.712837028661172
      ],
      [
        "Ġwheel",
        -9.713344425388472
      ],
      [
        "Ġexpect",
        -9.714463585759676
      ],
      [
        "ĠEven",
        -9.714497520090866
      ],
      [
        "Ġtask",
        -9.716353481542296
      ],
      [
        "Thank",
        -9.717945073297388
      ],
      [
        "ĠAd",
        -9.71812586596797
      ],
      [
        "ware",
        -9.718392075390655
      ],
      [
        "Ġexplain",
        -9.718708437422205
      ],
      [
        "Ġsecurity",
        -9.71892662883558
      ],
      [
        "Ġexactly",
        -9.721471261819962
      ],
      [
        "ĠPu",
        -9.722299350369935
      ],
      [
        "Ġlo",
        -9.722357184987349
      ],
      [
        "Ġelement",
        -9.722661951383603
      ],
      [
        "Ġfrequency",
        -9.72340812933969
      ],
      [
        "ĠDis",
        -9.723608324443813
      ],
      [
        "Ġcommercial",
        -9.724004369796203
      ],
      [
        "Ġanyone",
        -9.724536197064516
      ],
      [
        "Ġadvance",
        -9.725022946756122
      ],
      [
        "cel",
        -9.725530842568316
      ],
      [
        "Ġopportunity",
        -9.726920570000754
      ],
      [
        "Ġvegetables",
        -9.727033519941472
      ],
      [
        "Ġindicate",
        -9.727278939251969
      ],
      [
        "Ġgives",
        -9.727435243297496
      ],
      [
        "Ġrespect",
        -9.728037540688184
      ],
      [
        "ĠKa",
        -9.728120591266388
      ],
      [
        "vol",
        -9.72851679979981
      ],
      [
        "Ġorgan",
        -9.72861434566497
      ],
      [
        "Ġtri",
        -9.729626969064029
      ],
      [
        "Ġexcellent",
        -9.730263897701343
      ],
      [
        "ĠNow",
        -9.731774511164136
      ],
      [
        "eld",
        -9.731781152764231
      ],
      [
        "Ġcapacity",
        -9.731834899047598
      ],
      [
        "shed",
        -9.7321575982329
      ],
      [
        "rat",
        -9.732922034377305
      ],
      [
        "gle",
        -9.733340089876412
      ],
      [
        "off",
        -9.733348855216695
      ],
      [
        "Ġsymbol",
        -9.733561153289994
      ],
      [
        "gate",
        -9.733641980256357
      ],
      [
        "ĠLet",
        -9.734393386171565
      ],
      [
        "Ġdrawing",
        -9.734520629748191
      ],
      [
        "phy",
        -9.73476253629232
      ],
      [
        "Ġdescribed",
        -9.735191709530527
      ],
      [
        "Ġmap",
        -9.736010113448334
      ],
      [
        "Ġforward",
        -9.736219476064605
      ],
      [
        "script",
        -9.736484385160772
      ],
      [
        "Ġelectronic",
        -9.736817784817152
      ],
      [
        "Ġeffectively",
        -9.737577178526395
      ],
      [
        "Ġstrategies",
        -9.738003049555903
      ],
      [
        "Ġmoisture",
        -9.738159117425576
      ],
      [
        "Ġmessage",
        -9.738249371389983
      ],
      [
        "Ġpipe",
        -9.739020493458757
      ],
      [
        "cus",
        -9.740542813370537
      ],
      [
        "Ġcollection",
        -9.741312489301052
      ],
      [
        "Ġbond",
        -9.741865291599852
      ],
      [
        "Ġequal",
        -9.742919183727748
      ],
      [
        "Ġlandscape",
        -9.742940343008923
      ],
      [
        "Ġquick",
        -9.743208033071683
      ],
      [
        "Ġpicture",
        -9.74331687536272
      ],
      [
        "Ġcouple",
        -9.74339749388144
      ],
      [
        "Ġround",
        -9.743400705651023
      ],
      [
        "Ġtherefore",
        -9.744198490514997
      ],
      [
        "Ġgrass",
        -9.744288975844537
      ],
      [
        "Ġeffort",
        -9.744335171365394
      ],
      [
        "bal",
        -9.744688460417066
      ],
      [
        "Ġflat",
        -9.744981024736402
      ],
      [
        "ĠMin",
        -9.745364689270586
      ],
      [
        "ĠCu",
        -9.745709252363072
      ],
      [
        "Ġcharacter",
        -9.745969286310547
      ],
      [
        "Ġcolour",
        -9.74660990045201
      ],
      [
        "lock",
        -9.746720993053644
      ],
      [
        "Ġpass",
        -9.747169519255737
      ],
      [
        "Ġdu",
        -9.74735786110782
      ],
      [
        "Ġpush",
        -9.74772901560296
      ],
      [
        "east",
        -9.74850003363803
      ],
      [
        "Ġgenerate",
        -9.748563581625024
      ],
      [
        "Ġmu",
        -9.749639679141564
      ],
      [
        "Ġproperty",
        -9.749983521084369
      ],
      [
        "ĠAdditionally",
        -9.750592651051235
      ],
      [
        "Ġpieces",
        -9.750750846170613
      ],
      [
        "Ġfully",
        -9.750806126906689
      ],
      [
        "ĠRu",
        -9.752825278423286
      ],
      [
        "vic",
        -9.75294642531919
      ],
      [
        "ular",
        -9.753578869090427
      ],
      [
        "cycl",
        -9.75391862366422
      ],
      [
        "Ġbecame",
        -9.75443042424508
      ],
      [
        "ĠHigh",
        -9.75447332675161
      ],
      [
        "Ġsevere",
        -9.754806781877097
      ],
      [
        "Ġflu",
        -9.755003454268556
      ],
      [
        "Ġprint",
        -9.755178040798471
      ],
      [
        "Ġchallenge",
        -9.755403518618731
      ],
      [
        "Ġnative",
        -9.755541417009535
      ],
      [
        "Ġrock",
        -9.75607470867312
      ],
      [
        "Ġhit",
        -9.757437275165064
      ],
      [
        "Ġcontext",
        -9.757588564930586
      ],
      [
        "ink",
        -9.75830089911135
      ],
      [
        "ĠState",
        -9.758582333712434
      ],
      [
        "Ġoutdoor",
        -9.759228456701887
      ],
      [
        "Ġdes",
        -9.75934832211463
      ],
      [
        "ĠNa",
        -9.759371669413936
      ],
      [
        "Ġmouth",
        -9.75939914164081
      ],
      [
        "ĠOnce",
        -9.760064768688348
      ],
      [
        "IC",
        -9.760399387450274
      ],
      [
        "ĠAc",
        -9.760807649936126
      ],
      [
        "je",
        -9.7610145101694
      ],
      [
        "Ġear",
        -9.761133549983636
      ],
      [
        "Ġthus",
        -9.76130541781983
      ],
      [
        "lies",
        -9.762180113324224
      ],
      [
        "Ġvia",
        -9.762627878462174
      ],
      [
        "Ġmotion",
        -9.764075323738968
      ],
      [
        "Ġgames",
        -9.764667363328734
      ],
      [
        "back",
        -9.765366245457656
      ],
      [
        "Ġtexture",
        -9.767479729166563
      ],
      [
        "Ġseed",
        -9.767796621117483
      ],
      [
        "Ġreduced",
        -9.768613738861346
      ],
      [
        "Ġincluded",
        -9.769018495880257
      ],
      [
        "Ġreference",
        -9.769532377984724
      ],
      [
        "ĠCol",
        -9.7696614120365
      ],
      [
        "Ġgrade",
        -9.770213773560892
      ],
      [
        "Ġsteel",
        -9.770792935731643
      ],
      [
        "how",
        -9.771299078449156
      ],
      [
        "Ġcapture",
        -9.771432997795932
      ],
      [
        "Ġshift",
        -9.771826507188694
      ],
      [
        "Ġbeyond",
        -9.771863662935456
      ],
      [
        "Ġinches",
        -9.772438703019352
      ],
      [
        "ency",
        -9.774421759302088
      ],
      [
        "Ġtherapy",
        -9.775138299216897
      ],
      [
        "Ġtrip",
        -9.775826804386352
      ],
      [
        "Ġradio",
        -9.77614591171834
      ],
      [
        "Ġpresence",
        -9.776410989277784
      ],
      [
        "Ġcoming",
        -9.776727418811284
      ],
      [
        "Ġrain",
        -9.776770681813709
      ],
      [
        "Ġprocessing",
        -9.777826101179423
      ],
      [
        "ĠBecause",
        -9.778082903857989
      ],
      [
        "hop",
        -9.778084431666786
      ],
      [
        "pol",
        -9.778205249376027
      ],
      [
        "ban",
        -9.778245915968272
      ],
      [
        "vas",
        -9.7784362299302
      ],
      [
        "Ġoccurs",
        -9.77946015592663
      ],
      [
        "Un",
        -9.779538031922408
      ],
      [
        "Ġleg",
        -9.77963296337142
      ],
      [
        "tive",
        -9.78165550997359
      ],
      [
        "Ġsaw",
        -9.78236014598106
      ],
      [
        "Ġadvanced",
        -9.783038342909377
      ],
      [
        "Ġcup",
        -9.783506443303311
      ],
      [
        "Ġbro",
        -9.78373608797754
      ],
      [
        "Ġextremely",
        -9.78423912423344
      ],
      [
        "Ġdec",
        -9.78478687004097
      ],
      [
        "Ġsample",
        -9.784922217853392
      ],
      [
        "Ġerror",
        -9.785264335703234
      ],
      [
        "Ġgiving",
        -9.785635560189732
      ],
      [
        "vid",
        -9.786683062425931
      ],
      [
        "atic",
        -9.786910842104566
      ],
      [
        "Ġmiddle",
        -9.786925917205307
      ],
      [
        "Ġbone",
        -9.78781755752977
      ],
      [
        "Ġadult",
        -9.788256645862011
      ],
      [
        "ĠNOT",
        -9.788390817290432
      ],
      [
        "ĠOther",
        -9.789170764129004
      ],
      [
        "ĠEach",
        -9.789340251873956
      ],
      [
        "Ġmaximum",
        -9.7895452352926
      ],
      [
        "Ġexpensive",
        -9.789730329003048
      ],
      [
        "Ġsweet",
        -9.791173893884093
      ],
      [
        "Pro",
        -9.792178859759304
      ],
      [
        "ope",
        -9.793259739376795
      ],
      [
        "Ġexpected",
        -9.7933510438213
      ],
      [
        "ĠMu",
        -9.793427075502462
      ],
      [
        "Ġrecently",
        -9.79344777876068
      ],
      [
        "Ġburn",
        -9.793690716188408
      ],
      [
        "Ġcustom",
        -9.79407132258819
      ],
      [
        "Ġelectricity",
        -9.794951506894297
      ],
      [
        "Ġriver",
        -9.795451225117771
      ],
      [
        "Ġhuge",
        -9.79625287200693
      ],
      [
        "Ġdrink",
        -9.79668871055687
      ],
      [
        "Ġteaching",
        -9.796793594424582
      ],
      [
        "Qu",
        -9.796858484940916
      ],
      [
        "Ġalthough",
        -9.797678180789536
      ],
      [
        "Ġprevious",
        -9.797746274339495
      ],
      [
        "Ġconsumption",
        -9.797871038637872
      ],
      [
        "bit",
        -9.798031166981906
      ],
      [
        "Ġconcentration",
        -9.798057713500434
      ],
      [
        "ĠGe",
        -9.798594137969994
      ],
      [
        "rank",
        -9.798656175291374
      ],
      [
        "mar",
        -9.79937697183528
      ],
      [
        "Ġdetails",
        -9.799619415117832
      ],
      [
        "room",
        -9.799716443624352
      ],
      [
        "bri",
        -9.800294358999272
      ],
      [
        "Ġfix",
        -9.802310900874089
      ],
      [
        "cont",
        -9.802557761524524
      ],
      [
        "graphic",
        -9.803304911822456
      ],
      [
        "Ġolder",
        -9.80376567556702
      ],
      [
        "Ġtube",
        -9.803816876241395
      ],
      [
        "Ġecosystem",
        -9.80390812373717
      ],
      [
        "Ġlabel",
        -9.804020744568971
      ],
      [
        "Ġstone",
        -9.804253370110509
      ],
      [
        "Ġthin",
        -9.804992556569
      ],
      [
        "right",
        -9.80529838648982
      ],
      [
        "LE",
        -9.805304851464518
      ],
      [
        "Ġmother",
        -9.805328859923534
      ],
      [
        "Ġmember",
        -9.805982486781271
      ],
      [
        "Ġconservation",
        -9.808263862841676
      ],
      [
        "Ġsu",
        -9.808729377716745
      ],
      [
        "Ġlost",
        -9.808755225661828
      ],
      [
        "Ġmatch",
        -9.809698672454871
      ],
      [
        "ĠBi",
        -9.810131986033596
      ],
      [
        "lip",
        -9.810412143212323
      ],
      [
        "Ġadvantage",
        -9.810517220096123
      ],
      [
        "Ġparticles",
        -9.811177021375244
      ],
      [
        "ĠJust",
        -9.811671055099884
      ],
      [
        "rop",
        -9.811960645424072
      ],
      [
        "Ġcomment",
        -9.81313806541724
      ],
      [
        "Ġinitial",
        -9.813806367932612
      ],
      [
        "Ġslightly",
        -9.81387180026464
      ],
      [
        "Ġsequence",
        -9.813936701442788
      ],
      [
        "ttle",
        -9.814199009811604
      ],
      [
        "vit",
        -9.814609029332376
      ],
      [
        "Ġconnection",
        -9.815708337665928
      ],
      [
        "pan",
        -9.815742749766716
      ],
      [
        "Ġroof",
        -9.817901178112225
      ],
      [
        "Ġmedium",
        -9.818051073457378
      ],
      [
        "ĠEnglish",
        -9.820984153527082
      ],
      [
        "Ġstream",
        -9.821176867016373
      ],
      [
        "Ġcommunities",
        -9.821398424586208
      ],
      [
        "ĠSystem",
        -9.8222776963224
      ],
      [
        "Ġfriend",
        -9.822332724597771
      ],
      [
        "tru",
        -9.822556039229037
      ],
      [
        "Ġaffected",
        -9.822772058326846
      ],
      [
        "Ġlargest",
        -9.823195181288169
      ],
      [
        "Ġprefer",
        -9.823505568737968
      ],
      [
        "AP",
        -9.823585902249752
      ],
      [
        "vir",
        -9.823685026754925
      ],
      [
        "Ġkeeping",
        -9.823900957492306
      ],
      [
        "tern",
        -9.824147584791367
      ],
      [
        "Ġfunctions",
        -9.824925707595346
      ],
      [
        "Ġsend",
        -9.82573254023391
      ],
      [
        "een",
        -9.825867950042968
      ],
      [
        "Ġplease",
        -9.82593774184936
      ],
      [
        "gre",
        -9.826183181258466
      ],
      [
        "gri",
        -9.82637926809276
      ],
      [
        "Ġreported",
        -9.82640463179563
      ],
      [
        "Here",
        -9.82646350402426
      ],
      [
        "Ġbed",
        -9.826827814226087
      ],
      [
        "Ġrelatively",
        -9.827831089395032
      ],
      [
        "Ġvital",
        -9.82813139045186
      ],
      [
        "ĠInstitute",
        -9.828531409763762
      ],
      [
        "PS",
        -9.829168542967432
      ],
      [
        "Ġclick",
        -9.8295137951533
      ],
      [
        "ĠâĢ¦",
        -9.829774885165094
      ],
      [
        "Ġpredict",
        -9.831872454835166
      ],
      [
        "Ġpen",
        -9.832908085806585
      ],
      [
        "Ġopportunities",
        -9.83300567085336
      ],
      [
        "une",
        -9.833082899482577
      ],
      [
        "Ġvaluable",
        -9.833096198851106
      ],
      [
        "Ġtail",
        -9.833698325923551
      ],
      [
        "Ġcarry",
        -9.83375442940728
      ],
      [
        "fici",
        -9.833947728812008
      ],
      [
        "ĠSea",
        -9.834014396824667
      ],
      [
        "Ġrecipe",
        -9.83443914592937
      ],
      [
        "site",
        -9.834632735976344
      ],
      [
        "Ġrule",
        -9.836435760915272
      ],
      [
        "Ġevolution",
        -9.837512241608454
      ],
      [
        "Ġmid",
        -9.83803334462457
      ],
      [
        "Ġchanging",
        -9.838038135009388
      ],
      [
        "ĠAm",
        -9.838383828602131
      ],
      [
        "Ġmiles",
        -9.838854924519278
      ],
      [
        "Ġdiscovered",
        -9.839029485970691
      ],
      [
        "Ġcore",
        -9.83932989678036
      ],
      [
        "Ġcomfortable",
        -9.839532999467885
      ],
      [
        "Ġonto",
        -9.839551604820238
      ],
      [
        "CE",
        -9.8401539533555
      ],
      [
        "ject",
        -9.840320815193012
      ],
      [
        "Ġspend",
        -9.840434437229948
      ],
      [
        "car",
        -9.840517167573642
      ],
      [
        "Ġpin",
        -9.840939585319855
      ],
      [
        "Ġbike",
        -9.841242061472332
      ],
      [
        "Ġdriving",
        -9.841276314908905
      ],
      [
        "Ġlose",
        -9.841548630555469
      ],
      [
        "Ġcharacteristics",
        -9.84327554237341
      ],
      [
        "Ġinternal",
        -9.84486268108976
      ],
      [
        "Ġmonitor",
        -9.845550656930744
      ],
      [
        "long",
        -9.845808690046054
      ],
      [
        "Ġdepth",
        -9.846114282616268
      ],
      [
        "Ġemissions",
        -9.84622749588904
      ],
      [
        "mag",
        -9.846258764078842
      ],
      [
        "ties",
        -9.846500497173777
      ],
      [
        "Ġhydro",
        -9.84702072052875
      ],
      [
        "view",
        -9.847464042778062
      ],
      [
        "other",
        -9.847661674429656
      ],
      [
        "range",
        -9.847905400258812
      ],
      [
        "Ġsnow",
        -9.8483034336886
      ],
      [
        "Ð",
        -9.849363808657428
      ],
      [
        "Ġconstant",
        -9.84943951430128
      ],
      [
        "Ġprop",
        -9.849844741600627
      ],
      [
        "OS",
        -9.85024498487702
      ],
      [
        "rain",
        -9.850869614369444
      ],
      [
        "oke",
        -9.85142694993332
      ],
      [
        "ĠPlant",
        -9.851922760928089
      ],
      [
        "han",
        -9.85207809565006
      ],
      [
        "dies",
        -9.85217222514303
      ],
      [
        "cru",
        -9.852183003426711
      ],
      [
        "ĠCha",
        -9.852553415587492
      ],
      [
        "well",
        -9.852963640953485
      ],
      [
        "Ġnational",
        -9.853509920464154
      ],
      [
        "Ġcomponent",
        -9.853549790546412
      ],
      [
        "Ġdegrees",
        -9.853658232698358
      ],
      [
        "Ġtasks",
        -9.853827024650275
      ],
      [
        "Ġbeginning",
        -9.85406496402898
      ],
      [
        "Ġship",
        -9.854549412476198
      ],
      [
        "However",
        -9.854717618778096
      ],
      [
        "ĠHu",
        -9.8549072474333
      ],
      [
        "Ġtechnologies",
        -9.855406044668555
      ],
      [
        "Learn",
        -9.855434386347552
      ],
      [
        "Ġplaced",
        -9.85610312323736
      ],
      [
        "Ġappearance",
        -9.856367121520416
      ],
      [
        "ĠGod",
        -9.856440165871396
      ],
      [
        "Ġvariable",
        -9.856513632930472
      ],
      [
        "oil",
        -9.857770449364692
      ],
      [
        "Ġstuff",
        -9.858931387605766
      ],
      [
        "Ġcollect",
        -9.859262403780315
      ],
      [
        "Ġdistribution",
        -9.859367505422831
      ],
      [
        "Ġwonder",
        -9.859510262723694
      ],
      [
        "Ġled",
        -9.859929745776954
      ],
      [
        "Ġsession",
        -9.860004712995764
      ],
      [
        "Ġalone",
        -9.860561099275788
      ],
      [
        "Ġrepresent",
        -9.860694858559208
      ],
      [
        "own",
        -9.860881129497002
      ],
      [
        "ĠIndia",
        -9.861126227325675
      ],
      [
        "Ã©",
        -9.861576026617206
      ],
      [
        "duct",
        -9.861743109931194
      ],
      [
        "ON",
        -9.861823590562672
      ],
      [
        "head",
        -9.863171514943398
      ],
      [
        "Ġdriver",
        -9.86353043408665
      ],
      [
        "Ġmill",
        -9.863731037941047
      ],
      [
        "ĠFr",
        -9.864266185759286
      ],
      [
        "Ġcom",
        -9.864333650152476
      ],
      [
        "Ġdouble",
        -9.864384686122724
      ],
      [
        "Ġgenes",
        -9.864518159619609
      ],
      [
        "bot",
        -9.864829024945484
      ],
      [
        "ball",
        -9.865070738211632
      ],
      [
        "Ġrespond",
        -9.8659982551082
      ],
      [
        "Ġteachers",
        -9.866094681795849
      ],
      [
        "ĠCh",
        -9.866892652402983
      ],
      [
        "Ġdepends",
        -9.86725616669463
      ],
      [
        "Ġband",
        -9.867376814028276
      ],
      [
        "Ġsquare",
        -9.86763635820442
      ],
      [
        "Figure",
        -9.86857357082278
      ],
      [
        "Ġcons",
        -9.868772927159585
      ],
      [
        "Ġcomfort",
        -9.868867953861503
      ],
      [
        "stra",
        -9.869163933988805
      ],
      [
        "Ġsites",
        -9.869231517191526
      ],
      [
        "Ġtopic",
        -9.869533256863177
      ],
      [
        "Before",
        -9.869713119265546
      ],
      [
        "Ġremains",
        -9.869859217155453
      ],
      [
        "Ġfail",
        -9.8703052586546
      ],
      [
        "lect",
        -9.870518773407088
      ],
      [
        "Ġcontract",
        -9.871620154124868
      ],
      [
        "Ġsurrounding",
        -9.871688968892212
      ],
      [
        "Ġorganization",
        -9.872147747088905
      ],
      [
        "Ġharm",
        -9.872460145691338
      ],
      [
        "Ġspeaker",
        -9.873012632268312
      ],
      [
        "pit",
        -9.87325203672452
      ],
      [
        "Ġhear",
        -9.873507484263088
      ],
      [
        "ĠCalifornia",
        -9.874323100727748
      ],
      [
        "Ġadults",
        -9.875083783394944
      ],
      [
        "ĠFe",
        -9.875347977552204
      ],
      [
        "Ġbackground",
        -9.875507031041916
      ],
      [
        "Ġgoals",
        -9.876377041759184
      ],
      [
        "ģ",
        -9.876495567497717
      ],
      [
        "cri",
        -9.876682706549824
      ],
      [
        "hen",
        -9.877128957708097
      ],
      [
        "Ġattempt",
        -9.877936453375591
      ],
      [
        "app",
        -9.878777098555888
      ],
      [
        "dding",
        -9.878826929783662
      ],
      [
        "Ġplaces",
        -9.87963529841204
      ],
      [
        "Ġtooth",
        -9.879848904941156
      ],
      [
        "Ġwent",
        -9.880433503551547
      ],
      [
        "Ġbooks",
        -9.881966724373555
      ],
      [
        "Ġdegree",
        -9.881997110950268
      ],
      [
        "Ġselection",
        -9.88280587063198
      ],
      [
        "ĠMore",
        -9.882838560014262
      ],
      [
        "Ġpress",
        -9.883008617993797
      ],
      [
        "Ġproteins",
        -9.883360350407145
      ],
      [
        "Ġpest",
        -9.883975871994265
      ],
      [
        "Ġinternational",
        -9.883999115853053
      ],
      [
        "Ġrobot",
        -9.884512809789054
      ],
      [
        "Ġdiabetes",
        -9.884772135804315
      ],
      [
        "Ġdiscover",
        -9.884928043791817
      ],
      [
        "ĠAccording",
        -9.88513390363913
      ],
      [
        "Ġresulting",
        -9.88560723712431
      ],
      [
        "Ġcentral",
        -9.886068768050547
      ],
      [
        "Ġwave",
        -9.886125792676555
      ],
      [
        "Ġbegan",
        -9.88633951679005
      ],
      [
        "MS",
        -9.887095217708431
      ],
      [
        "Ġsupplement",
        -9.887095444725542
      ],
      [
        "Ġfinancial",
        -9.887095486713102
      ],
      [
        "Ġpark",
        -9.88807625170683
      ],
      [
        "MA",
        -9.888395298712776
      ],
      [
        "Ġrare",
        -9.889235117011305
      ],
      [
        "Ġstation",
        -9.890662766638805
      ],
      [
        "Ġstructures",
        -9.8919612152844
      ],
      [
        "ĠNi",
        -9.892337670906894
      ],
      [
        "Ġdecrease",
        -9.892499881405245
      ],
      [
        "Ġaccept",
        -9.893023283014584
      ],
      [
        "ski",
        -9.893621525531382
      ],
      [
        "Ġmeasures",
        -9.893742327347896
      ],
      [
        "Ġtransfer",
        -9.893803905070474
      ],
      [
        "gram",
        -9.89394523074409
      ],
      [
        "ĠPe",
        -9.893946226804108
      ],
      [
        "ĠDon",
        -9.893996542005416
      ],
      [
        "PA",
        -9.895249996699564
      ],
      [
        "Ġshot",
        -9.895707132662292
      ],
      [
        "point",
        -9.895754400616385
      ],
      [
        "cept",
        -9.89614309451036
      ],
      [
        "ED",
        -9.896900165336564
      ],
      [
        "ãģ",
        -9.897066715705929
      ],
      [
        "iz",
        -9.89759653845351
      ],
      [
        "wood",
        -9.89780469071539
      ],
      [
        "ĠHi",
        -9.898431033615134
      ],
      [
        "Ġexisting",
        -9.89943170013041
      ],
      [
        "lum",
        -9.90091307198015
      ],
      [
        "Ġengage",
        -9.9014423986215
      ],
      [
        "Ġinsects",
        -9.901770484582045
      ],
      [
        "ĠFirst",
        -9.902053756483664
      ],
      [
        "Ġactual",
        -9.902315007432517
      ],
      [
        "rip",
        -9.902330052968882
      ],
      [
        "Ġroll",
        -9.902335716757184
      ],
      [
        "Ġfashion",
        -9.902848486150102
      ],
      [
        "Ġconcern",
        -9.902921019986836
      ],
      [
        "Ġplanning",
        -9.902922451526193
      ],
      [
        "Ġannual",
        -9.90295602310896
      ],
      [
        "ĠTra",
        -9.904045100700172
      ],
      [
        "Ġaudio",
        -9.90416580879868
      ],
      [
        "ĠGra",
        -9.904454786313128
      ],
      [
        "Ġstatement",
        -9.904525184203692
      ],
      [
        "Ġfavorite",
        -9.904992328606523
      ],
      [
        "@",
        -9.905213745739294
      ],
      [
        "clu",
        -9.905419261095885
      ],
      [
        "aster",
        -9.906459247300637
      ],
      [
        "Ġdef",
        -9.90674742399164
      ],
      [
        "some",
        -9.907987901319949
      ],
      [
        "icide",
        -9.90848493170855
      ],
      [
        "ĠAlthough",
        -9.908526462760149
      ],
      [
        "Ġaspects",
        -9.90855463291007
      ],
      [
        "ĠWork",
        -9.908725414622106
      ],
      [
        "Ġpool",
        -9.910117439833837
      ],
      [
        "Ġbreath",
        -9.910798008465148
      ],
      [
        "Ġcra",
        -9.911611340181436
      ],
      [
        "Ġwritten",
        -9.911829245661266
      ],
      [
        "Ġdifferences",
        -9.91279744476349
      ],
      [
        "ĠBar",
        -9.913361660605128
      ],
      [
        "Ġhour",
        -9.913842055535405
      ],
      [
        "CA",
        -9.914225270615823
      ],
      [
        "Ġefforts",
        -9.915381419274862
      ],
      [
        "Ġmedicine",
        -9.915404664328632
      ],
      [
        "Ġschools",
        -9.915776153173896
      ],
      [
        "worm",
        -9.916081390776784
      ],
      [
        "bil",
        -9.91654928181258
      ],
      [
        "Ġhighlight",
        -9.916596515715524
      ],
      [
        "Ġreplace",
        -9.91685132585188
      ],
      [
        "Ġchannel",
        -9.917551466165769
      ],
      [
        "Ġfinding",
        -9.919494466046451
      ],
      [
        "Ġimmediately",
        -9.92003123223037
      ],
      [
        "Ġspecifically",
        -9.92012241757898
      ],
      [
        "ĠAct",
        -9.920418204558397
      ],
      [
        "Ġlab",
        -9.92143791766714
      ],
      [
        "ĠYork",
        -9.922114504505313
      ],
      [
        "Ġrep",
        -9.922571070077122
      ],
      [
        "Ġexpand",
        -9.92270326312073
      ],
      [
        "Ġrules",
        -9.922927222516472
      ],
      [
        "Ġdetect",
        -9.923426576279695
      ],
      [
        "tric",
        -9.924532450224518
      ],
      [
        "grad",
        -9.924657108554973
      ],
      [
        "Ġtrade",
        -9.925336337037804
      ],
      [
        "Ġmaintaining",
        -9.925506871633656
      ],
      [
        "Ġexpression",
        -9.92560743068365
      ],
      [
        "Ġconsult",
        -9.925790936912913
      ],
      [
        "ids",
        -9.926540849960626
      ],
      [
        "than",
        -9.927068524960314
      ],
      [
        "Ġfan",
        -9.927178506193677
      ],
      [
        "Ġaccurate",
        -9.928281969470072
      ],
      [
        "Ġbirth",
        -9.928555434827633
      ],
      [
        "Com",
        -9.929223968675345
      ],
      [
        "Ġstraight",
        -9.929664269240735
      ],
      [
        "cut",
        -9.93066227384582
      ],
      [
        "Ġallowed",
        -9.93138409590473
      ],
      [
        "emp",
        -9.93146328485411
      ],
      [
        "ĠKi",
        -9.931498110131216
      ],
      [
        "Ġformed",
        -9.931990652425782
      ],
      [
        "That",
        -9.932888176681889
      ],
      [
        "lation",
        -9.933129191583564
      ],
      [
        "ibility",
        -9.933369000715924
      ],
      [
        "ense",
        -9.933785745808416
      ],
      [
        "mount",
        -9.934074092309558
      ],
      [
        "stant",
        -9.934236127001848
      ],
      [
        "Ġdiscuss",
        -9.934424933683625
      ],
      [
        "Ġregularly",
        -9.934835769378616
      ],
      [
        "char",
        -9.935337415926302
      ],
      [
        "Ġattract",
        -9.9355697911211
      ],
      [
        "Ġroots",
        -9.936001351359034
      ],
      [
        "Ġstock",
        -9.936136112798255
      ],
      [
        "Ġfamilies",
        -9.936703107552097
      ],
      [
        "Ġforest",
        -9.93683392306531
      ],
      [
        "Ġsounds",
        -9.93685944015213
      ],
      [
        "Ġincreases",
        -9.936958628880454
      ],
      [
        "Ġgear",
        -9.937181310143124
      ],
      [
        "-like",
        -9.937270806249227
      ],
      [
        "Ġthreat",
        -9.937340740668516
      ],
      [
        "mination",
        -9.93792675945246
      ],
      [
        "SS",
        -9.938879263990732
      ],
      [
        "Ġbutton",
        -9.93940604886912
      ],
      [
        "hic",
        -9.939494954101132
      ],
      [
        "Ġegg",
        -9.93964393529201
      ],
      [
        "Ġfly",
        -9.939918081274444
      ],
      [
        "Ġcustomer",
        -9.940047051969254
      ],
      [
        "Ġvirus",
        -9.94022903378041
      ],
      [
        "Ġcovered",
        -9.940232925373811
      ],
      [
        "Ġasked",
        -9.940338382096858
      ],
      [
        "Ġatmosphere",
        -9.940397822904671
      ],
      [
        "Ġlegal",
        -9.940546123430732
      ],
      [
        "ĠDay",
        -9.94073036892109
      ],
      [
        "Ġsheet",
        -9.940851336904116
      ],
      [
        "Ġtax",
        -9.941977187502548
      ],
      [
        "TH",
        -9.94237322258039
      ],
      [
        "rod",
        -9.943810866174315
      ],
      [
        "Ġpractical",
        -9.94489059036472
      ],
      [
        "els",
        -9.944986821090716
      ],
      [
        "Ġfill",
        -9.945363133837924
      ],
      [
        "Ġexperiences",
        -9.945363236099128
      ],
      [
        "Ġcreative",
        -9.945552361889725
      ],
      [
        "ĠEurope",
        -9.945672125125794
      ],
      [
        "Ġtransport",
        -9.94618369275268
      ],
      [
        "Ġtests",
        -9.946395207630893
      ],
      [
        "Ġmolecules",
        -9.946615056679477
      ],
      [
        "Ġinstructions",
        -9.947535289146336
      ],
      [
        "Ġbasis",
        -9.948051467000342
      ],
      [
        "ĠJe",
        -9.94817907028338
      ],
      [
        "bur",
        -9.9482961593422
      ],
      [
        "Ġparent",
        -9.948384048939795
      ],
      [
        "Ġnearly",
        -9.948721182438195
      ],
      [
        "Ġgold",
        -9.949421371787698
      ],
      [
        "Ġalter",
        -9.950057837283872
      ],
      [
        "place",
        -9.950697104638534
      ],
      [
        "Our",
        -9.9507256738825
      ],
      [
        "omic",
        -9.950868737689868
      ],
      [
        "Ġratio",
        -9.952002470971948
      ],
      [
        "All",
        -9.95216705587362
      ],
      [
        "ĠEl",
        -9.952499189314562
      ],
      [
        "rial",
        -9.952797851295491
      ],
      [
        "ĠTherefore",
        -9.953044176972078
      ],
      [
        "Ġspa",
        -9.953222367730636
      ],
      [
        "ĠSince",
        -9.954045649898156
      ],
      [
        "cro",
        -9.954930710528552
      ],
      [
        "Ġfossil",
        -9.9549652942526
      ],
      [
        "riv",
        -9.955469342537324
      ],
      [
        "ĠChe",
        -9.955798405722192
      ],
      [
        "After",
        -9.95593310239926
      ],
      [
        "Ġfeeding",
        -9.9562749823447
      ],
      [
        "Ġexamples",
        -9.95666325172838
      ],
      [
        "`",
        -9.956713725277128
      ],
      [
        "Ġfear",
        -9.957016877314564
      ],
      [
        "Ġmarine",
        -9.957357807241614
      ],
      [
        "Ġaccident",
        -9.957417141342798
      ],
      [
        "ĠKe",
        -9.958182221744764
      ],
      [
        "ĠPark",
        -9.958800070296222
      ],
      [
        "Ġjournal",
        -9.959254727712024
      ],
      [
        "Ġroutine",
        -9.959952937640589
      ],
      [
        "Ġwindow",
        -9.96000603441028
      ],
      [
        "wer",
        -9.960406321249872
      ],
      [
        "Ġstaff",
        -9.96057498076672
      ],
      [
        "Ġemotional",
        -9.960620268989905
      ],
      [
        "Ex",
        -9.961137200225124
      ],
      [
        "Ġcommand",
        -9.961777623587166
      ],
      [
        "Ġpopulations",
        -9.961816582696422
      ],
      [
        "ĠInter",
        -9.962905281219475
      ],
      [
        "Ġprior",
        -9.963002923354336
      ],
      [
        "Ġtiny",
        -9.963238801411547
      ],
      [
        "Ġgets",
        -9.963302624561711
      ],
      [
        "ality",
        -9.963619147075674
      ],
      [
        "Ġdrug",
        -9.96385775154331
      ],
      [
        "Ġreact",
        -9.9658262184045
      ],
      [
        "Ġvirtual",
        -9.9659436735505
      ],
      [
        "Ġblog",
        -9.965979851254495
      ],
      [
        "Ġvariation",
        -9.966288396137037
      ],
      [
        "Ġdynamic",
        -9.966333832160734
      ],
      [
        "Ġfrequently",
        -9.96679902456684
      ],
      [
        "ĠAfrica",
        -9.967039452466125
      ],
      [
        "Ġapart",
        -9.967092359511776
      ],
      [
        "Ġnote",
        -9.967218863877312
      ],
      [
        "alk",
        -9.967224344297769
      ],
      [
        "Ġcustomers",
        -9.967452008005967
      ],
      [
        "Ġplane",
        -9.968522015995424
      ],
      [
        "Ġbin",
        -9.96950944269758
      ],
      [
        "Ġboat",
        -9.969576962741955
      ],
      [
        "Ġlooks",
        -9.972069035900926
      ],
      [
        "ĠSte",
        -9.97312567070186
      ],
      [
        "pre",
        -9.973133314049472
      ],
      [
        "Ġcars",
        -9.974198016570188
      ],
      [
        "Ġhappy",
        -9.97450333556146
      ],
      [
        "ĠCat",
        -9.974513199231312
      ],
      [
        "Ġowners",
        -9.974895787665318
      ],
      [
        "Ġpartner",
        -9.975445463156566
      ],
      [
        "Ġexhibit",
        -9.975660557604147
      ],
      [
        "Ġinvest",
        -9.97666476825326
      ],
      [
        "Ġrelative",
        -9.976697105092708
      ],
      [
        "ĠPh",
        -9.976724397531848
      ],
      [
        "ĠDepartment",
        -9.976731286690566
      ],
      [
        "Ġbecoming",
        -9.97688350020296
      ],
      [
        "CH",
        -9.976987565551491
      ],
      [
        "ĠHar",
        -9.97782849762744
      ],
      [
        "Ġadvice",
        -9.97789249768555
      ],
      [
        "Ġmeal",
        -9.978060068806606
      ],
      [
        "CO",
        -9.978215348669847
      ],
      [
        "Ġbodies",
        -9.97869808420984
      ],
      [
        "Answer",
        -9.97942963418092
      ],
      [
        "rig",
        -9.9805152001331
      ],
      [
        "pla",
        -9.981242311689105
      ],
      [
        "duc",
        -9.981261108393856
      ],
      [
        "Ġclient",
        -9.98152483000366
      ],
      [
        "Ġobserved",
        -9.981712614953922
      ],
      [
        "Ġidentified",
        -9.982553958349182
      ],
      [
        "nut",
        -9.982737738001552
      ],
      [
        "oxi",
        -9.9829693779331
      ],
      [
        "ĠArt",
        -9.98372221689069
      ],
      [
        "Ġinstall",
        -9.98401588504544
      ],
      [
        "ĠService",
        -9.984978202966095
      ],
      [
        "gla",
        -9.985080229061577
      ],
      [
        "Ġregions",
        -9.985938149067024
      ],
      [
        "Ġportion",
        -9.985962058800824
      ],
      [
        "Ġletter",
        -9.985967874609589
      ],
      [
        "atch",
        -9.98676886815684
      ],
      [
        "eek",
        -9.988253370923209
      ],
      [
        "ĠRead",
        -9.988447364610114
      ],
      [
        "Ġshade",
        -9.98846989563038
      ],
      [
        "Ġfinger",
        -9.98853836225616
      ],
      [
        "ĠFood",
        -9.988549491070543
      ],
      [
        "Ġschedule",
        -9.988629780012827
      ],
      [
        "Ġwildlife",
        -9.98885554275216
      ],
      [
        "gon",
        -9.989002846298924
      ],
      [
        "Ġlearned",
        -9.99015442991718
      ],
      [
        "Ġsensor",
        -9.99082075525858
      ],
      [
        "ING",
        -9.990992902632122
      ],
      [
        "mac",
        -9.991046997486311
      ],
      [
        "ĠUK",
        -9.991069274435883
      ],
      [
        "Ġemail",
        -9.99149782508489
      ],
      [
        "Ġregarding",
        -9.991849652013226
      ],
      [
        "las",
        -9.992355385274855
      ],
      [
        "Ġsociety",
        -9.99270312497379
      ],
      [
        "atom",
        -9.992841438062232
      ],
      [
        "loc",
        -9.992845553093652
      ],
      [
        "My",
        -9.992890748170517
      ],
      [
        "Ġbillion",
        -9.993296862788675
      ],
      [
        "...Ċ",
        -9.993497820353143
      ],
      [
        "Ġindoor",
        -9.993780805427471
      ],
      [
        "Ġsolve",
        -9.993833881090692
      ],
      [
        "gue",
        -9.994113892341511
      ],
      [
        "gam",
        -9.994186826970948
      ],
      [
        "Remember",
        -9.994429867035832
      ],
      [
        "Ġresource",
        -9.994570732692964
      ],
      [
        "lex",
        -9.994733371067747
      ],
      [
        "saving",
        -9.99524352560256
      ],
      [
        "Ġrates",
        -9.99550166808072
      ],
      [
        "Ġrefer",
        -9.995796875673896
      ],
      [
        "take",
        -9.995847072146296
      ],
      [
        "Ġinterested",
        -9.996044134126617
      ],
      [
        "Ġleaf",
        -9.99616704024838
      ],
      [
        "ography",
        -9.996959722928684
      ],
      [
        "Ġconclusion",
        -9.997886714549052
      ],
      [
        "Ġdangerous",
        -9.9987776053557
      ],
      [
        "Ġleader",
        -10.00027716410755
      ],
      [
        "Ġdie",
        -10.00057168124036
      ],
      [
        "Ġcheese",
        -10.001266983594286
      ],
      [
        "Ġimproved",
        -10.001273006270983
      ],
      [
        "-free",
        -10.001529467767714
      ],
      [
        "ram",
        -10.00153090125637
      ],
      [
        "ĠProgram",
        -10.001988638115169
      ],
      [
        "wise",
        -10.002560388688448
      ],
      [
        "Ġzone",
        -10.003244320573817
      ],
      [
        "ĠUsing",
        -10.003385415222857
      ],
      [
        "ĠDog",
        -10.00383729493444
      ],
      [
        "Ġplaying",
        -10.004649897903304
      ],
      [
        "pect",
        -10.00511085579247
      ],
      [
        "inter",
        -10.005121033920425
      ],
      [
        "Ġteacher",
        -10.0054640543323
      ],
      [
        "Ġdiverse",
        -10.00632248345195
      ],
      [
        "void",
        -10.006985200069051
      ],
      [
        "Ġnest",
        -10.007089277411843
      ],
      [
        "lus",
        -10.007264204789212
      ],
      [
        "DC",
        -10.00752180541175
      ],
      [
        "Ġstrain",
        -10.007582703423802
      ],
      [
        "ddle",
        -10.007665253017416
      ],
      [
        "Ġhelpful",
        -10.008125551793707
      ],
      [
        "Î",
        -10.009598136774493
      ],
      [
        "cess",
        -10.009719467441904
      ],
      [
        "Ġwanted",
        -10.010154623776517
      ],
      [
        "Ġalcohol",
        -10.010238372456492
      ],
      [
        "Ġcrystal",
        -10.01026682504225
      ],
      [
        "Ġplayers",
        -10.011044288585706
      ],
      [
        "cient",
        -10.011125712609346
      ],
      [
        "âĢĻt",
        -10.012070609828548
      ],
      [
        "TE",
        -10.012793003335858
      ],
      [
        "Ġkitchen",
        -10.013184598290106
      ],
      [
        "active",
        -10.013519274342814
      ],
      [
        "Ġnumerous",
        -10.013554373512957
      ],
      [
        "zz",
        -10.014571166090883
      ],
      [
        "gene",
        -10.014855732531926
      ],
      [
        "Ġcomprehensive",
        -10.01503733053644
      ],
      [
        "Ġmixture",
        -10.015404099969476
      ],
      [
        "Ġcoat",
        -10.017334481275496
      ],
      [
        "Ġmold",
        -10.018197446466244
      ],
      [
        "Ġsecure",
        -10.01833476245991
      ],
      [
        "Ġsit",
        -10.01864848745456
      ],
      [
        "||",
        -10.019201687120615
      ],
      [
        "Ġwa",
        -10.019741704633136
      ],
      [
        "Ġformula",
        -10.019799684175764
      ],
      [
        "pu",
        -10.01980737515012
      ],
      [
        "Ġaware",
        -10.019838249204753
      ],
      [
        "Ġpr",
        -10.020500653279912
      ],
      [
        "Ġgrain",
        -10.020676399157956
      ],
      [
        "rap",
        -10.020952052701988
      ],
      [
        "Ġexperienced",
        -10.021054147608698
      ],
      [
        "Ġtransform",
        -10.02139915549607
      ],
      [
        "Ġsurvive",
        -10.022298505634032
      ],
      [
        "proof",
        -10.02259106493875
      ],
      [
        "ĠAustralia",
        -10.022712095802277
      ],
      [
        "Ġtransition",
        -10.023684390989224
      ],
      [
        "Ġsuggests",
        -10.024114791087342
      ],
      [
        "Ġequation",
        -10.024312336787307
      ],
      [
        "ĠOver",
        -10.024886692189767
      ],
      [
        "Ġpolicy",
        -10.025013487465133
      ],
      [
        "Ġneuro",
        -10.02562140956103
      ],
      [
        "Ġpainting",
        -10.025956532960665
      ],
      [
        "RNA",
        -10.026480593169346
      ],
      [
        "ĠGi",
        -10.02687112007516
      ],
      [
        "Ġhealthcare",
        -10.02691463452894
      ],
      [
        "NA",
        -10.027936897932175
      ],
      [
        "Ġreality",
        -10.02799432587732
      ],
      [
        "Ġanxiety",
        -10.029048067689937
      ],
      [
        "Ġmaybe",
        -10.02922760888644
      ],
      [
        "Ġremoved",
        -10.030155167939284
      ],
      [
        "ĠGreen",
        -10.030663163620058
      ],
      [
        "Ġessay",
        -10.031312390297384
      ],
      [
        "Ġdistinct",
        -10.032618254484625
      ],
      [
        "NE",
        -10.033204179946807
      ],
      [
        "cop",
        -10.033526999300138
      ],
      [
        "Ġestablished",
        -10.034286822737952
      ],
      [
        "Ġstandards",
        -10.034489755160571
      ],
      [
        "ending",
        -10.034824308382971
      ],
      [
        "Ġspec",
        -10.03501395215082
      ],
      [
        "Ġheld",
        -10.035100742114144
      ],
      [
        "bar",
        -10.035340317932445
      ],
      [
        "Ġvaccine",
        -10.035512942169232
      ],
      [
        "Ġsurgery",
        -10.035522703735232
      ],
      [
        "Ġblend",
        -10.035817170134154
      ],
      [
        "Ġhelping",
        -10.036482764823582
      ],
      [
        "Ġdiscussion",
        -10.036733574075964
      ],
      [
        "US",
        -10.036876809227737
      ],
      [
        "Le",
        -10.0379313551141
      ],
      [
        "Ġpollution",
        -10.038402806388625
      ],
      [
        "Ġadjust",
        -10.038673839128595
      ],
      [
        "ĠEuropean",
        -10.039486353091242
      ],
      [
        "Ġapproximately",
        -10.039526640270433
      ],
      [
        "Ġartificial",
        -10.039638946780954
      ],
      [
        "Ġchanged",
        -10.039691188376082
      ],
      [
        "which",
        -10.039870458871835
      ],
      [
        "Find",
        -10.041214059704869
      ],
      [
        "lite",
        -10.041315270611152
      ],
      [
        "cip",
        -10.041855696967668
      ],
      [
        "ĠChina",
        -10.041981624552577
      ],
      [
        "ĠAu",
        -10.042355687289737
      ],
      [
        "Ġinfections",
        -10.042506745344634
      ],
      [
        "ender",
        -10.042547835382218
      ],
      [
        "ĠPart",
        -10.042627988012663
      ],
      [
        "Ġcreation",
        -10.042634994567262
      ],
      [
        "ĠLu",
        -10.042675204697252
      ],
      [
        "Ġreduction",
        -10.043106059615155
      ],
      [
        "Ġdesired",
        -10.043202314313682
      ],
      [
        "Ġbrush",
        -10.0436643880318
      ],
      [
        "rator",
        -10.043980729612649
      ],
      [
        "Ġindependent",
        -10.044596265454825
      ],
      [
        "Ġtight",
        -10.04534548142844
      ],
      [
        "lines",
        -10.045553750601968
      ],
      [
        "Ġsouth",
        -10.046083616917851
      ],
      [
        "Ġtemp",
        -10.04633775199169
      ],
      [
        "don",
        -10.04654229131201
      ],
      [
        "Fl",
        -10.046908187488915
      ],
      [
        "Ġcrop",
        -10.047012855306669
      ],
      [
        "Ġpets",
        -10.047508703808528
      ],
      [
        "Ġfoundation",
        -10.047648860237867
      ],
      [
        "Ġupper",
        -10.047796817675836
      ],
      [
        "sting",
        -10.047989659235665
      ],
      [
        "Ġtransmission",
        -10.049771522469648
      ],
      [
        "Ġoffering",
        -10.050299057204231
      ],
      [
        "ĠPlan",
        -10.050319218473463
      ],
      [
        "Ġbusinesses",
        -10.05037940197062
      ],
      [
        "Ġlighting",
        -10.050423646310188
      ],
      [
        "Ġmorning",
        -10.05082399389317
      ],
      [
        "Ġhospital",
        -10.05125640841271
      ],
      [
        "Ġextreme",
        -10.051868963307856
      ],
      [
        "Ġskill",
        -10.052330269478352
      ],
      [
        "Ġsharp",
        -10.052916593417097
      ],
      [
        "Understanding",
        -10.052948040691794
      ],
      [
        "fil",
        -10.053167666730047
      ],
      [
        "Ġmuscles",
        -10.054119889388849
      ],
      [
        "Ġfailure",
        -10.054609341244827
      ],
      [
        "Please",
        -10.054695383622857
      ],
      [
        "tim",
        -10.054944689840324
      ],
      [
        "part",
        -10.05556662161916
      ],
      [
        "Ġassessment",
        -10.055692334977753
      ],
      [
        "Ġdefined",
        -10.056340222923028
      ],
      [
        "uk",
        -10.05657912450318
      ],
      [
        "Ġcultural",
        -10.0573195060352
      ],
      [
        "Ġclassroom",
        -10.057445601701382
      ],
      [
        "ĠVe",
        -10.058265107235124
      ],
      [
        "Ġpe",
        -10.05842335705224
      ],
      [
        "Ġreceived",
        -10.058662297445602
      ],
      [
        "Use",
        -10.058905053035076
      ],
      [
        "Ġimprovement",
        -10.059118396649094
      ],
      [
        "Ġexternal",
        -10.05917724554758
      ],
      [
        "Ġthick",
        -10.05932719564742
      ],
      [
        "Ġassist",
        -10.05973697126146
      ],
      [
        "Ġcre",
        -10.059877470018275
      ],
      [
        "ĠHer",
        -10.060142466457387
      ],
      [
        "Ġexamine",
        -10.06022067595927
      ],
      [
        "Ġdetail",
        -10.061765957419665
      ],
      [
        "Ġtold",
        -10.061890070699215
      ],
      [
        "Ġcounter",
        -10.06191634214681
      ],
      [
        "Ġconcrete",
        -10.063028126970524
      ],
      [
        "Ġbeneficial",
        -10.063448436571491
      ],
      [
        "Ġlog",
        -10.063770964006348
      ],
      [
        "Ġengineering",
        -10.063919918440464
      ],
      [
        "Ġancient",
        -10.06398563535468
      ],
      [
        "gel",
        -10.064153849860991
      ],
      [
        "Ġworked",
        -10.064447784447417
      ],
      [
        "ĠIndian",
        -10.065222465553472
      ],
      [
        "ĠWell",
        -10.065508493271984
      ],
      [
        "lig",
        -10.067068044008575
      ],
      [
        "Ġvoice",
        -10.067303017976066
      ],
      [
        "Ġfruits",
        -10.067746973311314
      ],
      [
        "Ġnice",
        -10.0678135268136
      ],
      [
        "Ġaircraft",
        -10.067997213108146
      ],
      [
        "Ġindustrial",
        -10.068034593855517
      ],
      [
        "Ġprepare",
        -10.068469809664249
      ],
      [
        "Ġchemicals",
        -10.068701313603562
      ],
      [
        "ĠWhether",
        -10.069118215399987
      ],
      [
        "Ġshowed",
        -10.06916676694143
      ],
      [
        "Ġperspective",
        -10.069747599827364
      ],
      [
        "Ġhighest",
        -10.069882190208707
      ],
      [
        "ĠRiver",
        -10.070261026115618
      ],
      [
        "ement",
        -10.071114980063532
      ],
      [
        "uni",
        -10.07269435292626
      ],
      [
        "Ġcredit",
        -10.072745814270297
      ],
      [
        "Ġsports",
        -10.072846685221174
      ],
      [
        "Ġdental",
        -10.07304571956548
      ],
      [
        "ĠSw",
        -10.073319055419049
      ],
      [
        "Ġgrown",
        -10.073414861811678
      ],
      [
        "-year",
        -10.07467055117426
      ],
      [
        "Ġwait",
        -10.074712370429529
      ],
      [
        "Yes",
        -10.075007624787158
      ],
      [
        "/or",
        -10.075022103476286
      ],
      [
        "ken",
        -10.075081854333844
      ],
      [
        "Ġsmart",
        -10.07517997761902
      ],
      [
        "Ġearlier",
        -10.075545680877177
      ],
      [
        "pel",
        -10.075800213249192
      ],
      [
        "Ġteach",
        -10.076166608414658
      ],
      [
        "Ġinjury",
        -10.076185638150456
      ],
      [
        "rush",
        -10.07626320374032
      ],
      [
        "Ġmeeting",
        -10.076285821837857
      ],
      [
        "Ġsuit",
        -10.076713697885417
      ],
      [
        "Ġsell",
        -10.07682870450468
      ],
      [
        "Ġyield",
        -10.0770262749534
      ],
      [
        "Ġoperate",
        -10.0779104269967
      ],
      [
        "Ġconcerns",
        -10.07859230881624
      ],
      [
        "Ġoptimal",
        -10.07918970365796
      ],
      [
        "Ġwidely",
        -10.07927103336074
      ],
      [
        "Ġheard",
        -10.079608349297034
      ],
      [
        "Ġmaster",
        -10.079754148257916
      ],
      [
        "struct",
        -10.07992493764448
      ],
      [
        "IP",
        -10.08004312090596
      ],
      [
        "rum",
        -10.080067785937713
      ],
      [
        "Ġsurvey",
        -10.080087769251351
      ],
      [
        "Â·",
        -10.08016937268089
      ],
      [
        "Ġprimarily",
        -10.080786178138938
      ],
      [
        "Ġdefinition",
        -10.080830531672149
      ],
      [
        "Ġbat",
        -10.080886918252911
      ],
      [
        "Ġcareer",
        -10.080892590394356
      ],
      [
        "avi",
        -10.081036569746832
      ],
      [
        "plo",
        -10.081333453093745
      ],
      [
        "Ġcontrast",
        -10.082492586797969
      ],
      [
        "Ġexposed",
        -10.082518236018748
      ],
      [
        "dam",
        -10.082696311929883
      ],
      [
        "with",
        -10.082860020590894
      ],
      [
        "position",
        -10.083067544877578
      ],
      [
        "Ġharmful",
        -10.083723409031215
      ],
      [
        "Ġformation",
        -10.084063801918427
      ],
      [
        "Ġcontinuous",
        -10.084085112204194
      ],
      [
        "æ",
        -10.08410473894438
      ],
      [
        "Ġbank",
        -10.084829985052403
      ],
      [
        "Ġnorth",
        -10.085307616972983
      ],
      [
        "Ġsmell",
        -10.08542226686429
      ],
      [
        "Ġformat",
        -10.085888328373338
      ],
      [
        "Ġtypical",
        -10.086253229460324
      ],
      [
        "Ġmostly",
        -10.086364290655707
      ],
      [
        "Ġtalking",
        -10.086669062111795
      ],
      [
        "ĠChi",
        -10.087093970276364
      ],
      [
        "win",
        -10.087600199941535
      ],
      [
        "Ġscar",
        -10.087749083200576
      ],
      [
        "Ġtrust",
        -10.08839425632411
      ],
      [
        "Ġassess",
        -10.088513326488336
      ],
      [
        "Ġclasses",
        -10.089391115478216
      ],
      [
        "standing",
        -10.08956087371931
      ],
      [
        "Ġbiological",
        -10.089818397204557
      ],
      [
        "soci",
        -10.089885873717336
      ],
      [
        "ĠDuring",
        -10.090354862538709
      ],
      [
        "Most",
        -10.09069156859083
      ],
      [
        "Ġheating",
        -10.09117315919432
      ],
      [
        "mel",
        -10.091428003300107
      ],
      [
        "Ġcatch",
        -10.091454456621667
      ],
      [
        "Ġdish",
        -10.092783855770085
      ],
      [
        "Ġprivate",
        -10.09369176065683
      ],
      [
        "Ġreleased",
        -10.094638971834192
      ],
      [
        "Ġsecret",
        -10.094703353587663
      ],
      [
        "Ġinstrument",
        -10.09539975159344
      ],
      [
        "Ġvehicles",
        -10.09630101008399
      ],
      [
        "unc",
        -10.09638560271073
      ],
      [
        "Ġplug",
        -10.097021737892716
      ],
      [
        "Ġprepared",
        -10.097022299929773
      ],
      [
        "Ġinvestment",
        -10.097161832747654
      ],
      [
        "Ġbottle",
        -10.09787009612246
      ],
      [
        "Ġconstruct",
        -10.098065188369384
      ],
      [
        "Ġrice",
        -10.099043850668332
      ],
      [
        "hum",
        -10.09904547005649
      ],
      [
        "Ġsaying",
        -10.099054794719546
      ],
      [
        "Ġraw",
        -10.099756302043598
      ],
      [
        "lish",
        -10.099822047552278
      ],
      [
        "rine",
        -10.099873819603312
      ],
      [
        "Your",
        -10.100270961656935
      ],
      [
        "Ġeventually",
        -10.100438389957455
      ],
      [
        "Ġjump",
        -10.10065918466262
      ],
      [
        "Ġcomposition",
        -10.100748849555236
      ],
      [
        "Ġinteract",
        -10.100966208524929
      ],
      [
        "Ġchip",
        -10.10121995439258
      ],
      [
        "Ġmanual",
        -10.101819090249464
      ],
      [
        "lap",
        -10.102474603481832
      ],
      [
        "Ġseal",
        -10.102803641378843
      ],
      [
        "Ġshell",
        -10.103093660188277
      ],
      [
        "Ġagent",
        -10.103412183883409
      ],
      [
        "Ġoperations",
        -10.103868619458051
      ],
      [
        "Ġseek",
        -10.104115176579349
      ],
      [
        "NO",
        -10.104270460416611
      ],
      [
        "Ġexperts",
        -10.104554398259928
      ],
      [
        "Ġthread",
        -10.105197654850857
      ],
      [
        "Ġwash",
        -10.105516132559684
      ],
      [
        "Ġnaturally",
        -10.105924572487012
      ],
      [
        "Ġdrain",
        -10.107332185189852
      ],
      [
        "Ġpl",
        -10.108405059464127
      ],
      [
        "Ġstrategy",
        -10.10850110051746
      ],
      [
        "Ġrelevant",
        -10.10860294836954
      ],
      [
        "Ġdecisions",
        -10.109238151072248
      ],
      [
        "Ġlayers",
        -10.110015985585628
      ],
      [
        "Ġtoxic",
        -10.110117274838595
      ],
      [
        "Ġdisc",
        -10.1109185135139
      ],
      [
        "Ġlatest",
        -10.110999611242695
      ],
      [
        "tech",
        -10.111360007458975
      ],
      [
        "iness",
        -10.111647482695142
      ],
      [
        "Ġcrack",
        -10.111747579694155
      ],
      [
        "ĠTime",
        -10.11229798220224
      ],
      [
        "Ġleak",
        -10.112607701294545
      ],
      [
        "EC",
        -10.112989845121236
      ],
      [
        "Ġquantum",
        -10.114177404634114
      ],
      [
        "Ġdirt",
        -10.114225704924284
      ],
      [
        "gro",
        -10.1147366827444
      ],
      [
        "Ġru",
        -10.115476504332186
      ],
      [
        "load",
        -10.116043641772537
      ],
      [
        "Ġadvis",
        -10.116066985548484
      ],
      [
        "ĠEducation",
        -10.116069502416646
      ],
      [
        "ancy",
        -10.116440751899033
      ],
      [
        "Ġdetailed",
        -10.116517129190942
      ],
      [
        "ĠDoes",
        -10.116764921650764
      ],
      [
        "ĠGreat",
        -10.118490099118285
      ],
      [
        "Ġstrip",
        -10.118762998892072
      ],
      [
        "Ġscene",
        -10.118949941757515
      ],
      [
        "Ġnamed",
        -10.119206856759105
      ],
      [
        "lac",
        -10.119430786055066
      ],
      [
        "Ġtrigger",
        -10.119683767518133
      ],
      [
        "Ġrisks",
        -10.119691416853136
      ],
      [
        "Ġrandom",
        -10.11976694637967
      ],
      [
        "Ġplanting",
        -10.119971311087106
      ],
      [
        "Ġorganisms",
        -10.120156783537109
      ],
      [
        "Ġabsorb",
        -10.12153557660136
      ],
      [
        "Ġtoward",
        -10.121754905855951
      ],
      [
        "Ġsettings",
        -10.12229149536926
      ],
      [
        "Ġextend",
        -10.123807583034452
      ],
      [
        "Ġoperating",
        -10.124160663722751
      ],
      [
        "Ġfinish",
        -10.124757911435015
      ],
      [
        "Ġtreated",
        -10.124780513445335
      ],
      [
        "Ġcarefully",
        -10.125628753846568
      ],
      [
        "glo",
        -10.12580947081112
      ],
      [
        "</",
        -10.1258354897849
      ],
      [
        "ĠJohn",
        -10.126412321565656
      ],
      [
        "Ġfollowed",
        -10.126763376477369
      ],
      [
        "Ġdrugs",
        -10.127119582017766
      ],
      [
        "ĠKeep",
        -10.12714420171137
      ],
      [
        "ĠWal",
        -10.128385313945088
      ],
      [
        "Ġlifestyle",
        -10.128728483630804
      ],
      [
        "but",
        -10.128764976968474
      ],
      [
        "Once",
        -10.128989701498474
      ],
      [
        "ĠBen",
        -10.12974480393846
      ],
      [
        "ĠFrench",
        -10.130222685672644
      ],
      [
        "ĠTu",
        -10.130805835044278
      ],
      [
        "Ġsignals",
        -10.131289798949584
      ],
      [
        "potentially",
        -10.131928587535832
      ],
      [
        "Ġcraft",
        -10.132302242687
      ],
      [
        "Ġspray",
        -10.132543908450202
      ],
      [
        "urg",
        -10.133240198873722
      ],
      [
        "SC",
        -10.133485143662469
      ],
      [
        "Ġlens",
        -10.133492927646648
      ],
      [
        "ĠCanada",
        -10.133729783036124
      ],
      [
        "Ġeight",
        -10.134094711539316
      ],
      [
        "vision",
        -10.134397933304992
      ],
      [
        "Post",
        -10.135201127935916
      ],
      [
        "Ġutilize",
        -10.135203888723856
      ],
      [
        "Ġthrow",
        -10.135712757299984
      ],
      [
        "Ġlay",
        -10.135754484086371
      ],
      [
        "under",
        -10.135986520947974
      ],
      [
        "Ġbeauty",
        -10.136173981335272
      ],
      [
        "Ġreliable",
        -10.136959420851142
      ],
      [
        "Ġstories",
        -10.137037026869592
      ],
      [
        "-quality",
        -10.137328079031958
      ],
      [
        "Ġdream",
        -10.137380968140052
      ],
      [
        "more",
        -10.137830541084622
      ],
      [
        "Ġinvolve",
        -10.138548361066
      ],
      [
        "Ġintroduced",
        -10.13883414845827
      ],
      [
        "Ġtitle",
        -10.13913647935964
      ],
      [
        "ference",
        -10.139154896684175
      ],
      [
        "clo",
        -10.139487539637004
      ],
      [
        "capable",
        -10.139601214097109
      ],
      [
        "ĠVer",
        -10.139820102658494
      ],
      [
        "Ġsunlight",
        -10.139958510361044
      ],
      [
        "Ġrace",
        -10.140082646428818
      ],
      [
        "Ġobservation",
        -10.140160285572666
      ],
      [
        "Conclusion",
        -10.14115941561501
      ],
      [
        "Ġmanufacturing",
        -10.141369852570064
      ],
      [
        "Ġmagnetic",
        -10.1416926853539
      ],
      [
        "Ġscore",
        -10.141966456547276
      ],
      [
        "Ġfields",
        -10.142089557322157
      ],
      [
        "ctic",
        -10.142481552843227
      ],
      [
        "Ġbra",
        -10.142898366251286
      ],
      [
        "Ġnation",
        -10.142934265104923
      ],
      [
        "Ġchoosing",
        -10.14352994614575
      ],
      [
        "Ġfarmers",
        -10.144583185536645
      ],
      [
        "itch",
        -10.14464397515653
      ],
      [
        "eel",
        -10.144839539774493
      ],
      [
        "Ġnerve",
        -10.145462435144193
      ],
      [
        "RI",
        -10.145471814834162
      ],
      [
        "Ġthousands",
        -10.145921601088162
      ],
      [
        "Ġroute",
        -10.146019276401598
      ],
      [
        "Ġstored",
        -10.146541496977228
      ],
      [
        "Ġconsistent",
        -10.14692650976254
      ],
      [
        "Ġrelationships",
        -10.146932075436029
      ],
      [
        "SP",
        -10.14740735410535
      ],
      [
        "Ġbrought",
        -10.147440729131205
      ],
      [
        "Ġmountain",
        -10.147443720756026
      ],
      [
        "Ġworse",
        -10.147526537803866
      ],
      [
        "Ġprocedure",
        -10.147710661008924
      ],
      [
        "Ġpowder",
        -10.14786432427353
      ],
      [
        "tub",
        -10.14786799603352
      ],
      [
        "Ġraise",
        -10.148104289501768
      ],
      [
        "fully",
        -10.148265064034607
      ],
      [
        "inate",
        -10.148918435583418
      ],
      [
        "Ġseat",
        -10.149051983784664
      ],
      [
        "Ġbatteries",
        -10.149666017911462
      ],
      [
        "ĠSh",
        -10.149807913848417
      ],
      [
        "Ġrealize",
        -10.150202874305888
      ],
      [
        "ĠJune",
        -10.150219760348968
      ],
      [
        "cher",
        -10.150785063226612
      ],
      [
        "?\"",
        -10.15087394534476
      ],
      [
        "Ġunits",
        -10.150964116592268
      ],
      [
        "RA",
        -10.15159243367128
      ],
      [
        "Ġzero",
        -10.151825813461386
      ],
      [
        "Ġcoffee",
        -10.152322370942924
      ],
      [
        "LA",
        -10.152344578796
      ],
      [
        "Ġfindings",
        -10.152625018412012
      ],
      [
        "ET",
        -10.15275201414535
      ],
      [
        "ators",
        -10.153944912516646
      ],
      [
        "ĠGoogle",
        -10.154133625467798
      ],
      [
        "Ġhydrogen",
        -10.154497246238629
      ],
      [
        "day",
        -10.1546204139762
      ],
      [
        "Ġfishing",
        -10.15517438568064
      ],
      [
        "eck",
        -10.155893899860418
      ],
      [
        "nov",
        -10.15595843758446
      ],
      [
        "hol",
        -10.156014827642869
      ],
      [
        "Ġprecise",
        -10.15626729110632
      ],
      [
        "Ġcable",
        -10.156726807601702
      ],
      [
        "Ġplayer",
        -10.15684683324539
      ],
      [
        "most",
        -10.15732706849636
      ],
      [
        "get",
        -10.157524560726117
      ],
      [
        "Ġwaves",
        -10.157817390186572
      ],
      [
        "Ġauto",
        -10.15845062727935
      ],
      [
        "Ġclinical",
        -10.15849989564954
      ],
      [
        "fact",
        -10.159195940827622
      ],
      [
        "MP",
        -10.15928428414771
      ],
      [
        "Ġassume",
        -10.15930714173436
      ],
      [
        "Ġdetermined",
        -10.15969740846742
      ],
      [
        "EN",
        -10.160630444258093
      ],
      [
        "Ġstring",
        -10.160790660531127
      ],
      [
        "Ġaudience",
        -10.160825589571754
      ],
      [
        "ĠBlack",
        -10.161129140467724
      ],
      [
        "Ġmonitoring",
        -10.16143650553119
      ],
      [
        "Finally",
        -10.161689967845168
      ],
      [
        "-being",
        -10.162255797138744
      ],
      [
        "ĠAdd",
        -10.162281191174088
      ],
      [
        "Ġkept",
        -10.163357043936898
      ],
      [
        "Ġhole",
        -10.16464823068816
      ],
      [
        "ĠBritish",
        -10.16517319207763
      ],
      [
        "Ġaspect",
        -10.165353913612355
      ],
      [
        "Ġadvantages",
        -10.165566919217458
      ],
      [
        "Ġintelligence",
        -10.16619731782866
      ],
      [
        "that",
        -10.166266199508758
      ],
      [
        "node",
        -10.16673716842222
      ],
      [
        "Ġbloom",
        -10.16691184011592
      ],
      [
        "Ġdiagram",
        -10.167011778487431
      ],
      [
        "Ġperformed",
        -10.167400307773791
      ],
      [
        "Ġpop",
        -10.167940573820248
      ],
      [
        "Ġmelt",
        -10.16809913730576
      ],
      [
        "ĠMarch",
        -10.168154638266406
      ],
      [
        "Ġcombined",
        -10.168201081110782
      ],
      [
        "rill",
        -10.168796006074574
      ],
      [
        "Ģ",
        -10.169313872150443
      ],
      [
        "vari",
        -10.169315913862963
      ],
      [
        "flow",
        -10.16979688542848
      ],
      [
        "Many",
        -10.169950091407683
      ],
      [
        "Ġborn",
        -10.170076865611746
      ],
      [
        "-time",
        -10.170285001077552
      ],
      [
        "Ġport",
        -10.170299830746297
      ],
      [
        "Ġdensity",
        -10.17054271657879
      ],
      [
        "ĠClass",
        -10.17094576501858
      ],
      [
        "Ġstatus",
        -10.171268882668388
      ],
      [
        "Ġminimum",
        -10.171824493346003
      ],
      [
        "Ġsamples",
        -10.172400280470516
      ],
      [
        "Ġbreeding",
        -10.172665737490735
      ],
      [
        "logic",
        -10.173160679510389
      ],
      [
        "Ġbulb",
        -10.173169840015747
      ],
      [
        "Ġcollege",
        -10.173180559346488
      ],
      [
        "Ġvalve",
        -10.173297354327484
      ],
      [
        "Ġmainly",
        -10.173872662157017
      ],
      [
        "Ġconversation",
        -10.173887817522628
      ],
      [
        "Ġamounts",
        -10.17420634529281
      ],
      [
        "arm",
        -10.174399415446846
      ],
      [
        "Ġcast",
        -10.174671973886449
      ],
      [
        "Ġharvest",
        -10.174728977565772
      ],
      [
        "Ġawareness",
        -10.175186091236396
      ],
      [
        "Ġsnake",
        -10.175412789452254
      ],
      [
        "Ġreward",
        -10.176602440697264
      ],
      [
        "bul",
        -10.17676983527649
      ],
      [
        "scribe",
        -10.176937943370945
      ],
      [
        "rated",
        -10.177963297912632
      ],
      [
        "ME",
        -10.178743439161806
      ],
      [
        "Ġden",
        -10.178978501029173
      ],
      [
        "ĠApril",
        -10.179011699503532
      ],
      [
        "Ġsent",
        -10.179107152134698
      ],
      [
        "ĠAb",
        -10.17921302967221
      ],
      [
        "referred",
        -10.179389836667724
      ],
      [
        "Ġcompost",
        -10.179516973721515
      ],
      [
        "see",
        -10.18011778719536
      ],
      [
        "Ġmembrane",
        -10.180376945003076
      ],
      [
        "ening",
        -10.180710963480657
      ],
      [
        "radi",
        -10.18085452042729
      ],
      [
        "Ġamazing",
        -10.181417177168395
      ],
      [
        "Ġsold",
        -10.181523318537748
      ],
      [
        "Â°",
        -10.181566775962404
      ],
      [
        "ĠOut",
        -10.18173327218355
      ],
      [
        "Ġwalls",
        -10.181772053022422
      ],
      [
        "Ġconfirm",
        -10.18187790776324
      ],
      [
        "Ġplans",
        -10.181907272608893
      ],
      [
        "Ġeducational",
        -10.182090573534172
      ],
      [
        "Ġdust",
        -10.182405090074884
      ],
      [
        "ĠIsland",
        -10.182414822389882
      ],
      [
        "lab",
        -10.18280999440465
      ],
      [
        "-friendly",
        -10.183174388544488
      ],
      [
        "Ġpack",
        -10.183717680676788
      ],
      [
        "verse",
        -10.18438465569936
      ],
      [
        "ways",
        -10.184421591242836
      ],
      [
        "Ġsector",
        -10.18462779173879
      ],
      [
        "Ġchallenging",
        -10.18470880328084
      ],
      [
        "Ġfur",
        -10.18474596561997
      ],
      [
        "Ġuniverse",
        -10.185319398626008
      ],
      [
        "ĠRed",
        -10.187687636292512
      ],
      [
        "ĠPC",
        -10.18783832722032
      ],
      [
        "Ġimproving",
        -10.187901907067769
      ],
      [
        "Ġmachines",
        -10.188612917997627
      ],
      [
        "Ġmono",
        -10.188922137391808
      ],
      [
        "ush",
        -10.189501275548873
      ],
      [
        "ĠDesign",
        -10.189766083807813
      ],
      [
        "Ġorganizations",
        -10.18978035604792
      ],
      [
        "Ġmobile",
        -10.189901059316387
      ],
      [
        "ended",
        -10.190072379588198
      ],
      [
        "Ġmeasured",
        -10.19124804813146
      ],
      [
        "ching",
        -10.19176644484129
      ],
      [
        "cos",
        -10.19300031257852
      ],
      [
        "Ġnano",
        -10.193025824834372
      ],
      [
        "Ġseven",
        -10.193035957579328
      ],
      [
        "Ġboost",
        -10.193085115452131
      ],
      [
        "Ġargument",
        -10.19359584783654
      ],
      [
        "Ġbill",
        -10.193861826326168
      ],
      [
        "Ġsituations",
        -10.19430994823058
      ],
      [
        "Ġfundamental",
        -10.194684545324828
      ],
      [
        "ĠPeople",
        -10.196522493901671
      ],
      [
        "Ġeliminate",
        -10.196594023660008
      ],
      [
        "Ġchronic",
        -10.196705458637869
      ],
      [
        "rect",
        -10.196867765279224
      ],
      [
        "coming",
        -10.197529007290866
      ],
      [
        "cell",
        -10.197539708612355
      ],
      [
        "ĠSch",
        -10.197657679809176
      ],
      [
        "Ġbroad",
        -10.198575707432385
      ],
      [
        "truly",
        -10.1987875009196
      ],
      [
        "Ġopinion",
        -10.199545739117786
      ],
      [
        "Ġisland",
        -10.20011388044568
      ],
      [
        "ĠInternational",
        -10.200159342712126
      ],
      [
        "Ġphotos",
        -10.200338448840252
      ],
      [
        "Ġlegs",
        -10.20180541552111
      ],
      [
        "ĠBio",
        -10.201954252511213
      ],
      [
        "UR",
        -10.202503736464818
      ],
      [
        "Ġguy",
        -10.202681863438606
      ],
      [
        "plenty",
        -10.202869887001825
      ],
      [
        "AC",
        -10.203100757079554
      ],
      [
        "Ġworry",
        -10.203122626327302
      ],
      [
        "ĠLight",
        -10.203747890410432
      ],
      [
        "Ġloose",
        -10.204080879523676
      ],
      [
        "house",
        -10.20441734007477
      ],
      [
        "Li",
        -10.205227403049555
      ],
      [
        "UN",
        -10.205453807251962
      ],
      [
        "CT",
        -10.205536561860391
      ],
      [
        "Ġdecide",
        -10.205693618453394
      ],
      [
        "Ġmechanism",
        -10.20581794172782
      ],
      [
        "Ġtrick",
        -10.20680415105115
      ],
      [
        "].",
        -10.20707962104119
      ],
      [
        "Ġfirm",
        -10.207430287919196
      ],
      [
        "Ġflo",
        -10.207431895846812
      ],
      [
        "Ġmovie",
        -10.207685499202723
      ],
      [
        "cular",
        -10.207797342910364
      ],
      [
        "Ġsensitive",
        -10.20802174967248
      ],
      [
        "morph",
        -10.20841590676634
      ],
      [
        "Ġperhaps",
        -10.20862222059853
      ],
      [
        "Ġappears",
        -10.20929721536115
      ],
      [
        "Ġwish",
        -10.209912715238064
      ],
      [
        "Ġcloud",
        -10.210593950996628
      ],
      [
        "ĠSho",
        -10.210743536883829
      ],
      [
        "aste",
        -10.210813902631145
      ],
      [
        "Ġagree",
        -10.211094796678266
      ],
      [
        "Ġsmoke",
        -10.211119771687672
      ],
      [
        "Ġmechanical",
        -10.21136859498569
      ],
      [
        "Ġlung",
        -10.211567934625604
      ],
      [
        "Ġlift",
        -10.2119665949029
      ],
      [
        "Ġdress",
        -10.212065122491666
      ],
      [
        "Ġdepend",
        -10.2122313387063
      ],
      [
        "ĠAC",
        -10.212680708915336
      ],
      [
        "Ġinnovation",
        -10.21269934055349
      ],
      [
        "Ġclassic",
        -10.213097503061878
      ],
      [
        "-de",
        -10.213694750798094
      ],
      [
        "ĠSk",
        -10.21386197372955
      ],
      [
        "Ġlaser",
        -10.21498268769581
      ],
      [
        "Are",
        -10.215125549938913
      ],
      [
        "Ġdep",
        -10.21525724332678
      ],
      [
        "stone",
        -10.215577823452833
      ],
      [
        "Ġcrops",
        -10.215940978505747
      ],
      [
        "Ġnutrition",
        -10.216125444752429
      ],
      [
        "Ġhormone",
        -10.216192526928872
      ],
      [
        "ĠGarden",
        -10.21631636239419
      ],
      [
        "embl",
        -10.21640064406642
      ],
      [
        "teen",
        -10.21652590317608
      ],
      [
        "Ġtall",
        -10.217223595684858
      ],
      [
        "pet",
        -10.217983460087195
      ],
      [
        "state",
        -10.218890645402036
      ],
      [
        "Ġactions",
        -10.219284748565377
      ],
      [
        "Ġshowing",
        -10.219379547112576
      ],
      [
        "ench",
        -10.219802435664404
      ],
      [
        "Ġestimate",
        -10.219867016037371
      ],
      [
        "Ġmajority",
        -10.22035900227918
      ],
      [
        "lay",
        -10.220589077489215
      ],
      [
        "Ġtrain",
        -10.220636985740066
      ],
      [
        "Par",
        -10.220641867906188
      ],
      [
        "NS",
        -10.220696599695415
      ],
      [
        "Ġleaving",
        -10.221024766436122
      ],
      [
        "ĠPower",
        -10.22125799662918
      ],
      [
        "ape",
        -10.22129382188111
      ],
      [
        "Ġcopy",
        -10.221727909061237
      ],
      [
        "~",
        -10.221993762406148
      ],
      [
        "cau",
        -10.222119453283522
      ],
      [
        "nine",
        -10.222322652355787
      ],
      [
        "Ġsauce",
        -10.222611828303512
      ],
      [
        "^",
        -10.222849731415073
      ],
      [
        "Ġbreast",
        -10.222907919148904
      ],
      [
        "Ġwhose",
        -10.223040910300712
      ],
      [
        "Ġenzyme",
        -10.223535083981345
      ],
      [
        "ĠUp",
        -10.223602766590265
      ],
      [
[...]
