{
  "version": "1.0",
  "truncation": null,
  "padding": null,
  "added_tokens": [
    {
      "id": 0,
      "content": "<|bos|>",
      "single_word": false,
      "lstrip": false,
      "rstrip": false,
      "normalized": false,
      "special": true
    },
    {
      "id": 1,
      "content": "<|user_start|>",
      "single_word": false,
      "lstrip": false,
      "rstrip": false,
      "normalized": false,
      "special": true
    },
    {
      "id": 2,
      "content": "<|user_end|>",
      "single_word": false,
      "lstrip": false,
      "rstrip": false,
      "normalized": false,
      "special": true
    },
    {
      "id": 3,
      "content": "<|assistant_start|>",
      "single_word": false,
      "lstrip": false,
      "rstrip": false,
      "normalized": false,
      "special": true
    },
    {
      "id": 4,
      "content": "<|assistant_end|>",
      "single_word": false,
      "lstrip": false,
      "rstrip": false,
      "normalized": false,
      "special": true
    },
    {
      "id": 5,
      "content": "<|python_start|>",
      "single_word": false,
      "lstrip": false,
      "rstrip": false,
      "normalized": false,
      "special": true
    },
    {
      "id": 6,
      "content": "<|python_end|>",
      "single_word": false,
      "lstrip": false,
      "rstrip": false,
      "normalized": false,
      "special": true
    },
    {
      "id": 7,
      "content": "<|output_start|>",
      "single_word": false,
      "lstrip": false,
      "rstrip": false,
      "normalized": false,
      "special": true
    },
    {
      "id": 8,
      "content": "<|output_end|>",
      "single_word": false,
      "lstrip": false,
      "rstrip": false,
      "normalized": false,
      "special": true
    },
    {
      "id": 9,
      "content": "<|unk|>",
      "single_word": false,
      "lstrip": false,
      "rstrip": false,
      "normalized": false,
      "special": true
    }
  ],
  "normalizer": null,
  "pre_tokenizer": {
    "type": "Sequence",
    "pretokenizers": [
      {
        "type": "Split",
        "pattern": {
          "Regex": "'(?i:[sdmt]|ll|ve|re)|[^\\r\\n\\p{L}\\p{N}]?+\\p{L}+|\\p{N}{1,2}| ?[^\\s\\p{L}\\p{N}]++[\\r\\n]*|\\s*[\\r\\n]|\\s+(?!\\S)|\\s+"
        },
        "behavior": "Isolated",
        "invert": false
      },
      {
        "type": "ByteLevel",
        "add_prefix_space": false,
        "trim_offsets": true,
        "use_regex": false
      }
    ]
  },
  "post_processor": {
    "type": "TemplateProcessing",
    "single": [
      {
        "Sequence": {
          "id": "A",
          "type_id": 0
        }
      }
    ],
    "pair": [
      {
        "Sequence": {
          "id": "A",
          "type_id": 0
        }
      },
      {
        "Sequence": {
          "id": "B",
          "type_id": 1
        }
      }
    ],
    "special_tokens": {}
  },
  "decoder": null,
  "model": {
    "type": "Unigram",
    "unk_id": 9,
    "vocab": [
      [
        "<|bos|>",
        0.0
      ],
      [
        "<|user_start|>",
        0.0
      ],
      [
        "<|user_end|>",
        0.0
      ],
      [
        "<|assistant_start|>",
        0.0
      ],
      [
        "<|assistant_end|>",
        0.0
      ],
      [
        "<|python_start|>",
        0.0
      ],
      [
        "<|python_end|>",
        0.0
      ],
      [
        "<|output_start|>",
        0.0
      ],
      [
        "<|output_end|>",
        0.0
      ],
      [
        "<|unk|>",
        0.0
      ],
      [
        "s",
        -3.1286740065816367
      ],
      [
        "Ġ",
        -3.2282336943423555
      ],
      [
        "Ġthe",
        -3.3816195159149967
      ],
      [
        ",",
        -3.440605377817727
      ],
      [
        ".",
        -3.724210217604559
      ],
      [
        "Ġand",
        -3.914450635134056
      ],
      [
        "Ġof",
        -3.974001280403217
      ],
      [
        "Ġto",
        -3.978930810201936
      ],
      [
        "a",
        -4.043237053098437
      ],
      [
        "ing",
        -4.369958012267723
      ],
      [
        "Ġin",
        -4.484817222698917
      ],
      [
        "Ġis",
        -4.585490045268701
      ],
      [
        "ed",
        -4.840059391785131
      ],
      [
        "'",
        -4.895829984877183
      ],
      [
        "d",
        -5.00616369047248
      ],
      [
        "Ġthat",
        -5.014667089306583
      ],
      [
        "y",
        -5.031308746517388
      ],
      [
        "Ġfor",
        -5.033699434924809
      ],
      [
        "0",
        -5.034920176340533
      ],
      [
        "1",
        -5.189238589035586
      ],
      [
        "ly",
        -5.196976341872592
      ],
      [
        "Ġare",
        -5.209388753880763
      ],
      [
        "Ċ",
        -5.219949718415926
      ],
      [
        ":",
        -5.221962750737854
      ],
      [
        "Ġwith",
        -5.277078952036847
      ],
      [
        ".ĊĊ",
        -5.286558029888758
      ],
      [
        ".Ċ",
        -5.2870724304221355
      ],
      [
        "Ġyou",
        -5.30201858652031
      ],
      [
        "Ġit",
        -5.324235608747536
      ],
      [
        "2",
        -5.399425615699034
      ],
      [
        "e",
        -5.418411708214643
      ],
      [
        "Ġbe",
        -5.44216475631206
      ],
      [
        "Ġcan",
        -5.4806228186954264
      ],
      [
        "Ġon",
        -5.485090496904311
      ],
      [
        "Ġor",
        -5.496773829986754
      ],
      [
        "Ġas",
        -5.52634393184589
      ],
      [
        "ĊĊ",
        -5.622146962566626
      ],
      [
        "t",
        -5.673370264991441
      ],
      [
        "Ġyour",
        -5.689885554989697
      ],
      [
        "-",
        -5.721310607227693
      ],
      [
        "Ġ(",
        -5.757822505669216
      ],
      [
        "\"",
        -5.857404355924288
      ],
      [
        "Ġfrom",
        -5.8621086297119085
      ],
      [
        "Ġhave",
        -5.866371060397192
      ],
      [
        "ĠThe",
        -5.9157675843108635
      ],
      [
        "Ġby",
        -5.957653912273393
      ],
      [
        "ĠI",
        -5.962516747226966
      ],
      [
        ")",
        -5.988698264510081
      ],
      [
        "Ġan",
        -6.017004784500715
      ],
      [
        "Ġthis",
        -6.0520747193950655
      ],
      [
        "3",
        -6.056673722329862
      ],
      [
        "?",
        -6.077808897951863
      ],
      [
        "5",
        -6.080938411296717
      ],
      [
        "Ġat",
        -6.093589995314236
      ],
      [
        "n",
        -6.099922370549445
      ],
      [
        "Ġnot",
        -6.107663410811561
      ],
      [
        "Ġtheir",
        -6.184580274590154
      ],
      [
        "Ġwill",
        -6.190928319042962
      ],
      [
        "4",
        -6.254595499291062
      ],
      [
        "Ġthey",
        -6.310871750003587
      ],
      [
        "Ġmore",
        -6.331753201373235
      ],
      [
        "9",
        -6.336036959164002
      ],
      [
        "Ġwas",
        -6.369291724482002
      ],
      [
        "The",
        -6.405970650175867
      ],
      [
        "Ġbut",
        -6.4544204639582325
      ],
      [
        "Ġhas",
        -6.4676816248890105
      ],
      [
        "Ġwhich",
        -6.476037543154144
      ],
      [
        "Ġwe",
        -6.492533325356916
      ],
      [
        "6",
        -6.530429155769289
      ],
      [
        "Ġone",
        -6.5399859674683505
      ],
      [
        "Question",
        -6.542959111598822
      ],
      [
        "Ġalso",
        -6.56554080292711
      ],
      [
        "ĠAnswer",
        -6.571349737288283
      ],
      [
        "8",
        -6.574419833011895
      ],
      [
        "ies",
        -6.6061835349773155
      ],
      [
        "Ġabout",
        -6.63180571666693
      ],
      [
        "7",
        -6.654689458142753
      ],
      [
        "Ġall",
        -6.658121139644752
      ],
      [
        "Ġother",
        -6.693041022118509
      ],
      [
        "r",
        -6.702175102709653
      ],
      [
        "ĠIt",
        -6.711207604433092
      ],
      [
        "Ġwhen",
        -6.722931249982958
      ],
      [
        "Ġif",
        -6.763987456958077
      ],
      [
        "Ġsome",
        -6.774958088323245
      ],
      [
        "Ġdo",
        -6.775946615935542
      ],
      [
        "Ġthem",
        -6.777622245057339
      ],
      [
        "Ġuse",
        -6.782842464529994
      ],
      [
        "Ġtime",
        -6.794627584368117
      ],
      [
        "Ġinto",
        -6.802137786221991
      ],
      [
        "Ġlike",
        -6.805101972733862
      ],
      [
        "on",
        -6.8065124494527804
      ],
      [
        "Ġhow",
        -6.83083128355061
      ],
      [
        "Ġup",
        -6.830918123517337
      ],
      [
        "Ġso",
        -6.842007408640113
      ],
      [
        "Ġmay",
        -6.852915470607126
      ],
      [
        "ĠThis",
        -6.8642520575352215
      ],
      [
        "ĠA",
        -6.883820905439238
      ],
      [
        "ĠWhat",
        -6.897414304490871
      ],
      [
        "Ġthan",
        -6.909558782854479
      ],
      [
        "Ġout",
        -6.914470256026306
      ],
      [
        "Ġthese",
        -6.930229109871506
      ],
      [
        "Ġthere",
        -6.948596091890655
      ],
      [
        "Ġwhat",
        -6.954355943560646
      ],
      [
        "Ġour",
        -6.972907141799215
      ],
      [
        "o",
        -6.98384046720777
      ],
      [
        "i",
        -6.991292630661668
      ],
      [
        "Ġwater",
        -7.006157775165006
      ],
      [
        "Ġused",
        -7.017803637099227
      ],
      [
        "A",
        -7.047571236865522
      ],
      [
        "Ġneed",
        -7.066878927153677
      ],
      [
        "Ġmost",
        -7.073598419339145
      ],
      [
        "Ġmake",
        -7.075813811916696
      ],
      [
        "m",
        -7.078346130182956
      ],
      [
        "Ġpeople",
        -7.085545982605327
      ],
      [
        "Ġsuch",
        -7.090564779592782
      ],
      [
        "Ġwere",
        -7.109797510118382
      ],
      [
        "Ġany",
        -7.118474797034306
      ],
      [
        "able",
        -7.122856207844265
      ],
      [
        "re",
        -7.131185688293753
      ],
      [
        "/",
        -7.143779664059924
      ],
      [
        "ĠIn",
        -7.145677186153108
      ],
      [
        "Ġget",
        -7.147698928231275
      ],
      [
        "Ġbeen",
        -7.153144496724485
      ],
      [
        "Ġhelp",
        -7.16635877741124
      ],
      [
        "Ġnew",
        -7.194861364517395
      ],
      [
        "er",
        -7.202512800569892
      ],
      [
        "Ġshould",
        -7.213344876879152
      ],
      [
        "Ġjust",
        -7.217955035401301
      ],
      [
        "Ġits",
        -7.22738042465147
      ],
      [
        "Ġonly",
        -7.228975414208701
      ],
      [
        "Ġwould",
        -7.23397339190886
      ],
      [
        "Ġmany",
        -7.25431704809181
      ],
      [
        "Ġwho",
        -7.25511841092375
      ],
      [
        "Ġhigh",
        -7.283088935463626
      ],
      [
        "Ġtwo",
        -7.306843234950438
      ],
      [
        ";",
        -7.310373973634309
      ],
      [
        "Ġover",
        -7.314328506818104
      ],
      [
        "Ġwell",
        -7.316540361912731
      ],
      [
        "Ġway",
        -7.354407952660305
      ],
      [
        "Ġfirst",
        -7.355860233757882
      ],
      [
        "Ġthrough",
        -7.357465908983011
      ],
      [
        "Ġwhere",
        -7.3809439833675565
      ],
      [
        "Ġdifferent",
        -7.386889097085426
      ],
      [
        "Ġbetween",
        -7.3880130840390414
      ],
      [
        "Ġno",
        -7.388235174270015
      ],
      [
        "I",
        -7.388366704346872
      ],
      [
        "Ġmy",
        -7.3907249205378704
      ],
      [
        "Ġtake",
        -7.402353028299917
      ],
      [
        "Ġwork",
        -7.405420306246642
      ],
      [
        "ever",
        -7.415281571115211
      ],
      [
        "?Ċ",
        -7.419535419004392
      ],
      [
        "c",
        -7.422044337083998
      ],
      [
        "Ġbecause",
        -7.448161560877335
      ],
      [
        "Ġgo",
        -7.448512408100438
      ],
      [
        "!",
        -7.450255668726546
      ],
      [
        "Ġcould",
        -7.454300072855736
      ],
      [
        "Ġusing",
        -7.470488139417684
      ],
      [
        "ĠIf",
        -7.473521729503801
      ],
      [
        "Ġeven",
        -7.490399626083075
      ],
      [
        "Ġvery",
        -7.507702149522547
      ],
      [
        "ĠHow",
        -7.510748674052142
      ],
      [
        "ĠThey",
        -7.514017764716753
      ],
      [
        "Ġsystem",
        -7.537314203086911
      ],
      [
        "Ġhe",
        -7.543852592125063
      ],
      [
        "Ġmuch",
        -7.546438358378138
      ],
      [
        "al",
        -7.55678358626737
      ],
      [
        "ity",
        -7.566999277745664
      ],
      [
        "Ġprovide",
        -7.568638475851522
      ],
      [
        "Ġchange",
        -7.573106520451653
      ],
      [
        "Ġfood",
        -7.582237574224228
      ],
      [
        "while",
        -7.585030973897384
      ],
      [
        "Ġknow",
        -7.586081699691224
      ],
      [
        "Ġsee",
        -7.586184617886529
      ],
      [
        "Ġhis",
        -7.587030509415486
      ],
      [
        "Ġeach",
        -7.587307699792417
      ],
      [
        "Ġwant",
        -7.587325768078676
      ],
      [
        "Ġimportant",
        -7.593704259662891
      ],
      [
        "Ġprocess",
        -7.5998339543332385
      ],
      [
        "Ġgood",
        -7.602665824111243
      ],
      [
        "Ġdoes",
        -7.607277442838546
      ],
      [
        "ĠâĢĵ",
        -7.617855237842107
      ],
      [
        "Ġhealth",
        -7.620193891644426
      ],
      [
        "?ĊĊ",
        -7.622322000256336
      ],
      [
        "Ġyears",
        -7.622949771921005
      ],
      [
        "Ġhad",
        -7.628181717041743
      ],
      [
        "Ġlong",
        -7.628392474446624
      ],
      [
        "In",
        -7.629722448469669
      ],
      [
        "Ġsmall",
        -7.636411230362883
      ],
      [
        "ĠYou",
        -7.646406116712745
      ],
      [
        ").",
        -7.651161515349667
      ],
      [
        "ve",
        -7.65422018787878
      ],
      [
        "l",
        -7.659714414382352
      ],
      [
        "Ġdesign",
        -7.660268696924973
      ],
      [
        "Ġevery",
        -7.663450225066802
      ],
      [
        "Ġafter",
        -7.686483258061832
      ],
      [
        "Ġaround",
        -7.701564112647709
      ],
      [
        "Ġdon",
        -7.704315770469343
      ],
      [
        "Ġworld",
        -7.707601891526915
      ],
      [
        "Ġsame",
        -7.726657076577631
      ],
      [
        "Ġlife",
        -7.732944362004449
      ],
      [
        "Ġlarge",
        -7.733408728781166
      ],
      [
        "Ġbefore",
        -7.741839300189852
      ],
      [
        "Ġcreate",
        -7.745869033181254
      ],
      [
        "Ġfound",
        -7.746269781509328
      ],
      [
        "in",
        -7.765596017898767
      ],
      [
        "Ġthose",
        -7.773081819003854
      ],
      [
        "out",
        -7.774006515699765
      ],
      [
        "Ġoften",
        -7.775427626630808
      ],
      [
        "Ġboth",
        -7.7842078208045535
      ],
      [
        "Ġarea",
        -7.786833173800655
      ],
      [
        "Ġallow",
        -7.78724707865825
      ],
      [
        "during",
        -7.795723149865006
      ],
      [
        "Ġlook",
        -7.797966675898881
      ],
      [
        "Ġbeing",
        -7.799193082884585
      ],
      [
        "Ġbody",
        -7.8030352540901795
      ],
      [
        "Ġcause",
        -7.810925982534881
      ],
      [
        "Ġdata",
        -7.81225831267176
      ],
      [
        "What",
        -7.818220461129888
      ],
      [
        "ĠC",
        -7.8246703521752465
      ],
      [
        "Ġlight",
        -7.824876088451147
      ],
      [
        "Ġplace",
        -7.827120598887257
      ],
      [
        "Ġenergy",
        -7.831218712311449
      ],
      [
        "Ġpart",
        -7.833286396475533
      ],
      [
        "Ġbest",
        -7.834428041903163
      ],
      [
        "Ġfind",
        -7.840886863479454
      ],
      [
        "><",
        -7.848991696404351
      ],
      [
        "%",
        -7.849345394458544
      ],
      [
        "Ġright",
        -7.849553158100706
      ],
      [
        "Ġcommon",
        -7.853234714926975
      ],
      [
        "Ġmade",
        -7.854508661300862
      ],
      [
        "Ġback",
        -7.856795675739901
      ],
      [
        "Ġinformation",
        -7.85754997581731
      ],
      [
        "ĠFor",
        -7.861382905337715
      ],
      [
        "Ġdown",
        -7.876524283955442
      ],
      [
        "Ġday",
        -7.883086103733525
      ],
      [
        "Ġyear",
        -7.888386509502718
      ],
      [
        "Ġincrease",
        -7.892043358230593
      ],
      [
        "Ġinclude",
        -7.898388233900885
      ],
      [
        "ĠWe",
        -7.898449854647609
      ],
      [
        "Ġkeep",
        -7.899579193965195
      ],
      [
        "Ġnumber",
        -7.912072922974016
      ],
      [
        "ĠB",
        -7.9157786011537326
      ],
      [
        "),",
        -7.91822168533646
      ],
      [
        "Ġher",
        -7.920708644875575
      ],
      [
        "Ġstart",
        -7.92089186076722
      ],
      [
        "Ġexperience",
        -7.921619461414862
      ],
      [
        "Ġus",
        -7.922847585818509
      ],
      [
        "Ġplant",
        -7.924111578605059
      ],
      [
        "Ġpower",
        -7.93420569434055
      ],
      [
        ":Ċ",
        -7.936686902632124
      ],
      [
        "Ġshow",
        -7.941990974590764
      ],
      [
        "How",
        -7.943636847461649
      ],
      [
        "Ġsay",
        -7.945621699091351
      ],
      [
        "Ġform",
        -7.947904644328185
      ],
      [
        "Ġspecies",
        -7.951069364963985
      ],
      [
        "Ġsaid",
        -7.955446719673686
      ],
      [
        "(",
        -7.958173123802267
      ],
      [
        "ll",
        -7.95866131235276
      ],
      [
        "Ġstudy",
        -7.96121492846561
      ],
      [
        "Ġmain",
        -7.964607675742458
      ],
      [
        "Ġhome",
        -7.969166070974239
      ],
      [
        "Ġlead",
        -7.972382773715951
      ],
      [
        "g",
        -7.977528396546942
      ],
      [
        "Ġresearch",
        -7.981075380986663
      ],
      [
        "Ġbetter",
        -7.986828470871304
      ],
      [
        "ĠThese",
        -7.990385256950439
      ],
      [
        "ce",
        -7.990564214263511
      ],
      [
        "Ġnow",
        -7.991275706192173
      ],
      [
        "Ġunder",
        -7.9921741460459135
      ],
      [
        "Ġmight",
        -7.992221284705584
      ],
      [
        "Ġfew",
        -7.992865037211693
      ],
      [
        "f",
        -7.993151492655381
      ],
      [
        "ness",
        -7.999747096914287
      ],
      [
        "This",
        -8.00093020910199
      ],
      [
        "Ġsupport",
        -8.0015466844384
      ],
      [
        "Ġoff",
        -8.017388028978223
      ],
      [
        "and",
        -8.017450174187715
      ],
      [
        "Ġgrow",
        -8.01778763396123
      ],
      [
        "Ġme",
        -8.018004750957386
      ],
      [
        "Ġgreat",
        -8.020300344451869
      ],
      [
        "is",
        -8.020391912180832
      ],
      [
        "Ġstudents",
        -8.024848906735157
      ],
      [
        "Ġstill",
        -8.030763418936074
      ],
      [
        "Ġown",
        -8.03321167816473
      ],
      [
        "Ġadd",
        -8.036513808355787
      ],
      [
        "ul",
        -8.037182234216532
      ],
      [
        "Ġexample",
        -8.042238611785924
      ],
      [
        "Ġincluding",
        -8.047337753249602
      ],
      [
        "us",
        -8.051292623544963
      ],
      [
        "Ġcontrol",
        -8.051583473121962
      ],
      [
        "If",
        -8.05262449965991
      ],
      [
        "Ġdog",
        -8.052819289550982
      ],
      [
        "Ġplants",
        -8.056033154580927
      ],
      [
        "Ġthink",
        -8.063036432757228
      ],
      [
        "h",
        -8.068771648232953
      ],
      [
        "ĠTo",
        -8.072114996769095
      ],
      [
        "Ġtype",
        -8.072896610703614
      ],
      [
        "Ġtoo",
        -8.076282851494883
      ],
      [
        "Ġmaking",
        -8.079988889977262
      ],
      [
        "S",
        -8.084297867187473
      ],
      [
        "Ġset",
        -8.084862470179063
      ],
      [
        "It",
        -8.087145494784837
      ],
      [
        "Ġchildren",
        -8.092038258670433
      ],
      [
        "Ġgroup",
        -8.099433754331358
      ],
      [
        "...",
        -8.099477409099016
      ],
      [
        "Ġless",
        -8.103490726490312
      ],
      [
        "Ġair",
        -8.110356171807151
      ],
      [
        "Ġgive",
        -8.114925931799052
      ],
      [
        "Ġmethod",
        -8.123143532509387
      ],
      [
        "C",
        -8.126453958168813
      ],
      [
        "Ġknown",
        -8.126607477854973
      ],
      [
        "Ġindividual",
        -8.127526431082975
      ],
      [
        "ĠBut",
        -8.128348410417518
      ],
      [
        "Ġhuman",
        -8.133816134108626
      ],
      [
        "Ġschool",
        -8.134990604010204
      ],
      [
        "Ġtest",
        -8.135007088565162
      ],
      [
        "Ġspecific",
        -8.136185904618188
      ],
      [
        "Ġsize",
        -8.137899976422897
      ],
      [
        "Ġend",
        -8.14759482410145
      ],
      [
        "D",
        -8.1553749019904
      ],
      [
        "Ġprevent",
        -8.158077724390028
      ],
      [
        "Ġpotential",
        -8.161045890122372
      ],
      [
        "Ġcurrent",
        -8.16134951642113
      ],
      [
        "Ġthree",
        -8.162384760381595
      ],
      [
        "Ġsure",
        -8.169034577527395
      ],
      [
        "ability",
        -8.170714789883277
      ],
      [
        ":ĊĊ",
        -8.171072300352897
      ],
      [
        "Ġmust",
        -8.17255500534964
      ],
      [
        "Ġoffer",
        -8.178051493579714
      ],
      [
        "Ġresult",
        -8.18607376265498
      ],
      [
        "Ġsurface",
        -8.186919378499958
      ],
      [
        "Ġensure",
        -8.189168755923523
      ],
      [
        "Ġreduce",
        -8.194935402091836
      ],
      [
        "Ġmodel",
        -8.195238400983422
      ],
      [
        "Ġwhy",
        -8.196170578132833
      ],
      [
        "Ġper",
        -8.198028305130565
      ],
      [
        "Ġlearn",
        -8.205649847130024
      ],
      [
        "Ġnatural",
        -8.210207196633458
      ],
      [
        "Ġcome",
        -8.211418639561339
      ],
      [
        "ĠWhen",
        -8.216931134779971
      ],
      [
        "Ġlow",
        -8.217616861816802
      ],
      [
        "est",
        -8.219456312123445
      ],
      [
        "Ġthings",
        -8.223238897095651
      ],
      [
        "Ġspace",
        -8.231337755514595
      ],
      [
        "âĢĻ",
        -8.235980098653684
      ],
      [
        "Ġsoil",
        -8.23728138441054
      ],
      [
        "x",
        -8.238631516823927
      ],
      [
        "Ġwithin",
        -8.24123655350979
      ],
      [
        "Ġbecome",
        -8.242137082650935
      ],
      [
        "Ġcalled",
        -8.244395103389476
      ],
      [
        "Ġcost",
        -8.250837638049132
      ],
      [
        "Ġplay",
        -8.251376002249504
      ],
      [
        "Ġvarious",
        -8.252396702508825
      ],
      [
        "ĠAnd",
        -8.252606278322865
      ],
      [
        "Ġtry",
        -8.2538892440176
      ],
      [
        "um",
        -8.255059603685549
      ],
      [
        "Ġdue",
        -8.258947354031104
      ],
      [
        "ation",
        -8.26112960078153
      ],
      [
        "Ġreally",
        -8.263083346693001
      ],
      [
        "Ġpoint",
        -8.267883122955752
      ],
      [
        "Ġlevel",
        -8.270261719928488
      ],
      [
        "Ġun",
        -8.270827003797935
      ],
      [
        "Ġblood",
        -8.272780998262238
      ],
      [
        "Ġsomething",
        -8.27646478254034
      ],
      [
        "Ġamount",
        -8.28006920797624
      ],
      [
        "li",
        -8.281967047362535
      ],
      [
        "Ġfish",
        -8.282515857419845
      ],
      [
        "Ġenvironment",
        -8.283502665609955
      ],
      [
        "le",
        -8.283841056573884
      ],
      [
        "Ġcar",
        -8.28580332109053
      ],
      [
        "Ġfollowing",
        -8.286992954939613
      ],
      [
        "Ġcells",
        -8.28881662462817
      ],
      [
        "Ġsource",
        -8.290951013600598
      ],
      [
        "Ġrisk",
        -8.293637920745109
      ],
      [
        "Ġclose",
        -8.296640866142965
      ],
      [
        "Ġbenefit",
        -8.296642740915495
      ],
      [
        "Ġanother",
        -8.300277813592118
      ],
      [
        "Ġshe",
        -8.30041853246604
      ],
      [
        "ĠThere",
        -8.30242275248733
      ],
      [
        "ĠS",
        -8.304751384639303
      ],
      [
        "Ġcare",
        -8.312102705793025
      ],
      [
        "Ġimpact",
        -8.31241507657963
      ],
      [
        "Ġpossible",
        -8.31273713394795
      ],
      [
        "Ġdisease",
        -8.314489025132875
      ],
      [
        "Ġhere",
        -8.314551864568294
      ],
      [
        "Ġweek",
        -8.3155753524041
      ],
      [
        "Ġcolor",
        -8.320566674028306
      ],
      [
        "Ġrange",
        -8.320910130800456
      ],
      [
        "Ġlittle",
        -8.32509018755962
      ],
      [
        "Ġactual",
        -8.326125282853658
      ],
      [
        "Ġname",
        -8.32727523087889
      ],
      [
        "p",
        -8.328235827162494
      ],
      [
        "Ġmeans",
        -8.329152038379771
      ],
      [
        "Ġrequire",
        -8.331561212194366
      ],
      [
        "Ġheat",
        -8.334517215442599
      ],
      [
        "Ġlearning",
        -8.336125482450047
      ],
      [
        "the",
        -8.338054728621879
      ],
      [
        "Ġlot",
        -8.342060009333967
      ],
      [
        "th",
        -8.34361010844495
      ],
      [
        "ic",
        -8.343863228382922
      ],
      [
        "Ġsignificant",
        -8.34458984947468
      ],
      [
        "Ġdid",
        -8.347305686943018
      ],
      [
        "Ġlast",
        -8.347373403060143
      ],
      [
        "Ġalways",
        -8.347974452617079
      ],
      [
        "Ġfield",
        -8.363343165891266
      ],
      [
        "ally",
        -8.365155566475098
      ],
      [
        "Ġdevelopment",
        -8.367151656973062
      ],
      [
        "ĠSo",
        -8.36846237962527
      ],
      [
        "Ġstate",
        -8.373469765815857
      ],
      [
        "Ġusually",
        -8.375471752723511
      ],
      [
        "Ġtreatment",
        -8.381190476006218
      ],
      [
        "Ġproblem",
        -8.383234097889392
      ],
      [
        "Ġhard",
        -8.383587162263611
      ],
      [
        "ĠWhich",
        -8.383736685362862
      ],
      [
        "Ġdevice",
        -8.3873130063843
      ],
      [
        "Ġcontain",
        -8.389918121253451
      ],
      [
        "Ġopen",
        -8.391310627964714
      ],
      [
        "Ġtemperature",
        -8.393943692277304
      ],
      [
        "Ġorder",
        -8.39541469037608
      ],
      [
        "Ġlive",
        -8.400737547107958
      ],
      [
        "Ġavailable",
        -8.401411659016627
      ],
      [
        "Ġleave",
        -8.40273221270718
      ],
      [
        "Ġpressure",
        -8.403998350047534
      ],
      [
        "Ġimprove",
        -8.405531377651371
      ],
      [
        "Ġunderstand",
        -8.407895016847753
      ],
      [
        "Ġquality",
        -8.40847344735938
      ],
      [
        "Ġoption",
        -8.408588946675014
      ],
      [
        "Ġbased",
        -8.411413939569226
      ],
      [
        "Ġperson",
        -8.412133389213565
      ],
      [
        "Ġgeneral",
        -8.420268224241717
      ],
      [
        "Ġessential",
        -8.420326157133482
      ],
      [
        "Ġneeds",
        -8.420768311146915
      ],
      [
        "Ġ=",
        -8.42138724801876
      ],
      [
        ",\"",
        -8.422324988869015
      ],
      [
        "Ġseveral",
        -8.42521451147417
      ],
      [
        "Ġtext",
        -8.429197633886677
      ],
      [
        "Ġmaterials",
        -8.429298329248764
      ],
      [
        "ion",
        -8.431670666881448
      ],
      [
        "Ġenough",
        -8.443550891832231
      ],
      [
        "Ġeffective",
        -8.450683447052533
      ],
      [
        "Ġlevels",
        -8.452169240707102
      ],
      [
        "Ġpresent",
        -8.452620206966607
      ],
      [
        "Ġfeel",
        -8.453831496081094
      ],
      [
        "Ġdiet",
        -8.456199967815817
      ],
      [
        "ĠD",
        -8.462389597090217
      ],
      [
        "Ġcertain",
        -8.466691893662588
      ],
      [
        "Ġteam",
        -8.467810090086957
      ],
      [
        "Ġcourse",
        -8.469881275413083
      ],
      [
        "technology",
        -8.47019444238381
      ],
      [
        "Ġconditions",
        -8.473606772201855
      ],
      [
        "Ġconsider",
        -8.474663781917574
      ],
      [
        "Ġuntil",
        -8.474983503079265
      ],
      [
        "Ġtypes",
        -8.4777690358763
      ],
      [
        "Ġside",
        -8.481859337152105
      ],
      [
        "Ġmaterial",
        -8.482136437302222
      ],
      [
        "Ġput",
        -8.484486643860844
      ],
      [
        "When",
        -8.485079888076843
      ],
      [
        "Ġpatient",
        -8.489693801185094
      ],
      [
        "Ġturn",
        -8.490483967835683
      ],
      [
        "ĠAs",
        -8.490880552015417
      ],
      [
        "Ġaway",
        -8.493899680239675
      ],
      [
        "ĠWith",
        -8.49659940276522
      ],
      [
        "Ġanimals",
        -8.498500931002134
      ],
      [
        "Ġfunction",
        -8.499305821169731
      ],
      [
        "Ġlocal",
        -8.4993481508379
      ],
      [
        "Ġgrowth",
        -8.500544310481052
      ],
      [
        "Ġrate",
        -8.500683531291413
      ],
      [
        "Ġaffect",
        -8.501420867410983
      ],
      [
        "Ġsystems",
        -8.501694625636011
      ],
      [
        "Ġal",
        -8.502063589758293
      ],
      [
        "Ġ$",
        -8.502609606016225
      ],
      [
        "less",
        -8.503225685898343
      ],
      [
        "Ġrole",
        -8.503516999526603
      ],
      [
        "Ġweight",
        -8.507615326863942
      ],
      [
        "Ġfamily",
        -8.511335225121059
      ],
      [
        "Ġtop",
        -8.515385103882057
      ],
      [
        "Ġwide",
        -8.51571470290456
      ],
      [
        "Ġfocus",
        -8.517547119119737
      ],
      [
        "Ġsolution",
        -8.518786858908737
      ],
      [
        "Ġkey",
        -8.519331574077189
      ],
      [
        "Ġvalue",
        -8.524667538233409
      ],
      [
        "Ġcheck",
        -8.526739204771037
      ],
      [
        "Ġtogether",
        -8.527974826355177
      ],
      [
        "Ġgarden",
        -8.529106441101213
      ],
      [
        "Ġproject",
        -8.534375413448249
      ],
      [
        "Ġcomplete",
        -8.541061063723031
      ],
      [
        "ĠUniversity",
        -8.541162637300777
      ],
      [
        "Ġoil",
        -8.541607233278713
      ],
      [
        "You",
        -8.54319463926616
      ],
      [
        "Ġsince",
        -8.544373784320154
      ],
      [
        "Ġprogram",
        -8.544534319220789
      ],
      [
        "Ġproblems",
        -8.54555084593768
      ],
      [
        "early",
        -8.54563307683864
      ],
      [
        "Ġcase",
        -8.556936771174755
      ],
      [
        "b",
        -8.558112543203885
      ],
      [
        "Ġfree",
        -8.558735146204597
      ],
      [
        "Ġhand",
        -8.559857914990955
      ],
      [
        "!Ċ",
        -8.562637553308882
      ],
      [
        "Ġstructure",
        -8.56450668796564
      ],
      [
        "Ġ&",
        -8.565331593112482
      ],
      [
        "ĠThat",
        -8.565659173935455
      ],
      [
        "Ġlower",
        -8.566484320118565
      ],
      [
        "ĠBy",
        -8.56841571926665
      ],
      [
        "Ġnon",
        -8.569324222194046
      ],
      [
        "or",
        -8.570040627196843
      ],
      [
        "We",
        -8.570462450439425
      ],
      [
        "Ġresults",
        -8.57502628528589
      ],
      [
        "Ġhigher",
        -8.575655167712531
      ],
      [
        "ĠHe",
        -8.576064721632115
      ],
      [
        "Ġworking",
        -8.576446341322754
      ],
      [
        "Ġage",
        -8.583631040698737
      ],
      [
        "Ġrun",
        -8.588032416649305
      ],
      [
        "Ġprotect",
        -8.59030775920018
      ],
      [
        "Ġhealthy",
        -8.592932896849922
      ],
      [
        "Ġshort",
        -8.593702027069893
      ],
      [
        "Ġchild",
        -8.593795734716082
      ],
      [
        "Ġeye",
        -8.594267967372945
      ],
      [
        "Ġmakes",
        -8.595840296379905
      ],
      [
        "having",
        -8.59613433692084
      ],
      [
        "Ġdays",
        -8.597773757689826
      ],
      [
        "ĠP",
        -8.598571795333687
      ],
      [
        "Ġvariet",
        -8.599174990772951
      ],
      [
        "Ġnext",
        -8.599285984307201
      ],
      [
        "Ġphysical",
        -8.600769412602133
      ],
      [
        "Ġpopulation",
        -8.603689500713525
      ],
      [
        "Ġobject",
        -8.60539722197116
      ],
      [
        "ry",
        -8.608029853072306
      ],
      [
        "Ġdamage",
        -8.610601921772663
      ],
      [
        "Ġdepend",
        -8.610974405082207
      ],
      [
        "Ġcomes",
        -8.614405037662863
      ],
      [
        "Ġfull",
        -8.618119231745144
      ],
      [
        "Ġsimple",
        -8.61877580684074
      ],
      [
        "Ġseem",
        -8.619587409515812
      ],
      [
        "B",
        -8.62117836222006
      ],
      [
        "Ġunique",
        -8.62226677989533
      ],
      [
        "Ġcreat",
        -8.622498696375166
      ],
      [
        "Ġline",
        -8.62255368342095
      ],
      [
        "ĠM",
        -8.623009773017955
      ],
      [
        "Ġproducts",
        -8.623037875464693
      ],
      [
        "Ġdoesn",
        -8.626340942645717
      ],
      [
        "Ġfuture",
        -8.627111025391063
      ],
      [
        "Ġlet",
        -8.629438094107181
      ],
      [
        "Ġeasy",
        -8.629986309817543
      ],
      [
        "Ġlikely",
        -8.63285556017037
      ],
      [
        "Ġsecond",
        -8.63341661761816
      ],
      [
        "one",
        -8.633483687086501
      ],
      [
        "Ġreal",
        -8.63563696811907
      ],
      [
        "Ġalong",
        -8.636010947953338
      ],
      [
        "Ġproduct",
        -8.636419972759102
      ],
      [
        "Ġold",
        -8.637806439268715
      ],
      [
        "Ġremain",
        -8.639244889718178
      ],
      [
        "Ġclear",
        -8.639716533591894
      ],
      [
        "Ġproduce",
        -8.640773697201249
      ],
      [
        "Ġleast",
        -8.641367709902244
      ],
      [
        "ĠT",
        -8.641971442031414
      ],
      [
        "Ġfollow",
        -8.641988947842098
      ],
      [
        "Ġtypical",
        -8.643553159828684
      ],
      [
        "Ġacross",
        -8.645265058300721
      ],
      [
        "Ġnecessar",
        -8.649161751851494
      ],
      [
        "Ġmarket",
        -8.650110917906801
      ],
      [
        "Ġagain",
        -8.654568392932434
      ],
      [
        "Ġkind",
        -8.655109443246886
      ],
      [
        "Ġsimilar",
        -8.655817213012716
      ],
      [
        "Ġbuilding",
        -8.656862011771501
      ],
      [
        "Ġespecial",
        -8.657888807718159
      ],
      [
        "Ġthing",
        -8.658307375416534
      ],
      [
        "Ġtimes",
        -8.66655841109235
      ],
      [
        "There",
        -8.670326647235504
      ],
      [
        "Ġnever",
        -8.67191443032279
      ],
      [
        "Ġsocial",
        -8.673581207074406
      ],
      [
        "Ġissues",
        -8.67840198629658
      ],
      [
        "Ġlove",
        -8.681075436536169
      ],
      [
        "Ġabove",
        -8.684420023387403
      ],
      [
        "Ġground",
        -8.68753356958857
      ],
      [
        "Ġdifficult",
        -8.691110117548645
      ],
      [
        "Ġproduction",
        -8.69176222784496
      ],
      [
        "Ġgiven",
        -8.693033719148051
      ],
      [
        "Ġanimal",
        -8.693384924026264
      ],
      [
        "Ġdogs",
        -8.69400227941615
      ],
      [
        "Ġpaper",
        -8.694803644324285
      ],
      [
        "Ġvideo",
        -8.69651444066022
      ],
      [
        "ary",
        -8.69810482010418
      ],
      [
        "Ġcell",
        -8.701205906114392
      ],
      [
        "Ġfactors",
        -8.702410342915329
      ],
      [
        "Ġstep",
        -8.703026377080324
      ],
      [
        "Ġperiod",
        -8.70322640817771
      ],
      [
        "ĠNew",
        -8.706158328659622
      ],
      [
        "Ġimage",
        -8.708050792719053
      ],
      [
        "Ġheart",
        -8.708422956872647
      ],
      [
        "Ġbit",
        -8.709712270788284
      ],
      [
        "Ġsafe",
        -8.710125821771424
      ],
      [
        "Ġwhite",
        -8.71057279783317
      ],
      [
        "Ġrecommend",
        -8.710785816814914
      ],
      [
        "Ġeffects",
        -8.716444742511332
      ],
      [
        "Ġdry",
        -8.717676552476533
      ],
      [
        "Ġdone",
        -8.720195369834645
      ],
      [
        "Ġdifference",
        -8.7210503021393
      ],
      [
        "u",
        -8.721659051797086
      ],
      [
        "Ġmillion",
        -8.722096920906285
      ],
      [
        "Ġnormal",
        -8.726613565287874
      ],
      [
        "Ġarticle",
        -8.727272838462726
      ],
      [
        "Ġroom",
        -8.73094487829183
      ],
      [
        "Ġaccording",
        -8.732870279459172
      ],
      [
        "ĠYour",
        -8.733404723426787
      ],
      [
        "Ġcontinue",
        -8.733940744705713
      ],
      [
        "Ġclimate",
        -8.736741992551323
      ],
      [
        "Ġyoung",
        -8.73878340199835
      ],
      [
        "an",
        -8.739239579976276
      ],
      [
        "Ġeat",
        -8.739596914781066
      ],
      [
        "Ġ[",
        -8.73998560402083
      ],
      [
        "Ġnear",
        -8.740879702743106
      ],
      [
        "Ġhim",
        -8.743741392553964
      ],
      [
        "Ġhead",
        -8.746502744541283
      ],
      [
        "Ġspeed",
        -8.74894558789234
      ],
      [
        "thing",
        -8.749020413689234
      ],
      [
        "Ġclean",
        -8.749073200772802
      ],
      [
        "Ġinterest",
        -8.750669516614899
      ],
      [
        "*",
        -8.750745845607735
      ],
      [
        "Ġscience",
        -8.752199308270349
      ],
      [
        "Ġstrong",
        -8.754463929965292
      ],
      [
        "Ġremove",
        -8.754744540806369
      ],
      [
        "Ġtraining",
        -8.754814218482018
      ],
      [
        "To",
        -8.754902029702128
      ],
      [
        "Ġavoid",
        -8.756394239918434
      ],
      [
        "Ġfact",
        -8.757423759525476
      ],
      [
        "k",
        -8.759422913185613
      ],
      [
        "Ġaddition",
        -8.760757746043279
      ],
      [
        "Ġmachine",
        -8.762244932688708
      ],
      [
        "Ġamong",
        -8.764068908446548
      ],
      [
        "Ġstore",
        -8.764272860613998
      ],
      [
        "Ġwarm",
        -8.765287223854958
      ],
      [
        "Ġsingle",
        -8.76554065204594
      ],
      [
        "Ġcancer",
        -8.76556381768215
      ],
      [
        "Ġmean",
        -8.766581081996634
      ],
      [
        "Ġeither",
        -8.766927401551229
      ],
      [
        "ĠSome",
        -8.767155133641383
      ],
      [
        "Ġquestion",
        -8.767836796054532
      ],
      [
        "Ġcat",
        -8.768439602604548
      ],
      [
        "ĠE",
        -8.768908753125515
      ],
      [
        "Ġlist",
        -8.773407294719046
      ],
      [
        "Ġskin",
        -8.773882863997333
      ],
      [
        "Ġfar",
        -8.775266376523682
      ],
      [
        "Ġtoday",
        -8.777807821834184
      ],
      [
        "Ġbring",
        -8.778983726428901
      ],
      [
        "Ġblack",
        -8.779175038338888
      ],
      [
        "Ġperformance",
        -8.779763400559535
      ],
      [
        "Ġexist",
        -8.78046618409314
      ],
      [
        "Ġbook",
        -8.781406553514739
      ],
      [
        "Ġread",
        -8.7826413858398
      ],
      [
        "Ġnature",
        -8.783641227920967
      ],
      [
        "For",
        -8.784263579562786
      ],
      [
        "Ġask",
        -8.787519645653482
      ],
      [
        "Ġflower",
        -8.791521373333918
      ],
      [
        "Ġparent",
        -8.792031509328595
      ],
      [
        "Ġlooking",
        -8.793671991399204
      ],
      [
        "Ġenjoy",
        -8.794322379905967
      ],
      [
        "Ġunderstanding",
        -8.794832512935173
      ],
      [
        "Ġrecent",
        -8.79534902795464
      ],
      [
        "v",
        -8.799072418914168
      ],
      [
        "Ġloss",
        -8.801806414149803
      ],
      [
        "Ġmatter",
        -8.804274991799957
      ],
      [
        "Ġpublic",
        -8.806580708845289
      ],
      [
        ">",
        -8.8072524287905
      ],
      [
        "Ġdevelop",
        -8.807808944592278
      ],
      [
        "Ġbelieve",
        -8.807904286337534
      ],
      [
        "Ġfour",
        -8.80841350972199
      ],
      [
        "Ġcontent",
        -8.810813504786529
      ],
      [
        "Ġcomputer",
        -8.811333216922716
      ],
      [
        "Ġactivity",
        -8.814056030195582
      ],
      [
        "Ġthought",
        -8.815766352041226
      ],
      [
        "Ġbasic",
        -8.817907376170389
      ],
      [
        "Ġbalance",
        -8.818758860031362
      ],
      [
        "ĠNo",
        -8.819283059578108
      ],
      [
        "Ġcondition",
        -8.81929028822934
      ],
      [
        "ous",
        -8.821026488797749
      ],
      [
        "Ġreason",
        -8.821164856043476
      ],
      [
        "Ġgas",
        -8.821964275888549
      ],
      [
        "Ġleft",
        -8.822235058497114
      ],
      [
        "Ġfurther",
        -8.822636247875671
      ],
      [
        "Ġlayer",
        -8.824981028205599
      ],
      [
        "Ġaction",
        -8.825156846783063
      ],
      [
        "w",
        -8.825976681125749
      ],
      [
        "Ġonce",
        -8.826018536187274
      ],
      [
        "Ġaccess",
        -8.828477797851157
      ],
      [
        "Ġskills",
        -8.829715556981505
      ],
      [
        "Ġeffect",
        -8.83009366247251
      ],
      [
        ")Ċ",
        -8.831363767791197
      ],
      [
        "Ġtalk",
        -8.831972257071891
      ],
      [
        "Ġmove",
        -8.832648664797633
      ],
      [
        "Ġstudie",
        -8.834159377109934
      ],
      [
        "T",
        -8.834232585719803
      ],
      [
        "Ġcool",
        -8.83555336339229
      ],
      [
        "Ġbehavior",
        -8.837018676672782
      ],
      [
        "Ġways",
        -8.841407568038186
      ],
      [
        "ĠâĢĶ",
        -8.842205182312576
      ],
      [
        "Ġinside",
        -8.842596652318669
      ],
      [
        "Ġapproach",
        -8.84329805621011
      ],
      [
        "Ġchallenge",
        -8.844123837918382
      ],
      [
        "ĠU",
        -8.844294291005234
      ],
      [
        "Ġappear",
        -8.844945916931547
      ],
      [
        "Ġstress",
        -8.847375234369917
      ],
      [
        "Ġlanguage",
        -8.84941094756676
      ],
      [
        "Ġwomen",
        -8.850132233346526
      ],
      [
        "Ġassociate",
        -8.853874171736194
      ],
      [
        "Ġgetting",
        -8.854065441863744
      ],
      [
        "Ġbig",
        -8.856127141095648
      ],
      [
        "Ġfall",
        -8.85660512283955
      ],
      [
        "Ġparts",
        -8.861176835247644
      ],
      [
        "Ġwhether",
        -8.861581656787973
      ],
      [
        "Ġgame",
        -8.86284865678219
      ],
      [
        "Ġmention",
        -8.866545502318823
      ],
      [
        "Ġpost",
        -8.869039103148376
      ],
      [
        "Ġindustry",
        -8.871852495700196
      ],
      [
        "Ġcommunity",
        -8.872449661209558
      ],
      [
        "Ġsymptoms",
        -8.87393621390717
      ],
      [
        "already",
        -8.874390245846477
      ],
      [
        "Ġreceive",
        -8.875269939371211
      ],
      [
        "Ġservice",
        -8.878555620031822
      ],
      [
        "Ġforce",
        -8.87917572079104
      ],
      [
        "Ġenvironmental",
        -8.880600073800593
      ],
      [
        "Ġtoward",
        -8.881625137432126
      ],
      [
        "Ġhouse",
        -8.883371461421763
      ],
      [
        "taking",
        -8.883805446650863
      ],
      [
        "Ġfeatures",
        -8.883990744780853
      ],
      [
        "âĢĶ",
        -8.88408530027658
      ],
      [
        "Ġperform",
        -8.884280534350271
      ],
      [
        "Ġmajor",
        -8.884863243697051
      ],
      [
        "Ġfruit",
        -8.885901730770232
      ],
      [
        "Ġactivities",
        -8.890562727898132
      ],
      [
        "by",
        -8.890861753781174
      ],
      [
        "Ġpain",
        -8.891124040656688
      ],
      [
        "Ġbusiness",
        -8.891295111219353
      ],
      [
        "Ġrequired",
        -8.894707728227864
      ],
      [
        "Ġknowledge",
        -8.895571917119465
      ],
      [
        "Ġsugar",
        -8.89571762321193
      ],
      [
        "Ġmoney",
        -8.898386188375962
      ],
      [
        "Ġam",
        -8.900657794069854
      ],
      [
        "Ġidea",
        -8.9029064256096
      ],
      [
        "Ġhours",
        -8.90316969271037
      ],
      [
        "Ġliving",
        -8.903796502452783
      ],
      [
        "Ġcontact",
        -8.904485955707319
      ],
      [
        "Ġbrain",
        -8.905290835533009
      ],
      [
        "Ġcold",
        -8.906072562490138
      ],
      [
        ")ĊĊ",
        -8.909831942260686
      ],
      [
        "afety",
        -8.909921267635827
      ],
      [
        "Ġwild",
        -8.911355199801896
      ],
      [
        "Ġelectric",
        -8.911932460576068
      ],
      [
        "Ġanswer",
        -8.91347435426598
      ],
      [
        "Ġde",
        -8.917195405652038
      ],
      [
        "Ġcall",
        -8.918295610499495
      ],
      [
        "Ġbelow",
        -8.922209506772663
      ],
      [
        "to",
        -8.922485032741104
      ],
      [
        "Ġuser",
        -8.924802162174544
      ],
      [
        "Ġpersonal",
        -8.92756406991218
      ],
      [
        "gainst",
        -8.927814586984976
      ],
      [
        "Ġcarbon",
        -8.928266701400577
      ],
      [
        "ĠOne",
        -8.929608184749615
      ],
      [
        "Ġhistor",
        -8.930158118120627
      ],
      [
        "Ġtools",
        -8.930656932964684
      ],
      [
        "Ġtree",
        -8.93072362881256
      ],
      [
        "Ġsun",
        -8.931016433235424
      ],
      [
        "Ġpet",
        -8.931410467012292
      ],
      [
        "ment",
        -8.932684260307045
      ],
      [
        "Ġtreat",
        -8.932778527280059
      ],
      [
        "Ġbuild",
        -8.933324205435857
      ],
      [
        "Ġflow",
        -8.93347068373123
      ],
      [
        "Ġgreen",
        -8.933628417097449
      ],
      [
        "Ġadult",
        -8.934168753261682
      ],
      [
        "Ġwhole",
        -8.935670343828345
      ],
      [
        "Ġsense",
        -8.936508796288013
      ],
      [
        "Ġclass",
        -8.936557786282838
      ],
      [
        "Ġreport",
        -8.937543487942825
      ],
      [
        "ather",
        -8.937717195057655
      ],
      [
        "Ġothers",
        -8.937856966132808
      ],
      [
        "not",
        -8.93853690913615
      ],
      [
        "Ġthough",
        -8.941217699121106
      ],
      [
        "Ġpopular",
        -8.941661553185286
      ],
      [
        "Ġself",
        -8.942359180583985
      ],
      [
        "Ġstay",
        -8.942478125238207
      ],
      [
        "Ġoverall",
        -8.94391880590591
      ],
      [
        "Ġitem",
        -8.944514213354706
      ],
      [
        "Ġred",
        -8.945274705283632
      ],
      [
        "Ġperfect",
        -8.946053517053308
      ],
      [
        "online",
        -8.948486297901372
      ],
      [
        "Ġcompany",
        -8.948487418940868
      ],
      [
        "Ġmedical",
        -8.948895972842031
      ],
      [
        "So",
        -8.949545657280456
      ],
      [
        "Ġresearchers",
        -8.95038974223386
      ],
      [
        "âĢĵ",
        -8.95140181578332
      ],
      [
        "Ġengine",
        -8.951972342048077
      ],
      [
        "Ġmeasure",
        -8.952809665054371
      ],
      [
        "Ġpositive",
        -8.953058840885994
      ],
      [
        "Ġentire",
        -8.953313575863074
      ],
      [
        "Ġfuel",
        -8.95332428955897
      ],
      [
        "Ġposition",
        -8.954623167935086
      ],
      [
        "ember",
        -8.955232704414355
      ],
      [
        "Ġlonger",
        -8.955321099612148
      ],
      [
        "Ġaverage",
        -8.955546310601866
      ],
      [
        "Ġtell",
        -8.955842604859347
      ],
      [
        "Ġresource",
        -8.956290483698936
      ],
      [
        "ĠAmerican",
        -8.956660934097663
      ],
      [
        "Ġsignal",
        -8.957821098228003
      ],
      [
        "Ġpast",
        -8.958110658803928
      ],
      [
        "Ġface",
        -8.958119237124887
      ],
      [
        "Ġpractice",
        -8.959199728425933
      ],
      [
        "Ġprofessional",
        -8.959713801752297
      ],
      [
        "Ġshape",
        -8.961596204281634
      ],
      [
        "Ġcrucial",
        -8.962284193841706
      ],
      [
        "Ġmetal",
        -8.96293399128652
      ],
      [
        "Ġeasily",
        -8.963040851168714
      ],
      [
        "Ġmonths",
        -8.963366314689798
      ],
      [
        "Ġcomplex",
        -8.963391476406834
      ],
      [
        "Ġissue",
        -8.96386659953218
      ],
      [
        "Ġbirds",
        -8.96584112475216
      ],
      [
        "Ġopportunit",
        -8.966752685328625
      ],
      [
        "Ġscientist",
        -8.967015757423102
      ],
      [
        "Ġmanagement",
        -8.968980678965105
      ],
      [
        "ĠF",
        -8.96918529385371
      ],
      [
        "Ġselect",
        -8.971409045628294
      ],
      [
        "]",
        -8.971498477156189
      ],
      [
        "Ġmind",
        -8.973326311201362
      ],
      [
        "Ġdoing",
        -8.974958500598593
      ],
      [
        "Ġchoose",
        -8.978818693865886
      ],
      [
        "Ġresponse",
        -8.978890634680617
      ],
      [
        "Ġbegin",
        -8.978939996029538
      ],
      [
        "Ġwalk",
        -8.981017187060399
      ],
      [
        "Ġseason",
        -8.981570181412309
      ],
      [
        ".\"ĊĊ",
        -8.982603632141041
      ],
      [
        "Ġtraditional",
        -8.984733919490674
      ],
      [
        "ĠAI",
        -8.986642863766184
      ],
      [
        "Ġsound",
        -8.98789523973336
      ],
      [
        "Ġrelative",
        -8.990000117066959
      ],
      [
        "Ġhappen",
        -8.992445241390813
      ],
      [
        "Ġcover",
        -8.993629152131115
      ],
      [
        "Ġglobal",
        -8.995427981684543
      ],
      [
        "_",
        -8.995831520710295
      ],
      [
        "ĠW",
        -8.998966936199562
      ],
      [
        "Ġreach",
        -9.000289540580344
      ],
      [
        ".\"Ċ",
        -9.000357477950246
      ],
      [
        "Ġquestions",
        -9.000815790560203
      ],
      [
        "Ġprint",
        -9.001716791408448
      ],
      [
        "Ġdescribe",
        -9.002878488599805
      ],
      [
        "Ġsuggest",
        -9.00393360268666
      ],
      [
        "F",
        -9.005385567398715
      ],
      [
        "Ġdeep",
        -9.00635490499642
      ],
      [
        "Ġplan",
        -9.006461789067188
      ],
      [
        "Ġetc",
        -9.008761158080487
      ],
      [
        "Ġquickly",
        -9.008825877865108
      ],
      [
        "it",
        -9.009512792059368
      ],
      [
        "Ġthroughout",
        -9.013265762884233
      ],
      [
        "Ġinvolve",
        -9.01337236387267
      ],
      [
        "Ġaddress",
        -9.015987427146984
      ],
      [
        "Ġwinter",
        -9.019295902813983
      ],
      [
        "Ġmovement",
        -9.019537491295488
      ],
      [
        "Ġmaintain",
        -9.020313944706816
      ],
      [
        "Ġminutes",
        -9.020656406864925
      ],
      [
        "seen",
        -9.021391180690756
      ],
      [
        "Ġtechniques",
        -9.021521010236604
      ],
      [
        "Ġdetermine",
        -9.022041500480416
      ],
      [
        "Ġinfection",
        -9.02231987170171
      ],
      [
        "Ġwear",
        -9.023085078660715
      ],
      [
        "Ġwall",
        -9.02381096139016
      ],
      [
        "Ġstop",
        -9.025220832233297
      ],
      [
        "ĠH",
        -9.025517297115863
      ],
      [
        "Ġconsidered",
        -9.02698234706509
      ],
      [
        "ĠWhil",
        -9.028041278313848
      ],
      [
        "Ġprotein",
        -9.028703001981569
      ],
      [
        "Ġhelps",
        -9.02875022566533
      ],
      [
        "ĠR",
        -9.02958930388901
      ],
      [
        "Ġrelationship",
        -9.033620999442578
      ],
      [
        "Ġsea",
        -9.033982024285764
      ],
      [
        "Ġcases",
        -9.034267786432254
      ],
      [
        "Ġspecial",
        -9.034950172626786
      ],
      [
        "As",
        -9.037077352992032
      ],
      [
        "Ġacid",
        -9.037492547976118
      ],
      [
        "Ġyourself",
        -9.037744779945974
      ],
      [
        "Ġbreak",
        -9.03784563365772
      ],
      [
        "Ġrelease",
        -9.03805857401441
      ],
      [
        "P",
        -9.038177430877704
      ],
      [
        "Ġcamera",
        -9.039016335980277
      ],
      [
        "Ġshare",
        -9.04063921726247
      ],
      [
        "Ġreturn",
        -9.041740337044368
      ],
      [
        "-base",
        -9.042469684312218
      ],
      [
        "Ġsetting",
        -9.042876608539682
      ],
      [
        "Ġwaste",
        -9.043188037728637
      ],
      [
        "Ġprimary",
        -9.044725001197325
      ],
      [
        "Ġcut",
        -9.046328662908202
      ],
      [
        "Ġauthor",
        -9.047056710915566
      ],
      [
        "Ġactive",
        -9.048251106306864
      ],
      [
        "Ġcompare",
        -9.04910992898838
      ],
      [
        "Ġchemical",
        -9.049250442445553
      ],
      [
        "Ġprobabl",
        -9.049457600148717
      ],
      [
        "Ġeyes",
        -9.05526127227566
      ],
      [
        "Ġglass",
        -9.057101123486843
      ],
      [
        "most",
        -9.058823761149077
      ],
      [
        "Ġvisit",
        -9.059694847017028
      ],
      [
        "Ġachieve",
        -9.061335115594098
      ],
      [
        "Ġidentify",
        -9.061397046785633
      ],
      [
        "Ġmonitor",
        -9.061432628694067
      ],
      [
        "Ġattention",
        -9.062421997854957
      ],
      [
        "ful",
        -9.0630769261903
      ],
      [
        "Ġtrees",
        -9.063951055145164
      ],
      [
        "Ġrelated",
        -9.064399159508056
      ],
      [
        "Ġsite",
        -9.066112889325622
      ],
      [
        "Ġsoftware",
        -9.066184186556868
      ],
      [
        "Ġprovid",
        -9.066384535529746
      ],
      [
        "Ġdecision",
        -9.06754854460776
      ],
      [
        "Ġnetwork",
        -9.067641091161
      ],
      [
        "Ġgot",
        -9.07123405058157
      ],
      [
        "Ġequipment",
        -9.07153625382012
      ],
      [
        "Ġstrateg",
        -9.074033754339254
      ],
      [
        "Ġregard",
        -9.074583814530898
      ],
      [
        "Ġoutside",
        -9.07546707136528
      ],
      [
        "Ġmultiple",
        -9.076657046223152
      ],
      [
        "Ġhot",
        -9.076860222495364
      ],
      [
        "Ġview",
        -9.080897976504549
      ],
      [
        "Ġcountry",
        -9.080910246574192
      ],
      [
        "ive",
        -9.081766198042803
      ],
      [
        "Ġwebsite",
        -9.082422122798208
      ],
      [
        "Ġland",
        -9.084623756987376
      ],
      [
        "Ġlength",
        -9.086874203655992
      ],
      [
        "Ġfeet",
        -9.092595116002371
      ],
      [
        "Ġtotal",
        -9.097159848951527
      ],
      [
        "Ġbad",
        -9.098350224782664
      ],
      [
        "Ġmodern",
        -9.099426252806229
      ],
      [
        "Ġeducation",
        -9.101855602552526
      ],
      [
        "Ġchoice",
        -9.102785438995536
      ],
      [
        "Ġexplain",
        -9.104249563201956
      ],
      [
        "Ġelements",
        -9.104459575695184
      ],
      [
        "Ġtravel",
        -9.10674669123964
      ],
      [
        "simply",
        -9.106785402821108
      ],
      [
        "Ġrepresent",
        -9.107211815402838
      ],
      [
        "Ġextreme",
        -9.109735164971024
      ],
      [
        "Ġthemselves",
        -9.109750622422156
      ],
      [
        "Ġhalf",
        -9.109951869057792
      ],
      [
        "Ġweather",
        -9.110165192211223
      ],
      [
        "Ġexplore",
        -9.111374234143147
      ],
      [
        "Ġpercent",
        -9.111379908840693
      ],
      [
        "Ġdeveloped",
        -9.113170265256088
      ],
      [
        "ĠNational",
        -9.115994091171448
      ],
      [
        "Ġdaily",
        -9.117047713089386
      ],
      [
        "Ġtool",
        -9.11777539261761
      ],
      [
        ").Ċ",
        -9.118721460882426
      ],
      [
        "Ġregular",
        -9.119959123565652
      ],
      [
        "ĠAt",
        -9.120378908097752
      ],
      [
        "|",
        -9.120790119033344
      ],
      [
        "Why",
        -9.12221862014554
      ],
      [
        "Ġparticular",
        -9.122646300106316
      ],
      [
        "Ġincreasing",
        -9.123032306587811
      ],
      [
        "Ġanything",
        -9.12408290441426
      ],
      [
        "Ġrecord",
        -9.126582226270449
      ],
      [
        "E",
        -9.126776407134466
      ],
      [
        "Ġfive",
        -9.127660440451333
      ],
      [
        "Ġinput",
        -9.127761119442852
      ],
      [
        "Ġwords",
        -9.129543753865676
      ],
      [
        "Ġsummer",
        -9.129566998366524
      ],
      [
        "Ġsometime",
        -9.129953155664143
      ],
      [
        "Ġdigital",
        -9.131013070495566
      ],
      [
        "Ġever",
        -9.132439359942468
      ],
      [
        "ĠDo",
        -9.134748239096924
      ],
      [
        "age",
        -9.135155463636844
      ],
      [
        "Ġnight",
        -9.135538551327311
      ],
      [
        "Ġorganic",
        -9.136017596579777
      ],
      [
        "quite",
        -9.137796340118086
      ],
      [
        "Ġlater",
        -9.139211044873962
      ],
      [
        "Ġinstead",
        -9.139718365977629
      ],
      [
        "Ġcode",
        -9.14234561906834
      ],
      [
        "Ġlimit",
        -9.14301991459648
      ],
      [
        "Ġplastic",
        -9.143277238450455
      ],
      [
        "Ġact",
        -9.143434599467728
      ],
      [
        "Ġhumans",
        -9.144159713263909
      ],
      [
        "Ġadditional",
        -9.145892442299784
      ],
      [
        "Ġgain",
        -9.146002274527948
      ],
      [
        "Ġfarm",
        -9.147337190525056
      ],
      [
        "ĠHere",
        -9.149370279000326
      ],
      [
        "Ġyet",
        -9.14980938245656
      ],
      [
        "Ġcaused",
        -9.15297411543673
      ],
      [
        "Ġbattery",
        -9.153146358941957
      ],
      [
        "One",
        -9.154284329785126
      ],
      [
        "ĠOn",
        -9.156753626587676
      ],
      [
        "Ġtarget",
        -9.157996192909046
      ],
      [
        "Ġdistance",
        -9.158104644861597
      ],
      [
        "Ġsensor",
        -9.158331673764918
      ],
      [
        "Ġfeed",
        -9.161143612919483
      ],
      [
        "Ġplayer",
        -9.162735216587862
      ],
      [
        "Ġterm",
        -9.1634510322803
      ],
      [
        "Ġspread",
        -9.16430340613326
      ],
      [
        "Ġitself",
        -9.165125430175175
      ],
      [
        "Ġreading",
        -9.166158359278114
      ],
      [
        "Ġanalysis",
        -9.16637398936556
      ],
      [
        "Ġsuccessful",
        -9.167255988515995
      ],
      [
        "Ġmedia",
        -9.168330216914516
      ],
      [
        "Ġblue",
        -9.16836414606951
      ],
      [
        "Ġ</",
        -9.168781145189476
      ],
      [
        "Ġproper",
        -9.16929752496697
      ],
      [
        "Ġfast",
        -9.16941662841834
      ],
      [
        "Ġunit",
        -9.170532821213296
      ],
      [
        "Ġcustomer",
        -9.17070361972081
      ],
      [
        "Ġevent",
        -9.172847801030574
      ],
      [
        "ĠDNA",
        -9.174328009865686
      ],
      [
        "Ġmilk",
        -9.175310739303246
      ],
      [
        "ĠAn",
        -9.176646307025116
      ],
      [
        "Ġfit",
        -9.177339178308497
      ],
      [
        "Ġcorrect",
        -9.177748865495795
      ],
      [
        "ĠAll",
        -9.177986494719928
      ],
      [
        "Ġservices",
        -9.178137673585804
      ],
      [
        "Ġcomponents",
        -9.178287154097138
      ],
      [
        "Ġvehicle",
        -9.181646663231856
      ],
      [
        "ĠEarth",
        -9.182348031963926
      ],
      [
        "Ġfinal",
        -9.182911064776263
      ],
      [
        "Ġcenter",
        -9.183410728208912
      ],
      [
        "Ġmix",
        -9.185357220277634
      ],
      [
        "Ġhear",
        -9.185508142312134
      ],
      [
        "Ġfun",
        -9.186917136443396
      ],
      [
        "Ġexact",
        -9.186953087797136
      ],
      [
        "Ġfresh",
        -9.18717075173935
      ],
      [
        "Ġserve",
        -9.18768655541052
      ],
      [
        "Ġpay",
        -9.190385062585973
      ],
      [
        "Ġrest",
        -9.190777630610995
      ],
      [
        "Ġregion",
        -9.191911291873224
      ],
      [
        "Ġapply",
        -9.193535206580112
      ],
      [
        "Ġstudent",
        -9.194404724204698
      ],
      [
        "Ġkids",
        -9.194722146975788
      ],
      [
        "Ġconcern",
        -9.194959734047623
      ],
      [
        "Ġtrue",
        -9.19606167648904
      ],
      [
        "Ġart",
        -9.198026684483324
      ],
      [
        "Ġago",
        -9.19875915639722
      ],
      [
        "Ġdrive",
        -9.19931339174562
      ],
      [
        "Ġbrand",
        -9.199349990310251
      ],
      [
        "Ġapplications",
        -9.200178873128458
      ],
      [
        "z",
        -9.203993161554312
      ],
      [
        "Ġwon",
        -9.205983478170678
      ],
      [
        "Ġguide",
        -9.209216604842773
      ],
      [
        "Ġnegative",
        -9.209877818187106
      ],
      [
        "Ġbase",
        -9.210034606609934
      ],
      [
        "Ġbacteria",
        -9.211644853971205
      ],
      [
        "ĠHealth",
        -9.212859061222556
      ],
      [
        "Ġhold",
        -9.21400830056388
      ],
      [
        "ĠL",
        -9.214147504938374
      ],
      [
        "Ġmeet",
        -9.214976643761087
      ],
      [
        "Ġapplication",
        -9.218127160448104
      ],
      [
        "Ġattack",
        -9.220165232428284
      ],
      [
        "Ġwood",
        -9.222169780424547
      ],
      [
        "Ġeasie",
        -9.222948692081136
      ],
      [
        "Ġcontribute",
        -9.223712060379404
      ],
      [
        "Ġreduc",
        -9.22375369611466
      ],
      [
        "Ġfat",
        -9.225897063921408
      ],
      [
        "land",
        -9.226765691654585
      ],
      [
        "Ġbehin",
        -9.22978904671773
      ],
      [
        "Ġprovided",
        -9.230388627339511
      ],
      [
        "Ġocean",
        -9.230477910071867
      ],
      [
        "But",
        -9.23054708430024
      ],
      [
        "Ġbird",
        -9.230723315578189
      ],
      [
        "Ġcommunication",
        -9.230822703433825
      ],
      [
        "Ġfactor",
        -9.231092858918744
      ],
      [
        "Ġaspect",
        -9.231301286842983
      ],
      [
        "Ġice",
        -9.232458414016817
      ],
      [
        "Ġprice",
        -9.23424797187108
      ],
      [
        "Ġgenetic",
        -9.23735127922324
      ],
      [
        "Ġgovernment",
        -9.23796083463326
      ],
      [
        "+",
        -9.239007766593218
      ],
      [
        "Ġpurpose",
        -9.241079539810976
      ],
      [
        "ĠAfter",
        -9.241608229629389
      ],
      [
        "Ġconcept",
        -9.24224883559587
      ],
      [
        "Ġdark",
        -9.242544116399213
      ],
      [
        "Ġbreed",
        -9.245009688290924
      ],
      [
        "Ġprocesses",
        -9.245262858981912
      ],
      [
        "Ġstandard",
        -9.245277885525407
      ],
      [
        "Ġworks",
        -9.247921258204595
      ],
      [
        "Ġappropriate",
        -9.248702518446583
      ],
      [
        "Ġindicate",
        -9.252406893391816
      ],
      [
        "Ġadvantage",
        -9.252649679228558
      ],
      [
        "Ġmoment",
        -9.2541414930308
      ],
      [
        "Ġculture",
        -9.25430082454664
      ],
      [
        "Ġdiscuss",
        -9.254798653661783
      ],
      [
        "Ġtable",
        -9.256332021944196
      ],
      [
        "Ġfemale",
        -9.25865031412818
      ],
      [
        "Ġevidence",
        -9.260211601956176
      ],
      [
        "ok",
        -9.26023910933608
      ],
      [
        "Ġmass",
        -9.264232399724488
      ],
      [
        "Ġbaby",
        -9.269350169109684
      ],
      [
        "Ġdirection",
        -9.272274706935896
      ],
      [
        "Ġdiscover",
        -9.272936728691942
      ],
      [
        "Ġdidn",
        -9.27330994190599
      ],
      [
        "Ġteeth",
        -9.275321624978965
      ],
      [
        "Ġharm",
        -9.276025209085551
      ],
      [
        "Ġdoctor",
        -9.276123664704649
      ],
      [
        "Ġshows",
        -9.276167976824476
      ],
      [
        "Ġeggs",
        -9.27635931355415
      ],
      [
        "Ġparticularly",
        -9.277821982428687
      ],
      [
        "Ġlack",
        -9.278510113817315
      ],
      [
        "Ġbuy",
        -9.279215303414563
      ],
      [
        "ĠStates",
        -9.279915769501216
      ],
      [
        "Ġboard",
        -9.280581057151686
      ],
      [
        "Ġextra",
        -9.28208511102306
      ],
      [
        "Ġlocation",
        -9.282222931979174
      ],
      [
        "Ġmental",
        -9.282744655955124
      ],
      [
        "where",
        -9.283469359701986
      ],
      [
        "Ġcritical",
        -9.2841877270467
      ],
      [
        ".S",
        -9.284837055827596
      ],
      [
        "Ġeating",
        -9.284893019272207
      ],
      [
        "Ġterms",
        -9.28567730850212
      ],
      [
        "ĠG",
        -9.2861901741544
      ],
      [
        "Ġword",
        -9.286241183456363
      ],
      [
        "Ġlink",
        -9.290453757593276
      ],
      [
        "Ġrunning",
        -9.290827734098992
      ],
      [
        "Ġexperiment",
        -9.290928471690243
      ],
      [
        "sustainable",
        -9.2924596337592
      ],
      [
        "Ġmeat",
        -9.292483331608022
      ],
      [
        "Ġfriend",
        -9.292965651110602
      ],
      [
        "Ġcountr",
        -9.29337004482858
      ],
      [
        "Ġchance",
        -9.296301097438633
      ],
      [
        "ĠDr",
        -9.296523325025229
      ],
      [
        "Ġeveryone",
        -9.296559597211193
      ],
      [
        "Ġbox",
        -9.297019909430936
      ],
      [
        "ĠNorth",
        -9.300609815899849
      ],
      [
        "Ġelse",
        -9.301586546876171
      ],
      [
        "Ġfront",
        -9.304702318778908
      ],
      [
        "Ġsleep",
        -9.304953539268212
      ],
      [
        "Ġspot",
        -9.305146205555188
      ],
      [
        "Ġstyle",
        -9.30515463364963
      ],
      [
        "ĠShe",
        -9.306240834071808
      ],
      [
        "Ġdiseases",
        -9.306669957518308
      ],
      [
        "Ġproduced",
        -9.307102403907727
      ],
      [
        "Ġfill",
        -9.307843358964773
      ],
      [
        "Ġgoal",
        -9.309583223323065
      ],
      [
        "Ġstatement",
        -9.309584763300762
      ],
      [
        "Ġsupply",
        -9.309719794505057
      ],
      [
        "Ġconduct",
        -9.310506692365683
      ],
      [
        "ĠCan",
        -9.31126751687488
      ],
      [
        "Ġpass",
        -9.312077766618165
      ],
      [
        "M",
        -9.312128004886322
      ],
      [
        "ĠN",
        -9.312252110694011
      ],
      [
        "ĠFrom",
        -9.31292117120888
      ],
      [
        "Ġdrink",
        -9.313576065331803
      ],
      [
        "Ġaim",
        -9.314309025695977
      ],
      [
        "Ġfire",
        -9.317467994789808
      ],
      [
        "Ġserious",
        -9.319707704739322
      ],
      [
        "Ġconstant",
        -9.320756725089588
      ],
      [
        "Ġexercise",
        -9.32107645292388
      ],
      [
        "Ġmanage",
        -9.321955136537236
      ],
      [
        "ish",
        -9.32281879109978
      ],
      [
        "Ġnote",
        -9.323992102338709
      ],
      [
        "Ġpiece",
        -9.324247245869849
      ],
      [
        "Ġapplie",
        -9.32587316514265
      ],
      [
        "Ġspring",
        -9.326871917312456
      ],
      [
        "Ġfilter",
        -9.329911544970372
      ],
      [
        "Ġoccur",
        -9.330006178838776
      ],
      [
        "Ġbuilt",
        -9.330585131129643
      ],
      [
        "companie",
        -9.330869815095731
      ],
      [
        "ĠYes",
        -9.331317684144205
      ],
      [
        "Ġcharge",
        -9.333151632999169
      ],
      [
        "Ġstrength",
        -9.333228335714498
      ],
      [
        "ĠâĢľ",
        -9.334196486100742
      ],
      [
        "Ġstory",
        -9.33624835294573
      ],
      [
        "Ġinfluence",
        -9.336608901631529
      ],
      [
        "Ġevents",
        -9.336642002301623
      ],
      [
        "Ġseparate",
        -9.337437649914246
      ],
      [
        "Ġequal",
        -9.33851594119154
      ],
      [
        "Ġjob",
        -9.339055451573604
      ],
      [
        "Ġsuccess",
        -9.33928761289242
      ],
      [
        "Ġscale",
        -9.339401462594855
      ],
      [
        "Ġtaste",
        -9.339873300121532
      ],
      [
        "Ġsave",
        -9.3402004083142
      ],
      [
        "Ġlives",
        -9.34029131448208
      ],
      [
        "Ġcolors",
        -9.340461643133333
      ],
      [
        "Ġoutput",
        -9.341062731739774
      ],
      [
        "ĠMore",
        -9.341812728937484
      ],
      [
        "Ġproperly",
        -9.342534571075412
      ],
      [
        "Ġwatch",
        -9.343545742941892
      ],
      [
        "Ġmonth",
        -9.343615121415272
      ],
      [
        "Ġseries",
        -9.344141331720577
      ],
      [
        "Ġfoods",
        -9.344428311564428
      ],
      [
        "Ġideal",
        -9.344541096831849
      ],
      [
        "Ġproperties",
        -9.345688366473674
      ],
      [
        "Ġvisual",
        -9.34600536138622
      ],
      [
        "Ġuseful",
        -9.34631639823456
      ],
      [
        "Their",
        -9.346956792619912
      ],
      [
        "Ġcombination",
        -9.347762888680617
      ],
      [
        "ĠAmerica",
        -9.34776730184041
      ],
      [
        "Ġalternative",
        -9.347819934184066
      ],
      [
        "Ġcarry",
        -9.347882313386483
      ],
      [
        "Ġmembers",
        -9.34833982165028
      ],
      [
        "Ġimages",
        -9.34885692882277
      ],
      [
        "Ġpre",
        -9.349912525791444
      ],
      [
        "V",
        -9.350249808860656
      ],
      [
        "Ġfeeling",
        -9.35054695987164
      ],
      [
        "Ġvision",
        -9.350604104887044
      ],
      [
        "N",
        -9.350808770822203
      ],
      [
        "Ġdirectly",
        -9.351408831994384
      ],
      [
        "Ġrock",
        -9.351509926226065
      ],
      [
        "Ġgreater",
        -9.352137668549894
      ],
      [
        "Ġaccount",
        -9.352668844981762
      ],
      [
        "Ġdeath",
        -9.352836367359492
      ],
      [
        "Ġinvolved",
        -9.353471996841598
      ],
      [
        "Ġpromote",
        -9.354872100711027
      ],
      [
        "Ġsearch",
        -9.35501323283636
      ],
      [
        "Ġphase",
        -9.358134293718727
      ],
      [
        "âĢ¦",
        -9.358876472892684
      ],
      [
        "Ġsteps",
        -9.360931941109548
      ],
      [
        "Ġsubject",
        -9.362172268020757
      ],
      [
        "Ġoriginal",
        -9.362863878658825
      ],
      [
        "Ġman",
        -9.363916564295245
      ],
      [
        "Ġnotice",
        -9.365217799032973
      ],
      [
        "H",
        -9.365263589482293
      ],
      [
        "Ġremember",
        -9.367251299539536
      ],
      [
        "Ġdisplay",
        -9.367482511461189
      ],
      [
        "Ġstem",
        -9.368511547718589
      ],
      [
        "Ġtransport",
        -9.369072367672066
      ],
      [
        "Ġ+",
        -9.371684954701696
      ],
      [
        "Ġdeal",
        -9.372275538777613
      ],
      [
        "Can",
        -9.372743384731267
      ],
      [
        "Ġlines",
        -9.374218875971184
      ],
      [
        "Ġpatterns",
        -9.374635993490434
      ],
      [
        "Ġhole",
        -9.374911494166238
      ],
      [
        "Ġdraw",
        -9.375275375496075
      ],
      [
        "Ġseeds",
        -9.379859186840184
      ],
      [
        "Ġefficienc",
        -9.380384633202231
      ],
      [
        "Ġencourage",
        -9.381554265798666
      ],
      [
        "Whil",
        -9.381657921732494
      ],
      [
        "Ġfile",
        -9.38202206496418
      ],
      [
        "Ġmale",
        -9.38229647845366
      ],
      [
        "Ġpoor",
        -9.38329098373046
      ],
      [
        "ĠScience",
        -9.383302077412548
      ],
      [
        "Ġmeal",
        -9.383832158881663
      ],
      [
        "taken",
        -9.384205907575744
      ],
      [
        "Ġvalues",
        -9.385150863408365
      ],
      [
        "Ġfeature",
        -9.38622469775579
      ],
      [
        "And",
        -9.386440785294084
      ],
      [
        "With",
        -9.387020112491
      ],
      [
        "ĠUse",
        -9.388816906882372
      ],
      [
        "Ġensur",
        -9.389357293668985
      ],
      [
        "Ġload",
        -9.389411472376851
      ],
      [
        "Ġgoe",
        -9.389594832475408
      ],
      [
        "Ġextend",
        -9.389978861011436
      ],
      [
        "Ġkill",
        -9.390905351509367
      ],
      [
        "more",
        -9.392346007374892
      ],
      [
        "Ġdecrease",
        -9.392616371277974
      ],
      [
        "Ġinstruction",
        -9.392799624942558
      ],
      [
        "Ġcircuit",
        -9.393601246741657
      ],
      [
        "Ġsign",
        -9.394052431998162
      ],
      [
        "Ġscientific",
        -9.395807963914246
      ],
      [
        "Ġdirect",
        -9.39718450203615
      ],
      [
        "Ġsituation",
        -9.397327751560436
      ],
      [
        "Ġimmun",
        -9.397954470581851
      ],
      [
        "Ġprett",
        -9.397962673274014
      ],
      [
        "Ġsoft",
        -9.399791872364611
      ],
      [
        "Â°",
        -9.40167039245476
      ],
      [
        "Ġvitamin",
        -9.402458935058933
      ],
      [
        "life",
        -9.402779204040256
      ],
      [
        "Ġlate",
        -9.405633017623355
      ],
      [
        "Ġcollect",
        -9.406032719396542
      ],
      [
        "Ġtips",
        -9.406066500189748
      ],
      [
        "Ġpull",
        -9.407743640043629
      ],
      [
        "Ġaccurate",
        -9.40875395311479
      ],
      [
        "-to",
        -9.40924101991519
      ],
      [
        ".\"",
        -9.40947987809223
      ],
      [
        "Ġrequirements",
        -9.410180065158926
      ],
      [
        "Ġphone",
        -9.411528452083829
      ],
      [
        "Ġcount",
        -9.412614233350702
      ],
      [
        "Ġleg",
        -9.413762858372616
      ],
      [
        "ĠWorld",
        -9.414849475242184
      ],
      [
        "Ġraise",
        -9.415052100304017
      ],
      [
        "Ġsolar",
        -9.415420147356237
      ],
      [
        "Ġinstall",
        -9.415675090812384
      ],
      [
        "Ġversion",
        -9.417491292848936
      ],
      [
        "Ġgeneration",
        -9.418390934102296
      ],
      [
        "Ġstage",
        -9.418977190380772
      ],
      [
        "Ġprotection",
        -9.42019398579271
      ],
      [
        "Ġpest",
        -9.422052488953138
      ],
      [
        "Ġfine",
        -9.422856998852218
      ],
      [
        "Ġsmooth",
        -9.42392193579114
      ],
      [
        "Ġfoot",
        -9.424054802927646
      ],
      [
        "Ġgrade",
        -9.42407851691414
      ],
      [
        "Ġroot",
        -9.42408726340958
      ],
      [
        "Ġhappens",
        -9.424405652038772
      ],
      [
        "Ġpoints",
        -9.424672756640554
      ],
      [
        "Ġmuscle",
        -9.425199720177332
      ],
      [
        "Ġadjust",
        -9.426323926687392
      ],
      [
        "Ġresponsibl",
        -9.426906577812607
      ],
      [
        "Ġmusic",
        -9.427579599410391
      ],
      [
        "Ġmoving",
        -9.427765573227232
      ],
      [
        "Ġinitial",
        -9.428022432967548
      ],
      [
        "ĠSouth",
        -9.428173495356212
      ],
      [
        "Ġclaim",
        -9.428221341535805
      ],
      [
        "Ġreasons",
        -9.428904024688697
      ],
      [
        "Ġbag",
        -9.429894023208853
      ],
      [
        "Ġcaus",
        -9.430341807086611
      ],
      [
        "Ġliquid",
        -9.430436426077245
      ],
      [
        "ĠUS",
        -9.431756875073596
      ],
      [
        "ĠMost",
        -9.436682170974397
      ],
      [
        "Ġcontainer",
        -9.438378038820428
      ],
      [
        "Ġtesting",
        -9.438829442790484
      ],
      [
        "ĠResearch",
        -9.439148101752147
      ],
      [
        "Ġfrequent",
        -9.439859307937066
      ],
      [
        "W",
        -9.441223015140007
      ],
      [
        "Ġbottom",
        -9.442625249776576
      ],
      [
        "Ġconnect",
        -9.442663575749524
      ],
      [
        "Ġrepair",
        -9.44313937675508
      ],
      [
        "Ġsteel",
        -9.444546252454533
      ],
      [
        "Ġprograms",
        -9.445442668045468
      ],
      [
        "Ġestablish",
        -9.4466985556469
      ],
      [
        "Ġdur",
        -9.448048420829688
      ],
      [
        "Ġwind",
        -9.44844650300545
      ],
      [
        "Ġcareful",
        -9.449234371914176
      ],
      [
        "Ġdate",
        -9.449928643924189
      ],
      [
        "Ġrich",
        -9.449964757944318
      ],
      [
        "Ġvary",
        -9.450234953969204
      ],
      [
        "Ġestimate",
        -9.45110855656021
      ],
      [
        "âĢ¢",
        -9.452409851422573
      ],
      [
        "Ġhope",
        -9.455027044215033
      ],
      [
        "âĢĿ",
        -9.455709624869186
      ],
      [
        "Ġdemand",
        -9.457003466074555
      ],
      [
        "Ġnoise",
        -9.457011405318443
      ],
      [
        "Ġtemperatures",
        -9.457011434376366
      ],
      [
        "ance",
        -9.457098850905467
      ],
      [
        "Ġhost",
        -9.457109043068291
      ],
      [
        "Ġscreen",
        -9.45759823380046
      ],
      [
        "ĠUnite",
        -9.45810702204258
      ],
      [
        "ĠMany",
        -9.458963354653475
      ],
      [
        "Ġimportan",
        -9.460179248464431
      ],
      [
        "Ġenhance",
        -9.460665882644353
      ],
      [
        "Ġsuitable",
        -9.461040534105123
      ],
      [
        "Ġemission",
        -9.46174255821096
      ],
      [
        "Ġmechanism",
        -9.462461104612215
      ],
      [
        "Ġtouch",
        -9.463175247702909
      ],
      [
        "Ġbrown",
        -9.463320014480392
      ],
      [
        "man",
        -9.465289527608004
      ],
      [
        "Ġefficient",
        -9.465594084019656
      ],
      [
        "Ġdeveloping",
        -9.467233020707944
      ],
      [
        "ĠAdditional",
        -9.467989572682484
      ],
      [
        "ĠWhy",
        -9.469201677726032
      ],
      [
        "Ġinteraction",
        -9.469766253540158
      ],
      [
        "Ġplanet",
        -9.469990146770956
      ],
      [
        "-term",
        -9.470349608480944
      ],
      [
        "[",
        -9.470945467152887
      ],
      [
        "Ġcats",
        -9.471271964604217
      ],
      [
        "Ġiron",
        -9.47192175743156
      ],
      [
        "Ġfigure",
        -9.47273293248448
      ],
      [
        "Ġsigns",
        -9.473239598665412
      ],
      [
        "ĠCenter",
        -9.473622458991189
      ],
      [
        "Ġjourney",
        -9.473925689914171
      ],
      [
        "Ġobtain",
        -9.478792189302794
      ],
      [
        "Ġsevere",
        -9.478859090885711
      ],
      [
        "-up",
        -9.479052603381426
      ],
      [
        "Ġsix",
        -9.479680026810216
      ],
      [
        "Ġpublished",
        -9.480860258848798
      ],
      [
        "Ġpair",
        -9.482342500378504
      ],
      [
        "Ġnumbers",
        -9.48309136284976
      ],
      [
        "ivity",
        -9.483287747120391
      ],
      [
        "Ġwriting",
        -9.483712900445049
      ],
      [
        "Ġaccept",
        -9.48492165671895
      ],
      [
        "Ġcity",
        -9.4852799365472
      ],
      [
        "Ġblock",
        -9.485617848704248
      ],
      [
        "Ġvia",
        -9.485787578949031
      ],
      [
        "giving",
        -9.486735902748304
      ],
      [
        "Ġpractices",
        -9.48684399629805
      ],
      [
        "Ġreview",
        -9.488229731813476
      ],
      [
        "Ġconsist",
        -9.4902636135866
      ],
      [
        "Ġreaction",
        -9.49251503519241
      ],
      [
        "These",
        -9.493086555213315
      ],
      [
        "Ġhandle",
        -9.493393328270072
      ],
      [
        "Ġcame",
        -9.495231724371724
      ],
      [
        "Ġpick",
        -9.49561229763513
      ],
      [
        "=",
        -9.49563527460361
      ],
      [
        "By",
        -9.49603201092872
      ],
      [
        "of",
        -9.497636833112974
      ],
      [
        "Ġcompound",
        -9.497881363052883
      ],
      [
        "Ġseek",
        -9.498350084911213
      ],
      [
        "Ġnutrients",
        -9.499445352987983
      ],
      [
        "ĠSchool",
        -9.49956683401891
      ],
      [
        "Ġwire",
        -9.49970414204595
      ],
      [
        "Ġenter",
        -9.499911668602948
      ],
      [
        "Ġoxygen",
        -9.50014878746476
      ],
      [
        "ĠO",
        -9.50039281766453
      ],
      [
        "Ġcouple",
        -9.501166620153164
      ],
      [
        "Ġmen",
        -9.501959707092428
      ],
      [
        "Ġconsumpti",
        -9.50229372005468
      ],
      [
        "Ġfriends",
        -9.502867900418083
      ],
      [
        "Ġresistance",
        -9.50348817077026
      ],
      [
        "Ġchicken",
        -9.504312397020229
      ],
      [
        "Ġtend",
        -9.50522433054651
      ],
      [
        "Ġingredients",
        -9.50552677731234
      ],
      [
        "Ġnothing",
        -9.505814516130092
      ],
      [
        "Ġvegetables",
        -9.506088495086445
      ],
      [
        "Ġmemory",
        -9.50619091672827
      ],
      [
        "older",
        -9.506544908386294
      ],
      [
        "ĠThen",
        -9.507020236423145
      ],
      [
        "Ġtissue",
        -9.507206369517531
      ],
      [
        "Ġyellow",
        -9.508324590818733
      ],
      [
        "Ġusers",
        -9.508856660512382
      ],
      [
        "Ġhair",
        -9.5092956524866
      ],
      [
        "Ġelectrical",
        -9.510028731503636
      ],
      [
        "L",
        -9.5107467396359
      ],
      [
        "Ġbreath",
        -9.512719820376216
      ],
      [
        "Ġmotion",
        -9.512812730935604
      ],
      [
        "Ġinstance",
        -9.513157829569646
      ],
      [
        "ers",
        -9.513461644555528
      ],
      [
        "ĠOur",
        -9.514839803405309
      ],
      [
        "Ġtherapy",
        -9.515043585312403
      ],
      [
        "ĠJapan",
        -9.516786416401397
      ],
      [
        "ĠNot",
        -9.5183800054289
      ],
      [
        "Ġtheory",
        -9.518571674515956
      ],
      [
        "Ġvariable",
        -9.51862143043293
      ],
      [
        "Ġfloor",
        -9.519494173165652
      ],
      [
        "ĠAls",
        -9.520063498958477
      ],
      [
        "Ġwrong",
        -9.520673309918422
      ],
      [
        "Ġstorage",
        -9.520704303664653
      ],
      [
        "Ġconstruction",
        -9.520754778318912
      ],
      [
        "ĠOf",
        -9.522418220464072
      ],
      [
        "Ġbeautiful",
        -9.523020164313998
      ],
      [
        "O",
        -9.523347586604707
      ],
      [
        "Ġinteresting",
        -9.52335163589676
      ],
      [
        "Ġrise",
        -9.523516076695248
      ],
      [
        "Ġwrite",
        -9.524715937820565
      ],
      [
        "Ġmessage",
        -9.52480954209442
      ],
      [
        "Ġpage",
        -9.524923530062312
      ],
      [
        "Ġspend",
        -9.526355963875368
      ],
      [
        "Ġwonder",
        -9.526364160084311
      ],
      [
        "Ġrefer",
        -9.526552848439772
      ],
      [
        "Ġ--",
        -9.526806940050538
      ],
      [
        "ism",
        -9.52684825191589
      ],
      [
        "Ġsubstance",
        -9.527056825354029
      ],
      [
        "Ġrare",
        -9.52753340771687
      ],
      [
        "ĠK",
        -9.527812583527986
      ],
      [
        "Ġcollection",
        -9.527911482899489
      ],
      [
        "Ġobserve",
        -9.5281776359822
      ],
      [
        "Ġstick",
        -9.528214596845569
      ],
      [
        "tenance",
        -9.528364378697578
      ],
      [
        "Ġbigge",
        -9.528960587613856
      ],
      [
        "Ġexposure",
        -9.53172163068173
      ],
      [
        "inches",
        -9.533774857606575
      ],
      [
        "ĠX",
        -9.533826957121088
      ],
      [
        "mm",
        -9.534789248258836
      ],
      [
        "Ġwait",
        -9.536055141955847
      ],
      [
        "Ġtechnique",
        -9.536062091380192
      ],
      [
        "Ġflight",
        -9.536079993538442
      ],
      [
        "ĠMy",
        -9.53625181544669
      ],
      [
        "Ġcapacit",
        -9.536256160324688
      ],
      [
        "Ġideas",
        -9.536438390035224
      ],
      [
        "ĠWho",
        -9.536888809381573
      ],
      [
        "Ġpowerful",
        -9.538168444052332
      ],
      [
        "Ġreflect",
        -9.53859659132784
      ],
      [
        "ĠJ",
        -9.539732725498869
      ],
      [
        "R",
        -9.541122173388938
      ],
      [
        "Ġpaint",
        -9.542971782249406
      ],
      [
        "They",
        -9.543803797293624
      ],
      [
        "Ġready",
        -9.544385230553749
      ],
      [
        "Ġsection",
        -9.54580359651688
      ],
      [
        "Ġdeliver",
        -9.54605491122178
      ],
      [
        "Ġmedication",
        -9.546257251570308
      ],
      [
        "cy",
        -9.54627279270822
      ],
      [
        "Ġrice",
        -9.547783414352644
      ],
      [
        "Ġtask",
        -9.548609441126803
      ],
      [
        "An",
        -9.550904857063763
      ],
      [
        "Ġgenerate",
        -9.550930160319608
      ],
      [
        "Ġfaster",
        -9.55246683393009
      ],
      [
        "Ġcycle",
        -9.552830714948003
      ],
      [
        "fish",
        -9.553059232910424
      ],
      [
        "light",
        -9.55463110273704
      ],
      [
        "Ġpieces",
        -9.554855185991103
      ],
      [
        "Ġbone",
        -9.555053545719373
      ],
      [
        "Ġheavy",
        -9.556477649438955
      ],
      [
        "Ġpicture",
        -9.556884495575073
      ],
      [
        "Ġstarting",
        -9.557315066011078
      ],
      [
        "Ġhands",
        -9.5574634666164
      ],
      [
        "Ġcap",
        -9.55757341718641
      ],
      [
        "Ġmeasurement",
        -9.558398289232038
      ],
      [
        "Ġlandscape",
        -9.558453157338228
      ],
      [
        "Ġcentury",
        -9.559493354245198
      ],
      [
        "Ġtank",
        -9.561603429109898
      ],
      [
        "Ġsend",
        -9.56222510618652
      ],
      [
        "Ġhuge",
        -9.562814314438596
      ],
      [
        ".com",
        -9.56384767029382
      ],
      [
        "Ġforward",
        -9.565343879176089
      ],
      [
        "ĠV",
        -9.566184079122756
      ],
      [
        "Ġlaw",
        -9.566329054935592
      ],
      [
        "Ġanyone",
        -9.56744412221922
      ],
      [
        "Ġimplement",
        -9.567551665053916
      ],
      [
        "K",
        -9.567716844617848
      ],
      [
        "ĠNow",
        -9.56872004051233
      ],
      [
        "Ġcutting",
        -9.569670624547314
      ],
      [
        "Ġprinciple",
        -9.56968553081316
      ],
      [
        "lost",
        -9.571817529590382
      ],
      [
        "Ġsalt",
        -9.57301951392238
      ],
      [
        "Ġpredict",
        -9.573144446286856
      ],
      [
        "Ġfund",
        -9.57314712072498
      ],
      [
        "Ġexpert",
        -9.573282484709988
      ],
      [
        "Ġoutdoor",
        -9.57334141103486
      ],
      [
        "Ġexcellent",
        -9.575775403495836
      ],
      [
        "Ġswitch",
        -9.577236818792493
      ],
      [
        "Ġfluid",
        -9.57755302174856
      ],
      [
        "Ġframe",
        -9.579137819755218
      ],
      [
        "although",
        -9.582129147252529
      ],
      [
        "Ġphoto",
        -9.58371791475736
      ],
      [
        "Ġvolume",
        -9.584572468294589
      ],
      [
        "Ġsort",
        -9.58494117126768
      ],
      [
        "Ġmeaning",
        -9.5870071301858
      ],
      [
        "Ġprojects",
        -9.588184410753342
      ],
      [
        "Ġlesson",
        -9.588274701368055
      ],
      [
        "Ġslow",
        -9.58960829607324
      ],
      [
        "Ġinsects",
        -9.589851825203407
      ],
      [
        "Ġcooking",
        -9.591410757759856
      ],
      [
        "Ġpush",
        -9.592611745329934
      ],
      [
        "Ġstand",
        -9.5929892333489
      ],
      [
        "Ġcleaning",
        -9.593840552810049
      ],
      [
        "ĠNOT",
        -9.59557677812375
      ],
      [
        "Ġled",
        -9.596006175169045
      ],
      [
        "Ġquick",
        -9.597678554460815
      ],
      [
        "Ġdocument",
        -9.59995096193594
      ],
      [
        "Ġthird",
        -9.600619346751946
      ],
      [
        "ĠBecause",
        -9.60063686908357
      ],
      [
        "Ġmolecule",
        -9.60090598998066
      ],
      [
        "Ġseed",
        -9.605237246023249
      ],
      [
        "Ġelectronic",
        -9.605381548007776
      ],
      [
        "Ġangle",
        -9.607194544265871
      ],
      [
        "Ġmotor",
        -9.607985250382136
      ],
      [
        "Ġsaw",
        -9.608940837202914
      ],
      [
        "Do",
        -9.609016138462652
      ],
      [
        "Ġfully",
        -9.609397384476782
      ],
      [
        "Ġplatform",
        -9.6096251231841
      ],
      [
        "Ġcombine",
        -9.609742571546992
      ],
      [
        "Ġcoming",
        -9.610017341863797
      ],
      [
        "Ġoccurs",
        -9.611012429433108
      ],
      [
        "Ġbecomes",
        -9.61279513724589
      ],
      [
        "Ġstates",
        -9.613322050029488
      ],
      [
        "ĠOther",
        -9.61449286958162
      ],
      [
        "Ġthousand",
        -9.615029171946334
      ],
      [
        "Ġcommunitie",
        -9.616223085956175
      ],
      [
        "Ġstone",
        -9.617712348950612
      ],
      [
        "ĠBe",
        -9.617737265103989
      ],
      [
        "Ġearth",
        -9.617905216425276
      ],
      [
        "Ġreported",
        -9.61856419929224
      ],
      [
        "Ġcloth",
        -9.618767595520747
      ],
      [
        "Now",
        -9.620711159462775
      ],
      [
        "Ġpurchase",
        -9.62187781091806
      ],
      [
        "Ġpattern",
        -9.623033038011936
      ],
      [
        "ĠAre",
        -9.623075372038423
      ],
      [
        "Ġsolid",
        -9.623357548091906
      ],
      [
        "Ġheight",
        -9.623550955376494
      ],
      [
        "ĠLet",
        -9.623719905261154
      ],
      [
        "<",
        -9.623873588374014
      ],
      [
        "limited",
        -9.625331998539307
      ],
      [
        "Ġexpect",
        -9.628263349359823
      ],
      [
        "Ġplanning",
        -9.628601559011551
      ],
      [
        "Ġdesire",
        -9.629816259719489
      ],
      [
        "Ġanti",
        -9.630267068217982
      ],
      [
        "Some",
        -9.631782155533656
      ],
      [
        "Ġhorse",
        -9.633081162686274
      ],
      [
        "Ġconsumer",
        -9.633544016706242
      ],
      [
        "Ġsample",
        -9.635103489990724
      ],
      [
        "On",
        -9.636097423381958
      ],
      [
        "Ġexpensive",
        -9.636159880769082
      ],
      [
        "Ġalcohol",
        -9.6364093822079
      ],
      [
        "therefore",
        -9.636857463947944
      ],
      [
        "Ġdiabetes",
        -9.637279689787436
      ],
      [
        "Ġfight",
        -9.637471171743934
      ],
      [
        "Ġmaximum",
        -9.638025325567654
      ],
      [
        "Ġadvanced",
        -9.638078283516885
      ],
      [
        "G",
        -9.638798170237788
      ],
      [
        "Ġlocated",
        -9.639279274868098
      ],
      [
        "Ġpractical",
        -9.639560295699637
      ],
      [
        "About",
        -9.639616826186696
      ],
      [
        "Ġclick",
        -9.639942840997843
      ],
      [
        "Ġdetails",
        -9.640170739613104
      ],
      [
        "Ġvoltage",
        -9.641484307138953
      ],
      [
        "Ġworth",
        -9.641910847016446
      ],
      [
        "Ġeconomic",
        -9.64211020385306
      ],
      [
        "Ġoutcome",
        -9.64235835792535
      ],
      [
        "Ġsecurity",
        -9.643074545939202
      ],
      [
        "Ġmatch",
        -9.64531804876334
      ],
      [
        "Ġreference",
        -9.646443236676376
      ],
      [
        "Ġthinking",
        -9.64698397163079
      ],
      [
        "ĠOr",
        -9.647788497670096
      ],
      [
        "Ġsurrounding",
        -9.648634589986328
      ],
      [
        "Ġpresence",
        -9.649108070780436
      ],
      [
        "Ġrecognize",
        -9.649114556088389
      ],
      [
        "Ġreveal",
        -9.649220798587468
      ],
      [
        "Ġsell",
        -9.651383364299274
      ],
      [
        "Ġbeyond",
        -9.653275035934737
      ],
      [
        "hether",
        -9.653751390675644
      ],
      [
        "gan",
        -9.656022198841494
      ],
      [
        "Ġlose",
        -9.65645199808373
      ],
      [
        "ĠEach",
        -9.65664031002144
      ],
      [
        "ĠInstitute",
        -9.65741089523586
      ],
      [
        "Ġfamilies",
        -9.657610200272543
      ],
      [
        "ĠUs",
        -9.657912652646068
      ],
      [
        "Ġexpand",
        -9.65837875934607
      ],
      [
        "Ġcoast",
        -9.65886929863003
      ],
      [
        "Ġgrass",
        -9.659052156317664
      ],
      [
        "Ġmiddle",
        -9.66359979535299
      ],
      [
        "Ġplease",
        -9.664498634193484
      ],
      [
        "Ġfrequency",
        -9.664602269394027
      ],
      [
        "Ġtexture",
        -9.665042468712484
      ],
      [
        "Ġconvert",
        -9.66512321975332
      ],
      [
        "Ġspeak",
        -9.665548436962451
      ],
      [
        "Ġflavor",
        -9.666161801038292
      ],
      [
        "Ġconnection",
        -9.6667137258041
      ],
      [
        "Ġroad",
        -9.66741887796004
      ],
      [
        "Ġfinish",
        -9.667671251151187
      ],
      [
        "Ġparticle",
        -9.667689671011717
      ],
      [
        "Ġear",
        -9.668873438085676
      ],
      [
        "Ġchang",
        -9.669123415536342
      ],
      [
        "Ġmeasures",
        -9.669200263818864
      ],
      [
        "Ġtiny",
        -9.670482259250504
      ],
      [
        "Ġtechnologie",
        -9.671478230814076
      ],
      [
        "Ġtrack",
        -9.671550175703842
      ],
      [
        "Ġstaff",
        -9.671935164043507
      ],
      [
        "haps",
        -9.67263392721693
      ],
      [
        "came",
        -9.674415897424383
      ],
      [
        "Ġvital",
        -9.675417535999484
      ],
      [
        "went",
        -9.676595217437765
      ],
      [
        "Ġidentifie",
        -9.67870728002868
      ],
      [
        "Ġfavorite",
        -9.679076022131811
      ],
      [
        "Ġprevious",
        -9.68191071518743
      ],
      [
        "Ġincluded",
        -9.682225038788062
      ],
      [
        "Ġdiscovered",
        -9.682886379225316
      ],
      [
        "Ġthus",
        -9.683732564893065
      ],
      [
        "Ġfarmer",
        -9.68566968196884
      ],
      [
        "Ġcontext",
        -9.685904260711029
      ],
      [
        "Ġmoistur",
        -9.686208837829444
      ],
      [
        "Ġchannel",
        -9.68674154013976
      ],
      [
        "ship",
        -9.68856852530405
      ],
      [
        "Ġroll",
        -9.688635916220903
      ],
      [
        "care",
        -9.690599252187422
      ],
      [
        "Ġ#",
        -9.692476583706917
      ],
      [
        "Ġstuff",
        -9.692676902596444
      ],
      [
        "Ġsoon",
        -9.693283338664386
      ],
      [
        "aught",
        -9.694354657044208
      ],
      [
        "Ġmouth",
        -9.694386850303722
      ],
      [
        "Ġforest",
        -9.694535939185526
      ],
      [
        "Ġbank",
        -9.694765644228209
      ],
      [
        "Ġplate",
        -9.695317977796774
      ],
      [
        "Ġaid",
        -9.69555929287412
      ],
      [
        "Ġcross",
        -9.696231713683153
      ],
      [
        "Ġnational",
        -9.697904362468671
      ],
      [
        "Ġradio",
        -9.698321341850525
      ],
      [
        "Ġball",
        -9.69867120090819
      ],
      [
        "Ġvaluable",
        -9.698755576677504
      ],
      [
        "Y",
        -9.699862186123172
      ],
      [
        "Ġintroduce",
        -9.701129354574157
      ],
      [
        "spite",
        -9.701650271981968
      ],
      [
        "Ġonto",
        -9.701826873653694
      ],
      [
        "Ġgames",
        -9.701997284205005
      ],
      [
        "Ġconnected",
        -9.702931777248104
      ],
      [
        "Ġproperty",
        -9.702979205492715
      ],
      [
        "Ġcommercial",
        -9.70415750495151
      ],
      [
        "body",
        -9.704305775245116
      ],
      [
        "ĠEnglish",
        -9.704348899758529
      ],
      [
        "Ġformed",
        -9.705274272121274
      ],
      [
        "Ġhit",
        -9.705700105423398
      ],
      [
        "Ġsweet",
        -9.705961694544309
      ],
      [
        "Ġdivers",
        -9.706440897099393
      ],
      [
        "Ġdecade",
        -9.707523758842813
      ],
      [
        "Ġalone",
        -9.707567231460835
      ],
      [
        "Ġbond",
        -9.708151199447524
      ],
      [
        "Ġelement",
        -9.709563739654085
      ],
      [
        "Ġcolour",
        -9.70974677869713
      ],
      [
        "Ġengage",
        -9.7105058454928
      ],
      [
        "Ġbeginning",
        -9.71088250028918
      ],
      [
        "Ġfabric",
        -9.711860945948796
      ],
      [
        "Ġco",
        -9.712136668873734
      ],
      [
        "Ġfair",
        -9.712179285924988
      ],
      [
        "Ġteaching",
        -9.71262931400561
      ],
      [
        "Ġgenes",
        -9.71381678214592
      ],
      [
        "Ġaren",
        -9.71689932596714
      ],
      [
        "Ġevolution",
        -9.717096877414184
      ],
      [
        "Step",
        -9.71735039478773
      ],
      [
        "Ġhabitat",
        -9.71904348607281
      ],
      [
        "ĠUK",
        -9.719248814005176
      ],
      [
        "ĠMake",
        -9.719814390382613
      ],
      [
        "efore",
        -9.720839603488184
      ],
      [
        "ĠMay",
        -9.720926164718012
      ],
      [
        "Ġdrawing",
        -9.721139349928007
      ],
      [
        "Ġround",
        -9.722963730788234
      ],
      [
        "Ġannual",
        -9.72444205787128
      ],
      [
        "Ġcomment",
        -9.72517817299613
      ],
      [
        "ĠState",
        -9.725636382690514
      ],
      [
        "Ġinternational",
        -9.725684070935452
      ],
      [
        "ĠGerman",
        -9.726852009657089
      ],
      [
        "Ġbasi",
        -9.727132811058318
      ],
      [
        "Ġanxiet",
        -9.727145945207202
      ],
      [
        "Ġhearing",
        -9.727997200746415
      ],
      [
        "Ġappearance",
        -9.72849912648412
      ],
      [
        "Ġhabit",
        -9.72899550204383
      ],
      [
        "Ġmeter",
        -9.73055682286845
      ],
      [
        "ĠIndia",
        -9.73066420080869
      ],
      [
        "Ġexamples",
        -9.730688870714228
      ],
      [
        "Ġdegrees",
        -9.731051562097484
      ],
      [
        "Ġcoat",
        -9.7315924488678
      ],
      [
        "itis",
        -9.731595879242658
      ],
      [
        "held",
        -9.731908844444916
      ],
      [
        "Ġcapture",
        -9.73368239233798
      ],
      [
        "Ġmap",
        -9.734144935630374
      ],
      [
        "\\",
        -9.735487527818954
      ],
      [
        "Ġfilm",
        -9.737187904863829
      ],
      [
        "Ġcrop",
        -9.737309981868908
      ],
      [
        "Ġinjur",
        -9.737374707775356
      ],
      [
        "Ġpump",
        -9.737557113870494
      ],
      [
        "Ġpanel",
        -9.737677619429748
      ],
      [
        "Ġapp",
        -9.73786353450997
      ],
      [
        "Ġsites",
        -9.738289174631298
      ],
      [
        "Ġdouble",
        -9.738754771553884
      ],
      [
        "ese",
        -9.739270298616423
      ],
      [
        "Ġmedium",
        -9.739614194746435
      ],
      [
        "Ġbutton",
        -9.739720790442291
      ],
      [
        "Ġjoin",
        -9.740932739208072
      ],
      [
        "Ġb",
        -9.741919597534547
      ],
      [
        "Ġshift",
        -9.742095138226867
      ],
      [
        "ĠFirst",
        -9.74234361417663
      ],
      [
        "Ġcharacteristics",
        -9.744706871840249
      ],
      [
        "Ġtrigger",
        -9.745142574678985
      ],
      [
        "Ġconsistent",
        -9.745287118421771
      ],
      [
        "Here",
        -9.74567313799202
      ],
      [
        "Ġweb",
        -9.746000217123328
      ],
      [
        "Our",
        -9.74679833016422
      ],
      [
        "Ġschedule",
        -9.74692025523787
      ],
      [
        "Ġtasks",
        -9.7473819009666
      ],
      [
        "Ġsociety",
        -9.747593176910254
      ],
      [
        "Ġmarine",
        -9.748429579398394
      ],
      [
        "Ġfeeding",
        -9.74851757124953
      ],
      [
        "Ġowner",
        -9.74934219245182
      ],
      [
        "Ġfashion",
        -9.750120474881408
      ],
      [
        "Ġregularly",
        -9.750401313508611
      ],
      [
        "Ġmulti",
        -9.75097543524195
      ],
      [
        "Ġoperation",
        -9.751356038094716
      ],
      [
        "coming",
        -9.753650130319365
      ],
      [
        "Ġcreative",
        -9.754493678584495
      ],
      [
        "Ġsecure",
        -9.754644651832404
      ],
      [
        "Ġbackground",
        -9.754666266425591
      ],
      [
        "That",
        -9.75503008679096
      ],
      [
        "Ġeffort",
        -9.756916521061536
      ],
      [
        "ĠEven",
        -9.757662683270626
      ],
      [
        "Ġnative",
        -9.75991707961462
      ],
      [
        "Ġdegree",
        -9.760613312038648
      ],
      [
        "Ġconservation",
        -9.760669908993266
      ],
      [
        "ĠAlthough",
        -9.760977490348065
      ],
      [
        "Ġmaintaining",
        -9.761558072851791
      ],
      [
        "Ġtube",
        -9.76233173512398
      ],
      [
        "ĠJust",
        -9.762362883182014
      ],
      [
        "Ġparticipant",
        -9.763233175071884
      ],
      [
        "Ġteachers",
        -9.764382523513834
      ],
      [
        "Answer",
        -9.764682431391916
      ],
      [
        "for",
        -9.765509422238596
      ],
      [
        "Ġimmediately",
        -9.766129986126206
      ],
      [
        "Ġlabel",
        -9.766311097591734
      ],
      [
        "$",
        -9.766723850073175
      ],
      [
        "Ġdriv",
        -9.768471831315894
      ],
      [
        "time",
        -9.768876995464115
      ],
      [
        "Ġdangerous",
        -9.768913091844665
      ],
      [
        "Ġroutine",
        -9.769666942591067
      ],
      [
        "-year",
        -9.770029558122635
      ],
      [
        "Ġlargest",
        -9.7703544706178
      ],
      [
        "Ġdetect",
        -9.77085646174519
      ],
      [
        "Ġgene",
        -9.771033434268174
      ],
      [
        "Ġinternal",
        -9.77202608479674
      ],
      [
        "happy",
        -9.772516764970277
      ],
      [
        "Ġimprov",
        -9.773799633601996
      ],
      [
        "Ġpot",
        -9.77459268012789
      ],
      [
        "Ġfinding",
        -9.774616111617682
      ],
      [
        "Ġlayers",
        -9.775577754415664
      ],
      [
        "Ġcomprehensive",
        -9.776090753174604
      ],
      [
        "Ġdriver",
        -9.776934716071596
      ],
      [
        "Ġbright",
        -9.77762786227506
      ],
      [
        "Ġlegal",
        -9.777803156970323
      ],
      [
        "Ġpark",
        -9.778188901113246
      ],
      [
        "ĠAfrica",
        -9.779239938167809
      ],
      [
        "ĠEurope",
        -9.77960629844564
      ],
      [
        "-free",
        -9.780270499739837
      ],
      [
        "Ġstation",
        -9.781205822296185
      ],
      [
        "Ġcoffee",
        -9.782062969675753
      ],
      [
        "ization",
        -9.78227453832234
      ],
      [
        "ĠChina",
        -9.78326202040176
      ],
      [
        "Ġapproximate",
        -9.783595636110372
      ],
      [
        "ĠDepartment",
        -9.78359567391344
      ],
      [
        "Ġhour",
        -9.78425207653391
      ],
      [
        "Ġcomponent",
        -9.786080785701156
      ],
      [
        "Ġmagnetic",
        -9.78655578769019
      ],
      [
        "Ġdead",
        -9.786815947960536
      ],
      [
        "self",
        -9.78687364895438
      ],
      [
        "ĠOnc",
        -9.787067885655794
      ],
      [
        "Ġvirtual",
        -9.787896362234829
      ],
      [
        "Ġcomfortable",
        -9.788581800318829
      ],
      [
        "Ġratio",
        -9.788756385918798
      ],
      [
        "over",
        -9.789793615879985
      ],
      [
        "ĠWater",
        -9.789912480369654
      ],
      [
        "Ġartist",
        -9.790368090240774
      ],
      [
        "Ġbooks",
        -9.790614499588449
      ],
      [
        "Ġroots",
        -9.792232690111996
      ],
      [
        "ĠDon",
        -9.793065972409496
      ],
      [
        "Ġbodie",
        -9.793168155982457
      ],
      [
        "ĠAccording",
        -9.793441270218633
      ],
      [
        "Ġsupplement",
        -9.793884054673397
      ],
      [
        "Ġpool",
        -9.794751042507976
      ],
      [
        "expected",
        -9.79489666462819
      ],
      [
        "Ġadapt",
        -9.79495542805899
      ],
      [
        "bility",
        -9.795064711810266
      ],
      [
        "Ġcheese",
        -9.796746884440488
      ],
      [
        "Ġhighlight",
        -9.796813263790838
      ],
      [
        "Ġdepth",
        -9.797930051496769
      ],
      [
        "Ġtrip",
        -9.798036960236304
      ],
      [
        "Ġfunctions",
        -9.800273618332408
      ],
      [
        "ar",
        -9.800303990163826
      ],
      [
        "Ġedge",
        -9.80208354484578
      ],
      [
        "water",
        -9.803183864815896
      ],
      [
        "Ġtransmission",
        -9.803270739248935
      ],
      [
        "Ġrain",
        -9.804688885326524
      ],
      [
        "Ġnearly",
        -9.806075067426123
      ],
      [
        "Ġthreat",
        -9.806469476698792
      ],
      [
        "Ġcontinuous",
        -9.806816863948564
      ],
      [
        "Ġcup",
        -9.807467924249714
      ],
      [
        "Ġmember",
        -9.80795998408615
      ],
      [
        "Ġalgorithm",
        -9.808802500270572
      ],
      [
        "Ġclient",
        -9.808958307705131
      ],
      [
        "Ġselection",
        -9.809130094030795
      ],
      [
        "Ġinsight",
        -9.810137684786795
      ],
      [
        "Ġdrain",
        -9.81081477583298
      ],
      [
        "Ġgold",
        -9.810860510855528
      ],
      [
        "Ġaware",
        -9.81234319621892
      ],
      [
        "Ġtopic",
        -9.81253297534282
      ],
      [
        "ĠCalifornia",
        -9.813751070911328
      ],
      [
        "Ġemergenc",
        -9.814854404498394
      ],
      [
        "Ġtransfer",
        -9.815143291569282
      ],
      [
        "Ġdie",
        -9.815706889931365
      ],
      [
        "Ġrules",
        -9.818874138207455
      ],
      [
        "Ġoffice",
        -9.819825994574416
      ],
      [
        "Ġoptimal",
        -9.82027262786544
      ],
      [
        "Ġprefer",
        -9.821074784253728
      ],
      [
        "Ġbirth",
        -9.821997804460924
      ],
      [
        "Ġfinancial",
        -9.82273698695147
      ],
      [
        "Ġdental",
        -9.822976824905382
      ],
      [
        "Ġgrain",
        -9.823633535587442
      ],
      [
        "Ġmaybe",
        -9.823998773157088
      ],
      [
        "Ġformat",
        -9.824288295695286
      ],
      [
        "Ġflat",
        -9.824295329561068
      ],
      [
        "Ġnest",
        -9.826366075924042
      ],
      [
        "Ġcomfort",
        -9.827092794026798
      ],
      [
        "Ġatmosphere",
        -9.82711065416668
      ],
      [
        "Ġwheel",
        -9.827126641280593
      ],
      [
        "Ġcentral",
        -9.828193323853274
      ],
      [
        "After",
        -9.82846176939426
      ],
      [
        "ĠSince",
        -9.829369445058616
      ],
      [
        "Ġlisten",
        -9.829971610708885
      ],
      [
        "Ġsurger",
        -9.832147681830255
      ],
      [
        "Ġfiber",
        -9.83254246947731
      ],
      [
        "Ġassessment",
        -9.832790438995406
      ],
      [
        "Ġyield",
        -9.834568135939826
      ],
      [
        "Ġthin",
        -9.83464939103937
      ],
      [
        "Ġartificial",
        -9.835050807818536
      ],
      [
        "Ġtransform",
        -9.835127443993107
      ],
      [
        "Ġemail",
        -9.83645925224618
      ],
      [
        "Ġgoals",
        -9.837263772919036
      ],
      [
        "Ġleaf",
        -9.83729064212465
      ],
      [
        "Ġroof",
        -9.837469873437511
      ],
      [
        "Ġvirus",
        -9.84141403001121
      ],
      [
        "ĠAustralia",
        -9.843452452542252
      ],
      [
        "Ġelectron",
        -9.844678032036327
      ],
      [
        "ĠDay",
        -9.844825793489962
      ],
      [
        "Ġvoice",
        -9.845515812131485
      ],
      [
        "Ġpossibilit",
        -9.84598026028039
      ],
      [
        "Ġconclusion",
        -9.84609660070719
      ],
      [
        "Ġtold",
        -9.84610449787992
      ],
      [
        "-like",
        -9.846166141907345
      ],
      [
        "Ġmixture",
        -9.846320284932704
      ],
      [
        "Ġpath",
        -9.846699500754372
      ],
      [
        "Ġtransition",
        -9.848044322117072
      ],
      [
        "Ġcharacter",
        -9.848381782812568
      ],
      [
        "Ġrespond",
        -9.849009107693911
      ],
      [
        "Ġstraight",
        -9.849157575642336
      ],
      [
        "Ġbeneficial",
        -9.849550341836803
      ],
      [
        "Ġpets",
        -9.84963200061097
      ],
      [
        "Ġteacher",
        -9.84974939979436
      ],
      [
        "Ġancient",
        -9.849764806626723
      ],
      [
        "Ġsmart",
        -9.850127860697476
      ],
      [
        "Ġheal",
        -9.851762217362932
      ],
      [
        "Ġassess",
        -9.851875901348295
      ],
      [
        "ber",
        -9.85219765279686
      ],
      [
        "Ġabsorb",
        -9.85320804215404
      ],
      [
        "Ġengineering",
        -9.85359668243003
      ],
      [
        "Ġspeaker",
        -9.853819734085564
      ],
      [
        "Ġgear",
        -9.854345758670476
      ],
      [
        "Ġvalve",
        -9.85443051386585
      ],
      [
        "Ġsequence",
        -9.854443128862304
      ],
      [
        "Ġdetail",
        -9.85448493040671
      ],
      [
        "Ġefforts",
        -9.85457587847866
      ],
      [
        "Ġbatter",
        -9.85473728373047
      ],
      [
        "Ġcompar",
        -9.855786190247937
      ],
      [
        "Ġdistribution",
        -9.856304233775388
      ],
      [
        "Ġsuit",
        -9.856905536001126
      ],
      [
        "Ġdrug",
        -9.85799953686545
      ],
      [
        "Ġkitchen",
        -9.859624877359108
      ],
      [
        "Ġshot",
        -9.860695367501044
      ],
      [
        "Ġdoor",
        -9.862575610404376
      ],
      [
        "ĠFood",
        -9.863872791749747
      ],
      [
        "Ġpack",
        -9.864621175115747
      ],
      [
        "Q",
        -9.865030696846889
      ],
      [
        "Ġfertilizer",
        -9.86577596046704
      ],
      [
        "Ġsurvey",
        -9.867257132571307
      ],
      [
        "wide",
        -9.869060783738163
      ],
      [
        "ĠEvery",
        -9.869644605844776
      ],
      [
        "No",
        -9.870534415176763
      ],
      [
        "Ġrid",
        -9.871809736499712
      ],
      [
        "ĠTherefor",
        -9.87184802345715
      ],
      [
        "Ġcars",
        -9.87194126674019
      ],
      [
        "ian",
        -9.872240482831106
      ],
      [
        "ĠBlack",
        -9.873273189941788
      ],
      [
        "Ġprogress",
        -9.873626269359631
      ],
      [
        "Ġpolicy",
        -9.8743702426987
      ],
      [
        "ĠDuring",
        -9.874680585281888
      ],
      [
        "Ġegg",
        -9.874703124484736
      ],
      [
        "Ġthick",
        -9.87501489616114
      ],
      [
        "Ġpollution",
        -9.875378538452829
      ],
      [
        "Ġwritten",
        -9.875801407504389
      ],
      [
        "Ġregulation",
        -9.876414151058068
      ],
      [
        "Ġtechnical",
        -9.87646857073609
      ],
      [
        "Ġenable",
        -9.878074863313984
      ],
      [
        "Ġship",
        -9.878188057785453
      ],
      [
        "Ġcarrie",
        -9.878252089849529
      ],
      [
        "Ġattempt",
        -9.878560188648596
      ],
      [
        "ĠAir",
        -9.88071760419847
      ],
      [
        "Ġdiscussion",
        -9.88123588824911
      ],
      [
        "Ġmiles",
        -9.881342868867453
      ],
      [
        "Ġagree",
        -9.881736396174496
      ],
      [
        "Ġsquare",
        -9.88174475857761
      ],
      [
        "Ġsports",
        -9.882520001757452
      ],
      [
        "Ġlens",
        -9.882695691979118
      ],
      [
        "Ġreplace",
        -9.882712337760868
      ],
      [
        "Ġsession",
        -9.882729355251382
      ],
      [
        "Ġremov",
        -9.884146204956007
      ],
      [
        "Ġoperate",
        -9.884941493515404
      ],
      [
        "Ġstock",
        -9.885717472809857
      ],
      [
        "Ġseal",
        -9.886223976594
      ],
      [
        "Ġimprovement",
        -9.886729035054378
      ],
      [
        "ĠHigh",
        -9.887474720015568
      ],
      [
        "Ġskill",
        -9.888426170303855
      ],
      [
        "Ġindependent",
        -9.888569950340674
      ],
      [
        "Ġteach",
        -9.88859637593992
      ],
      [
        "Ġcream",
        -9.891233563049395
      ],
      [
        "Ġorganization",
        -9.892511949651166
      ],
      [
        "Ġmother",
        -9.892594750142305
      ],
      [
        "Ġhelpful",
        -9.892734525229365
      ],
      [
        "Ġsub",
        -9.894227710924952
      ],
      [
        "Ġnumerou",
        -9.894394036498522
      ],
      [
        "Ġexpress",
        -9.89446098238908
      ],
      [
        "Ġwindow",
        -9.894595207489562
      ],
      [
        "Ġbillion",
        -9.895583349476642
      ],
      [
        "Ġchemicals",
        -9.897266317606984
      ],
      [
        "Ġproteins",
        -9.897481575086708
      ],
      [
        "Ġburn",
        -9.900118169599338
      ],
      [
        "resources",
        -9.901185078681854
      ],
      [
        "ĠUnit",
        -9.901307249566532
      ],
      [
        "Ġsuggests",
        -9.901471398812252
      ],
      [
        "-in",
        -9.901845798367392
      ],
      [
        "Ġemotional",
        -9.901857377164298
      ],
      [
        "Ġblend",
        -9.902676273326072
      ],
      [
        "Ġadopt",
        -9.903078020751018
      ],
      [
        "ĠâĢ¦",
        -9.90347729520492
      ],
      [
        "Ġperspective",
        -9.903502614608833
      ],
      [
        "Ġdrop",
        -9.90506816033436
      ],
      [
        "Ġclassroom",
        -9.905541118986829
      ],
      [
        "Ġpipe",
        -9.905694088807682
      ],
      [
        "-quality",
        -9.90678494604503
      ],
      [
        "Ġexternal",
        -9.907421463714922
      ],
      [
        "Ġcore",
        -9.910966704424464
      ],
      [
        "ĠDownload",
        -9.911339122533278
      ],
      [
        "Ġthrow",
        -9.911443595703377
      ],
      [
        "Ġdifferences",
        -9.91281292217738
      ],
      [
        "Ġsurvive",
        -9.913726834809346
      ],
      [
        "Ġportion",
        -9.91450526860046
      ],
      [
        "Ġinvestment",
        -9.9145230232965
      ],
      [
        "#",
        -9.914532097483708
      ],
      [
        "ĠEuropean",
        -9.914950650902837
      ],
      [
        "Ġbear",
        -9.915175116500762
      ],
      [
        "ĠApril",
        -9.915594268044044
      ],
      [
        "Ġadvice",
        -9.915647801582695
      ],
      [
        "Ġconsume",
        -9.915794854947256
      ],
      [
        "Ġjoint",
        -9.91671648837752
      ],
      [
        "Ġraw",
        -9.91678821634634
      ],
      [
        "Another",
        -9.918143596088754
      ],
      [
        "Ġrespect",
        -9.919186326007724
      ],
      [
        "Ġcommand",
        -9.92101752733254
      ],
      [
        "Ġprepared",
        -9.921190035245813
      ],
      [
        "which",
        -9.922470101443434
      ],
      [
        "Ġmode",
        -9.922821432086028
      ],
      [
        "Ġexperts",
        -9.92310009903549
      ],
      [
        "Ġbeauty",
        -9.923401520247376
      ],
      [
        "Ġmold",
        -9.924309924461207
      ],
      [
        "Ġpress",
        -9.924426175977151
      ],
      [
        "work",
        -9.9270994308054
      ],
      [
        "Ġharvest",
        -9.927583255530651
      ],
      [
        "Ġdemonstrate",
        -9.927748002715877
      ],
      [
        "My",
        -9.928026322527778
      ],
      [
        "what",
        -9.928120735657355
      ],
      [
        "Ġsuffer",
        -9.928662958127005
      ],
      [
        "Ġshoes",
        -9.928776472066057
      ],
      [
        "Ġletter",
        -9.928976467761789
      ],
      [
        "Ġborn",
        -9.92908784775302
      ],
      [
        "Ġcareer",
        -9.93033401032793
      ],
      [
        "Ġcorn",
        -9.931729355056037
      ],
      [
        "All",
        -9.931789713613686
      ],
      [
        "tic",
        -9.932153035652233
      ],
      [
        "Ġslight",
        -9.932924312968083
      ],
      [
        "Ġhundred",
        -9.933742245988023
      ],
      [
        "Ġstorie",
        -9.934041751419526
      ],
      [
        "Ġmedicine",
        -9.934933073178076
      ],
      [
        "Ġupper",
        -9.935786466045954
      ],
      [
        "ĠYork",
        -9.937071250300448
      ],
      [
        "Ġnice",
        -9.941013675044132
      ],
      [
        "Ġattract",
        -9.9410973246726
      ],
      [
        "Ġregions",
        -9.942809597489832
      ],
      [
        "ĠMarch",
        -9.943327040605093
      ],
      [
        "ĠGreat",
        -9.945329993772512
      ],
      [
        "ence",
        -9.945649238354283
      ],
      [
        "Ġultimate",
        -9.945662931944188
      ],
      [
        "Ġformation",
        -9.945921350921424
      ],
      [
        "Ġprepare",
        -9.94760733575496
      ],
      [
        "Ġstatus",
        -9.949171187428218
      ],
      [
        "Ġsnake",
        -9.949219655560231
      ],
      [
        "Ġowners",
        -9.949277493708816
      ],
      [
        "Ġcultural",
        -9.950452792281713
      ],
      [
        "Ġchalleng",
        -9.95077296897575
      ],
      [
        "Ġmanufactur",
        -9.95094872577257
      ],
      [
        "ĠPark",
        -9.951159584107083
      ],
      [
        "Ġsheet",
        -9.951200726832472
      ],
      [
        "Ġprimari",
        -9.951614658222743
      ],
      [
        "Ġengineer",
        -9.952408937476982
      ],
      [
        "Ġcrops",
        -9.952722558981137
      ],
      [
        "Ġsit",
        -9.953746337472726
      ],
      [
        "Ġcatch",
        -9.954098801958455
      ],
      [
        "Ġindoor",
        -9.955117620705296
      ],
      [
        "Ġpregnancy",
        -9.955778854398012
      ],
      [
        "exposed",
        -9.956299718724685
      ],
      [
        "Ġchanged",
        -9.956325785272142
      ],
      [
        "Ġpreference",
        -9.956487517275434
      ],
      [
        "Ġgrown",
        -9.95749855042714
      ],
      [
        "Ġrule",
        -9.95782894428715
      ],
      [
        "Ġreduction",
        -9.95855666134574
      ],
      [
        "Ġmechanical",
        -9.95906209920707
      ],
      [
        "Ġworked",
        -9.960736121494191
      ],
      [
        "Ġaccident",
        -9.96079187909756
      ],
      [
        "Ġtitle",
        -9.961270526933784
      ],
      [
        "Ġrace",
        -9.961622377295535
      ],
      [
        "Ġblade",
        -9.962439510038458
      ],
      [
        "Ġsaying",
        -9.963540341410804
      ],
      [
        "Ġbreeding",
        -9.963788384253869
      ],
      [
        "Ġstandards",
        -9.963954812323436
      ],
      [
        "Ġcreature",
        -9.965863522339005
      ],
      [
        "Ġdefined",
        -9.96688243877172
      ],
      [
        "].",
        -9.967877922248428
      ],
      [
        "Ġgenome",
        -9.968214363322446
      ],
      [
        "Ġreliabl",
        -9.968542985689687
      ],
      [
        "Ġnutrition",
        -9.969585762305876
      ],
      [
        "Ġenzyme",
        -9.96966617914207
      ],
      [
        "Ġlatest",
        -9.969924010353834
      ],
      [
        "Ġconcentration",
        -9.970562756330578
      ],
      [
        "Ġsounds",
        -9.972057103190693
      ],
      [
        "Ġweigh",
        -9.972154870138343
      ],
      [
        "Ġfindings",
        -9.9737607964532
      ],
      [
        "Ġscene",
        -9.973899318744664
      ],
      [
        "Ġeventually",
        -9.974252766653834
      ],
      [
        "Ġapart",
        -9.974304160355016
      ],
      [
        "ĠInternational",
        -9.974897333690857
      ],
      [
        "Ġstorm",
        -9.97521963353433
      ],
      [
        "affected",
        -9.975269440261034
      ],
      [
        "ĠWell",
        -9.975346244341004
      ],
      [
        "resistant",
        -9.975541303425224
      ],
      [
        "Ġearlier",
        -9.975930865655682
      ],
      [
        "Ġseat",
        -9.976551515624372
      ],
      [
        "Ġmid",
        -9.976577846623162
      ],
      [
        "ĠDoes",
        -9.976820620362169
      ],
      [
        "Ġwhose",
        -9.977023760089455
      ],
      [
        "if",
        -9.978312565551162
      ],
      [
        "Ġillness",
        -9.97912281646226
      ],
      [
        "Ġworry",
        -9.979449181903238
      ],
      [
        "Ġprocedure",
        -9.980049239038127
      ],
      [
        "kept",
        -9.980962098286223
      ],
      [
        "Ġmorning",
        -9.981903831810715
      ],
      [
        "Ġoperat",
        -9.98223315897585
      ],
      [
        "Ġquantum",
        -9.984505795883088
      ],
      [
        "Ġnaturally",
        -9.984985293668204
      ],
      [
        "Ġbusinesses",
        -9.985505385678778
      ],
      [
        "Ġsolve",
        -9.986341007465114
      ],
      [
        "Ġparameter",
        -9.9866370544898
      ],
      [
        "Ġexpression",
        -9.986666540166038
      ],
      [
        "Ġorganizations",
        -9.98702987761252
      ],
      [
        "Ġcm",
        -9.987214755248656
      ],
      [
        "/or",
        -9.987514773581994
      ],
      [
        "Ġreferr",
        -9.98850574886485
      ],
      [
        "Ġcontrast",
        -9.988547729364136
      ],
      [
        "Many",
        -9.989800888642906
      ],
      [
        "Ġwar",
        -9.989872364489417
      ],
      [
        "Ġlay",
        -9.989904260921197
      ],
      [
        "Ġdefinition",
        -9.99073175186156
      ],
      [
        "ĠIsland",
        -9.990896810315192
      ],
      [
        "Ġmuscles",
        -9.99140059744862
      ],
      [
        "Ġatom",
        -9.99194655858399
      ],
      [
        "Ġheating",
        -9.992814604569368
      ],
      [
        "Ġvaccine",
        -9.993093742765229
      ],
      [
        "Ġplane",
        -9.993138680849915
      ],
      [
        "Ġchain",
        -9.993227359450476
      ],
      [
        "Ġexamine",
        -9.993890019651634
      ],
      [
        "Ġprivate",
        -9.993993381590291
      ],
      [
        "Ġclasse",
        -9.997109221977617
      ],
      [
        "Ġoperations",
        -9.99743220154733
      ],
      [
        "Ġwet",
        -9.998034253246631
      ],
      [
        "Ġbill",
        -9.99806305406872
      ],
      [
        "Ġcalculate",
        -9.998236730352447
      ],
      [
        "ĠEducation",
        -9.99879595031124
      ],
      [
        "Ġcreation",
        -10.000172694883542
      ],
      [
        "Ġemployee",
        -10.000578327956111
      ],
      [
        "Ġcard",
        -10.000807765451
      ],
      [
        "Ġoffering",
        -10.001036858683111
      ],
      [
        "Ġnutrient",
        -10.00114844840276
      ],
      [
        "Ġsmell",
        -10.001244710541645
      ],
      [
        "nstead",
        -10.002207627650572
      ],
      [
        "Ġenvironments",
        -10.002355639713096
      ],
      [
        "Ġinteract",
        -10.003420259733309
      ],
      [
        "Conclusion",
        -10.004506664180184
      ],
      [
        "Ġtire",
        -10.004519136758535
      ],
      [
        "ĠRiver",
        -10.00489430462224
      ],
      [
        "Ġlifestyle",
        -10.00518113480086
      ],
      [
        "Ġcontrolle",
        -10.005229304733415
      ],
      [
        "ĠSystem",
        -10.005780184188726
      ],
      [
        "Ġcomposition",
        -10.006580812091917
      ],
      [
        "Ġinternet",
        -10.006872995096266
      ],
      [
        "Ġpilot",
        -10.007073656472
      ],
      [
        "Ġaircraft",
        -10.007393922122152
      ],
      [
        "Ġtrust",
        -10.007971438477794
      ],
      [
        "Ġcable",
        -10.008082507756637
      ],
      [
        "ĠSept",
        -10.008391703223172
      ],
      [
        "âĢĻt",
        -10.00880408217594
      ],
      [
        "Ġzone",
        -10.00911934689167
      ],
      [
        "Ġlung",
        -10.009428209091071
      ],
      [
        "Most",
        -10.009624394929348
      ],
      [
        "Ġloop",
        -10.009902058302064
      ],
      [
        "ĠKeep",
        -10.010069326253468
      ],
      [
        "ĠDec",
        -10.010937229702138
      ],
      [
        "Are",
        -10.01156781168533
      ],
      [
        "Ġprofessionals",
        -10.011660103788682
      ],
      [
        "Ġfail",
        -10.01278336882618
      ],
      [
        "Ġintelligence",
        -10.012915219171775
      ],
      [
        "Ġshade",
        -10.013280199979988
      ],
      [
        "Ġfunctional",
        -10.013822937713844
      ],
      [
        "Ġvehicles",
        -10.01472845682839
      ],
      [
        "upon",
        -10.015022143830226
      ],
      [
        "Ġfundamental",
        -10.015249327458058
      ],
      [
        "Ġeducational",
        -10.01685348129104
      ],
      [
        "ĠPeople",
        -10.018216162708864
      ],
      [
        "Ġsamples",
        -10.018265063541335
      ],
      [
        "Ġbar",
        -10.019370912906997
      ],
      [
        "Ġrealize",
        -10.020543280811468
      ],
      [
        "Ġmin",
        -10.020851402151258
      ],
      [
        "Ġobvious",
        -10.021181784452867
      ],
      [
        "Ġbiological",
        -10.021441919916995
      ],
      [
        "ĠBritish",
        -10.021551173820342
      ],
      [
        "Ġfinger",
        -10.021605265912047
      ],
      [
        "Ġcapabilit",
        -10.022968386512568
      ],
      [
        "ĠOver",
        -10.023312331031
      ],
      [
        "Ġrisks",
        -10.023583695562092
      ],
      [
        "that",
        -10.02451893933971
      ],
      [
        "Ġbroad",
        -10.02479064214628
      ],
      [
        "Ġnerve",
        -10.025056400912478
      ],
      [
        "Ġamazing",
        -10.02521279731478
      ],
      [
        "Ġpainting",
        -10.025405159169267
      ],
      [
        "Ġrequest",
        -10.02563839341872
      ],
      [
        "Ġemploy",
        -10.026710590213556
      ],
      [
        "brough",
        -10.027999011015265
      ],
      [
        "Ġtooth",
        -10.029938430607569
      ],
      [
        "Ġbike",
        -10.030356685886655
      ],
      [
        "Ġextract",
        -10.03102330253006
      ],
      [
        "Ġsituations",
        -10.031406941882334
      ],
      [
        "ĠCO",
        -10.0329334395492
      ],
      [
        "Ġradiation",
        -10.033523377552603
      ],
      [
        "Ġprovider",
        -10.033572885652717
      ],
      [
        "Ġassist",
        -10.0344790605204
      ],
      [
        "ĠFlorida",
        -10.034614852417914
      ],
      [
        "Ġwaves",
        -10.034841543352355
      ],
      [
        "Ġstrain",
        -10.03665357061243
      ],
      [
        "Ġobservation",
        -10.037750667430853
      ],
      [
        "Ġquantit",
        -10.038038754499404
      ],
      [
        "Ġmobile",
        -10.038099178297788
      ],
      [
        "Ġinnovation",
        -10.039196787592113
      ],
      [
        "Ġarray",
        -10.03942858832998
      ],
      [
        "Ġlibrar",
        -10.039809311614086
      ],
      [
        "Ġfly",
        -10.04046908573778
      ],
      [
        "Ġproduc",
        -10.040723153289475
      ],
      [
        "Ġbite",
        -10.041241068880495
      ],
      [
        "Ġtru",
        -10.041610553003096
      ],
      [
        "Ġerror",
        -10.041662650523264
      ],
      [
        "Ġdetailed",
        -10.041670869233524
      ],
      [
        "Ġjournal",
        -10.041769763812807
      ],
      [
        "Ġtrain",
        -10.042051724957425
      ],
      [
        "Ġspin",
        -10.042289551596305
      ],
      [
        "Yes",
        -10.043389452193466
      ],
      [
        "Ġcook",
        -10.043662575658145
      ],
      [
        "Ġhelping",
        -10.0448406455267
      ],
      [
        "Ġminerals",
        -10.045042318713442
      ],
      [
        "ory",
        -10.045559612633614
      ],
      [
        "Ġsurvival",
        -10.047816183321626
      ],
      [
        "Ġdrugs",
        -10.047959773964967
      ],
      [
        "Ġblog",
        -10.049031688538491
      ],
      [
        "ĠGreen",
        -10.049434912616949
      ],
      [
        "Ġdecline",
        -10.049895097121183
      ],
      [
        "Ġten",
        -10.050764947746508
      ],
      [
        "Ġphotograph",
        -10.05091791787645
      ],
      [
        "line",
        -10.05092082683234
      ],
      [
        "-friendl",
        -10.051172729733064
      ],
      [
        "ge",
        -10.051200722058844
      ],
      [
        "Ġunits",
        -10.051433050953705
      ],
      [
        "Ġencounter",
        -10.051468553029933
      ],
      [
        "Ġlighting",
        -10.051874577213384
      ],
      [
        "Ġcurve",
        -10.05195450129801
      ],
      [
        "Ġminimum",
        -10.052176917496745
      ],
      [
        "Ġrealit",
        -10.05377777068936
      ],
      [
        "Ġchronic",
        -10.054480846071888
      ],
      [
        "Ġdepression",
        -10.055460420227044
      ],
      [
        "with",
        -10.055917894230234
      ],
      [
        "Ġfailure",
        -10.05607222139594
      ],
      [
        "Ġisland",
        -10.056205336046435
      ],
      [
        "Ġincredibl",
        -10.05625226009442
      ],
      [
        "Ġleak",
        -10.056832321344622
      ],
      [
        "Ġawarenes",
        -10.057416068308116
      ],
      [
        "Ġtreated",
        -10.05762140867226
      ],
      [
        "Ġdisorder",
        -10.057754438644077
      ],
      [
        "Ġrelevant",
        -10.05841324454423
      ],
      [
        "Ġrecovery",
        -10.05872475651363
      ],
      [
        "Ġsport",
        -10.058796820820024
      ],
      [
        "Ġguy",
        -10.060497150807835
      ],
      [
        "ĠGo",
        -10.06068407120284
      ],
      [
        "ĠCanada",
        -10.061918369157848
      ],
      [
        "Ġtraffic",
        -10.062244074353464
      ],
      [
        "Ġjump",
        -10.064444813194005
      ],
      [
        "Ġdamaged",
        -10.064592442922384
      ],
      [
        "Ġdetermined",
        -10.064919970363793
      ],
      [
        "Ġpesticide",
        -10.06567364829321
      ],
      [
        "covered",
        -10.065734811215876
      ],
      [
        "Ġaudio",
        -10.065821529214228
      ],
      [
        "Ġmeeting",
        -10.066085156403457
      ],
      [
        "Ġdish",
        -10.066110540766072
      ],
      [
        "Ġpercentage",
        -10.06654744813509
      ],
      [
        "Ġboost",
        -10.06658407573494
      ],
      [
        "Ġfoundation",
        -10.06677741975327
      ],
      [
        "Ġchoos",
        -10.06717390597195
      ],
      [
        "Ġadvance",
        -10.067691101122255
      ],
      [
        "Ġlaunch",
        -10.06860094757372
      ],
      [
        "Ġcollege",
        -10.06872834562554
      ],
      [
        "Ġprior",
        -10.068766113266785
      ],
      [
        "Ġboat",
        -10.069816446314643
      ],
      [
        "Ġpredator",
        -10.07040120166849
      ],
      [
        "ĠWar",
        -10.0708098150703
      ],
      [
        "Ġconsequence",
        -10.072153659068247
      ],
      [
        "Ġopinion",
        -10.07224104601037
      ],
      [
        "Ġdigesti",
        -10.072787328419444
      ],
      [
        "Ġnation",
        -10.072812821208608
      ],
      [
        "Ġmission",
        -10.073312307095662
      ],
      [
        "Ġfear",
        -10.073504832244758
      ],
      [
        "ier",
        -10.074520172821618
      ],
      [
        "Ġspider",
        -10.074593346251016
      ],
      [
        "ĠSea",
        -10.07505820012436
      ],
      [
        "Ġappreciate",
        -10.07516523848899
      ],
      [
        "Ġdivide",
        -10.07540369409385
      ],
      [
        "accurac",
        -10.075590734062652
      ],
      [
        "Ġtight",
        -10.076365729934388
      ],
      [
        "Ġextensive",
        -10.076844449796464
      ],
      [
        "Ġcalcium",
        -10.077381891515667
      ],
      [
        "Ġcredit",
        -10.077766073530231
      ],
      [
        "Ġedit",
        -10.079584992717365
      ],
      [
        "diversity",
        -10.082041584121452
      ],
      [
        "According",
        -10.08260096064974
      ],
      [
        "Ġpropose",
        -10.084605115200208
      ],
      [
        "Ġchoices",
        -10.08507113605151
      ],
      [
        "Ġbarrier",
        -10.085115879912715
      ],
      [
        "Ġleaving",
        -10.08538715921888
      ],
      [
        "Ġchose",
        -10.085664988034251
      ],
      [
        "Ġspray",
        -10.086716571790454
      ],
      [
        "Ġnitrogen",
        -10.086722267661102
      ],
      [
        "ities",
        -10.08676913830062
      ],
      [
        "Ġrestaurant",
        -10.087533059963842
      ],
      [
        "Ġsharp",
        -10.08803643221896
      ],
      [
        "ĠProgram",
        -10.08879576815916
      ],
      [
        "Ġmajority",
        -10.088841128601157
      ],
      [
        "Ġlots",
        -10.08922852000724
      ],
      [
        "Ġvisibl",
        -10.089533513503358
      ],
      [
        "Ġreplacement",
        -10.089845651712672
      ],
      [
        "ĠDesign",
        -10.090091769236237
      ],
      [
        "ĠNature",
        -10.090752488567508
      ],
      [
        "Your",
        -10.091495388066932
      ],
      [
        "ĠLife",
        -10.092460818542008
      ],
      [
        "Ġstable",
        -10.09298922362089
      ],
      [
        "Ġabsolute",
        -10.094858639407825
      ],
      [
        "-related",
        -10.096076458568367
      ],
      [
        "ĠJune",
        -10.096918141443426
      ],
      [
        "**",
        -10.09698955572533
      ],
      [
        "Ġlights",
        -10.09738855284694
      ],
      [
        "Ġwave",
        -10.098187193434129
      ],
      [
        "More",
        -10.098555936395508
      ],
      [
        "Ġsensitive",
        -10.09931925302335
      ],
      [
        "Onc",
        -10.099380313393668
      ],
      [
        "ĠNov",
        -10.09946386024261
      ],
      [
        "Ġ...Ċ",
        -10.099525341865892
      ],
      [
        "Januar",
        -10.100080327047696
      ],
      [
        "Ġthorough",
        -10.10040926118016
      ],
      [
        "Ġbreast",
        -10.100936321008504
      ],
      [
        "Ġfan",
        -10.101513557732687
      ],
      [
        "Ġhormone",
        -10.102510490483134
      ],
      [
        "Ġbottle",
        -10.102690611644512
      ],
      [
        "Ġguideline",
        -10.103127438482094
      ],
      [
        "ant",
        -10.103816194981963
      ],
      [
        "Ġstroke",
        -10.104280877821118
      ],
      [
        "Ġexcessive",
        -10.104606669246303
      ],
      [
        "Ġbelt",
        -10.105987027890666
      ],
      [
        "Ġplans",
        -10.106015645226538
      ],
      [
        "Ġcompetition",
        -10.10679314004205
      ],
      [
        "Ġconsideration",
        -10.107965685901943
      ],
      [
        "Ġeliminate",
        -10.108134106461986
      ],
      [
        "Ġplanting",
        -10.110440864741124
      ],
      [
        "how",
        -10.111081978008574
      ],
      [
        "Ġprecise",
        -10.111328785112224
      ],
      [
        "Ġstain",
        -10.111400705103762
      ],
      [
        "Ġfossil",
        -10.11143425677706
      ],
      [
        "Ġhousehold",
        -10.111801756538313
      ],
      [
        "Ġrough",
        -10.11279464325244
      ],
      [
        "Ġband",
        -10.112982198260951
      ],
      [
        "OVID",
        -10.113056880668172
      ],
      [
        "Ġknee",
        -10.113590617201194
      ],
      [
        "Ġbudget",
        -10.113956997988463
      ],
      [
        "Ġcheap",
        -10.11419838847073
      ],
      [
        "Ġbug",
        -10.114950344443876
      ],
      [
        "Ġmaster",
        -10.115955560356168
      ],
      [
        "Ġslowly",
        -10.115985475606198
      ],
      [
        "Ġhospital",
        -10.116151249997776
      ],
      [
        "Ġexhibit",
        -10.117030360298614
      ],
      [
        "Ġmask",
        -10.117322286879176
      ],
      [
        "Ġcompost",
        -10.118165319076274
      ],
      [
        "Ġshowing",
        -10.11935485920174
      ],
      [
        "Ġconfirm",
        -10.119868536087733
      ],
      [
        "ĠFurther",
        -10.119889801055798
      ],
      [
        "Ġahead",
        -10.119930031157056
      ],
      [
        "ĠWest",
        -10.120298752516169
      ],
      [
        "ĠLED",
        -10.120549618708672
      ],
      [
        "Ġexplor",
        -10.122271144229511
      ],
      [
        "Ġpreviously",
        -10.122289411320564
      ],
      [
        "Ġmovie",
        -10.122399379237295
      ],
      [
        "Ġplent",
        -10.122531534088502
      ],
      [
        "Ġagricultur",
        -10.12261455461353
      ],
      [
        "Ġeconomy",
        -10.123505947049882
      ],
      [
        "wise",
        -10.123705855509012
      ],
      [
        "Ġinsulation",
        -10.12419720570002
      ],
      [
        "Ġintake",
        -10.12503033388089
      ],
      [
        "ĠStudent",
        -10.126562565239066
      ],
      [
        "Ġbees",
        -10.127717436118225
      ],
      [
        "Ġbones",
        -10.12833589236609
      ],
      [
        "ĠRe",
        -10.12897962806358
      ],
      [
        "Ġshared",
        -10.12938291586104
      ],
      [
        "Ġconstruct",
        -10.13055165988316
      ],
      [
        "urniture",
        -10.130595574560203
      ],
      [
        "Use",
        -10.130793411121743
      ],
      [
        "Ġzero",
        -10.131133633691778
      ],
      [
        "Ġsudden",
        -10.131285224125378
      ],
      [
        "Ġsent",
        -10.131366043363837
      ],
      [
        "Ġargument",
        -10.132151360927132
      ],
      [
        "Ġpowder",
        -10.132802794618003
      ],
      [
        "-time",
        -10.133532375752512
      ],
      [
        "ĠType",
        -10.134634952242866
      ],
      [
        "ĠDe",
        -10.134658513930304
      ],
      [
        "ĠGood",
        -10.135028770939446
      ],
      [
        "Ġlawn",
        -10.135456777244508
      ],
      [
        "Ġcalm",
        -10.135470765553451
      ],
      [
        "Ġphotos",
        -10.135611076584825
      ],
      [
        "Ġreward",
        -10.136358697221638
      ],
      [
        "Ġindustrial",
        -10.136480813201226
      ],
      [
        "Ġvarie",
        -10.138939854530031
      ],
      [
        "Ġsaving",
        -10.139432089597303
      ],
      [
        "Ġbread",
        -10.139492019568696
      ],
      [
        "ĠChine",
        -10.140298192177672
      ],
      [
        "Ġdust",
        -10.141014155509012
      ],
      [
        "Ġpurposes",
        -10.141267250409811
      ],
      [
        "Ġtrail",
        -10.141324943335745
      ],
      [
        "Ġtall",
        -10.141927425917366
      ],
      [
        "Ġsufficient",
        -10.142080513769454
      ],
      [
        "Ġoven",
        -10.143009734072963
      ],
      [
        "side",
        -10.143046229703272
      ],
      [
        "Ġwash",
        -10.144772102989329
      ],
      [
        "Ġplays",
        -10.145641735952696
      ],
      [
        "Ġformula",
        -10.146734756529964
      ],
      [
        "Ġurban",
        -10.148544286897176
      ],
      [
        "Ġaudience",
        -10.149509991411
      ],
      [
        "Ġstages",
        -10.150286398520556
      ],
      [
        "ĠHome",
        -10.150933464505687
      ],
      [
        "Ġminimize",
        -10.151545903283491
      ],
      [
        "Ġrubber",
        -10.151850036520475
      ],
      [
        "Ġfeedback",
        -10.15195062777822
      ],
      [
        "Ġecosystem",
        -10.152193836339295
      ],
      [
        "ĠEnergy",
        -10.153342834504112
      ],
      [
        "Ġpounds",
        -10.153827329846486
      ],
      [
        "Ġaesthetic",
        -10.153978104402894
      ],
      [
        "Ġupdate",
        -10.155756493040592
      ],
      [
        "ĠThu",
        -10.156023811592611
      ],
      [
        "Ġconventional",
        -10.156547300858668
      ],
      [
        "Ġcognitive",
        -10.157211921997726
      ],
      [
        "Ġshell",
        -10.157334143564253
      ],
      [
        "-be",
        -10.157526345917232
      ],
      [
        "Ġeight",
        -10.15817051899342
      ],
      [
        "Ġinflammation",
        -10.15897917474883
      ],
      [
        "Ġdioxide",
        -10.158994241247829
      ],
      [
        "Ġsong",
        -10.159245199112842
      ],
      [
        "Ġspecialize",
        -10.16045994432914
      ],
      [
        "at",
        -10.1605295877847
      ],
      [
        "Ġwouldn",
        -10.160632424481816
      ],
      [
        "Ġlab",
        -10.1610152428568
      ],
      [
        "Ġdecided",
        -10.162446264639264
      ],
      [
        "Ġpackage",
        -10.162817964652486
      ],
      [
        "Ġpepper",
        -10.163136386278946
      ],
      [
        "Ġuniversit",
        -10.163327389507884
      ],
      [
        "almos",
        -10.163828965057393
      ],
      [
        "Ġinterface",
        -10.164029214365597
      ],
      [
        "Ġfixed",
        -10.164146547800112
      ],
      [
        "Ġgenerated",
        -10.164241723081677
      ],
      [
        "made",
        -10.164391199597391
      ],
      [
        "ĠBoth",
        -10.165038298541376
      ],
      [
        "Ġclinical",
        -10.165578769596406
      ],
      [
        "Ġdensity",
        -10.165657017219338
      ],
      [
        "Ġorganisms",
        -10.16567087002939
      ],
      [
        "Ġbutter",
        -10.16614877359786
      ],
      [
        "Ġcomputers",
        -10.167313533917053
      ],
      [
        "ĠLike",
        -10.168549803525254
      ],
      [
        "Ġimagine",
        -10.169730333179595
      ],
      [
        "Ġuniverse",
        -10.171884903154158
      ],
      [
        "Ġpictures",
        -10.173242212809528
      ],
      [
        "Ġsector",
        -10.174662159588111
      ],
      [
        "Ġprofessor",
        -10.174693658229248
      ],
      [
        "Ġgirl",
        -10.17485406993106
      ],
      [
        "Ġplug",
        -10.176052224798187
      ],
      [
        "Ġflood",
        -10.1772605287384
      ],
      [
        "Ġanalyze",
        -10.177779833619008
      ],
      [
        "Ġtrie",
        -10.1783946073683
      ],
      [
        "Ġarm",
        -10.17862841436805
      ],
      [
        "ĠPlant",
        -10.179140880365363
      ],
      [
        "Ġopening",
        -10.179496972402545
      ],
      [
        "Ġlinked",
        -10.179673939348817
      ],
      [
        "ĠWhere",
        -10.180668850450452
      ],
      [
        "Ġremote",
        -10.18126838492428
      ],
      [
        "Ġdishe",
        -10.182358007735491
      ],
      [
        "Ġdesigner",
        -10.183033241391884
      ],
      [
        "up",
        -10.183819028314032
      ],
      [
        "Ġjuice",
        -10.184076191456535
      ],
      [
        "X",
        -10.184298603410337
      ],
      [
        "Ġweed",
        -10.184780780190891
      ],
      [
        "Ġconcrete",
        -10.186393937097073
      ],
      [
        "Ġpeak",
        -10.187822596234165
      ],
      [
        "ĠSan",
        -10.188529624084373
      ],
      [
        "Ġotherwise",
        -10.18862003481112
      ],
      [
        "Ġdelicious",
        -10.18863004899189
      ],
      [
        "Ġcircle",
        -10.18864512339326
      ],
      [
        "Ġmammal",
        -10.189246794233522
      ],
      [
        "Ġthread",
        -10.189264569623788
      ],
      [
        "ĠAny",
        -10.189597195807766
      ],
      [
        "Ġshop",
        -10.189707449179735
      ],
      [
        "Ġincorporate",
        -10.190028804114291
      ],
      [
        "ĠTexas",
        -10.190580770660636
      ],
      [
        "Ġtrace",
        -10.190939667501324
      ],
      [
        "From",
        -10.190969560901516
      ],
      [
        "Ġriver",
        -10.191680241907914
      ],
      [
        "ĠAsia",
        -10.19169230925585
      ],
      [
        "Ġinner",
        -10.193069831089062
      ],
      [
        "Ġstomach",
        -10.19341599709664
      ],
      [
        "Ġmanner",
        -10.193481288595564
      ],
      [
        "Ġcommunicate",
        -10.194904698176163
      ],
      [
        "Ġbelief",
        -10.19494774768707
      ],
      [
        "Ġtoxic",
        -10.195880130379644
      ],
      [
        "Ġassembl",
        -10.196716058591246
      ],
      [
        "Ġguess",
        -10.19782291819516
      ],
      [
        "Ġimplant",
        -10.19818280537502
      ],
      [
        "Ġhydrogen",
        -10.199098969054646
      ],
      [
        "Ġbulb",
        -10.199226868368536
      ],
      [
        "Ġlift",
        -10.199237992932048
      ],
      [
        "Let",
        -10.199253253309898
      ],
      [
        "Ġdistinct",
        -10.20026602983074
      ],
      [
        "ĠCity",
        -10.200401674547628
      ],
      [
        "Ġfiles",
        -10.200817780816276
      ],
      [
        "Ġslightl",
        -10.200847934519311
      ],
      [
        "Ġinnovative",
        -10.201032112300124
      ],
      [
        "Ġbroken",
        -10.201274149598309
      ],
      [
        "Ġcomparison",
        -10.201437594984707
      ],
      [
        "ĠâĢ¢",
        -10.20156385184147
      ],
      [
        "Ġmanag",
        -10.20195006347699
      ],
      [
        "ver",
        -10.202185023733133
      ],
      [
        "j",
        -10.202536676021255
      ],
      [
        "Ġliver",
        -10.20326346024557
      ],
      [
        "Ġhistorical",
        -10.20327874404611
      ],
      [
        "Ġcloud",
        -10.20333547968818
      ],
      [
        "Ġmineral",
        -10.203653985300663
      ],
      [
        "Ġthrive",
        -10.20423265142357
      ],
      [
        "||",
        -10.204735738700547
      ],
      [
        "Ġcit",
        -10.207659836288537
      ],
      [
        "Ġputt",
        -10.207725490929777
      ],
      [
        "Ġdownload",
        -10.208986163842935
      ],
      [
        "ĠIndian",
        -10.209873909960194
      ],
      [
        "Ġpizza",
        -10.210715406916677
      ],
      [
        "Ġwoman",
        -10.210748972448457
      ],
      [
        "Ġbuying",
        -10.211217922810764
      ],
      [
        "ĠCheck",
        -10.211500615502818
      ],
      [
        "Ġcopy",
        -10.21214669128303
      ],
      [
        "ĠY",
        -10.212426299215153
      ],
      [
        "ĠTechnology",
        -10.21249026503127
      ],
      [
        "Ġcalories",
        -10.212723170905294
      ],
      [
        "Ġemotion",
        -10.212884921499056
      ],
      [
        "Figure",
        -10.213215903207734
      ],
      [
        "Ġgraph",
        -10.213225810043191
      ],
      [
        "...Ċ",
        -10.21356237236808
      ],
      [
        "ĠLearning",
        -10.214993276734337
      ],
      [
        "Ġfelt",
        -10.215338775697424
      ],
      [
        "Ġinjuries",
        -10.215350065604405
      ],
      [
        "Ġdecide",
        -10.217037969275744
      ],
      [
        "Ġtrade",
        -10.217067327718071
      ],
      [
        "Ġoral",
        -10.217124820800128
      ],
      [
        "ĠTake",
        -10.217918108661593
      ],
      [
        "Ġrandom",
        -10.218368470719032
      ],
      [
        "Ġthreaten",
        -10.218509671502604
      ],
      [
        "Ġvast",
        -10.21892038399871
      ],
      [
        "Ġsmoke",
        -10.219867953979088
      ],
      [
        "Ġrapid",
        -10.220499940900744
      ],
      [
        "ĠGod",
        -10.22129074552704
      ],
      [
        "Ġhandl",
        -10.221545688085149
      ],
      [
        "Ġscore",
        -10.221664515684042
      ],
      [
        "ĠAugust",
        -10.221865992564585
      ],
      [
        "Ġcraft",
        -10.222903165343588
      ],
      [
        "Ġstructural",
        -10.223823140446951
      ],
      [
        "from",
        -10.223866589777847
      ],
      [
        "Ġmath",
        -10.224279571296872
      ],
      [
        "Ġsuper",
        -10.224893684640929
      ],
      [
        "Ġmanual",
        -10.224910682837171
      ],
      [
        "Ġrely",
        -10.224910755150953
      ],
      [
        "Ġwasn",
        -10.225444890067363
      ],
      [
        "ĠGeneral",
        -10.225651158476552
      ],
      [
        "Ġtrial",
        -10.225710838442648
      ],
      [
        "Ġtrouble",
        -10.226022552639296
      ],
      [
        "Ġseven",
        -10.226376247259031
      ],
      [
        "Ġloose",
        -10.226584046667842
      ],
      [
        "He",
        -10.227332640376073
      ],
      [
        "Ġnose",
        -10.227617133648296
      ],
      [
        "Ġmistake",
        -10.22773250581745
      ],
      [
        "Ġbowl",
        -10.227832769112226
      ],
      [
        "Ġdescription",
        -10.228501115388196
      ],
      [
        "ĠYear",
        -10.228521528422608
      ],
      [
        "way",
        -10.229486805903296
      ],
      [
        "Ġintervention",
        -10.229661137307236
      ],
      [
        "Ġgradual",
        -10.22987913388542
      ],
      [
        "Ġsustainability",
        -10.23044160610009
      ],
      [
        "ley",
        -10.230943874521303
      ],
      [
        "Ġlaser",
        -10.23162261208384
      ],
      [
        "Ġindustrie",
        -10.23245824142136
      ],
      [
        "Ġalter",
        -10.232533319093502
      ],
      [
        "Ġresident",
        -10.232602545598976
      ],
      [
        "ĠSt",
        -10.23284757723554
      ],
      [
        "Ġwish",
        -10.234302052723825
      ],
      [
        "Ġforests",
        -10.234962482204155
      ],
      [
        "Ġofficial",
        -10.235159388930963
      ],
      [
        "Ġdiffer",
        -10.235284954948815
      ],
      [
        "Ġparticipate",
        -10.235852712598264
      ],
      [
        "Ġfamiliar",
        -10.236175101717826
      ],
      [
        "Ġtrend",
        -10.236633608192072
      ],
      [
        "Ġexchange",
        -10.237029743759155
      ],
      [
        "Ġattend",
        -10.237395039850975
      ],
      [
        "Ġshar",
        -10.237815127044946
      ],
      [
        "ĠFrench",
        -10.238048961386104
      ],
      [
        "Ġacademic",
        -10.239042805280723
      ],
      [
        "Ġtrained",
        -10.240980184619486
      ],
      [
        "Ġengaging",
        -10.242719545633824
      ],
      [
        "ĠStart",
        -10.244282910119098
      ],
      [
        "Ġfoster",
        -10.24523463703795
      ],
      [
        "gone",
        -10.245749380001012
      ],
      [
        "{",
        -10.245890001409194
      ],
      [
        "Ġsecret",
        -10.245967921269362
      ],
      [
        "Ġrenewable",
        -10.246022414407747
      ],
      [
        "ification",
        -10.246762644616124
      ],
      [
        "ĠConsider",
        -10.24697552823232
      ],
      [
        "ĠAfrican",
        -10.247672225944225
      ],
      [
        "Ġcoral",
        -10.247679651607704
      ],
      [
        "Researchers",
        -10.24804615970512
      ],
      [
        "Ġdiagnosis",
        -10.248166045082757
      ],
      [
        "Ġroute",
        -10.248808503136118
      ],
      [
        "Ġsurprise",
        -10.249963789894032
      ],
      [
        "definitely",
        -10.250235762068016
      ],
      [
        "Ġkidney",
        -10.250709045751924
      ],
      [
        "U",
        -10.25123107397443
      ],
      [
        "Ġlarva",
        -10.252441424087475
      ],
      [
        "Ġagricultural",
        -10.252501995526
      ],
      [
        "ĠEast",
        -10.253109119998385
      ],
      [
        "-of",
        -10.25384018389843
      ],
      [
        "ĠSociet",
        -10.253895438975793
      ],
      [
        "Ġstretch",
        -10.253963007562325
      ],
      [
        "Ġderive",
        -10.254525348854456
      ],
      [
        "Ġgap",
        -10.254526014343387
      ],
      [
        "Ġthermal",
        -10.254839834802988
      ],
      [
        "Ġlie",
        -10.25507176566849
      ],
      [
        "Ġcollaboration",
        -10.255385453990549
      ],
      [
        "ĠEngl",
        -10.255443463002605
      ],
      [
        "Ġhazard",
        -10.25610810334489
      ],
      [
        "Ġnews",
        -10.256286918253682
      ],
      [
        "Ġsauce",
        -10.257357756899964
      ],
      [
        "Ġprices",
        -10.257515699549677
      ],
      [
        "Ġfirm",
        -10.257529533378822
      ],
      [
        "Ġrecover",
        -10.257594563599222
      ],
      [
        "Ġinsurance",
        -10.257673623793291
      ],
      [
        "Ġinitiative",
        -10.257748931879783
      ],
      [
        "Ġworse",
        -10.25833674365887
      ],
      [
        "Ġprompt",
        -10.258397797056976
      ],
      [
        "Ġspaces",
        -10.258680757931224
      ],
      [
        "Ġcoal",
        -10.25912342641194
      ],
      [
        "Ġpresentation",
        -10.259738731537528
      ],
      [
        "Ġexcess",
        -10.26013264174464
      ],
      [
        "Ġauto",
        -10.260755683480925
      ],
      [
        "ĠSpace",
        -10.26119708522038
      ],
      [
        "Ġspen",
        -10.261286496290335
      ],
      [
        "ĠRed",
        -10.262973791306756
      ],
      [
        "ĠControl",
        -10.26419501334828
      ],
      [
        "Ġvegetable",
        -10.264220977962868
      ],
      [
        "ĠOcto",
        -10.264539004032263
      ],
      [
        "Ġprogramming",
        -10.265360298007232
      ],
      [
        "Ġstarts",
        -10.265690121413256
      ],
      [
        "Ġexciting",
        -10.26577799153194
      ],
      [
        "Ġattached",
        -10.265903990361728
      ],
      [
        "Ġrapidly",
        -10.266205615182116
      ],
      [
        "Ġecosystems",
        -10.267853228033086
      ],
      [
        "Ġbecom",
        -10.268429372571749
      ],
      [
        "Ġvelocit",
        -10.269171732609085
      ],
      [
        "ĠAssociation",
        -10.26924676864098
      ],
      [
        "Ġgravit",
        -10.26925855594386
      ],
      [
        "Ġserver",
        -10.27020767825432
      ],
      [
        "Ġgreenhouse",
        -10.271415250521793
      ],
      [
        "Ġequivalent",
        -10.271533357615104
      ],
      [
        "Ġconfidence",
        -10.271555571985898
      ],
      [
        "ĠRemember",
        -10.2721146027114
      ],
      [
        "Ġminimal",
        -10.272130614035376
      ],
      [
        "Ġprove",
        -10.272606445437797
      ],
      [
        "Ġalign",
        -10.2731206219749
      ],
      [
        "Ġworkshop",
        -10.273234770960489
      ],
      [
        "Ġweak",
        -10.273369993692931
      ],
      [
        "ĠGet",
        -10.273702145695392
      ],
      [
        "ĠII",
        -10.273739640646898
      ],
      [
        "Ġchocolate",
        -10.273761157717145
      ],
      [
        "Ġdisorders",
        -10.275240890734768
      ],
      [
        "Ġdi",
        -10.275909347566266
      ],
      [
        "-old",
        -10.276317821991643
      ],
      [
        "Ġinstallation",
        -10.276376207743086
      ],
      [
        "Ġdiagnose",
        -10.276557821664976
      ],
      [
        "Ġexam",
        -10.277647627482118
      ],
      [
        "Ġtea",
        -10.27788135577304
      ],
      [
        "Ġsnow",
        -10.278493310992978
      ],
      [
        "Ġgrant",
        -10.278834485994498
      ],
      [
        "Although",
        -10.279128018675028
      ],
      [
        "Ġforget",
        -10.27977602941424
      ],
      [
        "like",
        -10.280555247751044
      ],
      [
        "ĠCollege",
        -10.280748922719104
      ],
      [
        "Ġprotective",
        -10.280880404246645
      ],
      [
        "ĠAnimal",
        -10.281599400969714
      ],
      [
        "Ġcopper",
        -10.28174945606006
      ],
      [
        "Ġpreparation",
        -10.281880119520707
      ],
      [
        "Ġreactions",
        -10.282676737711554
      ],
      [
        "ĠJohn",
        -10.28277525896073
      ],
      [
        "Ġconsult",
        -10.282998801829958
      ],
      [
        "Ġcooked",
        -10.28309239610818
      ],
      [
        "History",
        -10.283520653177645
      ],
      [
        "ĠHuman",
        -10.28354274992147
      ],
      [
        "ĠJul",
        -10.2835687523059
      ],
      [
        "Ġstream",
        -10.283875957994708
      ],
      [
        "Ġgift",
        -10.284049817769196
      ],
      [
        "Ġhabitats",
        -10.284148641463108
      ],
      [
        "Ġmark",
        -10.285021174155304
      ],
      [
        "ized",
        -10.285644181102494
      ],
      [
        "Ġassume",
        -10.286366260423367
      ],
      [
        "Ġusage",
        -10.287124901567
      ],
      [
        "First",
        -10.28731326479888
      ],
      [
        "Ġrat",
        -10.28852928582958
      ],
      [
        "Ġcrystal",
        -10.288757196671668
      ],
      [
        "Ġhardware",
        -10.289591210471311
      ],
      [
        "ĠPower",
        -10.28975888708094
      ],
      [
        "Ġdefine",
        -10.29050910348948
      ],
      [
        "Ġcrack",
        -10.290554685882752
      ],
      [
        "ĠLook",
        -10.292017889987903
      ],
      [
        "Ġinstrument",
        -10.292390401927094
      ],
      [
        "Ġnet",
        -10.292469708182226
      ],
      [
        "Ġrecipe",
        -10.292504632604125
      ],
      [
        "Ġprey",
        -10.293381096471226
      ],
      [
        "Ġphysics",
        -10.29415600359646
      ],
      [
        "Ġeveryday",
        -10.29428531407984
      ],
      [
        "Ġorange",
        -10.294736953296512
      ],
      [
        "ought",
        -10.294847938024734
      ],
      [
        "Ġhunting",
        -10.29727814617762
      ],
      [
        "Ġaggressive",
        -10.298040579039297
      ],
      [
        "ĠpH",
        -10.298456315443214
      ],
      [
        "ĠPacifi",
        -10.299155641903678
      ],
      [
        "Ġmissing",
        -10.3000537289124
      ],
      [
        "ĠHis",
        -10.300081559631597
      ],
      [
        "Ġfather",
        -10.300791826474406
      ],
      [
        "Ġevaluate",
        -10.302080697813642
      ],
      [
        "Ġport",
        -10.3023158771368
      ],
      [
        "Ġtrait",
        -10.303691298229388
      ],
      [
        "Ġbranche",
        -10.30378053959189
      ],
      [
        "ĠGoogle",
        -10.30383987182696
      ],
      [
        "Since",
        -10.303847521916092
      ],
      [
        "Ġarrive",
        -10.304710286854991
      ],
      [
        "Ġtropical",
        -10.304911439860785
      ],
      [
        "Ġlocations",
        -10.305536351550966
      ],
      [
        "Ġplus",
        -10.306445313749872
      ],
      [
        "Ġtopics",
        -10.3066236118215
      ],
      [
        "Ġinterior",
        -10.307018709943735
      ],
      [
        "Ġexplanation",
        -10.307556569508888
      ],
      [
        "Ġdimension",
        -10.307603211852165
      ],
      [
        "Ġrelax",
        -10.30766047745057
      ],
      [
        "Ġguidance",
        -10.30777299697311
      ],
      [
        "Ġessay",
        -10.308299287514028
      ],
      [
        "Ġpossibl",
        -10.308951536360947
      ],
      [
        "Ġmodule",
        -10.308996966679016
      ],
      [
        "Ġunlike",
        -10.309860609785712
      ],
      [
        "ING",
        -10.310080562181753
      ],
      [
        "Ġresolution",
        -10.310786988262931
      ],
      [
        "Ġedges",
        -10.310879670258522
      ],
      [
        "Ġlaws",
        -10.311128763639974
      ],
      [
        "Ġfamous",
        -10.311606532603934
      ],
      [
        "Ġpermanent",
        -10.311671089095077
      ],
      [
        "Ġstar",
        -10.312504531796693
      ],
      [
        "Ġdanger",
        -10.312793101315457
      ],
      [
        "ural",
        -10.313500024421796
      ],
      [
        "Ġdiameter",
        -10.314041530175082
      ],
      [
        "Ġreli",
        -10.31423396842754
      ],
      [
        "Ġadequate",
        -10.3147575935138
      ],
      [
        "Ġstrengthen",
        -10.315679107462987
      ],
      [
        "Ġstronger",
        -10.316169010065536
      ],
      [
        "Ġneck",
        -10.316871318026427
      ],
      [
        "Ġaccessibl",
        -10.318453460627946
      ],
      [
        "Ġchapter",
        -10.318534361363987
      ],
      [
        "fitness",
        -10.31859673625938
      ],
      [
        "Ġnorth",
        -10.319457490925846
      ],
      [
        "-on",
        -10.31978786346308
      ],
      [
        "Ġabilit",
        -10.319834781026696
      ],
      [
        "informed",
        -10.320816215443593
      ],
      [
        "Ġswimming",
        -10.321482994160409
      ],
      [
        "Ġapproaches",
        -10.321483176801785
      ],
      [
        "Ġchromosome",
        -10.321818503558426
      ],
      [
        "Ġpolitical",
        -10.322454291937854
      ],
      [
        "Ġflexi",
        -10.322550019514612
      ],
      [
        "Ġcontract",
        -10.323478534000092
      ],
      [
        "Ġopposite",
        -10.32362108096488
      ],
      [
        "Ġconflict",
        -10.323734882957414
      ],
      [
        "ĠGuide",
        -10.324871887335856
      ],
      [
        "Ġinspire",
        -10.32521706992623
      ],
      [
        "Ġrotation",
        -10.325245460373107
      ],
      [
        "Ġattribute",
        -10.32559957060553
      ],
      [
        "Ġdedicate",
        -10.325859148524714
      ],
      [
        "Ġpartial",
        -10.326152456223394
      ],
      [
        "Ġcow",
        -10.326381995028193
      ],
      [
        "Ġmountain",
        -10.327323593678411
      ],
      [
        "Ġmild",
        -10.3274038054973
      ],
      [
        "Ġdynamic",
        -10.3276318311297
      ],
      [
        "}",
        -10.327683246319094
      ],
      [
        "Ġreplaced",
        -10.327942204521689
      ],
      [
        "Ġga",
        -10.32804386309878
      ],
      [
        "Ġdirector",
        -10.328163107100568
      ],
      [
        "Ġsmok",
        -10.330013297751629
      ],
      [
        "ĠHave",
        -10.330028190279204
      ],
      [
        "Ġreaders",
        -10.33020430807014
      ],
      [
        "are",
        -10.3305258010834
      ],
      [
        "Ġnutritional",
        -10.331450846982603
      ],
      [
        "Ġimport",
        -10.332465679489813
      ],
      [
        "Ġsymbol",
        -10.332621841406189
      ],
      [
        "Ġrecommendation",
        -10.332785721839926
      ],
      [
        "Ġsouth",
        -10.332804565442586
      ],
      [
        "Ġmolecular",
        -10.33331963143572
      ],
      [
        "Ġsexual",
        -10.333688434356144
      ],
      [
        "Ġorigin",
        -10.3343926960847
      ],
      [
        "Ġacids",
        -10.33444838649093
      ],
      [
        "wood",
        -10.335743982480857
      ],
      [
        "Ġanswers",
        -10.335809686537516
      ],
      [
        "Ġreact",
        -10.335938755205929
      ],
      [
        "ĠToday",
        -10.336019191999704
      ],
      [
        "Ġborder",
        -10.338476701941074
      ],
      [
        "Ġauthors",
        -10.338521929677269
      ],
      [
        "ĠCare",
        -10.338620626970826
      ],
      [
        "stock",
        -10.338989976208753
      ],
      [
        "Ġincorporat",
        -10.339029566583768
      ],
      [
        "Ġdisabilit",
        -10.339432825346291
      ],
      [
        "\"The",
        -10.339925426060612
      ],
      [
        "Ġhumid",
        -10.34008599770647
      ],
      [
        "Ġnode",
        -10.34016600413018
      ],
      [
        "Ġclothes",
        -10.340917755437264
      ],
      [
        "Ġphotography",
        -10.341362742463648
      ],
      [
        "Ġconversation",
        -10.341849093011582
      ],
      [
        "Ġlock",
        -10.341870713302798
      ],
      [
        "ĠCommon",
        -10.342589181265923
      ],
      [
        "Ġbiodiversity",
        -10.3433736853968
      ],
      [
        "Ġcamp",
        -10.344018395938985
      ],
      [
        "Ġmassive",
        -10.344947621099855
      ],
      [
        "Ġstring",
        -10.345609002875063
      ],
      [
        "Ġflour",
        -10.34565461879599
      ],
      [
        "Ġprocedures",
        -10.346955634058991
      ],
      [
        "ĠTV",
        -10.346959854918364
      ],
      [
        "Ġshapes",
        -10.347353243536928
      ],
      [
        "ĠWork",
        -10.348293502869348
      ],
      [
        "Ġvibrant",
        -10.34837268852565
      ],
      [
        "Ġdeeper",
        -10.348490368217398
      ],
      [
        "ĠAdd",
        -10.348922402085709
      ],
      [
        "Ġworkers",
        -10.34903868177726
      ],
      [
        "ĠBlue",
        -10.351270318381117
      ],
      [
        "Ġbrush",
        -10.351459950672105
      ],
      [
        "Ġantibiotic",
        -10.35157524990655
      ],
      [
        "Ġwor",
        -10.351681277978985
      ],
      [
        "Ġsex",
        -10.351747470390324
      ],
      [
        "Ġsitting",
        -10.352685291721286
      ],
      [
        "--",
        -10.353251796827887
      ],
      [
        "Ġintroduc",
        -10.353761157513176
      ],
      [
        "Ġdeposit",
        -10.35453534682338
      ],
      [
        "ĠAnother",
        -10.35544625563309
      ],
      [
        "Ġteams",
        -10.35546609604684
      ],
      [
        "Ġtheme",
        -10.355691093365014
      ],
      [
        "Ġdelivery",
        -10.356099953360976
      ],
      [
        "ĠTime",
        -10.35641632751326
      ],
      [
        "Ġnarrow",
        -10.357423077217426
      ],
      [
        "Ġdose",
        -10.358171747219806
      ],
      [
        "Ġequation",
        -10.358270491899123
      ],
      [
        "Ġouter",
        -10.358618859193072
      ],
      [
        "Ġcarrier",
        -10.359147975568478
      ],
      [
        "Ġdiamond",
        -10.359739430336685
      ],
      [
        "Ġpackag",
        -10.35974901812054
      ],
      [
        "Ġbranch",
        -10.3598494642235
      ],
      [
        "Ġstability",
        -10.359898639406698
      ],
      [
        "Ġvertical",
        -10.360446122508016
      ],
      [
        "ĠGarden",
        -10.360607487745842
      ],
      [
        "Ġdive",
        -10.361001331187005
      ],
      [
        "Ġseconds",
        -10.361034221929112
      ],
      [
        "Ġspeech",
        -10.361801382622126
      ],
      [
        "Ġsold",
        -10.362249403625242
      ],
      [
        "Us",
        -10.36251587109609
      ],
      [
        "ĠWild",
        -10.36276469937564
      ],
      [
        "Ġincome",
        -10.36372443695451
      ],
      [
        "Ġpartner",
        -10.364142033028276
      ],
      [
        "ĠProject",
        -10.365108236123596
      ],
      [
        "Ġdistribute",
        -10.36529801188762
      ],
      [
        "Ġanimation",
        -10.365435133080512
      ],
      [
        "Ġfix",
        -10.366553625987152
      ],
      [
        "Ġmanager",
        -10.36785202126904
      ],
      [
        "Ġadjustment",
        -10.36870488297442
      ],
      [
        "ĠService",
        -10.372168993748703
      ],
      [
        "Ġmoved",
        -10.372395247583654
      ],
      [
        "Ġyouth",
        -10.372569211742622
      ],
      [
        "Ġhybrid",
        -10.373108412121066
      ],
      [
        "Ġformer",
        -10.37368666349722
      ],
      [
        "\"We",
        -10.374806518954106
      ],
      [
        "Ġdomain",
        -10.375986906780144
      ],
      [
        "Ġpathway",
        -10.37657808067715
      ],
      [
        "ĠTHE",
        -10.377300358498456
      ],
      [
        "Ġhappening",
        -10.377783745965235
      ],
      [
        "Ġinch",
        -10.378644769300417
      ],
      [
        "Ġjobs",
        -10.378816217383164
      ],
      [
        "Ġversatile",
        -10.379290308551262
      ],
      [
        "Ġvolunteer",
        -10.380070394320969
      ],
      [
        "Ġrespirator",
        -10.380536276481848
      ],
      [
        "Ġcovers",
        -10.380653391791654
      ],
      [
        "ĠSee",
        -10.380858065760217
      ],
      [
        "Ġdelay",
        -10.380959913850972
      ],
      [
        "Ġexperienc",
        -10.381313552480208
      ],
      [
        "Ġbabies",
        -10.382193704528463
      ],
      [
        "Ġhomes",
        -10.3827155086759
      ],
      [
        "Ġpotato",
        -10.38272634716514
      ],
      [
        "Ġfacilitate",
        -10.38277143622815
      ],
      [
        "Ġrepeat",
        -10.383220897403096
      ],
      [
        "Ġgather",
        -10.38414925031871
      ],
      [
        "Ġdebri",
        -10.384393984585332
      ],
      [
        "ĠWashington",
        -10.385288234318258
      ],
      [
        "Ġidentit",
        -10.385613715582576
      ],
      [
        "Ġsales",
        -10.3859206168468
      ],
      [
        "Ġpuppy",
        -10.38595151671407
      ],
      [
        "Ġwrote",
        -10.38622430247069
      ],
      [
        "ĠCounty",
        -10.387178455748144
      ],
      [
        "Ġasking",
        -10.387345967670766
      ],
      [
        "Ġdepartment",
        -10.388352151330473
      ],
      [
        "Ġsides",
        -10.388393657302473
      ],
      [
        "Ġbaking",
        -10.388467779702433
      ],
      [
        "intended",
        -10.38945222196952
      ],
      [
        "Ġtone",
        -10.389698222966166
      ],
      [
        "Ġfacing",
        -10.389750425167
      ],
      [
        "ĠNatural",
        -10.389750970465244
      ],
      [
        "Ġï¿½",
        -10.389813157361363
      ],
      [
        "neath",
        -10.390059929921613
      ],
      [
        "Ġclimb",
        -10.390869579870651
      ],
      [
        "@",
        -10.391201652046153
      ],
      [
        "Ġstands",
        -10.39127290444256
      ],
      [
        "Ġcustom",
        -10.392698763853993
      ],
      [
        "twic",
        -10.394152458792083
      ],
      [
        "Ġmeasuring",
        -10.39421640919045
      ],
      [
        "Ġcommitment",
        -10.394376096753764
      ],
      [
        "we",
        -10.394474906314604
      ],
      [
        "Ġpin",
        -10.394938494772262
      ],
      [
        "Ġkg",
        -10.39543557316374
      ],
      [
        "Ġchair",
        -10.395585513041212
      ],
      [
        "Ġpreserve",
        -10.395959251375285
      ],
      [
        "-size",
        -10.3966732492355
      ],
      [
        "go",
        -10.397025488308794
      ],
      [
        "Ġtri",
        -10.398187325204155
      ],
      [
        "Ġpure",
        -10.39826441790329
      ],
      [
        "selves",
        -10.39934167843506
      ],
      [
        "Ġprogramme",
        -10.399700893461096
      ],
      [
        "Ġsimulation",
        -10.399990539372611
      ],
      [
        "making",
        -10.400990381744927
      ],
      [
        "Ġtail",
        -10.401331595772524
      ],
      [
        "Ġmembrane",
        -10.403122629498316
      ],
      [
        "Ġbiology",
        -10.40453019135527
      ],
      [
        "ĠAct",
        -10.40471911902626
      ],
      [
        "ĠChildren",
        -10.404822477871164
      ],
      [
        "Ġturns",
        -10.405291080656571
      ],
      [
        "Ġdiagram",
        -10.40560119656556
      ],
      [
        "Ġpan",
        -10.405618140751674
      ],
      [
        "Ġaward",
        -10.405805600577306
      ],
      [
        "?\"",
        -10.406035503634712
      ],
      [
        "Ġequipp",
        -10.40622768041655
      ],
      [
        "Ġgraphic",
        -10.406397993775744
      ],
      [
        "ical",
        -10.408744087856004
      ],
      [
        "Ġtip",
        -10.409534064725134
      ],
      [
        "ĠDisease",
        -10.409534823066398
      ],
      [
        "Ġheavi",
        -10.410682474624195
      ],
      [
        "Not",
        -10.41094854540923
      ],
      [
        "Ġdealing",
        -10.411392040711709
      ],
      [
        "be",
        -10.412940936092056
      ],
      [
        "Ġimpossib",
        -10.413325992098516
      ],
      [
        "Ġcompleted",
        -10.4138084850178
      ],
      [
        "Ġmanufacturer",
        -10.414512943309276
      ],
      [
        "Ġpink",
        -10.414931645704922
      ],
      [
        "Ġspirit",
        -10.414986161403952
      ],
      [
        "Ġorganize",
        -10.415424152669267
      ],
      [
        "Ġcharacters",
        -10.41581608271441
      ],
      [
        "Ġindex",
        -10.415989079580738
      ],
      [
        "ĠLondon",
        -10.416007899965734
      ],
      [
        "Ġserving",
        -10.416149142055982
      ],
      [
        "Ġskate",
        -10.417390431814134
      ],
      [
        "Ġorgans",
        -10.418073664954663
      ],
      [
        "Ġdied",
        -10.418253559468198
      ],
      [
        "field",
        -10.418331780341164
      ],
      [
        "sistance",
        -10.418340996728707
      ],
      [
        "Ġrecycling",
        -10.4184151685556
      ],
      [
        "Ġregulator",
        -10.418420076230262
      ],
      [
        "Ġinsect",
        -10.41950896537306
      ],
      [
        "iness",
        -10.41961643171377
      ],
      [
        "ĠThrough",
        -10.419683155081469
      ],
      [
        "Ġcentre",
        -10.420539830916685
      ],
      [
        "Safety",
        -10.421642291768537
      ],
      [
        "Ġtruth",
        -10.421942163468568
      ],
      [
        "Ġflying",
        -10.422005048062376
      ],
      [
        "Ġpolic",
        -10.422153058152618
      ],
      [
        "Ġmanufacturers",
        -10.42251144501092
      ],
      [
        "Ġpromoting",
        -10.422758405327109
      ],
      [
        "Ġbehaviour",
        -10.422865501301144
      ],
      [
        "Ġbough",
        -10.423300418682944
      ],
      [
        "Ġachiev",
        -10.423411107883684
      ],
      [
        "ĠOcean",
        -10.424778063467835
      ],
      [
        "Ġecological",
        -10.424812069048716
      ],
      [
        "Ġvector",
        -10.424876171125105
      ],
      [
        "ĠRead",
        -10.424981907051135
      ],
      [
        "Ġrating",
        -10.42599802408706
      ],
      [
        "Ġshoot",
        -10.426044790551265
      ],
      [
        "Ġfeather",
        -10.426974788962768
      ],
      [
        "Ġcampaign",
        -10.427889476761097
      ],
      [
        "AND",
        -10.428164283140257
      ],
      [
        "Ġconcerned",
        -10.428618907041283
      ],
      [
        "Ġpad",
        -10.429892189055735
      ],
      [
        "Ġbathroom",
        -10.429905779534876
      ],
      [
        "Ġlimitation",
        -10.43050247450385
      ],
      [
        "Ġintegrate",
        -10.430534878698154
      ],
      [
        "Ġsatellite",
        -10.430663776055493
      ],
      [
        "Keep",
        -10.4312228916555
      ],
      [
        "Ġcouldn",
        -10.431280018640328
      ],
      [
        "Ġsteam",
        -10.431538373865603
      ],
      [
        "Ġreverse",
        -10.432327408312489
      ],
      [
        "Ġcheckbook",
        -10.432529490999707
      ],
      [
        "Ġcomput",
        -10.43285961406698
      ],
      [
        "Ġtrick",
        -10.43371153849434
      ],
      [
        "ĠTwo",
        -10.43381719465336
      ],
      [
        "Ġsick",
        -10.435720673891256
      ],
      [
        "Ġuniform",
        -10.435862375532086
      ],
      [
        "you",
        -10.43627745282065
      ],
      [
        "Ġvet",
        -10.43657326017236
      ],
      [
        "Ġparallel",
        -10.437894090312394
      ],
      [
        "Ġappeal",
        -10.438176784334091
      ],
      [
        "Ġcards",
        -10.43835740840225
      ],
      [
        "Ġveterinarian",
        -10.438891120975548
      ],
      [
        "Ġbath",
        -10.439060971568084
      ],
      [
        "Ġremarkabl",
        -10.439600925693082
      ],
      [
        "ĠUp",
        -10.439960075340752
      ],
      [
        "Ġeffectiveness",
        -10.441022860923926
      ],
      [
        "Ġthanks",
        -10.44135459084313
      ],
      [
        "Ġmirror",
        -10.441812667166351
      ],
      [
        "rising",
        -10.441848470330957
      ],
      [
        "Ġreef",
        -10.4420940194585
      ],
      [
        "ĠInternet",
        -10.44225327227297
      ],
      [
        "Ġreached",
        -10.442449792337747
      ],
      [
        "Ġintense",
        -10.44252745618859
      ],
      [
        "Ġintroduction",
        -10.44273040657059
      ],
      [
        "Which",
        -10.444093802524948
      ],
      [
        "Ġhorses",
        -10.445195933804866
      ],
      [
        "ĠLong",
        -10.445589500168522
      ],
      [
        "Ġlense",
        -10.446805513784662
      ],
      [
        "Ġconsum",
        -10.447210270545956
      ],
      [
        "Ġresponsibility",
        -10.44813724951736
      ],
      [
        "Ġlitter",
        -10.448245629431906
      ],
      [
        "Ġprofile",
        -10.448384933766764
      ],
      [
        "particles",
        -10.449402278704614
      ],
      [
        "Ġstrip",
        -10.449718725067076
      ],
      [
        "Ġbridge",
        -10.449766875324553
      ],
      [
        "Ġprofit",
        -10.450022917174383
      ],
      [
        "men",
        -10.450443808868783
      ],
      [
        "Ġsky",
        -10.450825696190828
      ],
      [
        "Ġrear",
        -10.451814315981746
      ],
      [
        "ĠSun",
        -10.45224147689854
      ],
      [
        "Ġminor",
        -10.45260756565893
      ],
      [
        "Ġclassic",
        -10.4526624735133
      ],
      [
        "Ġbio",
        -10.452810184952256
      ],
      [
        "Ġtransformation",
        -10.453493495131193
      ],
      [
        "Ġcalls",
        -10.45409315573376
      ],
      [
        "Ġdrought",
        -10.454914455148462
      ],
      [
        "Be",
        -10.454981068720326
      ],
      [
        "Ġinstitution",
        -10.455423479707036
      ],
      [
        "but",
        -10.455844649291082
      ],
      [
        "Ġnovel",
        -10.456882727098556
      ],
      [
        "Ġexplains",
        -10.45774703856571
      ],
      [
        "ĠSometime",
        -10.45789395977572
      ],
      [
        "see",
        -10.458164343061837
      ],
      [
        "ĠChrist",
        -10.45847222766583
      ],
      [
        "Share",
        -10.45870101230238
      ],
      [
        "Ġdense",
        -10.459189918952726
      ],
      [
        "ĠFigure",
        -10.459613529577927
      ],
      [
        "ĠQ",
        -10.459715062203763
      ],
      [
        "Ġwings",
        -10.459783394119832
      ],
      [
        "Ġbeginner",
        -10.460233784415776
      ],
      [
        "Ġstruggle",
        -10.460264051655482
      ],
      [
        "ill",
        -10.460339190932514
      ],
      [
        "Ġnervous",
        -10.460376997449536
      ],
      [
        "ware",
        -10.460806492139127
      ],
      [
        "Ġheater",
        -10.46098207893386
      ],
      [
        "Ġfacilities",
        -10.46113443765323
      ],
      [
        "Ġease",
        -10.461580445021442
      ],
      [
        "Ġdrill",
        -10.461883109065257
      ],
      [
        "Ġfocuse",
        -10.461972179089468
      ],
      [
        "Ġdollar",
        -10.461975274924356
      ],
      [
        "Ġremoval",
        -10.462149154024264
      ],
      [
        "Ġcategory",
        -10.462889153663154
      ],
      [
        "Ġsuspect",
        -10.4633711275278
      ],
      [
        "Ġlifespan",
        -10.463424561137892
      ],
      [
        "Ġhimself",
        -10.46361301464453
      ],
      [
        "Ġrecording",
        -10.463634333017843
      ],
      [
        "Ġcharacterize",
        -10.463728498041116
      ],
      [
        "Ġconvenient",
        -10.464037175004693
      ],
      [
        "Ġtough",
        -10.465380320200602
      ],
      [
        "ĠPlease",
        -10.46569507383206
      ],
      [
        "Ġflexibl",
        -10.466585213822809
      ],
      [
        "Ġmoves",
        -10.466800055874
      ],
      [
        "Ġdistrict",
        -10.46716359929247
      ],
      [
        "Ġinter",
        -10.46759467583392
      ],
      [
        "Ġmiss",
        -10.467786702245752
      ],
      [
        "ĠDevelopment",
        -10.467821784320058
      ],
      [
        "Ġyes",
        -10.468258031274164
      ],
      [
        "Other",
        -10.470001538557211
      ],
      [
        "Ġturtle",
        -10.470044312861251
      ],
      [
        "Ġcombin",
        -10.470773808053677
      ],
      [
        "Ġgases",
        -10.471334395380271
      ],
      [
        "During",
        -10.471484031137592
      ],
      [
        "Ġhidden",
        -10.471508829726115
      ],
      [
        "J",
        -10.472235602485997
      ],
      [
        "Ġmicro",
        -10.472615749814649
      ],
      [
        "âĢ¦ĊĊ",
        -10.472910202941058
      ],
      [
        "Ġdetection",
        -10.47401321472974
      ],
      [
        "Ġtrends",
        -10.474253221508594
      ],
      [
        "ĠWhite",
        -10.475432069839886
      ],
      [
        "Ġbelong",
        -10.47547085111615
      ],
      [
        "ĠChange",
        -10.475955833750708
      ],
      [
        "Ġcontribut",
        -10.476991423433528
      ],
      [
        "Ġcolumn",
        -10.478889676645135
      ],
      [
        "ĠMr",
        -10.478921199819524
      ],
      [
        "Ġcategori",
        -10.478934326582102
      ],
      [
        "Ġsupplies",
        -10.47904196709798
      ],
      [
        "Ġbrief",
        -10.479206985483126
      ],
      [
        "Ġnames",
        -10.48021666507285
      ],
      [
        "Ġmilitary",
        -10.480289582011796
      ],
      [
        "Ġenables",
        -10.480725556688151
      ],
      [
        "Ġquote",
        -10.481045275034154
      ],
      [
        "Ġblind",
        -10.481093188323168
      ],
      [
        "Ġfascinating",
        -10.48233364051058
      ],
      [
        "-day",
        -10.482634915282288
      ],
      [
        "Ġ{",
        -10.4828901336726
      ],
      [
        "Ġwonderful",
        -10.482974545702106
      ],
      [
        "New",
        -10.483392089601756
      ],
      [
        "Ġfunctionalit",
        -10.483764196904504
      ],
      [
        "Ġperception",
        -10.483993724505844
      ],
      [
        "Ġride",
        -10.485356077701892
      ],
      [
        "Ġsyndrome",
        -10.485452076513027
      ],
      [
        "ĠHouse",
        -10.48655950037905
      ],
      [
        "Dr",
        -10.487239521480694
      ],
      [
        "Ġoptimize",
        -10.488066170957296
      ],
      [
        "Ġprecisi",
        -10.489285473245028
      ],
      [
        "ĠWeb",
        -10.489772614556813
      ],
      [
        "Ġfroze",
        -10.489872838519185
      ],
      [
        "Ġproven",
        -10.491867606282009
      ],
      [
        "being",
        -10.49265036579353
      ],
      [
        "Ġcure",
        -10.492881615867862
      ],
      [
        "ĠMexic",
        -10.493663463713329
      ],
      [
        "Ġyeast",
        -10.495110115137036
      ],
      [
        "ĠUSA",
        -10.495900794990568
      ],
      [
        "rich",
        -10.497029132047444
      ],
      [
        "Ġdetermin",
        -10.497363197862803
      ],
      [
        "Ġexcept",
        -10.497741157852552
      ],
      [
        "vailability",
        -10.498426036966189
      ],
      [
        "Ġcord",
        -10.499063834343652
      ],
      [
        "Where",
        -10.499896796991374
      ],
      [
        "Ġmelt",
        -10.4999603275012
      ],
      [
        "Ġdestroy",
        -10.500463705867023
      ],
      [
        "Every",
        -10.501109939304664
      ],
      [
        "Ġsuperior",
        -10.501789257057467
      ],
      [
        "Ġinfrastructure",
        -10.502152543724453
      ],
      [
        "Ġkm",
        -10.50217618202526
      ],
      [
        "Ġsnack",
        -10.502473713654574
      ],
      [
        "Because",
        -10.50335183185812
      ],
      [
        "Ġcavit",
        -10.50371320619136
      ],
      [
        "ĠLearn",
        -10.503735342736263
      ],
      [
        "Ġconnections",
        -10.50457200184417
      ],
      [
        "Ġboxe",
        -10.505108007726218
      ],
      [
        "Ġsediment",
        -10.505183625658322
      ],
      [
        "Ġdair",
        -10.505447305903475
      ],
      [
        "Ġseedling",
        -10.505589373249396
      ],
      [
        "Source",
        -10.505951548881317
      ],
      [
        "Ġautomatical",
        -10.50657923254058
      ],
      [
        "Ġspark",
        -10.506909448576629
      ],
      [
        "ĠUn",
        -10.507454357600244
      ],
      [
        "Ġsoap",
        -10.508236720732064
      ],
      [
        "ĠFinal",
        -10.508256733381948
      ],
      [
        "Ġknowing",
        -10.508943182045211
      ],
      [
        "Ġsynthetic",
        -10.50904423140734
      ],
      [
        "Ġproportion",
        -10.509172214836742
      ],
      [
        "Ġparty",
        -10.509556005497622
      ],
      [
        "Ġvessels",
        -10.509767055765078
      ],
      [
        "osis",
        -10.51005956053075
      ],
      [
        "Ġparasite",
        -10.510092800015784
      ],
      [
        "Ġduration",
[...]
