{
  "version": "1.0",
  "truncation": null,
  "padding": null,
  "added_tokens": [
    {
      "id": 0,
      "content": "<|bos|>",
      "single_word": false,
      "lstrip": false,
      "rstrip": false,
      "normalized": false,
      "special": true
    },
    {
      "id": 1,
      "content": "<|user_start|>",
      "single_word": false,
      "lstrip": false,
      "rstrip": false,
      "normalized": false,
      "special": true
    },
    {
      "id": 2,
      "content": "<|user_end|>",
      "single_word": false,
      "lstrip": false,
      "rstrip": false,
      "normalized": false,
      "special": true
    },
    {
      "id": 3,
      "content": "<|assistant_start|>",
      "single_word": false,
      "lstrip": false,
      "rstrip": false,
      "normalized": false,
      "special": true
    },
    {
      "id": 4,
      "content": "<|assistant_end|>",
      "single_word": false,
      "lstrip": false,
      "rstrip": false,
      "normalized": false,
      "special": true
    },
    {
      "id": 5,
      "content": "<|python_start|>",
      "single_word": false,
      "lstrip": false,
      "rstrip": false,
      "normalized": false,
      "special": true
    },
    {
      "id": 6,
      "content": "<|python_end|>",
      "single_word": false,
      "lstrip": false,
      "rstrip": false,
      "normalized": false,
      "special": true
    },
    {
      "id": 7,
      "content": "<|output_start|>",
      "single_word": false,
      "lstrip": false,
      "rstrip": false,
      "normalized": false,
      "special": true
    },
    {
      "id": 8,
      "content": "<|output_end|>",
      "single_word": false,
      "lstrip": false,
      "rstrip": false,
      "normalized": false,
      "special": true
    },
    {
      "id": 9,
      "content": "<|unk|>",
      "single_word": false,
      "lstrip": false,
      "rstrip": false,
      "normalized": false,
      "special": true
    }
  ],
  "normalizer": null,
  "pre_tokenizer": {
    "type": "Sequence",
    "pretokenizers": [
      {
        "type": "Split",
        "pattern": {
          "Regex": "'(?i:[sdmt]|ll|ve|re)|[^\\r\\n\\p{L}\\p{N}]?+\\p{L}+|\\p{N}{1,2}| ?[^\\s\\p{L}\\p{N}]++[\\r\\n]*|\\s*[\\r\\n]|\\s+(?!\\S)|\\s+"
        },
        "behavior": "Isolated",
        "invert": false
      },
      {
        "type": "ByteLevel",
        "add_prefix_space": false,
        "trim_offsets": true,
        "use_regex": false
      }
    ]
  },
  "post_processor": {
    "type": "TemplateProcessing",
    "single": [
      {
        "Sequence": {
          "id": "A",
          "type_id": 0
        }
      }
    ],
    "pair": [
      {
        "Sequence": {
          "id": "A",
          "type_id": 0
        }
      },
      {
        "Sequence": {
          "id": "B",
          "type_id": 1
        }
      }
    ],
    "special_tokens": {}
  },
  "decoder": null,
  "model": {
    "type": "Unigram",
    "unk_id": 9,
    "vocab": [
      [
        "<|bos|>",
        0.0
      ],
      [
        "<|user_start|>",
        0.0
      ],
      [
        "<|user_end|>",
        0.0
      ],
      [
        "<|assistant_start|>",
        0.0
      ],
      [
        "<|assistant_end|>",
        0.0
      ],
      [
        "<|python_start|>",
        0.0
      ],
      [
        "<|python_end|>",
        0.0
      ],
      [
        "<|output_start|>",
        0.0
      ],
      [
        "<|output_end|>",
        0.0
      ],
      [
        "<|unk|>",
        0.0
      ],
      [
        "s",
        -2.908107753310638
      ],
      [
        "Ġthe",
        -3.481426306359843
      ],
      [
        "Ġ",
        -3.541637479671575
      ],
      [
        ",",
        -3.5516482214213987
      ],
      [
        ".",
        -3.855992040020711
      ],
      [
        "Ġand",
        -4.038365495513421
      ],
      [
        "Ġto",
        -4.0593554782573875
      ],
      [
        "Ġof",
        -4.091746734283211
      ],
      [
        "Ġa",
        -4.165507772695975
      ],
      [
        "ing",
        -4.2731728115201495
      ],
      [
        "Ġin",
        -4.559187864678091
      ],
      [
        "e",
        -4.573903951706601
      ],
      [
        "Ġis",
        -4.699035256479247
      ],
      [
        "ed",
        -4.709134612383648
      ],
      [
        "d",
        -4.7977563541085
      ],
      [
        "t",
        -4.828257474577029
      ],
      [
        "y",
        -4.888138187323964
      ],
      [
        "'",
        -4.997385843261577
      ],
      [
        "Ġthat",
        -5.10321216895224
      ],
      [
        "ly",
        -5.107467978576242
      ],
      [
        "Ġfor",
        -5.1138986364622845
      ],
      [
        "0",
        -5.1561744405159295
      ],
      [
        ":",
        -5.313481982038201
      ],
      [
        "-",
        -5.318862861404389
      ],
      [
        "Ġare",
        -5.321806768961412
      ],
      [
        "1",
        -5.328170745771274
      ],
      [
        ".Ċ",
        -5.350353697683472
      ],
      [
        "Ġit",
        -5.381340542327621
      ],
      [
        "Ġyou",
        -5.391129552541418
      ],
      [
        "Ġwith",
        -5.411208399559941
      ],
      [
        "a",
        -5.4241119854719795
      ],
      [
        ".ĊĊ",
        -5.438918298944754
      ],
      [
        "Ċ",
        -5.446339456032851
      ],
      [
        "Ġbe",
        -5.451301985224619
      ],
      [
        "Ġon",
        -5.543537704489818
      ],
      [
        "Ġor",
        -5.547083342314945
      ],
      [
        "n",
        -5.55064337531728
      ],
      [
        "2",
        -5.561910208703017
      ],
      [
        "Ġcan",
        -5.586239051999417
      ],
      [
        "ĊĊ",
        -5.694385498902198
      ],
      [
        "Ġyour",
        -5.768295527701277
      ],
      [
        "o",
        -5.803310873900363
      ],
      [
        "i",
        -5.85303774289833
      ],
      [
        "Ġas",
        -5.876946068459441
      ],
      [
        "r",
        -5.882746876048747
      ],
      [
        "er",
        -5.897985108219855
      ],
      [
        "Ġ(",
        -5.909406635268612
      ],
      [
        "ĠI",
        -5.9236740848586305
      ],
      [
        "\"",
        -5.975198184447445
      ],
      [
        "Ġfrom",
        -5.977046776297762
      ],
      [
        "Ġhave",
        -5.977230452764873
      ],
      [
        "ĠThe",
        -5.9952175917889505
      ],
      [
        ")",
        -6.0540501199389585
      ],
      [
        "Ġby",
        -6.072101816500005
      ],
      [
        "Ġan",
        -6.095999883391013
      ],
      [
        "Ġthis",
        -6.133460595267689
      ],
      [
        "Ġnot",
        -6.1447652060209155
      ],
      [
        "3",
        -6.1549635554744455
      ],
      [
        "m",
        -6.173537101443202
      ],
      [
        "?",
        -6.204709708808792
      ],
      [
        "al",
        -6.233704600209334
      ],
      [
        "c",
        -6.24282616584895
      ],
      [
        "5",
        -6.251755065544611
      ],
      [
        "Ġat",
        -6.278243270103408
      ],
      [
        "Ġwill",
        -6.295520323781474
      ],
      [
        "l",
        -6.310138362768006
      ],
      [
        "Ġtheir",
        -6.317147180058219
      ],
      [
        "4",
        -6.403231024382984
      ],
      [
        "Ġmore",
        -6.430005141397697
      ],
      [
        "or",
        -6.445816365354785
      ],
      [
        "Ġthey",
        -6.447849458178247
      ],
      [
        "re",
        -6.470007590894133
      ],
      [
        "on",
        -6.474169674490222
      ],
      [
        "ies",
        -6.480703821226657
      ],
      [
        "ĠA",
        -6.490676098864828
      ],
      [
        "p",
        -6.509037983951382
      ],
      [
        "in",
        -6.511485947859956
      ],
      [
        "Ġwas",
        -6.518404734183818
      ],
      [
        "9",
        -6.5193328810051305
      ],
      [
        "The",
        -6.530911816153774
      ],
      [
        "Ġbut",
        -6.565494109532445
      ],
      [
        "g",
        -6.56989033354925
      ],
      [
        "Ġhas",
        -6.592174183352803
      ],
      [
        "Ġwe",
        -6.592389159277062
      ],
      [
        "Ġwhich",
        -6.607460395030595
      ],
      [
        "A",
        -6.617388680356353
      ],
      [
        "Ġother",
        -6.630763722034743
      ],
      [
        "Ġone",
        -6.659030626700924
      ],
      [
        "Ġalso",
        -6.666654342456907
      ],
      [
        "6",
        -6.671035705190329
      ],
      [
        "Question",
        -6.691909015900009
      ],
      [
        "Ġall",
        -6.710785917353416
      ],
      [
        "ĠAnswer",
        -6.723499746202597
      ],
      [
        "8",
        -6.727230263462484
      ],
      [
        "b",
        -6.731147928781507
      ],
      [
        "Ġlike",
        -6.754593894180676
      ],
      [
        "f",
        -6.758710222899728
      ],
      [
        "Ġabout",
        -6.76260537657952
      ],
      [
        "Ġdo",
        -6.787829057139643
      ],
      [
        "Ġwhen",
        -6.822956997451767
      ],
      [
        "7",
        -6.826097546593321
      ],
      [
        "Ġtime",
        -6.831248489045523
      ],
      [
        "Ġmay",
        -6.832572574662853
      ],
      [
        "Ġif",
        -6.840342945977577
      ],
      [
        "Ġup",
        -6.84817925178127
      ],
      [
        "ĠIt",
        -6.85506392848905
      ],
      [
        "Ġneed",
        -6.871008308097203
      ],
      [
        "Ġso",
        -6.871309098924005
      ],
      [
        "Ġuse",
        -6.887229144154661
      ],
      [
        "Ġthem",
        -6.888435499505679
      ],
      [
        "Ġinto",
        -6.89506403985931
      ],
      [
        "ĠS",
        -6.902842523503841
      ],
      [
        "ion",
        -6.922172249465165
      ],
      [
        "Ġsome",
        -6.92773637230237
      ],
      [
        "I",
        -6.931614648930511
      ],
      [
        "Ġhow",
        -6.943783737040942
      ],
      [
        "is",
        -6.952970893890086
      ],
      [
        "Ġout",
        -6.960548637840059
      ],
      [
        "ĠThis",
        -6.980711992917344
      ],
      [
        "Ġthan",
        -6.986518383130406
      ],
      [
        "able",
        -6.994608832544879
      ],
      [
        "ĠIn",
        -7.010747707547697
      ],
      [
        "u",
        -7.023958240769694
      ],
      [
        "ic",
        -7.024167479114521
      ],
      [
        "/",
        -7.027580824210359
      ],
      [
        "S",
        -7.028997598059622
      ],
      [
        "ĠWhat",
        -7.029429910528959
      ],
      [
        "le",
        -7.030674269307809
      ],
      [
        "Ġthese",
        -7.063084966194495
      ],
      [
        "ation",
        -7.07019752608185
      ],
      [
        "Ġget",
        -7.074515494952237
      ],
      [
        "Ġmake",
        -7.077141341831487
      ],
      [
        "Ġthere",
        -7.08514069387955
      ],
      [
        "h",
        -7.088640125881954
      ],
      [
        "Ġwater",
        -7.105523187617923
      ],
      [
        "ĠC",
        -7.126143379108859
      ],
      [
        "Ġwhat",
        -7.139255452156823
      ],
      [
        "Ġused",
        -7.142221540231651
      ],
      [
        "ĠB",
        -7.143841994090666
      ],
      [
        "Ġany",
        -7.146149412887182
      ],
      [
        "Ġmost",
        -7.162650357953165
      ],
      [
        "such",
        -7.169128498129668
      ],
      [
        "ce",
        -7.173979666096278
      ],
      [
        "an",
        -7.177328531031526
      ],
      [
        "Ġhelp",
        -7.191080638965115
      ],
      [
        "th",
        -7.197188849830978
      ],
      [
        "it",
        -7.19960511948312
      ],
      [
        "ity",
        -7.204584578877078
      ],
      [
        "Ġour",
        -7.205953337324894
      ],
      [
        "k",
        -7.213200222648123
      ],
      [
        "Ġshould",
        -7.236002705991014
      ],
      [
        "Ġpeople",
        -7.247137174307511
      ],
      [
        "Ġwere",
        -7.249946169075441
      ],
      [
        "Ġwho",
        -7.251480140590411
      ],
      [
        "Ġbeen",
        -7.252710082617169
      ],
      [
        "Ġover",
        -7.268488661899708
      ],
      [
        "Ġwould",
        -7.280860982111713
      ],
      [
        "Ġnew",
        -7.281321151092444
      ],
      [
        "Ġthrough",
        -7.299990455296021
      ],
      [
        "!",
        -7.311141073349958
      ],
      [
        "Ġwork",
        -7.324119355753165
      ],
      [
        "Ġjust",
        -7.327727876039907
      ],
      [
        "ve",
        -7.328048047099651
      ],
      [
        "ment",
        -7.329605299243958
      ],
      [
        "D",
        -7.330398766902281
      ],
      [
        "B",
        -7.338506328212139
      ],
      [
        "Ġmy",
        -7.343103962787843
      ],
      [
        ";",
        -7.3557709671549585
      ],
      [
        "ers",
        -7.360815272688372
      ],
      [
        "Ġonly",
        -7.3659718317782605
      ],
      [
        "Ġwell",
        -7.373636749568117
      ],
      [
        "C",
        -7.374505107852546
      ],
      [
        "?Ċ",
        -7.380927899418964
      ],
      [
        "Ġre",
        -7.396313316094908
      ],
      [
        "Ġmany",
        -7.40081558346176
      ],
      [
        "ll",
        -7.418338280951316
      ],
      [
        "Ġhigh",
        -7.432662517262232
      ],
      [
        "Ġno",
        -7.434619777430436
      ],
      [
        "Ġits",
        -7.435511202288868
      ],
      [
        "F",
        -7.437812048321421
      ],
      [
        "Ġlong",
        -7.441946954939683
      ],
      [
        "out",
        -7.443697172717194
      ],
      [
        "Ġtwo",
        -7.450883787925326
      ],
      [
        "Ġdifferent",
        -7.45737566885961
      ],
      [
        "ĠF",
        -7.464161873498069
      ],
      [
        "Ġfirst",
        -7.475224787225549
      ],
      [
        "age",
        -7.481524398765744
      ],
      [
        "Ġway",
        -7.484965148981342
      ],
      [
        "T",
        -7.486089184519663
      ],
      [
        "Ġwhere",
        -7.486455864612949
      ],
      [
        "us",
        -7.493136765640559
      ],
      [
        "Ġsee",
        -7.505249142791156
      ],
      [
        "ĠIf",
        -7.5196348988686434
      ],
      [
        "Ġcould",
        -7.523748664518175
      ],
      [
        "Ġtake",
        -7.525009056017371
      ],
      [
        "um",
        -7.527684819238306
      ],
      [
        "Ġknow",
        -7.534474937151828
      ],
      [
        "Ġprovide",
        -7.537163946553989
      ],
      [
        "Ġusing",
        -7.540361509892765
      ],
      [
        "ar",
        -7.541523238825844
      ],
      [
        "In",
        -7.543263658571732
      ],
      [
        "ch",
        -7.550595380843065
      ],
      [
        "Ġbetween",
        -7.5507919535401715
      ],
      [
        "v",
        -7.55129241745132
      ],
      [
        "P",
        -7.552022606249055
      ],
      [
        "ive",
        -7.553848982435101
      ],
      [
        "ever",
        -7.554478281351942
      ],
      [
        "Ġeven",
        -7.55868978760628
      ],
      [
        "Ġlook",
        -7.571620783425322
      ],
      [
        "Ġpart",
        -7.572804414204976
      ],
      [
        "Ġbecause",
        -7.573108806881189
      ],
      [
        "at",
        -7.576859733827851
      ],
      [
        "Ġhe",
        -7.588802792280557
      ],
      [
        "Ġhealth",
        -7.603858447722017
      ],
      [
        "Ġsystem",
        -7.605698770682059
      ],
      [
        "w",
        -7.6067282388822495
      ],
      [
        "Ġdog",
        -7.611512565616781
      ],
      [
        "li",
        -7.61353136632251
      ],
      [
        "Ġvery",
        -7.62417480563529
      ],
      [
        "ter",
        -7.627748958084748
      ],
      [
        "ĠHow",
        -7.630768814599136
      ],
      [
        "Ġchange",
        -7.634929531077036
      ],
      [
        "Ġde",
        -7.652453708563144
      ],
      [
        "Ġeach",
        -7.656432425288131
      ],
      [
        "Ġgood",
        -7.669641286057248
      ],
      [
        "M",
        -7.670231963390103
      ],
      [
        "ĠT",
        -7.671910718714084
      ],
      [
        "Ġwant",
        -7.679536874476705
      ],
      [
        "Ġimportant",
        -7.682093261237622
      ],
      [
        "ĠâĢĵ",
        -7.688138164319947
      ],
      [
        "ĠThey",
        -7.68827016317443
      ],
      [
        "ĠYou",
        -7.688289381949975
      ],
      [
        "Ġmuch",
        -7.688482935537399
      ],
      [
        "Ġdoes",
        -7.691205053480839
      ],
      [
        "Ġwh",
        -7.691405781632714
      ],
      [
        "ĠE",
        -7.694304311627056
      ],
      [
        "Ġhad",
        -7.694637341477952
      ],
      [
        "Ġfood",
        -7.694648515543838
      ],
      [
        "(",
        -7.697886310583945
      ],
      [
        "Ġun",
        -7.705399245165686
      ],
      [
        "ĠD",
        -7.709615774847872
      ],
      [
        "est",
        -7.711373268124306
      ],
      [
        "ur",
        -7.726923376080638
      ],
      [
        "Ġcause",
        -7.728273767221079
      ],
      [
        "ness",
        -7.72964318035778
      ],
      [
        "Ġdon",
        -7.732050674468317
      ],
      [
        "?ĊĊ",
        -7.734474657083067
      ],
      [
        "ĠP",
        -7.741359933166035
      ],
      [
        "Ġreal",
        -7.7449008677536595
      ],
      [
        "Ġhis",
        -7.758510459895477
      ],
      [
        "Ġdesign",
        -7.765806814418765
      ],
      [
        "Ġwhile",
        -7.7665303851267184
      ],
      [
        "Ġsmall",
        -7.766771143411073
      ],
      [
        "Ġevery",
        -7.768579197558765
      ],
      [
        "Ġafter",
        -7.775577473323334
      ],
      [
        "Ġresult",
        -7.776517417655939
      ],
      [
        "x",
        -7.7806465655366095
      ],
      [
        "Ġcreate",
        -7.783561336518614
      ],
      [
        "ate",
        -7.785296294502794
      ],
      [
        "Ġduring",
        -7.801475605809525
      ],
      [
        "ĠG",
        -7.802161258337674
      ],
      [
        "Ġme",
        -7.807261929792407
      ],
      [
        "il",
        -7.811859814472878
      ],
      [
        "Ġback",
        -7.817198805086214
      ],
      [
        "Ġyears",
        -7.819308504985201
      ],
      [
        "Ġbefore",
        -7.82028082236646
      ],
      [
        "Ġallow",
        -7.826076584473349
      ],
      [
        "Ġcome",
        -7.836553331163114
      ],
      [
        "âĢĻ",
        -7.839014874045307
      ],
      [
        "Ġprocess",
        -7.839780968174584
      ],
      [
        "Ġnumber",
        -7.840030244283762
      ],
      [
        "Ġfollow",
        -7.8467675952661775
      ],
      [
        "Ġlight",
        -7.856313459767612
      ],
      [
        "ĠTo",
        -7.856641990835399
      ],
      [
        "ĠM",
        -7.8566611114701885
      ],
      [
        "Ġbest",
        -7.857072196924519
      ],
      [
        "Ġplant",
        -7.860061830472844
      ],
      [
        "Ġbody",
        -7.860655523007176
      ],
      [
        "Ġhome",
        -7.863549757380014
      ],
      [
        "around",
        -7.86371701498914
      ],
      [
        "Ġsame",
        -7.865641346296813
      ],
      [
        "What",
        -7.86568104127179
      ],
      [
        "ul",
        -7.86602607716945
      ],
      [
        "Ġbeing",
        -7.866193914269055
      ],
      [
        ").",
        -7.866421804072376
      ],
      [
        "Ġworld",
        -7.87681790934858
      ],
      [
        "Ġlevel",
        -7.878397101767408
      ],
      [
        "Ġkeep",
        -7.883356968754657
      ],
      [
        "Ġoften",
        -7.883974004430208
      ],
      [
        "Ġfound",
        -7.884640307688188
      ],
      [
        "W",
        -7.892101705235907
      ],
      [
        "Ġright",
        -7.894045416498087
      ],
      [
        "Ġgo",
        -7.895062203061308
      ],
      [
        "ĠWe",
        -7.899816992183222
      ],
      [
        "Ġlife",
        -7.904177929540427
      ],
      [
        "G",
        -7.915570334468351
      ],
      [
        "Ġtho",
        -7.922784535920119
      ],
      [
        "L",
        -7.924901693193736
      ],
      [
        "Ġday",
        -7.926021153723758
      ],
      [
        "Ġinclude",
        -7.927625463076036
      ],
      [
        "Ġher",
        -7.929361134371573
      ],
      [
        "Ġexperience",
        -7.92989390414874
      ],
      [
        "Ġfind",
        -7.930818033723427
      ],
      [
        "Ġcommon",
        -7.936702789974494
      ],
      [
        "Ġmade",
        -7.9488597363739055
      ],
      [
        "Ġunder",
        -7.953872846383909
      ],
      [
        "Ġdown",
        -7.959012122359503
      ],
      [
        "Ġboth",
        -7.959615847040778
      ],
      [
        "E",
        -7.961567113861836
      ],
      [
        "ĠFor",
        -7.963625873168579
      ],
      [
        "ĠH",
        -7.964364622055259
      ],
      [
        "Ġyear",
        -7.966080290345295
      ],
      [
        "Ġstart",
        -7.970424939444982
      ],
      [
        "ne",
        -7.971864373904595
      ],
      [
        "Ġexample",
        -7.980668668075349
      ],
      [
        "and",
        -7.982041933918034
      ],
      [
        "Ġpower",
        -7.984170104159234
      ],
      [
        "ry",
        -7.9851700582162675
      ],
      [
        "Ġlarge",
        -7.985487988340447
      ],
      [
        "ary",
        -7.98854667093768
      ],
      [
        "Ġsaid",
        -7.994667411111142
      ],
      [
        "Ġmean",
        -8.003833123313948
      ],
      [
        "Ġdata",
        -8.009681321780466
      ],
      [
        "Ġair",
        -8.017256084769972
      ],
      [
        "Ġform",
        -8.023915289190406
      ],
      [
        "Ġplace",
        -8.024467346467882
      ],
      [
        "Ġstudents",
        -8.025159209765373
      ],
      [
        "Ġinformation",
        -8.026351485323872
      ],
      [
        "%",
        -8.026759070733991
      ],
      [
        "ĠRe",
        -8.032275572454088
      ],
      [
        "Ġthink",
        -8.033915457450503
      ],
      [
        "Ġmight",
        -8.036024659324408
      ],
      [
        "N",
        -8.0360532123304
      ],
      [
        "Ġenergy",
        -8.037320144300123
      ],
      [
        "Ġconsider",
        -8.043075180128596
      ],
      [
        "Ġmak",
        -8.043442888781696
      ],
      [
        ":Ċ",
        -8.045979763009871
      ],
      [
        "Ġsupport",
        -8.04877977482416
      ],
      [
        "How",
        -8.049153496925268
      ],
      [
        "ance",
        -8.049548126232068
      ],
      [
        "Ġb",
        -8.050385011831947
      ],
      [
        "Ġcar",
        -8.052062912340308
      ],
      [
        "Ġincrease",
        -8.05355410833862
      ],
      [
        "Ġspecies",
        -8.056438888141605
      ],
      [
        "Ġus",
        -8.05695371160265
      ],
      [
        "the",
        -8.057768719207155
      ],
      [
        "),",
        -8.059028823419347
      ],
      [
        "Ġshow",
        -8.065177086267568
      ],
      [
        "ĠO",
        -8.067210945193661
      ],
      [
        "ut",
        -8.069528888079082
      ],
      [
        "Ġend",
        -8.071262310764768
      ],
      [
        "ĠW",
        -8.073658436312305
      ],
      [
        "This",
        -8.07628479610787
      ],
      [
        "Ġpoint",
        -8.076581710684335
      ],
      [
        "im",
        -8.079876841437658
      ],
      [
        "Ġplants",
        -8.081783556410638
      ],
      [
        "co",
        -8.081894842396682
      ],
      [
        "Ġnow",
        -8.083918385478169
      ],
      [
        "Ġcolor",
        -8.08813637367632
      ],
      [
        "Ġown",
        -8.090054670397766
      ],
      [
        "ability",
        -8.094033413003864
      ],
      [
        "Ġresearch",
        -8.099382107887665
      ],
      [
        "ĠThese",
        -8.100915383678636
      ],
      [
        "Ġper",
        -8.103219089616836
      ],
      [
        "R",
        -8.10394858726345
      ],
      [
        "Ġlead",
        -8.106292925410019
      ],
      [
        "If",
        -8.109815347245657
      ],
      [
        "ĠN",
        -8.111572157010666
      ],
      [
        "Ġoff",
        -8.118508928776281
      ],
      [
        "Ġfew",
        -8.12049276928947
      ],
      [
        "be",
        -8.120803089254022
      ],
      [
        "Ġvalue",
        -8.122581848190055
      ],
      [
        "Ġdevelop",
        -8.123743827090689
      ],
      [
        "H",
        -8.124424181829704
      ],
      [
        "ent",
        -8.12467335013303
      ],
      [
        "Ġcase",
        -8.12846018497853
      ],
      [
        "Ġstudy",
        -8.129080414632885
      ],
      [
        "Ġless",
        -8.134732524463969
      ],
      [
        "Ġhuman",
        -8.13569688881871
      ],
      [
        "Ġgreat",
        -8.136206110145583
      ],
      [
        "am",
        -8.14032673431873
      ],
      [
        "V",
        -8.140373008164277
      ],
      [
        "Ġbetter",
        -8.1410820263883
      ],
      [
        "Ġstill",
        -8.1415539368497
      ],
      [
        "to",
        -8.14200559995805
      ],
      [
        "Ġset",
        -8.14332304082547
      ],
      [
        "ĠK",
        -8.144804851929173
      ],
      [
        "Ġissue",
        -8.14739261054812
      ],
      [
        "O",
        -8.14890823319405
      ],
      [
        "ĠR",
        -8.156708088099109
      ],
      [
        "ous",
        -8.16085205984187
      ],
      [
        "Ġprevent",
        -8.161605483994236
      ],
      [
        "Ġtype",
        -8.16291222715158
      ],
      [
        "Ġtemperature",
        -8.166620337463092
      ],
      [
        "Ġincluding",
        -8.168837035781507
      ],
      [
        "Ġtest",
        -8.171394652593392
      ],
      [
        "less",
        -8.174687979447988
      ],
      [
        "It",
        -8.177251287745687
      ],
      [
        "Ġnatural",
        -8.179587893914233
      ],
      [
        "Ġproject",
        -8.186447972593736
      ],
      [
        "Ġcontrol",
        -8.1873936131655
      ],
      [
        "Ġmain",
        -8.19298712348386
      ],
      [
        "un",
        -8.199024405233562
      ],
      [
        "Ġgive",
        -8.201390737075892
      ],
      [
        "ĠSo",
        -8.21105307826932
      ],
      [
        "ian",
        -8.213558164398265
      ],
      [
        "ĠL",
        -8.214831908894112
      ],
      [
        "Ġensure",
        -8.216338878067237
      ],
      [
        "Ġrisk",
        -8.216397110652697
      ],
      [
        "...",
        -8.224542079873622
      ],
      [
        "Ġchildren",
        -8.227677682695347
      ],
      [
        "Ġoffer",
        -8.228322876882238
      ],
      [
        "Ġpotential",
        -8.229435572681613
      ],
      [
        "Ġplay",
        -8.235170721623751
      ],
      [
        "Ġspace",
        -8.239286124031667
      ],
      [
        "Ġarea",
        -8.239891974723808
      ],
      [
        "Ġsure",
        -8.241485667856384
      ],
      [
        "ĠBut",
        -8.244991894578773
      ],
      [
        "Ġadd",
        -8.25198620613741
      ],
      [
        "Ġmust",
        -8.257406604832372
      ],
      [
        "ant",
        -8.25791441140457
      ],
      [
        "Ġgrow",
        -8.260648040165709
      ],
      [
        ":ĊĊ",
        -8.26471556059056
      ],
      [
        "Ġshe",
        -8.265165485883008
      ],
      [
        "ĠAnd",
        -8.265755907254663
      ],
      [
        "U",
        -8.266413892769137
      ],
      [
        "quality",
        -8.270499717335655
      ],
      [
        "Ġcost",
        -8.275400331089905
      ],
      [
        "Ġtoo",
        -8.277265277490795
      ],
      [
        "Ġheat",
        -8.277355765842902
      ],
      [
        "Ġthree",
        -8.277956100909343
      ],
      [
        "Ġmodel",
        -8.27796165969254
      ],
      [
        "Ġtry",
        -8.280079260972022
      ],
      [
        "ma",
        -8.282335576498383
      ],
      [
        "if",
        -8.283032052681488
      ],
      [
        "op",
        -8.28516173322679
      ],
      [
        "Ġname",
        -8.286057894452986
      ],
      [
        "Ġlearn",
        -8.289239219365566
      ],
      [
        "Ġcare",
        -8.29047651462137
      ],
      [
        "Ġthings",
        -8.297655669295256
      ],
      [
        "Ġcalled",
        -8.297982965891261
      ],
      [
        "Ġblood",
        -8.302819764264806
      ],
      [
        "Ġlot",
        -8.306242508645155
      ],
      [
        "ver",
        -8.309249133795198
      ],
      [
        "Ġdisease",
        -8.309617635815922
      ],
      [
        "Ġco",
        -8.309648142605127
      ],
      [
        "Ġcurrent",
        -8.310150255752148
      ],
      [
        "Ġlow",
        -8.316265633509317
      ],
      [
        "Ġsomething",
        -8.318278696162754
      ],
      [
        "z",
        -8.319022907597638
      ],
      [
        "Ġindividual",
        -8.324910722325788
      ],
      [
        "Ġenvironment",
        -8.325523395441422
      ],
      [
        "Ġtreatment",
        -8.326884000729212
      ],
      [
        "K",
        -8.331494075691866
      ],
      [
        "Ġperson",
        -8.335875914873359
      ],
      [
        "Ġline",
        -8.340574534004048
      ],
      [
        "Ġeat",
        -8.34214585485985
      ],
      [
        "ĠU",
        -8.343342626848425
      ],
      [
        "Ġdue",
        -8.352098731597756
      ],
      [
        "Ġwithin",
        -8.356285869996817
      ],
      [
        "ĠV",
        -8.35884678265985
      ],
      [
        "tic",
        -8.359908529357195
      ],
      [
        "Ġproduce",
        -8.36517053902714
      ],
      [
        "Ġpressure",
        -8.365570147473152
      ],
      [
        "Ġpossible",
        -8.366846677915571
      ],
      [
        "Ġeffective",
        -8.371072653905655
      ],
      [
        "known",
        -8.371750358981338
      ],
      [
        "Ġsoil",
        -8.372259737395922
      ],
      [
        "Ġanother",
        -8.372515524782163
      ],
      [
        "Ġcat",
        -8.372827046947801
      ],
      [
        "ĠWhen",
        -8.374476386544403
      ],
      [
        "Ġfactor",
        -8.376414789047558
      ],
      [
        "]",
        -8.376966790899036
      ],
      [
        "ally",
        -8.381385619963183
      ],
      [
        "Ġschool",
        -8.381624717424886
      ],
      [
        "Ġsecond",
        -8.38236311876539
      ],
      [
        "Ġhand",
        -8.382819475074662
      ],
      [
        "Ġorder",
        -8.385976526200714
      ],
      [
        "Ġcells",
        -8.387974159025884
      ],
      [
        "Ġfish",
        -8.391518512188002
      ],
      [
        "Ġrequire",
        -8.393413383052835
      ],
      [
        "Ġbecome",
        -8.395088522632573
      ],
      [
        "Ġreason",
        -8.396441234990377
      ],
      [
        "Ġlast",
        -8.397693217525656
      ],
      [
        "Ġhard",
        -8.399868510964662
      ],
      [
        "Ġrange",
        -8.402494235118425
      ],
      [
        "Ġfunction",
        -8.402775929779931
      ],
      [
        "Ġactual",
        -8.40500882301231
      ],
      [
        "Ġalway",
        -8.40656278482102
      ],
      [
        "Ġreduce",
        -8.407746455844908
      ],
      [
        "ated",
        -8.410188474730871
      ],
      [
        "Ġclose",
        -8.415133892479346
      ],
      [
        "Ġhere",
        -8.416288435170394
      ],
      [
        "Ġspecific",
        -8.416781856032415
      ],
      [
        "Ġleave",
        -8.421459316485064
      ],
      [
        "Ġimpact",
        -8.423521934871449
      ],
      [
        "Ġlearning",
        -8.430391809263188
      ],
      [
        "ical",
        -8.432943876430063
      ],
      [
        "Ġamount",
        -8.4337881251934
      ],
      [
        "ge",
        -8.434133195737715
      ],
      [
        "Ġstate",
        -8.438203525695915
      ],
      [
        "Ġsize",
        -8.441675760973041
      ],
      [
        "Ġsurface",
        -8.44441513331309
      ],
      [
        "Ġavailable",
        -8.446922799236718
      ],
      [
        "Ġgoing",
        -8.447663032348718
      ],
      [
        "Ġkey",
        -8.44927980391361
      ],
      [
        "Ġlittle",
        -8.44939377444074
      ],
      [
        "ence",
        -8.450138932544846
      ],
      [
        "ĠHe",
        -8.452801982831433
      ],
      [
        "Ġvarious",
        -8.453673229770907
      ],
      [
        "Ġsource",
        -8.456604007143866
      ],
      [
        "Ġaffect",
        -8.457296360676498
      ],
      [
        "ĠSt",
        -8.45736489097966
      ],
      [
        "Ġenough",
        -8.463696435381646
      ],
      [
        "ill",
        -8.463824921614071
      ],
      [
        "ĠBe",
        -8.463923869956485
      ],
      [
        "Ġcon",
        -8.464697530837348
      ],
      [
        "ĠThere",
        -8.46484656697581
      ],
      [
        "Ġcomplete",
        -8.465265042696737
      ],
      [
        "Ġproblem",
        -8.467776896800233
      ],
      [
        "me",
        -8.476582436448098
      ],
      [
        "line",
        -8.481661092347563
      ],
      [
        "Ġnon",
        -8.486192295335787
      ],
      [
        "Ġfeel",
        -8.490301256070806
      ],
      [
        "Ġusually",
        -8.495219087472908
      ],
      [
        "Ġoption",
        -8.495420377740993
      ],
      [
        "Ġdid",
        -8.496972250538326
      ],
      [
        "Ġside",
        -8.499408393286306
      ],
      [
        "Ġmanage",
        -8.500173401481693
      ],
      [
        "min",
        -8.502122475907413
      ],
      [
        "per",
        -8.50426034568892
      ],
      [
        "up",
        -8.511956458676373
      ],
      [
        "Ġpatient",
        -8.518715660767338
      ],
      [
        "Ġgarden",
        -8.520817071295514
      ],
      [
        ",\"",
        -8.521108950900018
      ],
      [
        "Ġareas",
        -8.526782076511456
      ],
      [
        "*",
        -8.527341492743046
      ],
      [
        "Ġdevice",
        -8.52927040302959
      ],
      [
        "Ġweight",
        -8.530080258912585
      ],
      [
        "Ġdevelopment",
        -8.530260919548645
      ],
      [
        "Ġchild",
        -8.536199768782767
      ],
      [
        "Ġseveral",
        -8.54245598158362
      ],
      [
        "Ġcell",
        -8.542567750503526
      ],
      [
        "Ġimprove",
        -8.54771095372178
      ],
      [
        "ĠAl",
        -8.548738126638941
      ],
      [
        "Ġtypes",
        -8.549947061801017
      ],
      [
        "Ġteam",
        -8.553188275483281
      ],
      [
        "Ġdamage",
        -8.556411225977678
      ],
      [
        "Ġtext",
        -8.556435079163457
      ],
      [
        "mp",
        -8.557166733335805
      ],
      [
        "Ġput",
        -8.55727557034568
      ],
      [
        "Ġsignificant",
        -8.557385001110816
      ],
      [
        "When",
        -8.55789131574521
      ],
      [
        "ish",
        -8.560884332355148
      ],
      [
        "ĠWhich",
        -8.561085191119675
      ],
      [
        "Ġpre",
        -8.56190574001961
      ],
      [
        "ial",
        -8.562814728304712
      ],
      [
        "Ġsafe",
        -8.566001244645339
      ],
      [
        "Ġessential",
        -8.566136047400569
      ],
      [
        "Ġlive",
        -8.567431971640342
      ],
      [
        "Ġshort",
        -8.567871157448726
      ],
      [
        "ling",
        -8.568757143643957
      ],
      [
        "ĠAs",
        -8.569236554209033
      ],
      [
        "Ġdiet",
        -8.571313238073596
      ],
      [
        "Ġterm",
        -8.571436509154303
      ],
      [
        "Ġopen",
        -8.571460053059523
      ],
      [
        "Ġcourse",
        -8.571657512488333
      ],
      [
        "Ġuser",
        -8.573969527302829
      ],
      [
        "Ġseem",
        -8.576218571448688
      ],
      [
        "Ġstructure",
        -8.579537953087913
      ],
      [
        "Ġpresent",
        -8.579997443369942
      ],
      [
        "ĠAn",
        -8.581470302541462
      ],
      [
        "having",
        -8.581552421477719
      ],
      [
        "Ġlocal",
        -8.58231724152848
      ],
      [
        "Ġhead",
        -8.582916164963583
      ],
      [
        "ĠSome",
        -8.58657679082939
      ],
      [
        "Ġunderstand",
        -8.587107427909359
      ],
      [
        "Ġconditions",
        -8.589495321616475
      ],
      [
        "Ġevent",
        -8.590323853628878
      ],
      [
        "man",
        -8.591249491644135
      ],
      [
        "Ġturn",
        -8.59256514086604
      ],
      [
        "Ġeye",
        -8.592624401783926
      ],
      [
        "Ġparticular",
        -8.593681254047127
      ],
      [
        "Ġhour",
        -8.595489211484189
      ],
      [
        "_",
        -8.596146252137709
      ],
      [
        "vi",
        -8.598013398313565
      ],
      [
        "Ġ&",
        -8.598359191529465
      ],
      [
        "Ġlet",
        -8.604368095821142
      ],
      [
        "We",
        -8.605874805257297
      ],
      [
        "Ġoil",
        -8.607479329968879
      ],
      [
        "Ġdifference",
        -8.611109776767137
      ],
      [
        "Ġproper",
        -8.61124059684507
      ],
      [
        "Ġgas",
        -8.615434158689004
      ],
      [
        "Ġcheck",
        -8.616638382620664
      ],
      [
        "Ġuntil",
        -8.61780357808314
      ],
      [
        "land",
        -8.61828911800249
      ],
      [
        "Ġfocus",
        -8.619193914836277
      ],
      [
        "Ġfree",
        -8.619908797701333
      ],
      [
        "Ġfield",
        -8.624748944616234
      ],
      [
        "Ġtechnology",
        -8.625058870157368
      ],
      [
        "Ġnext",
        -8.62539022088319
      ],
      [
        "Ġmove",
        -8.628654460965546
      ],
      [
        "Ġfull",
        -8.629059859925503
      ],
      [
        "âĢĶ",
        -8.629943622951096
      ],
      [
        "self",
        -8.630366584628264
      ],
      [
        "ful",
        -8.630375759988134
      ],
      [
        "Ġvariet",
        -8.631882825674861
      ],
      [
        "Ġrat",
        -8.637152156048609
      ],
      [
        "ten",
        -8.638196683322278
      ],
      [
        "Ġanimals",
        -8.638651736545576
      ],
      [
        "Ġaway",
        -8.640377345247103
      ],
      [
        "Ġfamily",
        -8.641167173463735
      ],
      [
        "Ġfuture",
        -8.641647742963428
      ],
      [
        "ĠDe",
        -8.642726766618026
      ],
      [
        "Ġsince",
        -8.643363312923046
      ],
      [
        "ru",
        -8.644189242717465
      ],
      [
        "Ġprotect",
        -8.644637233672142
      ],
      [
        "Ġmachine",
        -8.646045781492393
      ],
      [
        "Ġpaper",
        -8.646550434173832
      ],
      [
        "Ġmaterial",
        -8.647191561596621
      ],
      [
        "Ġloss",
        -8.648617009317938
      ],
      [
        "Ġlove",
        -8.650324564031772
      ],
      [
        "Ġinvolve",
        -8.652119207534124
      ],
      [
        "Ġmaintain",
        -8.652658564372814
      ],
      [
        "To",
        -8.657085448240544
      ],
      [
        "Ġgame",
        -8.657378815144117
      ],
      [
        "Ġmaterials",
        -8.659070553246526
      ],
      [
        "Ġpost",
        -8.659280988940314
      ],
      [
        "her",
        -8.660132510580768
      ],
      [
        "ĠThat",
        -8.660255515020623
      ],
      [
        "Y",
        -8.660946484687527
      ],
      [
        "Ġwide",
        -8.661361575512043
      ],
      [
        "Ġthing",
        -8.6641266586375
      ],
      [
        "Ġ$",
        -8.665118007631119
      ],
      [
        "Ġnecessar",
        -8.66516871867514
      ],
      [
        "Ġsimple",
        -8.66781893303816
      ],
      [
        "Ġtogether",
        -8.668758512379519
      ],
      [
        "Ġmethod",
        -8.66900668811077
      ],
      [
        "Ġsay",
        -8.669555884350377
      ],
      [
        "You",
        -8.670924839211148
      ],
      [
        "Ġred",
        -8.671987008269891
      ],
      [
        "Ġrun",
        -8.672172879090251
      ],
      [
        "Ġeasy",
        -8.67225462894508
      ],
      [
        "pe",
        -8.67346340933422
      ],
      [
        "Ġsystems",
        -8.673914322630015
      ],
      [
        "Ġtechnique",
        -8.674920532101613
      ],
      [
        "Ġgroup",
        -8.677729160567912
      ],
      [
        "Ġkind",
        -8.67859907006034
      ],
      [
        "Ġearly",
        -8.681310655062486
      ],
      [
        "Ġquick",
        -8.682998364499694
      ],
      [
        "Ġalong",
        -8.683136483648536
      ],
      [
        "Ġtop",
        -8.684616505510911
      ],
      [
        "Ġplan",
        -8.684947140484834
      ],
      [
        "Ġground",
        -8.685557428733691
      ],
      [
        "one",
        -8.690911122163897
      ],
      [
        "Ġvideo",
        -8.692040677721337
      ],
      [
        "Ġworking",
        -8.69440817957752
      ],
      [
        "Ġproducts",
        -8.69524749688128
      ],
      [
        "Ġdays",
        -8.696345166589554
      ],
      [
        "Ġrole",
        -8.696591418653044
      ],
      [
        "Ġtypical",
        -8.69702007115886
      ],
      [
        "ither",
        -8.69806855052083
      ],
      [
        "Ġdepend",
        -8.701580779302954
      ],
      [
        "Ġtreat",
        -8.70377782940232
      ],
      [
        "Ġgrowth",
        -8.705014064647251
      ],
      [
        "Ġaccess",
        -8.705314193129771
      ],
      [
        "Ġmeasure",
        -8.705939483368535
      ],
      [
        "ĠBy",
        -8.706607496209115
      ],
      [
        "Ġsocial",
        -8.706792323676996
      ],
      [
        "Ġfar",
        -8.706829622351655
      ],
      [
        "Ġproblems",
        -8.708767606918496
      ],
      [
        "Ġsafety",
        -8.708793615418823
      ],
      [
        "Ġcontain",
        -8.709609960509958
      ],
      [
        "Ġfact",
        -8.709960830933152
      ],
      [
        "Ġelectric",
        -8.713875581576307
      ],
      [
        "Ġlower",
        -8.716927532755713
      ],
      [
        "Ġgiven",
        -8.717679985658462
      ],
      [
        "stead",
        -8.718624424445409
      ],
      [
        "Ġ=",
        -8.71937728875361
      ],
      [
        "Ġdoesn",
        -8.720159080372149
      ],
      [
        "ĠNew",
        -8.720972587601816
      ],
      [
        "ĠWith",
        -8.72248485640994
      ],
      [
        "Ġphysical",
        -8.722697867301836
      ],
      [
        "Ġclean",
        -8.723060950693215
      ],
      [
        "Ġapplication",
        -8.726096611227218
      ],
      [
        "mm",
        -8.726463361836064
      ],
      [
        "Ġclear",
        -8.727042034576346
      ],
      [
        "Ġavoid",
        -8.727695952256553
      ],
      [
        "Ġfast",
        -8.731948204859844
      ],
      [
        "no",
        -8.73280120278001
      ],
      [
        "Ġage",
        -8.733102878326777
      ],
      [
        "Ġnever",
        -8.733154876787125
      ],
      [
        "Ġprogram",
        -8.733227022033791
      ],
      [
        "Ġsimilar",
        -8.733737008819809
      ],
      [
        "Ġstep",
        -8.733891144345325
      ],
      [
        "ized",
        -8.734214141925193
      ],
      [
        "Ġtraining",
        -8.735436997297958
      ],
      [
        "ĠUniversity",
        -8.736482163585734
      ],
      [
        "Ġbit",
        -8.736667780779403
      ],
      [
        "ether",
        -8.737266695633256
      ],
      [
        "There",
        -8.737631774136638
      ],
      [
        "ph",
        -8.740632809937956
      ],
      [
        "least",
        -8.746807862445493
      ],
      [
        "based",
        -8.747837809647386
      ],
      [
        "Ġold",
        -8.748409454527046
      ],
      [
        "Ġpro",
        -8.7522844241944
      ],
      [
        "ang",
        -8.753528127110572
      ],
      [
        "Ġmarket",
        -8.754660860668881
      ],
      [
        "Ġanswer",
        -8.754859931100707
      ],
      [
        "though",
        -8.755364370472833
      ],
      [
        "Ġsun",
        -8.756497184427616
      ],
      [
        "Ġstrong",
        -8.758515903049815
      ],
      [
        "Ġpropert",
        -8.759022928838458
      ],
      [
        "ping",
        -8.759110127338815
      ],
      [
        "Ġdone",
        -8.760168692481654
      ],
      [
        "Ġhigher",
        -8.760269087625293
      ],
      [
        "Ġcomponent",
        -8.762377441176584
      ],
      [
        "ok",
        -8.76273270427603
      ],
      [
        "Ġbuilding",
        -8.763169999039004
      ],
      [
        "Ġrate",
        -8.7639384792015
      ],
      [
        "Ġwhite",
        -8.764743069550363
      ],
      [
        "our",
        -8.764906446108377
      ],
      [
        "ha",
        -8.773340948231134
      ],
      [
        "Ġbook",
        -8.775067757750774
      ],
      [
        "ves",
        -8.776729952218709
      ],
      [
        "ating",
        -8.778155268786042
      ],
      [
        "Ġespecial",
        -8.782052365738204
      ],
      [
        "Ġperiod",
        -8.782365503829979
      ],
      [
        "side",
        -8.783361747198743
      ],
      [
        "Ġhealthy",
        -8.78370477636891
      ],
      [
        "ide",
        -8.784030823790442
      ],
      [
        "ke",
        -8.785000781830949
      ],
      [
        "Ġflow",
        -8.78579484443979
      ],
      [
        "Ġcall",
        -8.79015578708746
      ],
      [
        "ĠNo",
        -8.790561802646714
      ],
      [
        "!Ċ",
        -8.792518710213058
      ],
      [
        "Ġskin",
        -8.792814283561032
      ],
      [
        "Ġaccording",
        -8.794806425440026
      ],
      [
        "Ġarticle",
        -8.795569131996416
      ],
      [
        "ard",
        -8.795961945019915
      ],
      [
        "Ġabove",
        -8.797000325563708
      ],
      [
        "Ġunique",
        -8.797001248276313
      ],
      [
        "Ġinfection",
        -8.79702459076523
      ],
      [
        "Ġforce",
        -8.799332857108201
      ],
      [
        "Ġrecommend",
        -8.80017962069582
      ],
      [
        "Ġcertain",
        -8.802031233368881
      ],
      [
        ")ĊĊ",
        -8.805247210043808
      ],
      [
        "Ġcomputer",
        -8.805662065621615
      ],
      [
        "Ġbelieve",
        -8.808194746774358
      ],
      [
        "Ġauthor",
        -8.808427623417312
      ],
      [
        "For",
        -8.809709196472792
      ],
      [
        "Ġhim",
        -8.813338284346377
      ],
      [
        "Ġscience",
        -8.814162378101429
      ],
      [
        "against",
        -8.816099208101086
      ],
      [
        "ach",
        -8.816549519564692
      ],
      [
        "Ġlimit",
        -8.816704970711235
      ],
      [
        "Ġregion",
        -8.818289373077974
      ],
      [
        "ium",
        -8.822336092541573
      ],
      [
        "tra",
        -8.823204712646186
      ],
      [
        "Ġproduction",
        -8.823435107490916
      ],
      [
        "Ġmajor",
        -8.823518924452493
      ],
      [
        "Ġelement",
        -8.82351991189369
      ],
      [
        "ĠDo",
        -8.825041384318904
      ],
      [
        "end",
        -8.825702359983087
      ],
      [
        "ure",
        -8.826709681285793
      ],
      [
        ")Ċ",
        -8.827676387284416
      ],
      [
        "Ġdetail",
        -8.827775074765139
      ],
      [
        "Ġreach",
        -8.829033991264154
      ],
      [
        "Ġcomplex",
        -8.83078017090115
      ],
      [
        "Ġparent",
        -8.831254069618574
      ],
      [
        "Ġoccur",
        -8.831464689610709
      ],
      [
        "ĠYour",
        -8.831930353456382
      ],
      [
        "Ġweek",
        -8.833550504282844
      ],
      [
        "Ġdifficult",
        -8.835999375271246
      ],
      [
        "Ġdry",
        -8.836790379092351
      ],
      [
        "Ġexist",
        -8.838011720195126
      ],
      [
        "Ġobject",
        -8.839662763990813
      ],
      [
        "Ġitem",
        -8.84089640805426
      ],
      [
        "Ġfall",
        -8.84196445114058
      ],
      [
        "Ġbusiness",
        -8.842802061074728
      ],
      [
        "he",
        -8.843812838431877
      ],
      [
        "Ġnear",
        -8.843930733299816
      ],
      [
        "ative",
        -8.845649532964668
      ],
      [
        "Ġchoice",
        -8.846547648144055
      ],
      [
        "Ġ[",
        -8.848241114411955
      ],
      [
        "Ġdeep",
        -8.850232396764543
      ],
      [
        "Ġpopulation",
        -8.851841507943728
      ],
      [
        "Ġleft",
        -8.852638722684887
      ],
      [
        "Ġcut",
        -8.853150725126188
      ],
      [
        "Ġremove",
        -8.854697375783843
      ],
      [
        "ĠDr",
        -8.854870808272548
      ],
      [
        "Ġenjoy",
        -8.856084618268817
      ],
      [
        "Ġlist",
        -8.857063394645575
      ],
      [
        "Ġcontinue",
        -8.857474482963939
      ],
      [
        "Ġcover",
        -8.858056872975176
      ],
      [
        "Ġpublic",
        -8.858351935913142
      ],
      [
        "Ġclimate",
        -8.859293174190451
      ],
      [
        "Ġeffects",
        -8.860954904659671
      ],
      [
        "Ġcondition",
        -8.861588371999936
      ],
      [
        "Ġtimes",
        -8.861878926880248
      ],
      [
        "ĠRo",
        -8.862457884876047
      ],
      [
        "Ġlayer",
        -8.862468648387313
      ],
      [
        "Ġchemical",
        -8.862521818025701
      ],
      [
        "Ġpopular",
        -8.862536634890702
      ],
      [
        "Ġbasic",
        -8.862730185623706
      ],
      [
        "Ġspeed",
        -8.864759330961249
      ],
      [
        "ĠOn",
        -8.865136860222435
      ],
      [
        "Ġtask",
        -8.865175230170482
      ],
      [
        "Ġpain",
        -8.866199064186052
      ],
      [
        "Ġregular",
        -8.866821420261566
      ],
      [
        "Ġremain",
        -8.866839546200765
      ],
      [
        "Ġanimal",
        -8.867325920483271
      ],
      [
        "Ġpast",
        -8.868969300170576
      ],
      [
        "ture",
        -8.869714040579971
      ],
      [
        "Ġbehavior",
        -8.87006333770935
      ],
      [
        "thing",
        -8.870213102554043
      ],
      [
        "gan",
        -8.870748851845523
      ],
      [
        "Ġhouse",
        -8.871920817284273
      ],
      [
        "Ġwood",
        -8.872487353156277
      ],
      [
        "ell",
        -8.872660057305792
      ],
      [
        "ow",
        -8.873949778446406
      ],
      [
        "Ġpiece",
        -8.875700706822226
      ],
      [
        "Ġmakes",
        -8.877745033501387
      ],
      [
        "Ġtree",
        -8.878366451636872
      ],
      [
        "Ġbring",
        -8.879395821330505
      ],
      [
        "Ġstay",
        -8.879458946721808
      ],
      [
        "Ġaddition",
        -8.88485843269269
      ],
      [
        "Ġsingle",
        -8.88549993730203
      ],
      [
        "Ġcook",
        -8.885524068343365
      ],
      [
        "Ġcr",
        -8.88937906885829
      ],
      [
        "Ġfurther",
        -8.890173955017731
      ],
      [
        "ĠBo",
        -8.894321035371767
      ],
      [
        "Ġmatter",
        -8.89658018248266
      ],
      [
        "ĠCo",
        -8.89658139399322
      ],
      [
        "Ġdi",
        -8.897335349058713
      ],
      [
        "ism",
        -8.897539377388636
      ],
      [
        "Ġcontent",
        -8.89911754278502
      ],
      [
        "ug",
        -8.899423864678134
      ],
      [
        "Ġtoday",
        -8.903619511099535
      ],
      [
        "Ġmedical",
        -8.904220967057036
      ],
      [
        "Ġgreen",
        -8.904964967960233
      ],
      [
        "Ġsound",
        -8.90526031929534
      ],
      [
        "Ġsignal",
        -8.906579429757308
      ],
      [
        "Ġperformance",
        -8.907118699769494
      ],
      [
        "Ġeffect",
        -8.907554737521309
      ],
      [
        "Ġland",
        -8.909402548262761
      ],
      [
        "ble",
        -8.909717680287859
      ],
      [
        "Ġstore",
        -8.910391271679222
      ],
      [
        "Ġskills",
        -8.912870526895144
      ],
      [
        "que",
        -8.91405007644494
      ],
      [
        "ions",
        -8.9154198335901
      ],
      [
        "act",
        -8.91566723853217
      ],
      [
        "Ġface",
        -8.915829552246658
      ],
      [
        "Ġcommunity",
        -8.917594408944229
      ],
      [
        "ember",
        -8.917812514471628
      ],
      [
        "Ġspecial",
        -8.919737273791977
      ],
      [
        "J",
        -8.919803851715319
      ],
      [
        "tion",
        -8.92143364545369
      ],
      [
        "bi",
        -8.921810739515976
      ],
      [
        "ĠMo",
        -8.922420827725773
      ],
      [
        "across",
        -8.924464143919934
      ],
      [
        "Ġheart",
        -8.925103355088513
      ],
      [
        "ĠX",
        -8.925463762644842
      ],
      [
        "ize",
        -8.92582252414163
      ],
      [
        "Ġread",
        -8.92712644980292
      ],
      [
        "Ġstandard",
        -8.928103877288667
      ],
      [
        "Ġeducation",
        -8.928109347600461
      ],
      [
        "Ġbase",
        -8.928436431762798
      ],
      [
        "Ġnormal",
        -8.928775135622036
      ],
      [
        "Ġblock",
        -8.929252280442146
      ],
      [
        "con",
        -8.931720750076373
      ],
      [
        "Ġrecent",
        -8.933036054438663
      ],
      [
        "ĠJ",
        -8.934023750817865
      ],
      [
        "ng",
        -8.93582591712045
      ],
      [
        "Ġbrain",
        -8.936541271659767
      ],
      [
        "over",
        -8.938377421752293
      ],
      [
        "coming",
        -8.941787949469404
      ],
      [
        "wa",
        -8.94404139135559
      ],
      [
        "Ġconcern",
        -8.94421326480391
      ],
      [
        "Ġagain",
        -8.944459638292848
      ],
      [
        "Ġliv",
        -8.945049147115668
      ],
      [
        "ĠMan",
        -8.9452603747626
      ],
      [
        "ĠCon",
        -8.94666006000967
      ],
      [
        "Ġprovid",
        -8.947221655487631
      ],
      [
        "Ġassociate",
        -8.949779402961859
      ],
      [
        "Ġsymptom",
        -8.950060918200965
      ],
      [
        "Ġpet",
        -8.95051543730927
      ],
      [
        "Ġperfect",
        -8.950733574598964
      ],
      [
        "Ġshare",
        -8.95178977263873
      ],
      [
        "ĠLa",
        -8.952168316082393
      ],
      [
        "ship",
        -8.953641629843457
      ],
      [
        "Ġbenefits",
        -8.955213708027879
      ],
      [
        "ex",
        -8.955309811761829
      ],
      [
        "Ġfour",
        -8.955348284522021
      ],
      [
        "Ġhistory",
        -8.955947422176447
      ],
      [
        "ory",
        -8.956933714688226
      ],
      [
        "Ġtell",
        -8.958617773441123
      ],
      [
        "Ġproduct",
        -8.959613101506601
      ],
      [
        "ier",
        -8.960289441288857
      ],
      [
        "mer",
        -8.960631077728891
      ],
      [
        "Ġcorrect",
        -8.960687326698185
      ],
      [
        "Ġsolution",
        -8.961235681172845
      ],
      [
        "Ġwhole",
        -8.96132249903106
      ],
      [
        "Ġenvironmental",
        -8.961869772944755
      ],
      [
        "Ġactiviti",
        -8.96188549280679
      ],
      [
        ">",
        -8.962656351595097
      ],
      [
        "Ġview",
        -8.96327006936135
      ],
      [
        "Ġposition",
        -8.963725792790465
      ],
      [
        "ĠAmerican",
        -8.963767704691648
      ],
      [
        "Ġbattery",
        -8.964143741607367
      ],
      [
        "Ġsays",
        -8.964970844968034
      ],
      [
        "Ġpersonal",
        -8.965470025467996
      ],
      [
        "Ġquestion",
        -8.966907808283743
      ],
      [
        "Ġtravel",
        -8.967813113177904
      ],
      [
        "hi",
        -8.96833504907276
      ],
      [
        "Ġcold",
        -8.97112955157784
      ],
      [
        "Ġca",
        -8.972458399600796
      ],
      [
        ".\"Ċ",
        -8.973379433476284
      ],
      [
        "form",
        -8.973577872144796
      ],
      [
        "Ġwarm",
        -8.974687561176907
      ],
      [
        "Ġam",
        -8.974728439371859
      ],
      [
        "ect",
        -8.97587694761895
      ],
      [
        "light",
        -8.975959909653673
      ],
      [
        "refore",
        -8.977006226053575
      ],
      [
        "Ġlate",
        -8.977198390317486
      ],
      [
        "ities",
        -8.97834791126194
      ],
      [
        "Ġblack",
        -8.979826122553469
      ],
      [
        "Ġbreak",
        -8.979937222644221
      ],
      [
        "ight",
        -8.98110614060188
      ],
      [
        "Ġmillion",
        -8.981400403561082
      ],
      [
        "Ġstress",
        -8.982532228810673
      ],
      [
        "Ġmo",
        -8.983666208655528
      ],
      [
        "Ġindustry",
        -8.984670574722102
      ],
      [
        "Ġtalk",
        -8.985895392715548
      ],
      [
        "Ġdis",
        -8.986354279086527
      ],
      [
        "Ġgoal",
        -8.989336095777572
      ],
      [
        "Ġhelps",
        -8.990725586261249
      ],
      [
        "Ġmention",
        -8.991002276679556
      ],
      [
        "Ġprotein",
        -8.99117944639544
      ],
      [
        "ring",
        -8.993006992497222
      ],
      [
        "[",
        -8.993059058602626
      ],
      [
        "Ġexplain",
        -8.99320735131188
      ],
      [
        "So",
        -8.99355634828218
      ],
      [
        "âĢ¦",
        -8.994098475518236
      ],
      [
        "Ġprint",
        -8.995208815673431
      ],
      [
        "Ġbacteria",
        -8.99588040043216
      ],
      [
        "cy",
        -8.996119419563296
      ],
      [
        "Ġmind",
        -8.997023422383172
      ],
      [
        "Ġalread",
        -8.998210993903065
      ],
      [
        "Ġrequired",
        -8.999877193411812
      ],
      [
        "As",
        -9.000617086074186
      ],
      [
        "Ġsetting",
        -9.000851880032062
      ],
      [
        "Ġprofessional",
        -9.002693717434822
      ],
      [
        "Ġbuild",
        -9.003758337869048
      ],
      [
        "Ġseason",
        -9.004671364628166
      ],
      [
        "Ġamong",
        -9.00560304585936
      ],
      [
        "Ġunderstanding",
        -9.006890771885322
      ],
      [
        "ĠOne",
        -9.007457848881296
      ],
      [
        "ĠâĢĶ",
        -9.008857175977711
      ],
      [
        "Ġpurpose",
        -9.00938284921546
      ],
      [
        "Ġyoung",
        -9.010225968160228
      ],
      [
        "Ġidea",
        -9.010391730971897
      ],
      [
        "Ġcontact",
        -9.010504142927877
      ],
      [
        "Ġreport",
        -9.010554736021096
      ],
      [
        "Ġeasily",
        -9.011749159617311
      ],
      [
        "Ġpass",
        -9.013073131509788
      ],
      [
        "Ġaddress",
        -9.014257844226838
      ],
      [
        "ak",
        -9.015939157026596
      ],
      [
        "Ġthough",
        -9.015955049209415
      ],
      [
        "Ġslow",
        -9.018031332816388
      ],
      [
        "Ġwild",
        -9.019270030196498
      ],
      [
        "Ġsp",
        -9.023322855421323
      ],
      [
        "Ġapproach",
        -9.02388381976954
      ],
      [
        "let",
        -9.024041714918642
      ],
      [
        "Ġinside",
        -9.024663726812
      ],
      [
        "Ġtoward",
        -9.025625100703
      ],
      [
        "qui",
        -9.025721205770257
      ],
      [
        "Ġnetwork",
        -9.029397001639571
      ],
      [
        "Ġpositive",
        -9.030641420935972
      ],
      [
        "Ġact",
        -9.03129436102096
      ],
      [
        "Ġbig",
        -9.032751879431617
      ],
      [
        "Ġcompany",
        -9.034463293344352
      ],
      [
        "Ġsub",
        -9.035006628746697
      ],
      [
        "Ġlink",
        -9.035520314156823
      ],
      [
        "Ġopportunit",
        -9.035740194256288
      ],
      [
        "Ġetc",
        -9.036475776948656
      ],
      [
        "day",
        -9.038349909835064
      ],
      [
        "Ġresearcher",
        -9.038816515133394
      ],
      [
        "Ġknowledge",
        -9.039583519647564
      ],
      [
        "Ġselect",
        -9.04024289970386
      ],
      [
        "Ġonline",
        -9.041355851325356
      ],
      [
        "tro",
        -9.041847950651578
      ],
      [
        "Ġprobabl",
        -9.042175844135162
      ],
      [
        "Ġmoney",
        -9.042219704856691
      ],
      [
        "Ġdescribe",
        -9.042776481374828
      ],
      [
        "iz",
        -9.04489321400692
      ],
      [
        "Ġsleep",
        -9.04618522703353
      ],
      [
        "Ġgeneral",
        -9.046405719130776
      ],
      [
        "cu",
        -9.047282212907511
      ],
      [
        "Ġsomeone",
        -9.047575827527556
      ],
      [
        "Ġthought",
        -9.048664592248649
      ],
      [
        "Ġmix",
        -9.049986602208971
      ],
      [
        "Ġfeatures",
        -9.0505836006106
      ],
      [
        "âĢĵ",
        -9.050813892015764
      ],
      [
        "Ġshape",
        -9.051786606124008
      ],
      [
        "Ġsituation",
        -9.052493503134528
      ],
      [
        "Ġmuscle",
        -9.05249629323874
      ],
      [
        "Ġtarget",
        -9.052499915146004
      ],
      [
        "Ġsea",
        -9.052555044130546
      ],
      [
        "Ġhold",
        -9.05266398347245
      ],
      [
        "Ġmonths",
        -9.054321140479043
      ],
      [
        "Ġways",
        -9.054500285429777
      ],
      [
        "Ġgrowing",
        -9.056108698210409
      ],
      [
        "Ġdecision",
        -9.056399432871313
      ],
      [
        "Ġguide",
        -9.056927523517029
      ],
      [
        "ens",
        -9.057080552625475
      ],
      [
        "pl",
        -9.060662452306506
      ],
      [
        "Ġfruit",
        -9.06078818843517
      ],
      [
        "Ġappear",
        -9.061378783748657
      ],
      [
        "ization",
        -9.061461183395656
      ],
      [
        "Ġsection",
        -9.061663270506362
      ],
      [
        "Re",
        -9.063874620653852
      ],
      [
        "Ġentire",
        -9.065577537720529
      ],
      [
        "Ġtaking",
        -9.065783631379055
      ],
      [
        "ven",
        -9.066265124053832
      ],
      [
        "Ġwall",
        -9.06781980095468
      ],
      [
        "Ġman",
        -9.068146442870717
      ],
      [
        "fer",
        -9.069501379563167
      ],
      [
        "-based",
        -9.07237203273371
      ],
      [
        "Ġlocation",
        -9.073513507330087
      ],
      [
        "ĠPro",
        -9.074792095721111
      ],
      [
        "Ġcrucial",
        -9.076162926560883
      ],
      [
        "Ġhalf",
        -9.076185424777506
      ],
      [
        "Ġdoing",
        -9.076363117930253
      ],
      [
        "Q",
        -9.077036319713722
      ],
      [
        "iv",
        -9.078237760316648
      ],
      [
        "Ġtool",
        -9.080573065352706
      ],
      [
        "den",
        -9.082691019451168
      ],
      [
        "Ġbuy",
        -9.08269462648057
      ],
      [
        "Ġyourself",
        -9.08510128646235
      ],
      [
        "Ġroom",
        -9.08521836115963
      ],
      [
        "Ġrule",
        -9.087165604013231
      ],
      [
        "ign",
        -9.088860943455234
      ],
      [
        "Ġself",
        -9.089602270492332
      ],
      [
        "Ġpractice",
        -9.091710918880024
      ],
      [
        "Ġkill",
        -9.091814059785314
      ],
      [
        "Ġtable",
        -9.094637997578022
      ],
      [
        "Ġpo",
        -9.094941533259991
      ],
      [
        "Ġtraditional",
        -9.096278679910696
      ],
      [
        "Ġplastic",
        -9.096502616145028
      ],
      [
        "quite",
        -9.096527484280708
      ],
      [
        "ĠAt",
        -9.097228392079984
      ],
      [
        "Ġstor",
        -9.097589074804166
      ],
      [
        "Ġdegree",
        -9.097683664280876
      ],
      [
        "Ġsugar",
        -9.09770280727724
      ],
      [
        "Ġminutes",
        -9.098181780217296
      ],
      [
        "Ġbone",
        -9.10124433631156
      ],
      [
        "Ġprice",
        -9.101310856566863
      ],
      [
        "ĠMa",
        -9.10226546198119
      ],
      [
        "Ġservice",
        -9.102845811402876
      ],
      [
        "ĠRa",
        -9.102979491733937
      ],
      [
        "Ġpatients",
        -9.104219739471375
      ],
      [
        "Ġeffort",
        -9.10450499826931
      ],
      [
        "Ġcancer",
        -9.106194842576338
      ],
      [
        "Ġsense",
        -9.106470118293409
      ],
      [
        "Ġlanguage",
        -9.10862010691898
      ],
      [
        "Ġwalk",
        -9.108888612108734
      ],
      [
        "Ġart",
        -9.110134074403335
      ],
      [
        "Ġrelease",
        -9.110904625259746
      ],
      [
        "Ġkid",
        -9.111543237331858
      ],
      [
        "for",
        -9.113723145709995
      ],
      [
        "ible",
        -9.114068518806622
      ],
      [
        "Ġenhance",
        -9.11624505395968
      ],
      [
        "Ġcool",
        -9.116310899509228
      ],
      [
        "Ġactive",
        -9.117884665001668
      ],
      [
        "ho",
        -9.1181986846541
      ],
      [
        "Ġdetermine",
        -9.118583923278893
      ],
      [
        "ĠAll",
        -9.119298791172868
      ],
      [
        "Ġclass",
        -9.119455131221962
      ],
      [
        "Ġaverage",
        -9.121088127180226
      ],
      [
        "ĠCan",
        -9.123069089203502
      ],
      [
        "Ġeyes",
        -9.123198598978686
      ],
      [
        "ĠSp",
        -9.123231110798766
      ],
      [
        "Ġcharge",
        -9.124067560978284
      ],
      [
        "Ġprimar",
        -9.125234593522372
      ],
      [
        "ĠAI",
        -9.125777868530498
      ],
      [
        "Al",
        -9.125915578573778
      ],
      [
        "Ġreceive",
        -9.126034368988073
      ],
      [
        "Ġbird",
        -9.127813743278876
      ],
      [
        "Ġmethods",
        -9.128890688821034
      ],
      [
        "Ġreading",
        -9.12998164983923
      ],
      [
        "br",
        -9.130797753776829
      ],
      [
        "Ġvehicle",
        -9.130858686639913
      ],
      [
        "Ġstudent",
        -9.131113797948869
      ],
      [
        "Ġaction",
        -9.132260107751977
      ],
      [
        "Ġchoose",
        -9.133086952535466
      ],
      [
        "ĠUnit",
        -9.136229397188789
      ],
      [
        "ĠMe",
        -9.137307792241732
      ],
      [
        "below",
        -9.137950132418617
      ],
      [
        "we",
        -9.138114403736132
      ],
      [
        "Ġhot",
        -9.138319305802376
      ],
      [
        "Ġgot",
        -9.139092175810973
      ],
      [
        "Ġlarger",
        -9.13958594173656
      ],
      [
        "Ġquestions",
        -9.140403316067289
      ],
      [
        "Ġactivity",
        -9.14081778686075
      ],
      [
        "Ġwinter",
        -9.142376521266542
      ],
      [
        "Ġserve",
        -9.142833801008996
      ],
      [
        "Ġapply",
        -9.144136418397936
      ],
      [
        "Ġoutside",
        -9.146528240712431
      ],
      [
        "ĠBa",
        -9.14704251268255
      ],
      [
        "Ġwomen",
        -9.147894052022506
      ],
      [
        "Ġcreating",
        -9.1479877246332
      ],
      [
        "Ġexercise",
        -9.150185165063114
      ],
      [
        "Ġgain",
        -9.151540005984447
      ],
      [
        "From",
        -9.151869695584416
      ],
      [
        "Ġdiscuss",
        -9.151906415417397
      ],
      [
        "ice",
        -9.151909974103487
      ],
      [
        "Ġsimply",
        -9.152166400606651
      ],
      [
        "Ġfront",
        -9.15237260743386
      ],
      [
        "where",
        -9.152463125895808
      ],
      [
        "ack",
        -9.152648156932504
      ],
      [
        "Ġpay",
        -9.154058127068229
      ],
      [
        "Ġoverall",
        -9.154180948122931
      ],
      [
        "Ġrest",
        -9.154558641041174
      ],
      [
        "by",
        -9.15532931732626
      ],
      [
        "Ġtotal",
        -9.15558960999084
      ],
      [
        "Ġpercent",
        -9.15905505513352
      ],
      [
        "Ġwon",
        -9.159093440839252
      ],
      [
        "Ġfeet",
        -9.16230382136118
      ],
      [
        "Ġresources",
        -9.163620146050976
      ],
      [
        "way",
        -9.163627559466828
      ],
      [
        "Ġnature",
        -9.165173394640693
      ],
      [
        "Ġask",
        -9.165214392609888
      ],
      [
        "Ġsolar",
        -9.165715650207009
      ],
      [
        "Ġsuggest",
        -9.167583912400987
      ],
      [
        "Ġconnect",
        -9.168430136802264
      ],
      [
        "Ġwaste",
        -9.170901379862904
      ],
      [
        "Ġfuel",
        -9.171052477187114
      ],
      [
        "Ġresponse",
        -9.172471568525625
      ],
      [
        "Ġexpert",
        -9.17393972605086
      ],
      [
        "j",
        -9.174877843400925
      ],
      [
        "ĠLi",
        -9.17506667057826
      ],
      [
        "aking",
        -9.175901711963714
      ],
      [
        "Ġsubject",
        -9.176900396812943
      ],
      [
        "Ġnight",
        -9.177012706355402
      ],
      [
        "cal",
        -9.17746680132342
      ],
      [
        "uc",
        -9.178731803726508
      ],
      [
        "Ġidentify",
        -9.179824544903958
      ],
      [
        "Ġtaken",
        -9.18093722063346
      ],
      [
        "air",
        -9.18283181660955
      ],
      [
        "Ġservices",
        -9.182849729834851
      ],
      [
        "Ġextra",
        -9.18296069228795
      ],
      [
        "Ġdark",
        -9.18370555251433
      ],
      [
        "Ġjob",
        -9.184555024091178
      ],
      [
        "Ġbegin",
        -9.185172651377991
      ],
      [
        "Ġex",
        -9.18685003912611
      ],
      [
        "Ġsometime",
        -9.18726971392102
      ],
      [
        "ĠY",
        -9.187558745051732
      ],
      [
        "Ġmetal",
        -9.188616550815356
      ],
      [
        "Ġtissue",
        -9.18872007747744
      ],
      [
        "Ġteeth",
        -9.188720309855642
      ],
      [
        "Ġtools",
        -9.188856186684562
      ],
      [
        "ca",
        -9.188881008094953
      ],
      [
        "Ġlength",
        -9.190139388793533
      ],
      [
        "Ġvi",
        -9.190147424972444
      ],
      [
        "Ġcarbon",
        -9.190479002700652
      ],
      [
        "Ġadditional",
        -9.195353111446533
      ],
      [
        "Ġexperiment",
        -9.195529541056532
      ],
      [
        "ner",
        -9.195774305555917
      ],
      [
        "Ġinjur",
        -9.196399557599175
      ],
      [
        "Ġimage",
        -9.196680339805813
      ],
      [
        "ĠOr",
        -9.198840808553252
      ],
      [
        "Ġstop",
        -9.198969109115096
      ],
      [
        "Ġtrack",
        -9.1992919851695
      ],
      [
        "Ġattention",
        -9.200046652100824
      ],
      [
        "Ġweather",
        -9.2001789081866
      ],
      [
        "Ġrelated",
        -9.200309894672705
      ],
      [
        "Ġsummer",
        -9.200748647830656
      ],
      [
        "Ġstage",
        -9.20086963064573
      ],
      [
        "ĠNorth",
        -9.201066139817964
      ],
      [
        "use",
        -9.202216600470363
      ],
      [
        "Ġfun",
        -9.203001872134376
      ],
      [
        "Ġvegetable",
        -9.203724113558811
      ],
      [
        "Ġadult",
        -9.206758047597331
      ],
      [
        "Ġhappen",
        -9.209665914488788
      ],
      [
        ".\"",
        -9.210345267111684
      ],
      [
        "ub",
        -9.21127196945698
      ],
      [
        "ĠLe",
        -9.211383820763258
      ],
      [
        "Ġbalance",
        -9.211933323141425
      ],
      [
        "Ġmeat",
        -9.212018476390794
      ],
      [
        "Ġcustomer",
        -9.21263313056668
      ],
      [
        "go",
        -9.214470900412206
      ],
      [
        "Ġmental",
        -9.215269218074962
      ],
      [
        "Ġthread",
        -9.21590508405097
      ],
      [
        "tri",
        -9.215970599903097
      ],
      [
        ").Ċ",
        -9.217560825653532
      ],
      [
        "Ġanything",
        -9.218657658119106
      ],
      [
        "Ġbirds",
        -9.219247003859074
      ],
      [
        "ĠHere",
        -9.219277291243037
      ],
      [
        "ĠUse",
        -9.220527276680304
      ],
      [
        "Ġrelationship",
        -9.220534763968171
      ],
      [
        "Ġperform",
        -9.220711735761473
      ],
      [
        "low",
        -9.222053382399109
      ],
      [
        "Ġsoftware",
        -9.22230167478934
      ],
      [
        "Ġmovement",
        -9.2232231708948
      ],
      [
        "ĠWhil",
        -9.223268646398484
      ],
      [
        "Ġdrink",
        -9.223572827262045
      ],
      [
        "bility",
        -9.224033907099164
      ],
      [
        "ious",
        -9.22409112972436
      ],
      [
        "Ġtrees",
        -9.224171606982196
      ],
      [
        "Ġrepresent",
        -9.22577449858127
      ],
      [
        "Ġrelative",
        -9.229834227314583
      ],
      [
        "ĠMi",
        -9.2311435219206
      ],
      [
        "Ġefficient",
        -9.23131205816082
      ],
      [
        "Ġalmost",
        -9.231384918740655
      ],
      [
        "ĠCar",
        -9.232091790468896
      ],
      [
        "\"ĊĊ",
        -9.234070858770234
      ],
      [
        "Ġacid",
        -9.23407479424354
      ],
      [
        "Ġdaily",
        -9.235986799130586
      ],
      [
        "ile",
        -9.236322934240352
      ],
      [
        "Ġprevious",
        -9.239112615619456
      ],
      [
        "Ġdeliver",
        -9.239113201640375
      ],
      [
        "ĠShe",
        -9.239494190529182
      ],
      [
        "Ġfit",
        -9.239774552392632
      ],
      [
        "Ġvisit",
        -9.240760251379962
      ],
      [
        "Ġexact",
        -9.240825283960245
      ],
      [
        "Ġhorse",
        -9.243823143919506
      ],
      [
        "Ġunit",
        -9.2457089937608
      ],
      [
        "Ġever",
        -9.245965962629649
      ],
      [
        "ĠScience",
        -9.246975077925937
      ],
      [
        "pro",
        -9.24699144910536
      ],
      [
        "yet",
        -9.247793216207633
      ],
      [
        "Ġstyle",
        -9.247831787754922
      ],
      [
        "Ġsuccessful",
        -9.248292637660876
      ],
      [
        "Ġseeds",
        -9.24957670375954
      ],
      [
        "care",
        -9.249769711581408
      ],
      [
        "Ġrunn",
        -9.249819838298205
      ],
      [
        "Ġdrive",
        -9.249957715821727
      ],
      [
        "Ġeasie",
        -9.250170838922374
      ],
      [
        "Ġfire",
        -9.250759865318482
      ],
      [
        "Ġfix",
        -9.251869032686493
      ],
      [
        "Ġlater",
        -9.252894080483774
      ],
      [
        "und",
        -9.253666146549124
      ],
      [
        "Ġbar",
        -9.253716630264998
      ],
      [
        "Ġal",
        -9.253868557386731
      ],
      [
        "ki",
        -9.254488851591642
      ],
      [
        "work",
        -9.254680806757223
      ],
      [
        "ler",
        -9.254732592401686
      ],
      [
        "Ġextreme",
        -9.25489805447974
      ],
      [
        "Ġstudies",
        -9.255695294927078
      ],
      [
        "One",
        -9.25693070845071
      ],
      [
        "Ġmass",
        -9.256962124018584
      ],
      [
        "Why",
        -9.25790039139142
      ],
      [
        "Ġreview",
        -9.258343901397597
      ],
      [
        "Ġspread",
        -9.258360879125924
      ],
      [
        "Ġdigital",
        -9.258444936398526
      ],
      [
        "ze",
        -9.258496597300054
      ],
      [
        "Ġma",
        -9.260411577266296
      ],
      [
        "Ġstarted",
        -9.26089991746355
      ],
      [
        "Ġfemale",
        -9.26128300176501
      ],
      [
        "of",
        -9.26472485285126
      ],
      [
        "ER",
        -9.264856068168314
      ],
      [
        "Ġhumans",
        -9.268025468789835
      ],
      [
        "Ġpi",
        -9.26861641454164
      ],
      [
        "Ġsite",
        -9.26905316897475
      ],
      [
        "Ġaccount",
        -9.26933006167393
      ],
      [
        "Ġfat",
        -9.269536388337883
      ],
      [
        "Ġincreasing",
        -9.270936884987911
      ],
      [
        "Ġdirection",
        -9.274056836836186
      ],
      [
        "Ġengine",
        -9.27444448580032
      ],
      [
        "Ġfile",
        -9.27506962395614
      ],
      [
        "Ġgenerally",
        -9.275315662667648
      ],
      [
        "Ġfriend",
        -9.275634179979669
      ],
      [
        "Ġj",
        -9.2785613339268
      ],
      [
        "Ġorganization",
        -9.27913866798012
      ],
      [
        "Ġmultiple",
        -9.280688212852851
      ],
      [
        "Ġwait",
        -9.28072162673201
      ],
      [
        "-to",
        -9.282184566639168
      ],
      [
        "Ġadvantage",
        -9.28281557573894
      ],
      [
        "ĠNational",
        -9.282957032943315
      ],
      [
        "Ġcountry",
        -9.28385639508451
      ],
      [
        "Ġengineer",
        -9.284952645946554
      ],
      [
        "Ġregard",
        -9.285601337640893
      ],
      [
        "lin",
        -9.2857778272632
      ],
      [
        "Ġflavor",
        -9.287237267568775
      ],
      [
        "Ġthemsel",
        -9.28753146299684
      ],
      [
        "pp",
        -9.287615809596389
      ],
      [
        "rac",
        -9.287715714766325
      ],
      [
        "Ġbad",
        -9.290307749925422
      ],
      [
        "Ġfine",
        -9.290551165528488
      ],
      [
        "Ġexplore",
        -9.290712300580642
      ],
      [
        "ck",
        -9.291425145925423
      ],
      [
        "Ġgenetic",
        -9.2927333789044
      ],
      [
        "Ġinter",
        -9.293527182714588
      ],
      [
        "Ġfinal",
        -9.29365751969674
      ],
      [
        "Ġice",
        -9.294502491822149
      ],
      [
        "Ġoriginal",
        -9.294704878406264
      ],
      [
        "Ġnutrient",
        -9.295488044388993
      ],
      [
        "Ġtri",
        -9.297805450736025
      ],
      [
        "Ġw",
        -9.298313410141564
      ],
      [
        "Ġanti",
        -9.298324618271694
      ],
      [
        "ĠCa",
        -9.298817070684224
      ],
      [
        "Ġcrop",
        -9.304343347385885
      ],
      [
        "Ġdirectly",
        -9.304732216200254
      ],
      [
        "Ġfeed",
        -9.304973346694936
      ],
      [
        "Ġdeal",
        -9.3050166441256
      ],
      [
        "Ġchance",
        -9.30553513032881
      ],
      [
        "ail",
        -9.30575369945388
      ],
      [
        "ster",
        -9.306878667192574
      ],
      [
        "Ġconnection",
        -9.307720951701857
      ],
      [
        "Ġinterest",
        -9.308033584876078
      ],
      [
        "ĠâĢľ",
        -9.308347242046825
      ],
      [
        "cannot",
        -9.30847725922518
      ],
      [
        "Ġtopic",
        -9.308479581922356
      ],
      [
        "Ġwords",
        -9.308917108443596
      ],
      [
        "Ġglobal",
        -9.310513508143938
      ],
      [
        "ese",
        -9.31127349182849
      ],
      [
        "Ġnegative",
        -9.312197011165235
      ],
      [
        "Ġfill",
        -9.312307772663637
      ],
      [
        "Ġcommunication",
        -9.312318163551584
      ],
      [
        "ose",
        -9.312327224165903
      ],
      [
        "Ġfinding",
        -9.313846542801876
      ],
      [
        "ecause",
        -9.3152514162377
      ],
      [
        "Ġfarm",
        -9.315487151581667
      ],
      [
        "Ġtrue",
        -9.316057825315806
      ],
      [
        "qua",
        -9.316239036875032
      ],
      [
        "Ġbag",
        -9.316399641255629
      ],
      [
        "Ġcenter",
        -9.317532833354324
      ],
      [
        "But",
        -9.320638496591949
      ],
      [
        "Â°",
        -9.322367043780638
      ],
      [
        "Ġfive",
        -9.322762106124054
      ],
      [
        "Ġscientists",
        -9.324621591458309
      ],
      [
        "Ġappropriate",
        -9.325353121584484
      ],
      [
        "ick",
        -9.325537861203529
      ],
      [
        "Ġpick",
        -9.325913232486476
      ],
      [
        "Ġplayer",
        -9.326301471577468
      ],
      [
        "ake",
        -9.326440329410016
      ],
      [
        "Ġconcept",
        -9.3270392492247
      ],
      [
        "Ġtend",
        -9.329615688414735
      ],
      [
        "Ġfe",
        -9.33045814464467
      ],
      [
        "Ġcamera",
        -9.330914992769692
      ],
      [
        "Ġmodern",
        -9.332632198581166
      ],
      [
        "Ġla",
        -9.333706147567517
      ],
      [
        "AR",
        -9.33376856888097
      ],
      [
        "Ġreturn",
        -9.334536592024833
      ],
      [
        "Ġeggs",
        -9.334727692274376
      ],
      [
        "Ġwatch",
        -9.33490597371471
      ],
      [
        "X",
        -9.335197743706912
      ],
      [
        "Ġsensor",
        -9.336076862924688
      ],
      [
        "Ġgene",
        -9.33608390455016
      ],
      [
        "ĠUS",
        -9.337842907690806
      ],
      [
        "ĠAfter",
        -9.338295096687812
      ],
      [
        "Co",
        -9.338384358369606
      ],
      [
        "rop",
        -9.338614878908814
      ],
      [
        "Ġha",
        -9.339119998505735
      ],
      [
        "Ġshown",
        -9.339537678873093
      ],
      [
        "men",
        -9.342617216774352
      ],
      [
        "Ġequipment",
        -9.3429948310261
      ],
      [
        "Ġsave",
        -9.34311902013267
      ],
      [
        "Ġdirect",
        -9.344035964535284
      ],
      [
        "Ġbenefit",
        -9.344070779780278
      ],
      [
        "Do",
        -9.344231931434123
      ],
      [
        "Ġwear",
        -9.344642325166614
      ],
      [
        "Ġnotice",
        -9.345466596749011
      ],
      [
        "Ġlocate",
        -9.34679773780175
      ],
      [
        "Ġhear",
        -9.34680607572088
      ],
      [
        "Ġwind",
        -9.34876667853142
      ],
      [
        "Ġtips",
        -9.34938582456908
      ],
      [
        "Ġalternative",
        -9.350100935826871
      ],
      [
        "ĠHealth",
        -9.351716976803402
      ],
      [
        "ran",
        -9.353311330534158
      ],
      [
        "Ġmusic",
        -9.35433177157026
      ],
      [
        "$",
        -9.354392697574548
      ],
      [
        "Ġleg",
        -9.354438173038885
      ],
      [
        "Ġtouch",
        -9.354801180438605
      ],
      [
        "Ġsupply",
        -9.355233050841118
      ],
      [
        "Ġcaus",
        -9.356706390988943
      ],
      [
        "Ġmu",
        -9.357340930971317
      ],
      [
        "Ġglass",
        -9.3581809722885
      ],
      [
        "**",
        -9.359176290974476
      ],
      [
        "Ġwebsite",
        -9.36054190748579
      ],
      [
        "Ġflowers",
        -9.360617624045291
      ],
      [
        "Ġreaction",
        -9.361482249548647
      ],
      [
        "Ġbehind",
        -9.362319541060591
      ],
      [
        "Ġenter",
        -9.362714030653157
      ],
      [
        "Ġdrop",
        -9.363764081165712
      ],
      [
        "Ġtrain",
        -9.366925983570884
      ],
      [
        "Ġfresh",
        -9.367564386596737
      ],
      [
        "Ġstory",
        -9.368655401322275
      ],
      [
        "Ġcode",
        -9.369359967403945
      ],
      [
        "Ġsearch",
        -9.369441339550686
      ],
      [
        "port",
        -9.370217367060448
      ],
      [
        "Ġmeal",
        -9.370331875269343
      ],
      [
        "Ġword",
        -9.370427940500043
      ],
      [
        "ĠZ",
        -9.37283623593802
      ],
      [
        "ear",
        -9.372889626285009
      ],
      [
        "Ġsteps",
        -9.374338317547195
      ],
      [
        "AT",
        -9.374586550817073
      ],
      [
        "Ġspring",
        -9.375001839012956
      ],
      [
        "Ġmonth",
        -9.37616801522218
      ],
      [
        "Ġelse",
        -9.378369005964316
      ],
      [
        "Ġrepair",
        -9.378413393996432
      ],
      [
        "Ġaspect",
        -9.378469973519294
      ],
      [
        "cent",
        -9.38009691417969
      ],
      [
        "Ġrequirement",
        -9.380129426154197
      ],
      [
        "ĠPer",
        -9.380923857716706
      ],
      [
        "Ġindicate",
        -9.382641775102734
      ],
      [
        "Ġeveryone",
        -9.38291301685672
      ],
      [
        "Ġdraw",
        -9.384465247407515
      ],
      [
        "+",
        -9.386685573590755
      ],
      [
        "Ġload",
        -9.38723141182908
      ],
      [
        "wise",
        -9.387346093689423
      ],
      [
        "nd",
        -9.38748781973601
      ],
      [
        "Ġaware",
        -9.388934091794624
      ],
      [
        "Ġframe",
        -9.389786193493215
      ],
      [
        "Ġmeet",
        -9.390232146950597
      ],
      [
        "Ġroot",
        -9.390831501744422
      ],
      [
        "Ġphoto",
        -9.391032650153178
      ],
      [
        "Ġdoor",
        -9.392316442167084
      ],
      [
        "Another",
        -9.392438034104725
      ],
      [
        "bu",
        -9.3929339008429
      ],
      [
        "ĠPa",
        -9.393462004307136
      ],
      [
        "Ġdetect",
        -9.393721582829652
      ],
      [
        "Ġachieve",
        -9.39505683905567
      ],
      [
        "Ġinfluence",
        -9.395272398571764
      ],
      [
        "Ġforest",
        -9.396008439884731
      ],
      [
        "ĠPre",
        -9.396845307632423
      ],
      [
        "Ġmicro",
        -9.398193087320474
      ],
      [
        "Ġingredient",
        -9.398366126617605
      ],
      [
        "ĠEx",
        -9.399097437184066
      ],
      [
        "Ġbio",
        -9.401155256231752
      ],
      [
        "Ġpot",
        -9.402102503453424
      ],
      [
        "Ġlo",
        -9.402285092709391
      ],
      [
        "Ġcontribute",
        -9.403870127275242
      ],
      [
        "Ġuseful",
        -9.404283001751336
      ],
      [
        "Ġinstall",
        -9.405071669155582
      ],
      [
        "Ġanalysis",
        -9.405739476084094
      ],
      [
        "Ġreduc",
        -9.40597585089458
      ],
      [
        "Ġprotection",
        -9.40616718154569
      ],
      [
        "ern",
        -9.407233769673187
      ],
      [
        "Ġdoctor",
        -9.407591645211564
      ],
      [
        "Can",
        -9.407824363146132
      ],
      [
        "Ġmale",
        -9.40944717681819
      ],
      [
        "Ġserious",
        -9.409451864311816
      ],
      [
        "Ġelectrical",
        -9.410434901238231
      ],
      [
        "Ġcross",
        -9.410725898513782
      ],
      [
        "Ġmulti",
        -9.411279546566789
      ],
      [
        "Ġhabitat",
        -9.411974906432285
      ],
      [
        "Ġseek",
        -9.412172638073017
      ],
      [
        "set",
        -9.412209306155578
      ],
      [
        "Ġhair",
        -9.413212791331135
      ],
      [
        "Ġconstruction",
        -9.413774977417049
      ],
      [
        "Ġapp",
        -9.413891702185069
      ],
      [
        "Ġsix",
        -9.414719060603131
      ],
      [
        "Ġconstant",
        -9.415048389883149
      ],
      [
        "Ġpage",
        -9.415258577161854
      ],
      [
        "ĠMar",
        -9.416549542327855
      ],
      [
        "An",
        -9.418439015383848
      ],
      [
        "Ġtrans",
        -9.418698028866396
      ],
      [
        "Ġimmediate",
        -9.418774968789949
      ],
      [
        "No",
        -9.41880385449942
      ],
      [
        "uch",
        -9.419304300862734
      ],
      [
        "Ġisn",
        -9.419673300965698
      ],
      [
        "Ġscale",
        -9.419927719755034
      ],
      [
        "ber",
        -9.421160244695006
      ],
      [
        "Ġsuitable",
        -9.4212858439958
      ],
      [
        "ĠStates",
        -9.421335223299094
      ],
      [
        "Ġwar",
        -9.421545875877642
      ],
      [
        "Ġready",
        -9.421932687412845
      ],
      [
        "Ġbreed",
        -9.421971013858936
      ],
      [
        "Ġdate",
        -9.423810210541134
      ],
      [
        "Ġcycle",
        -9.424358815359696
      ],
      [
        "ĠSa",
        -9.424671921747478
      ],
      [
        "Ġattack",
        -9.426321749552
      ],
      [
        "âĢĿ",
        -9.427151545171494
      ],
      [
        "Ġsample",
        -9.42782895193652
      ],
      [
        "Ġcircuit",
        -9.429292119524442
      ],
      [
        "Ġfrequent",
        -9.429461327767015
      ],
      [
        "Ġblue",
        -9.429623278598086
      ],
      [
        "all",
        -9.429935066039656
      ],
      [
        "Ġcount",
        -9.430050939275365
      ],
      [
        "Ġgroups",
        -9.431133177620616
      ],
      [
        "Ġadded",
        -9.431504403828733
      ],
      [
        "Ġgovernment",
        -9.43177890731709
      ],
      [
        "tenanc",
        -9.432060895558688
      ],
      [
        "Ġago",
        -9.434457290260868
      ],
      [
        "Ġcapacit",
        -9.435792797519012
      ],
      [
        "Ġflight",
        -9.435954917939522
      ],
      [
        "Ġdiscover",
        -9.436285377964769
      ],
      [
        "ĠMay",
        -9.43825158977486
      ],
      [
        "ists",
        -9.43830548511438
      ],
      [
        "ox",
        -9.43870977439644
      ],
      [
        "ĠEarth",
        -9.439612571988754
      ],
      [
        "moving",
        -9.439805486803046
      ],
      [
        "fish",
        -9.440664861325788
      ],
      [
        "ular",
        -9.441398757765686
      ],
      [
        "Ġhearing",
        -9.441673488659497
      ],
      [
        "Ġpan",
        -9.442804607264778
      ],
      [
        "Ġfiber",
        -9.443475579294024
      ],
      [
        "ĠYes",
        -9.443609414256365
      ],
      [
        "ward",
        -9.443966235385464
      ],
      [
        "{",
        -9.445301454034835
      ],
      [
        "Ġtaste",
        -9.44655440967377
      ],
      [
        "Ġfeeling",
        -9.447039474775266
      ],
      [
        "gg",
        -9.4477757804029
      ],
      [
        "gen",
        -9.447950877688344
      ],
      [
        "Ġencourage",
        -9.449224503868823
      ],
      [
        "ĠMy",
        -9.450451018910693
      ],
      [
        "Ġroad",
        -9.452193608039709
      ],
      [
        "ix",
        -9.452295731210487
      ],
      [
        "Ġsign",
        -9.45308281774323
      ],
      [
        "Ġdocument",
        -9.453097823810998
      ],
      [
        "Ġbrand",
        -9.453491002204844
      ],
      [
        "Ġarm",
        -9.453557121186392
      ],
      [
        "ĠNe",
        -9.453661876575378
      ],
      [
        "Ġplann",
        -9.454925605300884
      ],
      [
        "Ġremember",
        -9.455040823068696
      ],
      [
        "ĠJu",
        -9.455663948692568
      ],
      [
        "ĠPo",
        -9.4572087092997
      ],
      [
        "Ġmemory",
        -9.457699088269951
      ],
      [
        "Ġboard",
        -9.458202571539331
      ],
      [
        "Ġserie",
        -9.4587910640207
      ],
      [
        "Ġfloor",
        -9.458956118833498
      ],
      [
        "Ġconduct",
        -9.4599682452907
      ],
      [
        "Ġgenerate",
        -9.46144482527392
      ],
      [
        "Ġequal",
        -9.461798366226828
      ],
      [
        "Ġtesting",
        -9.462846833442692
      ],
      [
        "life",
        -9.463203616464504
      ],
      [
        "Ġnote",
        -9.463227695365136
      ],
      [
        "Whil",
        -9.463398818322148
      ],
      [
        "Ġweeks",
        -9.46538854267256
      ],
      [
        "Ġinput",
        -9.467648975721996
      ],
      [
        "Ġcritical",
        -9.468134243840002
      ],
      [
        "Ġinstruction",
        -9.468517104589507
      ],
      [
        "Ġspend",
        -9.46896967127224
      ],
      [
        "Ġcompare",
        -9.468973078192231
      ],
      [
        "=",
        -9.46920766136859
      ],
      [
        "net",
        -9.469531226051954
      ],
      [
        "Ġcap",
        -9.469727798014857
      ],
      [
        "Ġprocedure",
        -9.470709706112146
      ],
      [
        "Ġprett",
        -9.470870437517984
      ],
      [
        "-in",
        -9.471632606222007
      ],
      [
        "Ġjourney",
        -9.4726859913882
      ],
      [
        "Ġcompar",
        -9.474469988331814
      ],
      [
        "Ġdisplay",
        -9.47472203164934
      ],
      [
        "Ġear",
        -9.476957406190571
      ],
      [
        "ĠCalifornia",
        -9.477627935872164
      ],
      [
        "rom",
        -9.478472857360494
      ],
      [
        "Ġvisual",
        -9.478654950246048
      ],
      [
        "een",
        -9.48039483388468
      ],
      [
        "Ġdistance",
        -9.48063493181762
      ],
      [
        "ĠResearch",
        -9.4813956177478
      ],
      [
        "ĠHa",
        -9.481599017129316
      ],
      [
        "Ġoutdoor",
        -9.482626917804376
      ],
      [
        "Ġlack",
        -9.48284571612355
      ],
      [
        "Ġten",
        -9.484605380433578
      ],
      [
        "Ġinitial",
        -9.484650561257766
      ],
      [
        "Ġgreater",
        -9.485343028661251
      ],
      [
        "ĠHo",
        -9.486485938271352
      ],
      [
        "Ġorganic",
        -9.48662935661989
      ],
      [
        "Ġwave",
        -9.486731488358323
      ],
      [
        "Ġbr",
        -9.488196477193105
      ],
      [
        "ash",
        -9.489002215922143
      ],
      [
        "Ġphone",
        -9.489161868146583
      ],
      [
        "graph",
        -9.490132490377306
      ],
      [
        "Ġfl",
        -9.490574722100137
      ],
      [
        "Ġdidn",
        -9.490892222906073
      ],
      [
        "Ġpl",
        -9.491112122981688
      ],
      [
        "Ġideal",
        -9.491478739996907
      ],
      [
        "ĠUn",
        -9.491741189234418
      ],
      [
        "Ġmoment",
        -9.491743681001289
      ],
      [
        "Ġmembers",
        -9.491881029733523
      ],
      [
        "Ġmatch",
        -9.492969397982971
      ],
      [
        "Ġrecord",
        -9.493658745419316
      ],
      [
        "Ġcountr",
        -9.494963728283834
      ],
      [
        "ĠSchool",
        -9.495196154781908
      ],
      [
        "Ġflower",
        -9.496251491360637
      ],
      [
        "These",
        -9.497492917853096
      ],
      [
        "ware",
        -9.49792342346234
      ],
      [
        "ĠMore",
        -9.498158296096154
      ],
      [
        "hose",
        -9.498362134707
      ],
      [
        "Ġcleaning",
        -9.49858764225342
      ],
      [
        "Ġcareful",
        -9.500423216171583
      ],
      [
        "ather",
        -9.501322406900568
      ],
      [
        "Some",
        -9.50149689878955
      ],
      [
        "ink",
        -9.502420732871888
      ],
      [
        "Ġhope",
        -9.502858058406163
      ],
      [
        "cle",
        -9.503336160588772
      ],
      [
        "Ġfoot",
        -9.50409114059214
      ],
      [
        "Ġmap",
        -9.504115098851576
      ],
      [
        "Be",
        -9.504313649655144
      ],
      [
        "companie",
        -9.504867511737748
      ],
      [
        "Ġbaby",
        -9.504888879467114
      ],
      [
        "led",
        -9.505446083868154
      ],
      [
        "Ġstem",
        -9.505600418398885
      ],
      [
        "Ġclaim",
        -9.505800973892605
      ],
      [
        "Ġstrength",
        -9.50601838807234
      ],
      [
        "ade",
        -9.506382575293769
      ],
      [
        "Ġextend",
        -9.506898308330758
      ],
      [
        "Ġpromote",
        -9.508104444006978
      ],
      [
        "Ġburn",
        -9.508242385327035
      ],
      [
        "Ġcombination",
        -9.511188252345471
      ],
      [
        "Ġsuccess",
        -9.511336832103282
      ],
      [
        "}",
        -9.512339106634176
      ],
      [
        "Each",
        -9.512520148782905
      ],
      [
        "Ġfeature",
        -9.513135642353364
      ],
      [
        "ĠSouth",
        -9.513640453570297
      ],
      [
        "Ġpattern",
        -9.514117724892682
      ],
      [
        "Ġteachers",
        -9.514440234203551
      ],
      [
        "Ġcentur",
        -9.515357099108076
      ],
      [
        "Ġbox",
        -9.515669007281886
      ],
      [
        "Ġreplace",
        -9.51569478749174
      ],
      [
        "ĠDi",
        -9.515779243853244
      ],
      [
        "Ġsoft",
        -9.516641497952126
      ],
      [
        "Ġedge",
        -9.517582385898692
      ],
      [
        "Using",
        -9.517717483232712
      ],
      [
        "uff",
        -9.517730797918798
      ],
      [
        "Ġgames",
        -9.518290318723272
      ],
      [
        "Ġseparate",
        -9.518317597757653
      ],
      [
        "Ġmouth",
        -9.518505183152236
      ],
      [
        "ger",
        -9.519946166990604
      ],
      [
        "ĠState",
        -9.520050337916254
      ],
      [
        "Ġaccept",
        -9.52132777775896
      ],
      [
        "Ġwire",
        -9.52222477951777
      ],
      [
        "Ġadapt",
        -9.522550825207391
      ],
      [
        "ĠâĢ¦",
        -9.52293685525754
      ],
      [
        "expensive",
        -9.523406875517622
      ],
      [
        "kin",
        -9.52377838315072
      ],
      [
        "rapy",
        -9.524239693580393
      ],
      [
        "Ġchallenges",
        -9.52452154519432
      ],
      [
        "Ġfly",
        -9.525277995017154
      ],
      [
        "Ġpull",
        -9.525849564285265
      ],
      [
        "Ġsecurity",
        -9.52666969563513
      ],
      [
        "time",
        -9.527704557023334
      ],
      [
        "Ġdeath",
        -9.527756457024662
      ],
      [
        "Ġnative",
        -9.527800243196506
      ],
      [
        "Ġbright",
        -9.527958642543693
      ],
      [
        "nic",
        -9.528065486151291
      ],
      [
        "hu",
        -9.528514626686544
      ],
      [
        "Ġculture",
        -9.529788183983923
      ],
      [
        "ĠMost",
        -9.53032220061473
      ],
      [
        "Ġpatterns",
        -9.530684373361863
      ],
      [
        "Ġimportanc",
        -9.532453701048253
      ],
      [
        "Ma",
        -9.5335044276758
      ],
      [
        "head",
        -9.53456094170599
      ],
      [
        "On",
        -9.534929507971054
      ],
      [
        "ĠNot",
        -9.536111588935366
      ],
      [
        "Ġhandle",
        -9.536508621189803
      ],
      [
        "Z",
        -9.53656878506223
      ],
      [
        "Ġsuper",
        -9.538049024745211
      ],
      [
        "Ġevidence",
        -9.538082137643322
      ],
      [
        "ST",
        -9.538695254464724
      ],
      [
        "ES",
        -9.539406597004426
      ],
      [
        "Ġfr",
        -9.539793223685203
      ],
      [
        "old",
        -9.54127511674216
      ],
      [
        "Ġstand",
        -9.541805677356106
      ],
      [
        "Ġfilter",
        -9.542322016627336
      ],
      [
        "Ġefficiency",
        -9.542596505702456
      ],
      [
        "ĠLo",
        -9.543187461409266
      ],
      [
        "Ġrare",
        -9.543396603590516
      ],
      [
        "><",
        -9.5458161300518
      ],
      [
        "Ġcolour",
        -9.546571075817448
      ],
      [
        "Ġworth",
        -9.547341092194005
      ],
      [
        "ĠDNA",
        -9.54767528302467
      ],
      [
        "Ġpe",
        -9.549185684864788
      ],
      [
        "not",
        -9.549318573867213
      ],
      [
        "Ġresponsibl",
        -9.55083464586478
      ],
      [
        "Ġgrass",
        -9.551447132633886
      ],
      [
        "Ġvision",
        -9.552842214903194
      ],
      [
        "Ġcarry",
        -9.554606600524297
      ],
      [
        "Ġdemand",
        -9.555137244824248
      ],
      [
        "Ġinstance",
        -9.555142683671386
      ],
      [
        "Ġteacher",
        -9.556381922405366
      ],
      [
        "com",
        -9.557108533992484
      ],
      [
        "ock",
        -9.557339514925015
      ],
      [
        "ology",
        -9.557422540372263
      ],
      [
        "Ġfoods",
        -9.557670832925677
      ],
      [
        "ric",
        -9.55828001807036
      ],
      [
        "like",
        -9.561643698402328
      ],
      [
        "Ġteaching",
        -9.561792326313205
      ],
      [
        "Ġgoe",
        -9.563679960123649
      ],
      [
        "Ġgeneration",
        -9.565899941664616
      ],
      [
        "Ġbuilt",
        -9.565921261482467
      ],
      [
        "Ġliquid",
        -9.565922277959071
      ],
      [
        "Ġcouple",
        -9.565922860211211
      ],
      [
        "Ġpanel",
        -9.56598406992764
      ],
      [
        "Ġmedia",
        -9.567014649906971
      ],
      [
        "col",
        -9.568375257370796
      ],
      [
        "Ġprocesses",
        -9.5690885192105
      ],
      [
        "Ġbreath",
        -9.570330563748428
      ],
      [
        "Ġensur",
        -9.570526729957423
      ],
      [
        "king",
        -9.571523131670734
      ],
      [
        "Ġfracture",
        -9.5724571310292
      ],
      [
        "ĠAmerica",
        -9.572953927336506
      ],
      [
        "Ġangle",
        -9.574510833707764
      ],
      [
        "Ġsevere",
        -9.574825695953647
      ],
      [
        "Ġresistance",
        -9.575046600160842
      ],
      [
        "By",
        -9.5764262916718
      ],
      [
        "Ġaim",
        -9.577254577358165
      ],
      [
        "ĠAdditional",
        -9.57938560089029
      ],
      [
        "Ġheavy",
        -9.58123884107803
      ],
      [
        "Ġpath",
        -9.581638610896633
      ],
      [
        "Ġcity",
        -9.581851112899663
      ],
      [
        "Ġsmooth",
        -9.581991441304774
      ],
      [
        "ĠMake",
        -9.58220612887364
      ],
      [
        "ĠEven",
        -9.584958882803177
      ],
      [
        "OR",
        -9.585554142005831
      ],
      [
        "Ġfluid",
        -9.585674356425764
      ],
      [
        "ĠMin",
        -9.586396536352684
      ],
      [
        "hal",
        -9.586871326641027
      ],
      [
        "ĠOur",
        -9.587358272421138
      ],
      [
        "Ġdriver",
        -9.58785585821519
      ],
      [
        "giving",
        -9.587908594502904
      ],
      [
        "Ġpack",
        -9.58795871007442
      ],
      [
        "pos",
        -9.588433156102626
      ],
      [
        "Ġlaw",
        -9.588752294786062
      ],
      [
        "ĠOf",
        -9.589468886413648
      ],
      [
        "Ġworks",
        -9.58946914584659
      ],
      [
        "Ġversion",
        -9.590841813514873
      ],
      [
        "ank",
        -9.591199537445908
      ],
      [
        "Ġparticle",
        -9.592338375859937
      ],
      [
        "Ġbo",
        -9.592397283476169
      ],
      [
        "Ġsigns",
        -9.592474018083376
      ],
      [
        "Ġdefine",
        -9.592492801253378
      ],
      [
        "ĠModel",
        -9.595354554688328
      ],
      [
        "Ġscreen",
        -9.595394735420154
      ],
      [
        "Ġleader",
        -9.596257916075624
      ],
      [
        "Ġscientific",
        -9.596794596423198
      ],
      [
        "rate",
        -9.59747770163812
      ],
      [
        "Ġgra",
        -9.598353634224232
      ],
      [
        "Ġfilm",
        -9.599068412541072
      ],
      [
        "Ġsecure",
        -9.599082789347827
      ],
      [
        "ĠLet",
        -9.599179913234256
      ],
      [
        "-term",
        -9.59932232546759
      ],
      [
        "Ġdriv",
        -9.59947171786646
      ],
      [
        "ification",
        -9.599514371209962
      ],
      [
        "Ġdu",
        -9.59972431026626
      ],
      [
        "Ġhit",
        -9.599792376312324
      ],
      [
        "bin",
        -9.6004997532658
      ],
      [
        "Ġlabel",
        -9.600858368821504
      ],
      [
        "With",
        -9.60107141084855
      ],
      [
        "â",
        -9.601258376112185
      ],
      [
        "Ġli",
        -9.601292005252269
      ],
      [
        "Ġreflect",
        -9.60228341327434
      ],
      [
        "Ġfight",
        -9.603598530163396
      ],
      [
        "Ġvary",
        -9.603837822983843
      ],
      [
        "val",
        -9.604015409714476
      ],
      [
        "Ġorgan",
        -9.604916178901384
      ],
      [
        "Ġrich",
        -9.605317728943804
      ],
      [
        "Ġaccurate",
        -9.605793511194712
      ],
      [
        "log",
        -9.605797521022556
      ],
      [
        "ĠWorld",
        -9.606262892855884
      ],
      [
        "ction",
        -9.606414418578028
      ],
      [
        "Ġwriting",
        -9.60680220938491
      ],
      [
        "Ġpaint",
        -9.606892732762972
      ],
      [
        "Ġinteraction",
        -9.60718137119893
      ],
      [
        "Ġobtain",
        -9.60805595086568
      ],
      [
        "rig",
        -9.608902036591534
      ],
      [
        "ĠWho",
        -9.609067345125116
      ],
      [
        "Ġnothing",
        -9.612052155191371
      ],
      [
        "Ġmeasurement",
        -9.614226430406488
      ],
      [
        "Ġinches",
        -9.614691495207122
      ],
      [
        "Ġbeautiful",
        -9.61487415626359
      ],
      [
        "Ġseed",
        -9.615058883530876
      ],
      [
        "Ġincluded",
        -9.616156124399913
      ],
      [
        "Ġprogress",
        -9.61662718553136
      ],
      [
        "Ġmedication",
        -9.617157306556384
      ],
      [
        "Ġmoistur",
        -9.617379997014552
      ],
      [
        ".S",
        -9.61761815106362
      ],
      [
        "board",
        -9.61818781982299
      ],
      [
        "Ġwrite",
        -9.61903094813443
      ],
      [
        "ĠPi",
        -9.619452349442987
      ],
      [
        "Ġinform",
        -9.62023637151417
      ],
      [
        "Step",
        -9.620307635830638
      ],
      [
        "Ġfinish",
        -9.621799555384523
      ],
      [
        "Ġmode",
        -9.624920697338553
      ],
      [
        "Ġbrown",
        -9.62640582479828
      ],
      [
        "ĠAre",
        -9.626740725321548
      ],
      [
        "ool",
        -9.62675435858538
      ],
      [
        "Ġcame",
        -9.62982451539444
      ],
      [
        "Ġoperation",
        -9.63032773508542
      ],
      [
        "Ġfabric",
        -9.63096653963876
      ],
      [
        "Ġrapid",
        -9.630980778951654
      ],
      [
        "Ġexposure",
        -9.63109254794422
      ],
      [
        "\\",
        -9.6312261983517
      ],
      [
        "ĠThen",
        -9.631665078853626
      ],
      [
        "Ġpublished",
        -9.632920630500678
      ],
      [
        "Ġanyone",
        -9.633263118601604
      ],
      [
        "Ġslight",
        -9.634016703707232
      ],
      [
        "Ġphotograph",
        -9.63548130055822
      ],
      [
        "Ġhapp",
        -9.635514858006015
      ],
      [
        "ĠWar",
        -9.63557589241434
      ],
      [
        "Ġrespond",
        -9.63561222819456
      ],
      [
        "Ġswitch",
        -9.635612745752926
      ],
      [
        "Ġadvanced",
        -9.635794390164294
      ],
      [
        "Ġprograms",
        -9.637543338127545
      ],
      [
        "water",
        -9.637718490771446
      ],
      [
        "Ġbottom",
        -9.637943234626274
      ],
      [
        "Ġcharacteristic",
        -9.637997439550444
      ],
      [
        "Ġlives",
        -9.638276230933725
      ],
      [
        "ĠWhy",
        -9.638279983408976
      ],
      [
        "Ġmanufactur",
        -9.639393315666853
      ],
      [
        "Ġthird",
        -9.640280944587492
      ],
      [
        "Ġapplied",
        -9.643141971992335
      ],
      [
        "Ġrefer",
        -9.64368277302598
      ],
      [
        "Ġthinking",
        -9.644430177272834
      ],
      [
        "Ġsoon",
        -9.644700025568294
      ],
      [
        "Ã",
        -9.644905416435984
      ],
      [
        "Ġocean",
        -9.644969827687811
      ],
      [
        "Ġrise",
        -9.645106053069467
      ],
      [
        "He",
        -9.645207591120332
      ],
      [
        "Ġpush",
        -9.645232034328924
      ],
      [
        "ĠAct",
        -9.645795217724883
      ],
      [
        "AN",
        -9.646016104819466
      ],
      [
        "Ġdrawing",
        -9.64657784439051
      ],
      [
        "lost",
        -9.649936553911369
      ],
      [
        "Ġoutput",
        -9.650211187541958
      ],
      [
        "Ġenable",
        -9.65175482910042
      ],
      [
        "Ġcoast",
        -9.651805432180629
      ],
      [
        "Ġstick",
        -9.65237597783896
      ],
      [
        "They",
        -9.653559232657583
      ],
      [
        "ĠAr",
        -9.653790937419426
      ],
      [
        "spec",
        -9.654042122437604
      ],
      [
        "top",
        -9.65458993451664
      ],
      [
        "Ġmeaning",
        -9.655682941742269
      ],
      [
        "Ġtransport",
        -9.656043687908909
      ],
      [
        "Ġyellow",
        -9.656789545540075
      ],
      [
        "Ġlesson",
        -9.656993886810389
      ],
      [
        "Ġpowerful",
        -9.658052794407668
      ],
      [
        "Ġtrip",
        -9.659656997680672
      ],
      [
        "Ġbi",
        -9.65994831304335
      ],
      [
        "Ġgl",
        -9.660733655513944
      ],
      [
        "Ġintroduce",
        -9.663419468143529
      ],
      [
        "uck",
        -9.663834170543817
      ],
      [
        "Ġdiabet",
        -9.665444410496663
      ],
      [
        "Ġadjust",
        -9.665737229455534
      ],
      [
        "Ġmilk",
        -9.666349130043756
      ],
      [
        "ĠRead",
        -9.666391773086447
      ],
      [
        "Ġfair",
        -9.666420434024296
      ],
      [
        "Ġfriends",
        -9.668059095066798
      ],
      [
        "lie",
        -9.668088749440436
      ],
      [
        "Ġdrain",
        -9.668389362769553
      ],
      [
        "Ġconsist",
        -9.668724562429698
      ],
      [
        "Ġexpand",
        -9.668758156840116
      ],
      [
        "Ġhospital",
        -9.671160967622818
      ],
      [
        "Ġmother",
        -9.67134043360982
      ],
      [
        "ically",
        -9.671427589089657
      ],
      [
        "ĠEn",
        -9.67169099314304
      ],
      [
        "Ġvaluable",
        -9.674150999015737
      ],
      [
        "Ġcomfortabl",
        -9.675335268475068
      ],
      [
        "Ġriver",
        -9.676012309618388
      ],
      [
        "RE",
        -9.676213169445344
      ],
      [
        "Ġhost",
        -9.676880980849344
      ],
      [
        "Ġimmune",
        -9.677921112856437
      ],
      [
        "gra",
        -9.678790821953754
      ],
      [
        "Ġrain",
        -9.679353252547235
      ],
      [
        "ivity",
        -9.679425963811576
      ],
      [
        "Ġsustainabl",
        -9.679556631014474
      ],
      [
        "mat",
        -9.679603516168036
      ],
      [
        "Ġ#",
        -9.68242536562544
      ],
      [
        "Ġskill",
        -9.682754017617018
      ],
      [
        "read",
        -9.68281628798307
      ],
      [
        "Ġcard",
        -9.683403975853649
      ],
      [
        "Ġball",
        -9.6846282525668
      ],
      [
        "Ġcable",
        -9.686859368156629
      ],
      [
        "Ġsweet",
        -9.688198601398058
      ],
      [
        "ood",
        -9.688303093762784
      ],
      [
        "Ġconsistent",
        -9.688564945449858
      ],
      [
        "Ġimages",
        -9.689354501978547
      ],
      [
        "osis",
        -9.689455884392498
      ],
      [
        "Ġhunt",
        -9.69029808757149
      ],
      [
        "Ġpollution",
        -9.690818047886292
      ],
      [
        "Ġpoor",
        -9.690874015383962
      ],
      [
        "Ġmid",
        -9.691124385033334
      ],
      [
        "oid",
        -9.691847826399089
      ],
      [
        "Ġpicture",
        -9.692671404500384
      ],
      [
        "Ġsolutions",
        -9.693414629500712
      ],
      [
        "Ġlens",
        -9.694574967311832
      ],
      [
        "Ġ--",
        -9.694754915722616
      ],
      [
        "ulation",
        -9.69644339691687
      ],
      [
        "Ġfund",
        -9.696988988996509
      ],
      [
        "ĠGo",
        -9.69720990901447
      ],
      [
        "ries",
        -9.69753990223064
      ],
      [
        "Ġvoltage",
        -9.698364232998344
      ],
      [
        "Ġestimate",
        -9.698767165346723
      ],
      [
        "ĠTheir",
        -9.700300378764844
      ],
      [
        "Ġinteresting",
        -9.70134338989484
      ],
      [
        "Ġdecrease",
        -9.701510152354242
      ],
      [
        "ĠAfrica",
        -9.70163018560297
      ],
      [
        "car",
        -9.701819685724338
      ],
      [
        "Ġtransform",
        -9.702338527241876
      ],
      [
        "Ġstatement",
        -9.702880844048732
      ],
      [
        "Man",
        -9.703149921813177
      ],
      [
        "ami",
        -9.703341422067483
      ],
      [
        "Ġideas",
        -9.705097083257265
      ],
      [
        "Ġcategor",
        -9.705521177487096
      ],
      [
        "Ġthousand",
        -9.705521446123107
      ],
      [
        "Ġdepth",
        -9.705528845629814
      ],
      [
        "Ġoxygen",
        -9.705530321103762
      ],
      [
        "Ġsort",
        -9.706223666765318
      ],
      [
        "Now",
        -9.706601055140236
      ],
      [
        "Ġhappens",
        -9.707924117827446
      ],
      [
        "Ġexcellent",
        -9.708020158899878
      ],
      [
        "Ġvitamin",
        -9.708020180886146
      ],
      [
        "Ġplatform",
        -9.708020248770795
      ],
      [
        "ways",
        -9.709211460342903
      ],
      [
        "aging",
        -9.709386114659244
      ],
      [
        "Ġcollect",
        -9.709571566357148
      ],
      [
        "Ġfigure",
        -9.709656404842727
      ],
      [
        "Ġwrong",
        -9.710526671797249
      ],
      [
        "ĠCenter",
        -9.71054443552484
      ],
      [
        "Ġpest",
        -9.711751109403338
      ],
      [
        "AL",
        -9.711975122225674
      ],
      [
        "ĠFirst",
        -9.712492617558189
      ],
      [
        "spite",
        -9.71415817608471
      ],
      [
        "Ġmember",
        -9.714285648617714
      ],
      [
        "Ġpurchase",
        -9.71457401270343
      ],
      [
        "Ġfan",
        -9.7151477962161
      ],
      [
        "ung",
        -9.71518721138563
      ],
      [
        "Ġband",
        -9.715480490066652
      ],
      [
        "came",
        -9.71626811683696
      ],
      [
        "lan",
        -9.716415953594012
      ],
      [
        "Ġne",
        -9.716502371367875
      ],
      [
        "za",
        -9.7165251553141
      ],
      [
        "-up",
        -9.716635606277576
      ],
      [
        "ĠEnglish",
        -9.718083131954993
      ],
      [
        "Ġhands",
        -9.718283879374225
      ],
      [
        "Ġstates",
        -9.718435708671404
      ],
      [
        "Ġmanufacturer",
        -9.71904208285223
      ],
      [
        "Ġchang",
        -9.7197021614549
      ],
      [
        "Ġvolume",
        -9.719932320948056
      ],
      [
        "Ġearth",
        -9.721168464684608
      ],
      [
        "Ġsaw",
        -9.721248737568772
      ],
      [
        "Ġplanet",
        -9.72146402813792
      ],
      [
        "ĠUK",
        -9.72160597883179
      ],
      [
        "Ġmonitor",
        -9.7218776015971
      ],
      [
        "Ġprocessor",
        -9.72230881530056
      ],
      [
        "Ġattempt",
        -9.72315286595918
      ],
      [
        "Ġgate",
        -9.723772798456626
      ],
      [
        "itis",
        -9.7253917124822
      ],
      [
        "Ġphase",
        -9.725702655158583
      ],
      [
        "Ġdead",
        -9.725985378105593
      ],
      [
        "ĠJust",
        -9.727131274435544
      ],
      [
        "Ġ|",
        -9.727215554729
      ],
      [
        "âĢ¢",
        -9.72734054866213
      ],
      [
        "Ġsell",
        -9.72969473093234
      ],
      [
        "some",
        -9.729772738776514
      ],
      [
        "Ġ+",
        -9.72988899020114
      ],
      [
        "Ġcur",
        -9.730601407281668
      ],
      [
        "Ġmotor",
        -9.730862458413744
      ],
      [
        "Ġiron",
        -9.73086730653413
      ],
      [
        "Ġmiss",
        -9.731467131117
      ],
      [
        "ĠBu",
        -9.732084042636162
      ],
      [
        "ED",
        -9.732713758050108
      ],
      [
        "Ġaid",
        -9.733351021879493
      ],
      [
        "Ġpractices",
        -9.734530349097138
      ],
      [
        "Ġfinancial",
        -9.736008802666754
      ],
      [
        "Ġoutcome",
        -9.736309043236542
      ],
      [
        "Before",
        -9.738592789620473
      ],
      [
        "Ġnoise",
        -9.73863359974876
      ],
      [
        "Ġtransfer",
        -9.738653311529024
      ],
      [
        "Ġforward",
        -9.738912375322064
      ],
      [
        "Ġbatter",
        -9.739039184115027
      ],
      [
        "ĠGu",
        -9.740261535581054
      ],
      [
        "Ġspot",
        -9.740780121061563
      ],
      [
        "Ġcontainer",
        -9.741502447168113
      ],
      [
        "Ġraise",
        -9.741756956193962
      ],
      [
        "went",
        -9.742671059869512
      ],
      [
        ".com",
        -9.742863625791244
      ],
      [
        "Ġcharacter",
        -9.743000655618811
      ],
      [
        "ĠCr",
        -9.743533374808608
      ],
      [
        "har",
        -9.743845436567812
      ],
      [
        "Ġled",
        -9.744422781041033
      ],
      [
        "Ġnational",
        -9.745778653976627
      ],
      [
        "And",
        -9.7460677361327
      ],
      [
        "lay",
        -9.747493607645737
      ],
      [
        "Ġsurrounding",
        -9.748311983930112
      ],
      [
        "ja",
        -9.748946913041364
      ],
      [
        "ĠJa",
        -9.749083632619396
      ],
      [
        "pol",
        -9.749122765027504
      ],
      [
        "Ġroll",
        -9.749784783992876
      ],
      [
        "Ġchain",
        -9.750288396043963
      ],
      [
        "ĠPlant",
        -9.7511508542881
      ],
      [
        "rip",
        -9.751309749049929
      ],
      [
        "Ġdie",
        -9.751610139278268
      ],
      [
        "Ġcomfort",
        -9.75222211736356
      ],
      [
        "Pa",
        -9.752438083694951
      ],
      [
        "ĠDec",
        -9.752452889332744
      ],
      [
        "Ġvia",
        -9.75425424667232
      ],
      [
        "Ġsalt",
        -9.754549657318318
      ],
      [
        "ĠDis",
        -9.755217002260512
      ],
      [
        "back",
        -9.756668866239025
      ],
      [
        "Ġdangerous",
        -9.7569038711459
      ],
      [
        "Ġcommunit",
        -9.75709450243732
      ],
      [
        "Ġtexture",
        -9.757332220900876
      ],
      [
        "Ġplane",
        -9.757771581229449
      ],
      [
        "Pro",
        -9.75782399500394
      ],
      [
        "Ġjoin",
        -9.758400380096884
      ],
      [
        "Ġimplement",
        -9.758524639081152
      ],
      [
        "ĠWi",
        -9.758585539884423
      ],
      [
        "lat",
        -9.759366048037048
      ],
      [
        "Ġsubstance",
        -9.759379587790944
      ],
      [
        "Ġvoice",
        -9.759450079912432
      ],
      [
        "Ġsend",
        -9.760748552044763
      ],
      [
        "Ġspeak",
        -9.761433525560877
      ],
      [
        "Ġtechnologi",
        -9.761906269136286
      ],
      [
        "Ġconvert",
        -9.762041254176676
      ],
      [
        "ham",
        -9.76220010557622
      ],
      [
        "Ġcom",
        -9.763261851735912
      ],
      [
        "row",
        -9.766203882153253
      ],
      [
        "ĠVi",
        -9.766685816406266
      ],
      [
        "ball",
        -9.766921636375915
      ],
      [
        "ĠPri",
        -9.767644765745176
      ],
      [
        "Ġexpect",
        -9.76796917918012
      ],
      [
        "Ġrecover",
        -9.769979335649914
      ],
      [
        "pir",
        -9.770591727753088
      ],
      [
        "Ġlose",
        -9.77106918374723
      ],
      [
        "LE",
        -9.771147270162324
      ],
      [
        "Ġdivers",
        -9.772778934009033
      ],
      [
        "ual",
        -9.77295118319041
      ],
      [
        "-b",
        -9.773397947665964
      ],
      [
        "ĠMu",
        -9.774062234479691
      ],
      [
        "cus",
        -9.774097494282955
      ],
      [
        "Ġrecipe",
        -9.7753158933802
      ],
      [
        "Ġga",
        -9.776215795880065
      ],
      [
        "ĠCO",
        -9.777013574568793
      ],
      [
        "Â",
        -9.77795215403475
      ],
      [
        "Ġmessage",
        -9.778009093642632
      ],
      [
        "Ġmiddle",
        -9.77801240886554
      ],
      [
        "Ġeconomic",
        -9.779102476779054
      ],
      [
        "Ġ-->",
        -9.77982294175523
      ],
      [
        "press",
        -9.780143987023363
      ],
      [
        "Ġhuge",
        -9.780694480982508
      ],
      [
        "Ġthu",
        -9.781149131857497
      ],
      [
        "Ġcollection",
        -9.782160554027364
      ],
      [
        "ĠInstitute",
        -9.78338043633439
      ],
      [
        "Ġpresence",
        -9.78342070471141
      ],
      [
        "Ġcutting",
        -9.78368605330201
      ],
      [
        "amp",
        -9.78537562271077
      ],
      [
        "Ġattach",
        -9.785528995415078
      ],
      [
        "ches",
        -9.7856264112106
      ],
      [
        "Ġattract",
        -9.787528908652863
      ],
      [
        "Ġgr",
        -9.788000404930845
      ],
      [
        "ĠSystem",
        -9.788793445558598
      ],
      [
        "Ġcontext",
        -9.78885529759421
      ],
      [
        "Ġemployee",
        -9.788860273337177
      ],
      [
        "Ġtube",
        -9.789298014026148
      ],
      [
        "Ġassessment",
        -9.789403590382474
      ],
      [
        "lip",
        -9.789564700482186
      ],
      [
        "ON",
        -9.789818064751511
      ],
      [
        "held",
        -9.790619682719448
      ],
      [
        "Ġcloth",
        -9.79126587081413
      ],
      [
        "Ġmedicine",
        -9.791510568872964
      ],
      [
        "Ġbackground",
        -9.791810000663189
      ],
      [
        "chi",
        -9.79305019714491
      ],
      [
        "Ġletter",
        -9.79331911097995
      ],
      [
        "pen",
        -9.79334595007884
      ],
      [
        "vid",
        -9.793747018995262
      ],
      [
        "Ġsuit",
        -9.793871645305764
      ],
      [
        "Ġstaff",
        -9.794236374764743
      ],
      [
        "Ġmaximu",
        -9.794263449178567
      ],
      [
        "ĠWater",
        -9.79433023541495
      ],
      [
        "Ġbeginning",
        -9.794335102738147
      ],
      [
        "Ġcup",
        -9.795834265482302
      ],
      [
        "Ġinternational",
        -9.796967621004503
      ],
      [
        "Ġoffice",
        -9.797623693046884
      ],
      [
        "Ġteach",
        -9.798641665894344
      ],
      [
        "Ġvaccine",
        -9.799707322534248
      ],
      [
        "Ġpair",
        -9.799803351541684
      ],
      [
        "Ġorganism",
        -9.799877973575278
      ],
      [
        "|",
        -9.801417760133337
      ],
      [
        "haps",
        -9.80190889785164
      ],
      [
        "Ġstone",
        -9.802036524783077
      ],
      [
        "Ġplaced",
        -9.802437470349988
      ],
      [
        "Ġtwi",
        -9.802813476155396
      ],
      [
        "Ġpr",
        -9.803032795243931
      ],
      [
        "rain",
        -9.80341577423314
      ],
      [
        "Ġexpected",
        -9.803646970457534
      ],
      [
        "Ġbusinesses",
        -9.803924260657674
      ],
      [
        "Ġfully",
        -9.804454703923234
      ],
      [
        "ĠSi",
        -9.804608318882927
      ],
      [
        "/or",
        -9.805110884787174
      ],
      [
        "Ġpound",
        -9.8052359355577
      ],
      [
        "Ġpa",
        -9.805531184834935
      ],
      [
        "Ġpredict",
        -9.805736472252294
      ],
      [
        "off",
        -9.807866168961606
      ],
      [
        "Ġwritten",
        -9.807986778664684
      ],
      [
        "Ġconnected",
        -9.808743548601187
      ],
      [
        "istic",
        -9.80939657863514
      ],
      [
        "Ġapart",
        -9.809407347525616
      ],
      [
        "Ġmen",
        -9.81050038632176
      ],
      [
        "Ġweb",
        -9.810526711263856
      ],
      [
        "Ġcentral",
        -9.810747168125175
      ],
      [
        "Ġsecret",
        -9.810755930663824
      ],
      [
        "body",
        -9.8118211365626
      ],
      [
        "Ġgrain",
        -9.812690654122608
      ],
      [
        "Ġemission",
        -9.81366603106262
      ],
      [
        "Ġho",
        -9.814244162009878
      ],
      [
        "Ġstrategies",
        -9.814627967684306
      ],
      [
        "Ġimprov",
        -9.814722877849793
      ],
      [
        "ole",
        -9.815116148482314
      ],
      [
        "ace",
        -9.81599488253541
      ],
      [
        "Ġcheese",
        -9.816395569205564
      ],
      [
        "ĠNOT",
        -9.816473368452694
      ],
      [
        "Ġconcentration",
        -9.81662607362015
      ],
      [
        "ient",
        -9.816932048414795
      ],
      [
        "ĠNow",
        -9.817051514901111
      ],
      [
        "AD",
        -9.817688925694306
      ],
      [
        "IT",
        -9.817904235880636
      ],
      [
        "Ġabsorb",
        -9.818846015195248
      ],
      [
        "Ġreferr",
        -9.819092964877058
      ],
      [
        "Ġpool",
        -9.819169327701868
      ],
      [
        "Ġtank",
        -9.819385941692564
      ],
      [
        "Ġmotion",
        -9.819434844175914
      ],
      [
        "Ġtrust",
        -9.819449528743318
      ],
      [
        "ĠComp",
        -9.81955273084139
      ],
      [
        "ik",
        -9.819694573587366
      ],
      [
        "Ġheight",
        -9.820274423058027
      ],
      [
        "ĠHigh",
        -9.820760077014905
      ],
      [
        "comp",
        -9.821291184688862
      ],
      [
        "Ġexpos",
        -9.82175096528866
      ],
      [
        "Ġcomment",
        -9.82262397691692
      ],
      [
        "Ġthin",
        -9.823011863823789
      ],
      [
        "Ġmi",
        -9.823157187914116
      ],
      [
        "Ġproteins",
        -9.823816305067696
      ],
      [
        "Ġrespect",
        -9.824186958764235
      ],
      [
        "Ġchallenge",
        -9.825685481667062
      ],
      [
        "Ġrobot",
        -9.826627724294369
      ],
      [
        "Ġclick",
        -9.826805727463228
      ],
      [
        "Ġecosystem",
        -9.827535645018084
      ],
      [
        "Ġdental",
        -9.82772680596478
      ],
      [
        "atic",
        -9.8285337074142
      ],
      [
        "ene",
        -9.829879054318948
      ],
      [
        "hen",
        -9.83030707099484
      ],
      [
        "Ġalgorithm",
        -9.830350365819498
      ],
      [
        "Ġsupplement",
        -9.830350374741258
      ],
      [
        "Ġplease",
        -9.830404886859936
      ],
      [
        "ĠSu",
        -9.831571243524994
      ],
      [
        "Ġround",
        -9.831956815945183
      ],
      [
        "Ġsequence",
        -9.833183227159488
      ],
      [
        "van",
        -9.833198533030522
      ],
      [
        "ĠRiver",
        -9.833428457780506
      ],
      [
        "Ġselection",
        -9.833429168400237
      ],
      [
        "Ġbigge",
        -9.83423885758587
      ],
      [
        "Ġexpress",
        -9.834633391082114
      ],
      [
        "Ġpractical",
        -9.83498202406382
      ],
      [
        "Ġlu",
        -9.83527786522447
      ],
      [
        "Ġowners",
        -9.8357496549975
      ],
      [
        "Ġgrade",
        -9.835800250125164
      ],
      [
        "Ġcoffee",
        -9.836024142947457
      ],
      [
        "Ġstraight",
        -9.83602518213614
      ],
      [
        "Ġgear",
        -9.836157663693545
      ],
      [
        "Ġvariable",
        -9.836309558796016
      ],
      [
        "older",
        -9.83632630064158
      ],
      [
        "Here",
        -9.837860742237044
      ],
      [
        "ĠDur",
        -9.837906113879075
      ],
      [
        "surgery",
        -9.839591647745143
      ],
      [
        "Ġsolid",
        -9.83982468918133
      ],
      [
        "Ġupper",
        -9.84015028276016
      ],
      [
        "RO",
        -9.840948371228514
      ],
      [
        "Ġmark",
        -9.840998976911374
      ],
      [
        "AS",
        -9.841539426188715
      ],
      [
        "own",
        -9.841722921936096
      ],
      [
        "Ġdouble",
        -9.841737347258343
      ],
      [
        "Ġremov",
        -9.841738667895248
      ],
      [
        "Ġhoney",
        -9.84177686041394
      ],
      [
        "Ġfoundation",
        -9.842050043204448
      ],
      [
        "Ġpipe",
        -9.842138015920664
      ],
      [
        "Ġonto",
        -9.842309173576906
      ],
      [
        "Ġcha",
        -9.84297868248808
      ],
      [
        "ĠTh",
        -9.843107970724256
      ],
      [
        "Ġevolution",
        -9.843445345499582
      ],
      [
        "Ġrock",
        -9.84433276395595
      ],
      [
        "Ġshift",
        -9.847469296560648
      ],
      [
        "Ġfavorite",
        -9.847473091781437
      ],
      [
        "Ġconsumpti",
        -9.84892186929794
      ],
      [
        "Ġneck",
        -9.850552208860911
      ],
      [
        "Ġflat",
        -9.851735317206677
      ],
      [
        "CH",
        -9.852384554507305
      ],
      [
        "round",
        -9.852892661260483
      ],
      [
        "Ġvirtual",
        -9.853241308554692
      ],
      [
        "Ġsquare",
        -9.853247070605924
      ],
      [
        "Ġpump",
        -9.853362168803695
      ],
      [
        "rid",
        -9.854151022181057
      ],
      [
        "ĠSh",
        -9.85776072148674
      ],
      [
        "Ġthreat",
        -9.858258334739922
      ],
      [
        "Ġmedium",
        -9.859057964744531
      ],
      [
        "pril",
        -9.85908984117128
      ],
      [
        "Ġclassroom",
        -9.859121917227352
      ],
      [
        "Ġannual",
        -9.859477768744789
      ],
      [
        "Ġpen",
        -9.859531912403703
      ],
      [
        "ley",
        -9.860580236200793
      ],
      [
        "IC",
        -9.861465330078511
      ],
      [
        "Ġharvest",
        -9.861962255200917
      ],
      [
        "Ġbutton",
        -9.862329397518094
      ],
      [
        "ĠOther",
        -9.86233097486602
      ],
      [
        "lar",
        -9.862339067475048
      ],
      [
        "ĠSea",
        -9.862531299544177
      ],
      [
        "wide",
        -9.86386884053138
      ],
      [
        "Ġdiscovered",
        -9.864256104113467
      ],
      [
        "Ġassess",
        -9.864345966383212
      ],
      [
        "Ġproduc",
        -9.8645292580806
      ],
      [
        "ĠHar",
        -9.864575228795635
      ],
      [
        "Ġinstrument",
        -9.8648861645751
      ],
      [
        "Ġsymbol",
        -9.864886442195594
      ],
      [
        "Ġplate",
        -9.865884048291711
      ],
      [
        "Ġsustain",
        -9.867046772662588
      ],
      [
        "ĠAir",
        -9.86773512600313
      ],
      [
        "Ġaren",
        -9.871898898338786
      ],
      [
        "ĠJe",
        -9.872326266411095
      ],
      [
        "IN",
        -9.873361315499814
      ],
      [
        "Ġbirth",
        -9.87359372140182
      ],
      [
        "Ch",
        -9.87374996695689
      ],
      [
        "Ġcolon",
        -9.873810704247116
      ],
      [
        "Ġfail",
        -9.873895523322885
      ],
      [
        "ĠGa",
        -9.874236030888405
      ],
      [
        "Ġelectronic",
        -9.874625173349935
      ],
      [
        "Ġhighlight",
        -9.87516759593844
      ],
      [
        "Ġschools",
        -9.87519974427375
      ],
      [
        "Ġerror",
        -9.876675175186
      ],
      [
        "Ġroots",
        -9.876859847957586
      ],
      [
        "Ġsit",
        -9.8774106696722
      ],
      [
        "Ġcommercial",
        -9.8796356676039
      ],
      [
        "Ġmechanism",
        -9.879635668247165
      ],
      [
        "Ġstuff",
        -9.879653778875362
      ],
      [
        "Ġtire",
        -9.879900496422184
      ],
      [
        "ĠArt",
        -9.879975775454582
      ],
      [
        "ong",
        -9.881191471017512
      ],
      [
        "app",
        -9.881396019289692
      ],
      [
        "Ġformed",
        -9.881946927026693
      ],
      [
        "Ġprinciple",
        -9.882611858006385
      ],
      [
        "Ġvital",
        -9.882659787403986
      ],
      [
        "Ġauto",
        -9.883044155514204
      ],
      [
        "ified",
        -9.883334794238612
      ],
      [
        "bra",
        -9.884087712358504
      ],
      [
        "Ġsheet",
        -9.885248152272862
      ],
      [
        "Ġregulation",
        -9.885620144031147
      ],
      [
        "Ġchicken",
        -9.885736936753757
      ],
      [
        "Ġbecomes",
        -9.885897596076047
      ],
      [
        "how",
        -9.886764825229402
      ],
      [
        "Ġspecifically",
        -9.886908529850862
      ],
      [
        "red",
        -9.886943745123714
      ],
      [
        "Ġbutter",
        -9.887375572286436
      ],
      [
        "Ġsounds",
        -9.887788293609102
      ],
      [
        "Ġdisc",
        -9.887912898227396
      ],
      [
        "Ġegg",
        -9.888402983227264
      ],
      [
        "ray",
        -9.8886121870909
      ],
      [
        "ĠAustralia",
        -9.889895937274884
      ],
      [
        "Ġpark",
        -9.88995275031898
      ],
      [
        "Ġprogramm",
        -9.890743452085502
      ],
      [
        "...ĊĊ",
        -9.891319372911497
      ],
      [
        "ĠGra",
        -9.892465498669624
      ],
      [
        "Ġinternal",
        -9.892918009782328
      ],
      [
        "atory",
        -9.893375031554015
      ],
      [
        "Ġstr",
        -9.893597088046366
      ],
      [
        "right",
        -9.893756099299576
      ],
      [
        "q",
        -9.89389345103042
      ],
      [
        "ĠRi",
        -9.895109942069382
      ],
      [
        "Ġbasi",
        -9.89557330787159
      ],
      [
        "Ġharm",
        -9.896403057853636
      ],
      [
        "ttle",
        -9.896952809194737
      ],
      [
        "Ġlegal",
        -9.897332165205306
      ],
      [
        "Ġillness",
        -9.897680376263516
      ],
      [
        "Ġreference",
        -9.897904666367378
      ],
      [
        "Ġalone",
        -9.898314614287244
      ],
      [
        "ually",
        -9.898366748891585
      ],
      [
        "Ġbodie",
        -9.898473694386675
      ],
      [
        "Ġcalculate",
        -9.901003804948816
      ],
      [
        "ĠJo",
        -9.903070530657436
      ],
      [
        "Ġoperat",
        -9.903336920799411
      ],
      [
        "Ġessay",
        -9.903697547892625
      ],
      [
        "Ġcompound",
        -9.903709165978215
      ],
      [
        "Ġresource",
        -9.904187637697635
      ],
      [
        "ants",
        -9.904779539999454
      ],
      [
        "Ġartist",
        -9.907492285769084
      ],
      [
        "Ġappearance",
        -9.9074952870402
      ],
      [
        "Ġfamil",
        -9.908379750808294
      ],
      [
        "ĠIndia",
        -9.90932688404612
      ],
      [
        "ĠDepartment",
        -9.909803948987538
      ],
      [
        "Ġindoor",
        -9.9098121706283
      ],
      [
        "Ġreported",
        -9.910808916568207
      ],
      [
        "Ġrecognize",
        -9.911544504219004
      ],
      [
        "cop",
        -9.913217537528052
      ],
      [
        "Ġcareer",
        -9.913287517397627
      ],
      [
        "ĠAccording",
        -9.914365023790012
      ],
      [
        "Ġmis",
        -9.915500009769804
      ],
      [
        "Ġcrack",
        -9.916281948296024
      ],
      [
        "Ġmixture",
        -9.91628550785614
      ],
      [
        "Ġboost",
        -9.916620902788454
      ],
      [
        "-like",
        -9.916785929566116
      ],
      [
        "ility",
        -9.91756220316196
      ],
      [
        "ĠAls",
        -9.918182575385256
      ],
      [
        "ĠEducation",
        -9.919040582888057
      ],
      [
        "rim",
        -9.919177603398497
      ],
      [
        "Ġinterested",
        -9.92040352066164
      ],
      [
        "onic",
        -9.920413347314897
      ],
      [
        "Ġindustrial",
        -9.920455223684847
      ],
      [
        "ĠStep",
        -9.921079117443922
      ],
      [
        "jo",
        -9.921715533650111
      ],
      [
        "ĠBar",
        -9.922144295734103
      ],
      [
        "Ġargument",
        -9.922218241756925
      ],
      [
        "Ġplug",
        -9.92236130949389
      ],
      [
        "Ġharmful",
        -9.92236146516758
      ],
      [
        "Ġtail",
        -9.92254835117103
      ],
      [
        "Ġinsight",
        -9.923597498657028
      ],
      [
        "Ġprefer",
        -9.92360110956328
      ],
      [
        "reg",
        -9.923662420936868
      ],
      [
        "ĠSan",
        -9.92384977505505
      ],
      [
        "Ġobserve",
        -9.923880213393929
      ],
      [
        "Ã©",
        -9.925250464756717
      ],
      [
        "Ġzone",
        -9.925273482951209
      ],
      [
        "Con",
        -9.925934028714313
      ],
      [
        "Ġclasses",
        -9.92650426221628
      ],
      [
        "Ġportion",
        -9.926694100534467
      ],
      [
        "Ġwindow",
        -9.926888231446087
      ],
      [
        "ĠDon",
        -9.927038269160803
      ],
      [
        "After",
        -9.927484457322793
      ],
      [
        "ĠEurope",
        -9.927574209242064
      ],
      [
        "Ġdecade",
        -9.9283559784209
      ],
      [
        "Ġtrade",
        -9.929319244191964
      ],
      [
        "Ġcapture",
        -9.9299165344048
      ],
      [
        "Ġseal",
        -9.931143904961507
      ],
      [
        "Ġofficial",
        -9.931477762045745
      ],
      [
        "Ġbroad",
        -9.931639061796217
      ],
      [
        "Ġphotos",
        -9.93277159641227
      ],
      [
        "All",
        -9.933409210176745
      ],
      [
        "Ġcatch",
        -9.934134769467544
      ],
      [
        "ĠCh",
        -9.934626112918778
      ],
      [
        "Ġreveal",
        -9.934629064498186
      ],
      [
        "Ġexpression",
        -9.936272052501558
      ],
      [
        "more",
        -9.936349459534092
      ],
      [
        "Ġsociety",
        -9.936726779634476
      ],
      [
        "ĠOnc",
        -9.937207076829576
      ],
      [
        "ĠService",
        -9.937472495789564
      ],
      [
        "times",
        -9.93773832050264
      ],
      [
        "Ġsilver",
        -9.937759327608552
      ],
      [
        "Ġbank",
        -9.93887807171476
      ],
      [
        "han",
        -9.939030257946836
      ],
      [
        "Ġhormone",
        -9.939479031833288
      ],
      [
        "ĠNa",
        -9.940103913521604
      ],
      [
        "Ġlandscape",
        -9.940484576400506
      ],
      [
        "That",
        -9.94066873308168
      ],
      [
        "ĠJapan",
        -9.940962586836836
      ],
      [
        "Ġconclusion",
        -9.941008234828344
      ],
      [
        "Ġbond",
        -9.941167510665604
      ],
      [
        "rap",
        -9.942208276021285
      ],
      [
        "art",
        -9.943732807680236
      ],
      [
        "Ġgenes",
        -9.94496596332295
      ],
      [
        "Ġstrain",
        -9.945038671589828
      ],
      [
        "ĠKa",
        -9.945354997298756
      ],
      [
        "mark",
        -9.94569017165363
      ],
      [
        "Ġcovered",
        -9.945778793710115
      ],
      [
        "are",
        -9.947141447924611
      ],
      [
        "Ġequation",
        -9.94724976928271
      ],
      [
        "Ġemail",
        -9.947251501782535
      ],
      [
        "Ġmovie",
        -9.947271075074305
      ],
      [
        "late",
        -9.94806870098088
      ],
      [
        "Ġpolicy",
        -9.948182387434429
      ],
      [
        "ĠMon",
        -9.94911710061103
      ],
      [
        "ĠWell",
        -9.949708817393962
      ],
      [
        "Ġagree",
        -9.949982298295463
      ],
      [
        "Ġregister",
        -9.95043444145522
      ],
      [
        "Ġcomprehensive",
        -9.950444216828842
      ],
      [
        "EN",
        -9.95046253979018
      ],
      [
        "<",
        -9.950812496852995
      ],
      [
        "Ġearlie",
        -9.951066453769592
      ],
      [
        "los",
        -9.951084454695048
      ],
      [
        "Ġstrip",
        -9.951167306901656
      ],
      [
        "ĠQu",
        -9.951348200768075
      ],
      [
        "ĠTa",
        -9.951549211986158
      ],
      [
        "Ġmaster",
        -9.95161466635361
      ],
      [
        "-free",
        -9.95200352601547
      ],
      [
        "dri",
        -9.952025749474531
      ],
      [
        "Ġperformed",
        -9.953326212075558
      ],
      [
        "Î",
        -9.95362928874728
      ],
      [
        "Ġstomach",
        -9.95362929890192
      ],
      [
        "Ġbike",
        -9.954915264775552
      ],
      [
        "Ġship",
        -9.955002047359066
      ],
      [
        "ark",
        -9.955597118226812
      ],
      [
        "Ġrid",
        -9.956372923062377
      ],
      [
        "Ġpossibilit",
        -9.956834620755927
      ],
      [
        "Ġcalorie",
        -9.956864400500482
      ],
      [
        "my",
        -9.957293001707512
      ],
      [
        "ĠDoes",
        -9.9577269457622
      ],
      [
        "-p",
        -9.958060208207112
      ],
      [
        "ĠDay",
        -9.959837451043995
      ],
      [
        "Ġmat",
        -9.959916199423205
      ],
      [
        "Ġrelevant",
        -9.960049858074088
      ],
      [
        "Ġbulb",
        -9.960053481416956
      ],
      [
        "ĠPe",
        -9.96021864501559
      ],
      [
        "ĠGarden",
        -9.960291829412991
      ],
      [
        "Ġhundred",
        -9.963275662428224
      ],
      [
        "Ġrelax",
        -9.96327571317321
      ],
      [
        "Ġadvice",
        -9.96327742450632
      ],
      [
        "Ġantibiotic",
        -9.963304733088297
      ],
      [
        "Ġtransmission",
        -9.963321974930846
      ],
      [
        "Ġentit",
        -9.96390631825286
      ],
      [
        "Ġstain",
        -9.964325079268187
      ],
      [
        "eath",
        -9.966326169979556
      ],
      [
        "Ġtransition",
        -9.966514371113345
      ],
      [
        "Ġfinger",
        -9.966635123591484
      ],
      [
        "Ġreli",
        -9.967044607754394
      ],
      [
        "ĠHis",
        -9.96776250598506
      ],
      [
        "Ġasked",
        -9.968070906576177
      ],
      [
        "ĠSince",
        -9.969139020207852
      ],
      [
        "Ġshade",
        -9.96932973009576
      ],
      [
        "Ġtomato",
        -9.969862792049147
      ],
      [
        "lid",
        -9.9708184077321
      ],
      [
        "Ġnest",
        -9.9714979687289
      ],
      [
        "Ġstar",
        -9.971594618871586
      ],
      [
        "ĠTe",
        -9.971891273893302
      ],
      [
        "Ġroutine",
        -9.973016101513624
      ],
      [
        "Ġcla",
        -9.973023305584151
      ],
      [
        "Ġprivate",
        -9.973037090249129
      ],
      [
        "Ġcore",
        -9.973043910772596
      ],
      [
        "Ġqu",
        -9.97384842361556
      ],
      [
        "can",
        -9.97431312847843
      ],
      [
        "Ġherb",
        -9.974323147691605
      ],
      [
        "Ġartificial",
        -9.975180266864768
      ],
      [
        "Ġnearly",
        -9.975514297298886
      ],
      [
        "Ġgun",
        -9.975885671979556
      ],
      [
        "Our",
        -9.976164499769588
      ],
      [
        "Ġdefinition",
        -9.976284616097637
      ],
      [
        "Ġboat",
        -9.97635326452823
      ],
      [
        "Ġpreference",
        -9.976510919336778
      ],
      [
        "Ġpress",
        -9.977763899113745
      ],
      [
        "Ġaudio",
        -9.977879981442122
      ],
      [
        "Ġnice",
        -9.978775252076929
      ],
      [
        "Ġdirt",
        -9.979628459582038
      ],
      [
        "Ġgather",
        -9.979633411919316
      ],
      [
        "Ġdynamic",
        -9.979803001935752
      ],
      [
        "Ġfunctional",
        -9.98003651521858
      ],
      [
        "lac",
        -9.980229976758142
      ],
      [
        "IS",
        -9.980918437928231
      ],
      [
        "Ġcompost",
        -9.981685732337535
      ],
      [
        "ration",
        -9.981875799167923
      ],
      [
        "...Ċ",
        -9.982056366963295
      ],
      [
        "Ġkit",
        -9.982346840038572
      ],
      [
        "Ġhelpful",
        -9.982974968900304
      ],
      [
        "Ġprovider",
        -9.985880059597646
      ],
      [
        "Ġopinion",
        -9.98615299528758
      ],
      [
        "Ġadvis",
        -9.986182134389695
      ],
      [
        "Ġsites",
        -9.98740912453967
      ],
      [
        "Ġfrequenc",
        -9.988249843815588
      ],
      [
        "Ġimp",
        -9.988582663585778
      ],
      [
        "Ġcloud",
        -9.989463847698469
      ],
      [
        "Ġmold",
        -9.98972141125061
      ],
      [
        "Ġbrush",
        -9.98973451934155
      ],
      [
        "Ġprocessing",
        -9.990015652979034
      ],
      [
        "pre",
        -9.990318534993593
      ],
      [
        "Ġancient",
        -9.99061085119036
      ],
      [
        "gent",
        -9.991342796381732
      ],
      [
        "ire",
        -9.992055482267435
      ],
      [
        "Ġeventual",
        -9.992311958431216
      ],
      [
        "Ġinnovation",
        -9.992785988955418
      ],
      [
        "Ġsurvey",
        -9.992786056806558
      ],
      [
        "Ġmiles",
        -9.992849268292886
      ],
      [
        "Ġcheap",
        -9.992919276951596
      ],
      [
        "ida",
        -9.993576622771744
      ],
      [
        "&",
        -9.993836587425427
      ],
      [
        "lot",
        -9.993846668071171
      ],
      [
        "Ġjoint",
        -9.994080201602916
      ],
      [
        "ought",
        -9.994723828284492
      ],
      [
        "Ġflu",
        -9.994732391793622
      ],
      [
        "Ġleaf",
        -9.995269337393612
      ],
      [
        "lam",
        -9.995448915791522
      ],
      [
        "Ġadopt",
        -9.996149219243392
      ],
      [
        "Ġattend",
        -9.996237512817151
      ],
      [
        "Ġscar",
        -9.996327508242164
      ],
      [
        "Ġdiscussion",
        -9.996771124636464
      ],
      [
        "ĠFood",
        -9.996911423534844
      ],
      [
        "Ġstation",
        -9.997280956765252
      ],
      [
        "tiny",
        -9.998234025766877
      ],
      [
        "Ġpara",
        -9.998738015139846
      ],
      [
        "Ġperspective",
        -9.999463786046036
      ],
      [
        "Ġfailure",
        -9.999636939383134
      ],
      [
        "Ġshot",
        -10.000278420463555
      ],
      [
        "ĠWork",
        -10.000759740386176
      ],
      [
        "ĠDu",
        -10.001431979852743
      ],
      [
        "Ġassist",
        -10.001527444848366
      ],
      [
        "Ġgift",
        -10.00282130706254
      ],
      [
        "ĠCount",
        -10.003036035984444
      ],
      [
        "Ġdemonstrate",
        -10.004786577349314
      ],
      [
        "Ġcarrie",
        -10.0057118623493
      ],
      [
        "Ġblend",
        -10.00627817210396
      ],
      [
        "Ġgeo",
        -10.007638870889352
      ],
      [
        "point",
        -10.00873989207388
      ],
      [
        "ental",
        -10.00876888718802
      ],
      [
        "OS",
        -10.009394504480374
      ],
      [
        "Ġsports",
        -10.010167206093053
      ],
      [
        "Ġpoly",
        -10.010275224682507
      ],
      [
        "tus",
        -10.01223022636657
      ],
      [
        "Ġconservation",
        -10.012954884218868
      ],
      [
        "Ġchannel",
        -10.012954932837005
      ],
      [
        "book",
        -10.01444349553254
      ],
      [
        "Ġprepared",
        -10.015126188451005
      ],
      [
        "Ġcomput",
        -10.016149273726413
      ],
      [
        "Ġclient",
        -10.016356373600171
      ],
      [
        "ĠHer",
        -10.016413495795849
      ],
      [
        "ĠTur",
        -10.017062782617687
      ],
      [
        "serv",
        -10.018527103164043
      ],
      [
        "arr",
        -10.0189329402589
      ],
      [
        "Ġtrigger",
        -10.019770317534178
      ],
      [
        "nel",
        -10.01977736476051
      ],
      [
        "Ġsnow",
        -10.019791683435804
      ],
      [
        "Ġexternal",
        -10.01981802506117
      ],
      [
        "Ġche",
        -10.019892578647564
      ],
      [
        "Mo",
        -10.020083066780716
      ],
      [
        "Ġfear",
        -10.020873108864432
      ],
      [
        "Ġthick",
        -10.021591882072917
      ],
      [
        "which",
        -10.021673518705924
      ],
      [
        "Ġdish",
        -10.022475323104803
      ],
      [
        "Ġbeneficial",
        -10.02319368845155
      ],
      [
        "par",
        -10.023548929646347
      ],
      [
        "Ġbread",
        -10.023687272037414
      ],
      [
        "Ġshar",
        -10.024391326303618
      ],
      [
        "Ġvirus",
        -10.024541404210773
      ],
      [
        "Ġseat",
        -10.024842535578134
      ],
      [
        "Ġcreative",
        -10.025073611394443
      ],
      [
        "Ġestablished",
        -10.02513588684516
      ],
      [
        "Ġresident",
        -10.026630195791512
      ],
      [
        "Ġfashion",
        -10.026630216353556
      ],
      [
        "Ġprimari",
        -10.026694251686258
      ],
      [
        "gue",
        -10.026881477136092
      ],
      [
        "Ġroute",
        -10.02724708268331
      ],
      [
        "Ġinsects",
        -10.027284927018508
      ],
      [
        "hop",
        -10.027925718310865
      ],
      [
        "Ġlog",
        -10.028113460533712
      ],
      [
        "Ġoptimal",
        -10.028717573108688
      ],
      [
        "Ġengage",
        -10.029419333751992
      ],
      [
        "@",
        -10.030078390422847
      ],
      [
        "Ġnumerous",
        -10.030078425672343
      ],
      [
        "Ġvariation",
        -10.030399548607766
      ],
      [
        "Ġplanting",
        -10.032171877498982
      ],
      [
        "rite",
        -10.033027068255508
      ],
      [
        "ĠPeople",
        -10.03353202893352
      ],
      [
        "Ġquilt",
        -10.033545579276314
      ],
      [
        "Ġworker",
        -10.033732763544092
      ],
      [
        "Ġfurni",
        -10.034177418720166
      ],
      [
        "Ġformation",
        -10.034361308481088
      ],
      [
        "Ġconsume",
        -10.03451145073974
      ],
      [
        "Ġpartner",
        -10.034940699390685
      ],
      [
        "Ġsuggests",
        -10.035126784524536
      ],
      [
        "Ġport",
        -10.035581977276928
      ],
      [
        "ju",
        -10.035795624690344
      ],
      [
        "ĠQ",
        -10.035800637729915
      ],
      [
        "Ġassembl",
        -10.037011042988754
      ],
      [
        "Ġtechnical",
        -10.03701495030922
      ],
      [
        "ĠTra",
        -10.037023506263283
      ],
      [
        "Ġshoot",
        -10.037032550388115
      ],
      [
        "meter",
        -10.037101461801557
      ],
      [
        "Ġstatus",
        -10.037359704544045
      ],
      [
        "Ġtru",
        -10.037420852101988
      ],
      [
        "Ġdistribution",
        -10.037459902788498
      ],
      [
        "ĠKeep",
        -10.040123768667604
      ],
      [
        "made",
        -10.040176121558115
      ],
      [
        "Ġremote",
        -10.040495213261815
      ],
      [
        "Ġzero",
        -10.040538178975662
      ],
      [
        "part",
        -10.040966451044444
      ],
      [
        "Ġemerg",
        -10.041609434267938
      ],
      [
        "ĠNov",
        -10.043206689171514
      ],
      [
        "ĠWhether",
        -10.04325486065909
      ],
      [
        "Ġemotional",
        -10.04342825019087
      ],
      [
        "ĠCor",
        -10.043855262970382
      ],
      [
        "ĠBritish",
        -10.043992876450355
      ],
      [
        "Ġworry",
        -10.044272881386409
      ],
      [
        "Ġintend",
        -10.044635557838866
      ],
      [
        "tric",
        -10.04551552096571
      ],
      [
        "Ġradio",
        -10.045974714667434
      ],
      [
        "ĠPlan",
        -10.046151214784016
      ],
      [
        "Ġrealize",
        -10.046418502830582
      ],
      [
        "Ġapproximately",
        -10.046910500999058
      ],
      [
        "Ġbear",
        -10.047021875137563
      ],
      [
        "kept",
        -10.047447213928072
      ],
      [
        "Ġtax",
        -10.049460646296044
      ],
      [
        "ĠTi",
        -10.049621075299482
      ],
      [
        "Ġcraft",
        -10.049672171435484
      ],
      [
        "Ġpin",
        -10.049944694579535
      ],
      [
        "Ġmolecules",
        -10.050578087675008
      ],
      [
        "Ġlab",
        -10.051218309076434
      ],
      [
        "pot",
        -10.051234176532944
      ],
      [
        "Ġobserv",
        -10.051706793869847
      ],
      [
        "ĠFe",
        -10.051890041574058
      ],
      [
        "ĠEuropean",
        -10.051902322915137
      ],
      [
        "Ġpop",
        -10.052378131482849
      ],
      [
        "cap",
        -10.05254762286838
      ],
      [
        "Ġoffering",
        -10.053776689486092
      ],
      [
        "ĠGreen",
        -10.054310831964395
      ],
      [
        "ĠFebruary",
        -10.054555112749386
      ],
      [
        "Ġcollege",
        -10.054555150427689
      ],
      [
        "Ġmask",
        -10.054749639897446
      ],
      [
        "Ġlay",
        -10.0551335894809
      ],
      [
        "Ġeco",
        -10.05516446867286
      ],
      [
        "win",
        -10.055857015742628
      ],
      [
        "Ġmonitoring",
        -10.056335183467992
      ],
      [
        "CE",
        -10.056949768856564
      ],
      [
        "ĠOut",
        -10.057048461903896
      ],
      [
        "Ġwin",
        -10.057768937139926
      ],
      [
        "ĠProgram",
        -10.058189275833186
      ],
      [
        "Yes",
        -10.058642381832094
      ],
      [
        "Ġcake",
        -10.058759045611772
      ],
      [
        "ĠWest",
        -10.05933568365772
      ],
      [
        "Ġra",
        -10.059588306022246
      ],
      [
        "Ġestablish",
        -10.05964555614532
      ],
      [
        "Ġchoos",
        -10.059776414333356
      ],
      [
        "ogen",
        -10.0600760958149
      ],
      [
        "ĠDesign",
        -10.060141329658688
      ],
      [
        "Ġdrug",
        -10.060413433790306
      ],
      [
        "ĠTest",
        -10.060547338957718
      ],
      [
        "ĠDog",
        -10.061203340649207
      ],
      [
        "ĠGoogle",
        -10.06144563627408
      ],
      [
        "Ġconsequence",
        -10.06165993006251
      ],
      [
        "Ġmorning",
        -10.061660489881609
      ],
      [
        "ĠPark",
        -10.062099754232497
      ],
      [
        "Ġintegrat",
        -10.062234611684223
      ],
      [
        "script",
        -10.062354561328744
      ],
      [
        "Ġ<",
        -10.062492870711727
      ],
      [
        "ĠSee",
        -10.06368281569132
      ],
      [
        "ĠGet",
        -10.063970523165471
      ],
      [
        "Ġanxiet",
        -10.064073891383437
      ],
      [
        "but",
        -10.064168689886197
      ],
      [
        "Ġoperate",
        -10.064501477972566
      ],
      [
        "Ġpets",
        -10.064628959629282
      ],
      [
        "Ġfacilit",
        -10.064632688954951
      ],
      [
        "Ġeducational",
        -10.06494796479254
      ],
      [
        "ome",
        -10.065156268396263
      ],
      [
        "Ġcoat",
        -10.06521990837377
      ],
      [
        "Ġprofit",
        -10.065345223296164
      ],
      [
        "Are",
        -10.065633657437544
      ],
      [
        "pal",
        -10.06728532769533
      ],
      [
        "Dr",
        -10.06771902132784
      ],
      [
        "ĠPh",
        -10.067773141701911
      ],
      [
        "Ġminimum",
        -10.068816411962928
      ],
      [
        "Ġnerve",
        -10.068939002169724
      ],
      [
        "ĠAdd",
        -10.068975920701924
      ],
      [
        "Conclusion",
        -10.069305201565577
      ],
      [
        "-being",
        -10.06951144686128
      ],
      [
        "Ġleak",
        -10.069560319812773
      ],
      [
        "get",
        -10.069745510747724
      ],
      [
        "hir",
        -10.070029053682315
      ],
      [
        "Ġmeeting",
        -10.07122470370227
      ],
      [
        "NS",
        -10.07251368192929
      ],
      [
        "tention",
        -10.072796987589149
      ],
      [
        "Ġguideline",
        -10.07299060818493
      ],
      [
        "Ġboil",
        -10.073547084213002
      ],
      [
        "Ġpercentage",
        -10.07381983671526
      ],
      [
        "Ġwheel",
        -10.07515324894903
      ],
      [
        "Ġmeter",
        -10.075667874336286
      ],
      [
        "Ġsteel",
        -10.076033139459229
      ],
      [
        "Ġcreation",
        -10.076053073906907
      ],
      [
        "-year",
        -10.076105556241917
      ],
      [
        "Ġbottle",
        -10.076107896596664
      ],
      [
        "Ġvalve",
        -10.076166202119486
      ],
      [
        "ĠOver",
        -10.07663560939989
      ],
      [
        "Ġbowl",
        -10.076805852583318
      ],
      [
        "Ġspeaker",
        -10.07694684285552
      ],
      [
        "Ġpad",
        -10.077551795861872
      ],
      [
        "ĠLab",
        -10.077773669662012
      ],
      [
        "General",
        -10.07809636099418
      ],
      [
        "Ġtea",
        -10.078291014706076
      ],
      [
        "Ġlaunch",
        -10.07964848324396
      ],
      [
        "Ġconstruct",
        -10.080099652696443
      ],
      [
        "Ġcamp",
        -10.080826366924116
      ],
      [
        "Ġheal",
        -10.081435486042851
      ],
      [
        "Ġcorner",
        -10.081456667143405
      ],
      [
        "Ġguid",
        -10.081527325067835
      ],
      [
        "ĠApp",
        -10.083044000708115
      ],
      [
        "Ġhazard",
        -10.083282453727104
      ],
      [
        "Ġprepare",
        -10.083307998584225
      ],
      [
        "Ġtrouble",
        -10.083316365100082
      ],
      [
        "Ġplent",
        -10.083843836818662
      ],
      [
        "ĠMarch",
        -10.085983359938734
      ],
      [
        "PS",
        -10.086040163612193
      ],
      [
        "Ġisland",
        -10.086576875407598
      ],
      [
        "Ġultimate",
        -10.086932005987393
      ],
      [
        "Ġdigest",
        -10.08713538945122
      ],
      [
        "Ġmarine",
        -10.087310619379377
      ],
      [
        "Ġreliabl",
        -10.088001133526172
      ],
      [
        "CO",
        -10.08873272233277
      ],
      [
        "Ġhydro",
        -10.089012430702756
      ],
      [
        "Ġcontinu",
        -10.089216986225985
      ],
      [
        "emergency",
        -10.089362094690037
      ],
      [
        "ken",
        -10.090515705638593
      ],
      [
        "Ġthorough",
        -10.090595538622935
      ],
      [
        "rad",
        -10.09123246693059
      ],
      [
        "wood",
        -10.091463737859412
      ],
      [
        "Ġeight",
        -10.091495718639322
      ],
      [
        "Ġsurvive",
        -10.092031619326583
      ],
      [
        "other",
        -10.092455572298922
      ],
      [
        "Ġconsult",
        -10.093422782745376
      ],
      [
        "Ġbooks",
        -10.094023660008142
      ],
      [
        "Ġlifestyle",
        -10.094486187711627
      ],
      [
        "Ġwish",
        -10.094951010801632
      ],
      [
        "Ġsuffer",
        -10.095047335275872
      ],
      [
        "Ġ\\",
        -10.095445498809978
      ],
      [
        "BC",
        -10.09597145707152
      ],
      [
        "Ġintelligence",
        -10.09641713247711
      ],
      [
        "Ġcontract",
        -10.096528096094024
      ],
      [
        "ground",
        -10.097958321148877
      ],
      [
        "Ġroof",
        -10.09796209882149
      ],
      [
        "Ro",
        -10.09824118268216
      ],
      [
        "Ġsmart",
        -10.098625707385184
      ],
      [
        "Ġsnake",
        -10.098769542316434
      ],
      [
        "ĠGod",
        -10.099323932253444
      ],
      [
        "iness",
        -10.100123826503197
      ],
      [
        "Ġoperations",
        -10.100364039721
      ],
      [
        "verse",
        -10.100382594448032
      ],
      [
        "Ġski",
        -10.100665735033704
      ],
      [
        "Ġstream",
        -10.100792950243491
      ],
      [
        "Ġstock",
        -10.10138183740143
      ],
      [
        "omi",
        -10.101389720665985
      ],
      [
        "Thank",
        -10.10140520131095
      ],
      [
        "Ġtight",
        -10.101565697574944
      ],
      [
        "Ġexhibit",
        -10.101665235835805
      ],
      [
        "Ġthrow",
        -10.101698929830215
      ],
      [
        "Ġnovel",
        -10.10219382242289
      ],
      [
        "Ġindependent",
        -10.102656341330778
      ],
      [
        "Ra",
        -10.103016551519216
      ],
      [
        "Ġsu",
        -10.103260700505476
      ],
      [
        "ule",
        -10.105245614832135
      ],
      [
        "Ġenzyme",
        -10.105382692690554
      ],
      [
        "Ġprecise",
        -10.105382798529757
      ],
      [
        "Ġwonder",
        -10.105717713563552
      ],
      [
        "Ġreduction",
        -10.105931455992758
      ],
      [
        "Ġinvestment",
        -10.106024570084069
      ],
      [
        "TR",
        -10.10612124136907
      ],
      [
        "Ġinteract",
        -10.106711017814394
      ],
      [
        "Ġformula",
        -10.106992485821744
      ],
      [
        "dom",
        -10.108112344832335
      ],
      [
        "ĠLearn",
        -10.10871877252698
      ],
      [
        "Ġalcohol",
        -10.109114067395303
      ],
      [
        "Ġdimension",
        -10.109114076961516
      ],
      [
        "Ġrequest",
        -10.109115649393711
      ],
      [
        "Ġchip",
        -10.10929961445126
      ],
      [
        "-friendl",
        -10.109961412022148
      ],
      [
        "CT",
        -10.110010904727416
      ],
      [
        "ĠIndian",
        -10.110185704936995
      ],
      [
        "long",
        -10.11211885102794
      ],
      [
        "Ġworse",
        -10.112233038328045
      ],
      [
        "ĠCat",
        -10.11247737983253
      ],
      [
        "Ġcommand",
        -10.11286307949501
      ],
      [
        "vin",
        -10.113446665211706
      ],
      [
        "Ġcapabilit",
        -10.115766855967626
      ],
      [
        "Ġgap",
        -10.116029598455814
      ],
      [
        "pan",
        -10.116249903161972
      ],
      [
        "Ġborn",
        -10.116736674946107
      ],
      [
        "Ġlung",
        -10.116885329447973
      ],
      [
        "Ġcontinuous",
        -10.116904641128082
      ],
      [
        "rat",
        -10.11728715610008
      ],
      [
        "Ġfeeding",
        -10.11832927460758
      ],
      [
        "lap",
        -10.119016346786111
      ],
      [
        "place",
        -10.119939859411645
      ],
      [
        "ĠHome",
        -10.120171749808986
      ],
      [
        "Ġapprove",
        -10.12039242719786
      ],
      [
        "Ġdestroy",
        -10.120392911536298
      ],
      [
        "Ġlift",
        -10.120419771595916
      ],
      [
        "Ġfirm",
        -10.120506410488389
      ],
      [
        "ĠSept",
        -10.120556918613849
      ],
      [
        "Ġloose",
        -10.120581656939091
      ],
      [
        "Use",
        -10.120784050206549
      ],
      [
        "ĠStudent",
        -10.121126963904649
      ],
      [
        "Ġ...ĊĊ",
        -10.121229681374778
      ],
      [
        "Ġratio",
        -10.121291586302624
      ],
      [
        "Ġsupplie",
        -10.12140158747791
      ],
      [
        "with",
        -10.121789565996394
      ],
      [
        "Un",
        -10.122075634332424
      ],
      [
        "Ġtall",
        -10.122487217588628
      ],
      [
        "ker",
        -10.123033142213322
      ],
      [
        "bit",
        -10.123432185875156
      ],
      [
        "tel",
        -10.12406583441632
      ],
      [
        "Ġstructural",
        -10.12418021653692
      ],
      [
        "Florida",
        -10.12418515445569
      ],
      [
        "ĠYork",
        -10.124187836989664
      ],
      [
        "Ġmembrane",
        -10.124217538190708
      ],
      [
        "Ġconfirm",
        -10.12426560832258
      ],
      [
        "ĠNi",
        -10.125951152826776
      ],
      [
        "action",
        -10.126061205747298
      ],
      [
        "Ġimprovement",
        -10.127375178627592
      ],
      [
        "Ġresponsibilit",
        -10.127982497876044
      ],
      [
        "Ġkitchen",
        -10.127982781450514
      ],
      [
        "Ġfossil",
        -10.127983579836885
      ],
      [
        "Ġlayers",
        -10.12822501020213
      ],
      [
        "Ġoven",
        -10.128240891783562
      ],
      [
        "Ġchalleng",
        -10.12843040968876
      ],
      [
        "Ġorigin",
        -10.128694469727824
      ],
      [
        "Answer",
        -10.129582976227317
      ],
      [
        "Ġpilot",
        -10.130133067068112
      ],
      [
        "Your",
        -10.130361063243342
      ],
      [
        "eek",
        -10.130564846952751
      ],
      [
        "Ġlawn",
        -10.130893788110376
      ],
      [
        "Ġreceptor",
        -10.130999676465114
      ],
      [
        "Ġinvest",
        -10.13160719549273
      ],
      [
        "Ġjump",
        -10.131817025826942
      ],
      [
        "Ġisolat",
        -10.133191279479028
      ],
      [
        "Ġcars",
        -10.134041066246375
      ],
      [
        "Ġsaying",
        -10.134727913020855
      ],
      [
        "Ġleav",
        -10.134933107127717
      ],
      [
        "ĠFi",
        -10.135734360687106
      ],
      [
        "Ġexamine",
        -10.13583533757415
      ],
      [
        "Ġstrateg",
        -10.137142370061568
      ],
      [
        "ĠRed",
        -10.138654900197103
      ],
      [
        "ĠCol",
        -10.138780953910716
      ],
      [
        "MP",
        -10.138955361420894
      ],
      [
        "Ġdescription",
        -10.13947766495128
      ],
      [
        "Â·",
        -10.139488139249067
      ],
      [
        "Ġnail",
        -10.139731406897734
      ],
      [
        "test",
        -10.140790491791307
      ],
      [
        "Ġdrugs",
        -10.140830273976457
      ],
      [
        "ney",
        -10.142201952523006
      ],
      [
        "direct",
        -10.142439792628297
      ],
      [
        "Ġdisorder",
        -10.14287951100713
      ],
      [
        "Ġbus",
        -10.143019896848958
      ],
      [
        "Ġobvious",
        -10.143337867373068
      ],
      [
        "Ġconversation",
        -10.14333793098314
      ],
      [
        "Ġformat",
        -10.143530093586962
      ],
      [
        "Ġflour",
        -10.143638262731509
      ],
      [
        "Ġatom",
        -10.143760931241951
      ],
      [
        "Ġnu",
        -10.143851301974436
      ],
      [
        "Ġblog",
        -10.144131066117613
      ],
      [
        "ĠTime",
        -10.144250845312763
      ],
      [
        "hydr",
        -10.144340078272087
      ],
      [
        "NE",
        -10.144514757628404
      ],
      [
        "Ġseven",
        -10.144588688645792
      ],
      [
        "ĠJohn",
        -10.146028804480473
      ],
      [
        "Ġextract",
        -10.146204938900237
      ],
      [
        "ĠChina",
        -10.14641010575607
      ],
      [
        "Ġdecided",
        -10.147321297653804
      ],
      [
        "ĠAugust",
        -10.147560850336411
      ],
      [
        "Ġhole",
        -10.147697148664983
      ],
      [
        "mph",
        -10.147860373158894
      ],
      [
        "Ġbiological",
        -10.147862814367612
      ],
      [
        "ĠJune",
        -10.147980483684329
      ],
      [
        "Ġassume",
        -10.148145442973252
      ],
      [
        "oil",
        -10.14905511972023
      ],
      [
        "Ġprotective",
        -10.149590939787858
      ],
      [
        "Ġph",
        -10.14980443789504
      ],
      [
        "SE",
        -10.14996764506912
      ],
      [
        "ula",
        -10.150618900643655
      ],
      [
        "Ġgold",
        -10.150642460021524
      ],
      [
        "Ġdecide",
        -10.150703722939411
      ],
      [
        "Ġjournal",
        -10.151104891495056
      ],
      [
        "Ġincredibl",
        -10.151105139879396
      ],
      [
        "Ġblind",
        -10.151112625729349
      ],
      [
        "Ġtitle",
        -10.1511169794187
      ],
      [
        "Ġstable",
        -10.15151713677442
      ],
      [
        "Ġsector",
        -10.151679854143428
      ],
      [
        "Ġyard",
        -10.151977328342197
      ],
      [
        "Ġschedule",
        -10.152464517976036
      ],
      [
        "Ġbreeding",
        -10.15258600922159
      ],
      [
        "ines",
        -10.152743278767453
      ],
      [
        "cid",
        -10.153198082826004
      ],
      [
        "ease",
        -10.153708367469974
      ],
      [
        "Ġconcrete",
        -10.155011138076514
      ],
      [
        "ĠEnergy",
        -10.155011199470229
      ],
      [
        "Ġcream",
        -10.155025539607816
      ],
      [
        "ĠEl",
        -10.155250273219515
      ],
      [
        "Ġrecycl",
        -10.155839544507383
      ],
      [
        "Ġblow",
        -10.155960844488662
      ],
      [
        "wimming",
        -10.15654870698524
      ],
      [
        "Ġtoxic",
        -10.15690400519302
      ],
      [
        "name",
        -10.15727226552844
      ],
      [
        "pin",
        -10.158348559899462
      ],
      [
        "Ġautomatic",
        -10.158692624550865
      ],
      [
        "Ġatmosphere",
        -10.158932713838553
      ],
      [
        "Ġgreenhouse",
        -10.159038467792602
      ],
      [
        "Ġputt",
        -10.15904855873639
      ],
      [
        "ĠSun",
        -10.159276918616472
      ],
      [
        "Ġemotion",
        -10.159565253410152
      ],
      [
        "ĠLu",
        -10.159649841336837
      ],
      [
        "rum",
        -10.15984410642833
      ],
      [
        "wing",
        -10.160194759719287
      ],
      [
        "emi",
        -10.160296818805126
      ],
      [
        "PA",
        -10.160792586745824
      ],
      [
        "La",
        -10.160824620776822
      ],
      [
        "oma",
        -10.160858824644766
      ],
      [
        "ĠChe",
        -10.16111257983411
      ],
      [
        "most",
        -10.162616763955306
      ],
      [
        "ĠFrench",
        -10.162870954084092
      ],
      [
        "Figure",
        -10.162976091334478
      ],
      [
        "ĠWal",
        -10.16316728223826
      ],
      [
        "Ġpond",
        -10.163190592605972
      ],
      [
        "rought",
        -10.163227025464504
      ],
      [
        "Ġhip",
        -10.16355570816988
      ],
      [
        "Ex",
        -10.163804496884495
      ],
      [
        "Ġspecialize",
        -10.16424317042351
      ],
      [
        "Ġsensitive",
        -10.164282139745596
      ],
      [
        "Ġsolve",
        -10.164535674475498
      ],
      [
        "ava",
        -10.16454174712786
      ],
      [
        "MO",
        -10.164574281743112
      ],
      [
        "ense",
        -10.165007181850171
      ],
      [
        "ological",
        -10.166362632556158
      ],
      [
        "logical",
        -10.166404319538191
      ],
      [
        "PE",
        -10.166725844504914
      ],
      [
        "ĠFish",
        -10.167017775916433
      ],
      [
        "Ġcharacters",
        -10.167055624281948
      ],
      [
        "Ġfacility",
        -10.167264676155732
      ],
      [
        "Ġdishe",
        -10.168816758642024
      ],
      [
        "ĠPart",
        -10.168979177127378
      ],
      [
        "ID",
        -10.16976279245009
      ],
      [
        "Ġadvance",
        -10.169820193508532
      ],
      [
        "BIM",
        -10.170567733935542
      ],
      [
        "ĠPu",
        -10.170755052561374
      ],
      [
        "Ġencounter",
        -10.170790540202368
      ],
      [
        "ĠCanada",
        -10.170791004719128
      ],
      [
        "ĠGuide",
        -10.171030738715498
      ],
      [
        "ĠCha",
        -10.171167445821023
      ],
      [
        "Ġexcessive",
        -10.171209598263795
      ],
      [
        "Ġlake",
        -10.17127263106446
      ],
      [
        "ING",
        -10.171724405790584
      ],
      [
        "My",
        -10.17378366651184
      ],
      [
        "Ġmanual",
        -10.173877119711708
      ],
      [
        "what",
        -10.174345940557089
      ],
      [
        "illa",
        -10.174726967782592
      ],
      [
        "ĠLook",
        -10.174960299461382
      ],
      [
        "Ġpur",
        -10.17540509029993
      ],
      [
        "ĠData",
        -10.175792537678134
      ],
      [
        "sel",
        -10.175834682636284
      ],
      [
        "Ġreplacement",
        -10.176050551435772
      ],
      [
        "state",
        -10.176622194604636
      ],
      [
        "Ġrep",
        -10.176888018501474
      ],
      [
        "urthermore",
        -10.177022541375043
      ],
      [
        "Ġeliminate",
        -10.177412467909036
      ],
      [
        "bar",
        -10.178070478071458
      ],
      [
        "gar",
        -10.178728871424
      ],
      [
        "Ġrandom",
        -10.178777612726993
      ],
      [
        "Ġsharp",
        -10.18154632449768
      ],
      [
        "Ġcm",
        -10.18185985370966
      ],
      [
        "Ġcookie",
        -10.182002775611222
      ],
      [
        "Ġcompetition",
        -10.182792021416876
      ],
      [
        "Ġcredit",
        -10.182815945478842
      ],
      [
        "Ġrough",
        -10.18283524259592
      ],
      [
        "Ġchair",
        -10.182845175597308
      ],
      [
        "rack",
        -10.18353564982165
      ],
      [
        "nut",
        -10.183600439919816
      ],
      [
        "matic",
        -10.1839461803523
      ],
      [
        "Ġdirector",
        -10.1839547233878
      ],
      [
        "view",
        -10.18395752721594
      ],
      [
        "Di",
        -10.185003116242545
      ],
      [
        "Ġalter",
        -10.185135199193228
      ],
      [
        "aster",
        -10.185271294439596
      ],
      [
        "ĠCl",
        -10.185309027579596
      ],
      [
        "Ġutilize",
        -10.18568828737248
      ],
      [
        "Ġchi",
        -10.186167981844736
      ],
      [
        "Ġmountain",
        -10.18682758555175
      ],
      [
        "Ġmainly",
        -10.187021062497523
      ],
      [
        "Onc",
        -10.187071704962
      ],
      [
        "Ġattribute",
        -10.187244492430686
      ],
      [
        "Ġdensit",
        -10.187615114678875
      ],
      [
        "last",
        -10.187898317778398
      ],
      [
        "More",
        -10.188288993608891
      ],
      [
        "Ġvisibl",
        -10.188465489595991
      ],
      [
        "Ġpromot",
        -10.188499216266647
      ],
      [
        "ĠGreat",
        -10.188763664744878
      ],
      [
        "Ġsufficient",
        -10.19032442373974
      ],
      [
        "Ġbudget",
        -10.19090105063593
      ],
      [
        "Ġloop",
        -10.1914164585279
      ],
      [
        "ĠLike",
        -10.19173008806168
      ],
      [
        "Ġprofessionals",
        -10.19183422981
      ],
      [
        "Ġbroken",
        -10.191875952502889
      ],
      [
        "Ġclinical",
        -10.1931223066408
      ],
      [
        "Ġstring",
        -10.193129643218562
      ],
      [
        "Ġtrail",
        -10.194992629873092
      ],
      [
        "Ġdisorders",
        -10.195497497123249
      ],
      [
        "ĠDa",
        -10.196641731508844
      ],
      [
        "MA",
        -10.19772120493157
      ],
      [
        "Ġprove",
        -10.199442279363163
      ],
      [
        "--",
        -10.200787552099024
      ],
      [
        "Ġstorie",
        -10.201173607378504
      ],
      [
        "Ġparameter",
        -10.20139351438383
      ],
      [
        "Ġconsideration",
        -10.202309330886123
      ],
      [
        "word",
        -10.202963482878976
      ],
      [
        "Ġsenior",
        -10.203116547029206
      ],
      [
        "Ġowner",
        -10.203130933595466
      ],
      [
        "Ġpredator",
        -10.203155470516691
      ],
      [
        "ez",
        -10.203389151907048
      ],
      [
        "ĠGood",
        -10.204140978764062
      ],
      [
        "raw",
        -10.205406997656183
      ],
      [
        "Ġpregnanc",
        -10.20559386127185
      ],
      [
        "Ġtooth",
        -10.206630325849648
      ],
      [
        "Ġcreature",
        -10.207231808261824
      ],
      [
        "Ġintervention",
        -10.207231812609002
      ],
      [
        "Ġintake",
        -10.207236173633175
      ],
      [
        "Ġmanag",
        -10.207318353960709
      ],
      [
        "Ġcopy",
        -10.20761177784464
      ],
      [
        "ĠPC",
        -10.20765793979793
      ],
      [
        "Ġbelong",
        -10.207802645952192
      ],
      [
        "ĠCreat",
        -10.208146142346916
      ],
      [
        "US",
        -10.208836635121676
      ],
      [
        "ola",
        -10.20895030752278
      ],
      [
        "Ġwash",
        -10.211395634781592
      ],
      [
        "Ġmon",
        -10.2120508986128
      ],
      [
        "Ġsew",
        -10.212128199690683
      ],
      [
        "Ġcoal",
        -10.212676404536907
      ],
      [
        "ĠCheck",
        -10.213239249912435
      ],
      [
        "Ġinstallation",
        -10.213281206074525
      ],
      [
        "tract",
        -10.213494191076077
      ],
      [
        "Ġincorporate",
        -10.213776534716192
      ],
      [
        "ĠEvery",
        -10.213795656896275
      ],
      [
        "rice",
        -10.213931075239913
      ],
      [
        "Ġwhatever",
        -10.214512036012618
      ],
      [
        "arch",
        -10.21480284117106
      ],
      [
        "Ġdelicious",
        -10.215513379648154
      ],
      [
        "Ġsauce",
        -10.215515066897389
      ],
      [
        "Ġbat",
        -10.215672960605744
      ],
      [
        "Ġtrick",
        -10.215932006121452
      ],
      [
        "SS",
        -10.216253148916252
      ],
      [
        "Ġdelay",
        -10.21627495317444
      ],
      [
        "Ġpainting",
        -10.216710994596918
      ],
      [
        "Ġcow",
        -10.218365436710965
      ],
      [
        "Ġcommunicate",
        -10.218599425574189
      ],
      [
        "#",
        -10.218618568705704
      ],
      [
        "eff",
        -10.219310851598951
      ],
      [
        "Ġfold",
        -10.219402298868037
      ],
      [
        "Ġgirl",
        -10.219680289364067
      ],
      [
        "Most",
        -10.220522289019437
      ],
      [
        "rist",
        -10.220741259667358
      ],
      [
        "rib",
        -10.222009108805448
      ],
      [
        "Ġsaving",
        -10.22386555908908
      ],
      [
        "ĠCollege",
        -10.223866632989123
      ],
      [
        "âĢĭ",
        -10.223870527762935
      ],
      [
        "LA",
        -10.224027928416806
      ],
      [
        "Ġcounter",
        -10.224182028005549
      ],
      [
        "ĠCom",
        -10.224257795312347
      ],
      [
        "ably",
        -10.22450537824018
      ],
      [
        "Ġcalci",
        -10.224868721219996
      ],
      [
        "ĠConsider",
        -10.225246937737944
      ],
      [
        "Ġprior",
        -10.225407150882862
      ],
      [
        "Ġvs",
        -10.225488332679834
      ],
      [
        "load",
        -10.227191995209932
      ],
      [
        "ĠKi",
        -10.227491304270824
      ],
      [
        "Ġparticipant",
        -10.228065822498774
      ],
      [
        "Ġflood",
        -10.228189368344946
      ],
      [
        "well",
        -10.228377823460455
      ],
      [
        "Ġchose",
        -10.228729535016292
      ],
      [
        "Ġgraph",
        -10.229170953480777
      ],
      [
        "Ġoccurr",
        -10.22929131239736
      ],
      [
        "Ġcorn",
        -10.229654245768035
      ],
      [
        "heat",
        -10.230459509778148
      ],
      [
        "Ġmanager",
        -10.23099947743045
      ],
      [
        "Ġunits",
        -10.231576801251745
      ],
      [
        "you",
        -10.23172278754767
      ],
      [
        "ĠUp",
        -10.232054513845291
      ],
      [
        "ĠTechnolog",
        -10.23215801977992
      ],
      [
        "-related",
        -10.232285521552855
      ],
      [
        "Ġsudden",
        -10.232286290929618
      ],
      [
        "Ġkidney",
        -10.23241510336928
      ],
      [
        "Ġvariant",
        -10.232538406859565
      ],
      [
        "Example",
        -10.233315364540044
      ],
      [
        "ĠMil",
        -10.233687640419024
      ],
      [
        "Pre",
        -10.233974307162118
      ],
      [
        "that",
        -10.234309708351969
      ],
      [
        "Ġtie",
        -10.234563493982764
      ],
      [
        "Ġhid",
        -10.23554353975484
      ],
      [
        "Ġinvolv",
        -10.236049325452722
      ],
      [
        "Ġdefinite",
        -10.23688796645958
      ],
      [
        "SC",
        -10.236952602897787
      ],
      [
        "Ġminimize",
        -10.237095219516778
      ],
      [
        "ĠWhere",
        -10.237318720811182
      ],
      [
        "ĠVer",
        -10.237341556720082
      ],
      [
        "Ġhum",
        -10.237842614987976
      ],
      [
        "ĠBio",
        -10.238465260680233
      ],
      [
        "Ġpackage",
        -10.23947396919952
      ],
      [
        "Ġdetermined",
        -10.23947740842702
      ],
      [
        "ĠStor",
        -10.240628107095649
      ],
      [
        "Ġdress",
        -10.240809447803668
      ],
      [
        "Ġappeal",
        -10.240826667302066
      ],
      [
        "First",
        -10.2417061469313
      ],
      [
        "Let",
        -10.241723568083874
      ],
      [
        "ĠJanu",
        -10.241804655547645
      ],
      [
        "ĠHu",
        -10.241922893428336
      ],
      [
        "Ġbillion",
        -10.24205994187158
      ],
      [
        "room",
        -10.242482729002347
      ],
      [
        "Ġobjective",
        -10.24293816054047
      ],
      [
        "Ġdistinct",
        -10.243224647240908
      ],
      [
        "ific",
        -10.243647596348694
      ],
      [
        "Ġexplor",
        -10.24371970196284
      ],
      [
        "Ġspin",
        -10.24377915042642
      ],
      [
        "uel",
        -10.246011736399694
      ],
      [
        "Ġemploy",
        -10.2463851716426
      ],
      [
        "Ġfarmers",
        -10.247087572714484
      ],
      [
        "Select",
        -10.247451264365152
      ],
      [
        "-time",
        -10.24796500041138
      ],
      [
        "desired",
        -10.248238136246687
      ],
      [
        "Ġnucle",
        -10.248867677168503
      ],
      [
        "ĠAbou",
        -10.248900634497588
      ],
      [
        "ston",
        -10.249060364073728
      ],
      [
        "Li",
        -10.249079288498365
      ],
      [
        "Ġextensive",
        -10.249343205710666
      ],
      [
        "Ġpermanent",
        -10.249343678050227
      ],
      [
        "Ġdiagram",
        -10.249343736353394
      ],
      [
        "Ġcampaign",
        -10.249343776110637
      ],
      [
        "Ġprofile",
        -10.24935036308231
      ],
      [
        "Ġversatil",
        -10.249354710851712
      ],
      [
        "Ġwound",
        -10.249520052540635
      ],
      [
        "ette",
        -10.249806684633604
      ],
      [
        "ĠControl",
        -10.250252088258112
      ],
      [
        "Ġorganize",
        -10.250619300097
      ],
      [
        "list",
        -10.251863173443256
      ],
      [
        "rich",
        -10.25299003446159
      ],
      [
        "Ġbees",
        -10.25300236157241
      ],
      [
        "Ġsurprise",
        -10.253653533640671
      ],
      [
        "Ġbrief",
        -10.253653610513808
      ],
      [
        "Ġderive",
        -10.253687678104525
      ],
      [
        "Ġinternet",
        -10.253970471608277
      ],
      [
        "ĠPower",
        -10.254499702430396
      ],
      [
        "Ġweed",
        -10.256619845431024
      ],
      [
        "Ġpar",
        -10.257130821760851
      ],
      [
        "aught",
        -10.257864979382552
      ],
      [
        "Ġdedicate",
        -10.257986436996376
      ],
      [
        "Ġcompet",
        -10.257987021246777
      ],
      [
        "Ġvessel",
        -10.257988699707033
      ],
      [
        "Ġcultural",
        -10.258370595288234
      ],
      [
        "Ġdivide",
        -10.261160615984746
      ],
      [
        "Ġfundamental",
        -10.262330412738404
      ],
      [
        "Ġdisrupt",
        -10.262330481430462
      ],
      [
        "OVID",
        -10.262379956368058
      ],
      [
        "char",
        -10.262590543405354
      ],
      [
        "Ġgenerator",
        -10.26343041948325
      ],
      [
        "Ġinsert",
        -10.263477788757022
      ],
      [
        "ĠTake",
        -10.26452821859712
      ],
      [
        "Hi",
        -10.265701405489068
      ],
      [
        "pped",
        -10.26660373249926
      ],
      [
        "Ġrabbit",
        -10.26669723718658
      ],
      [
        "ĠWild",
        -10.266753448489984
      ],
      [
        "Ġfoster",
        -10.26683367098198
      ],
      [
        "rush",
        -10.26686171447601
      ],
      [
        "Ġguy",
        -10.267058930961454
      ],
      [
        "Ġmono",
        -10.268323168539172
      ],
      [
        "ĠAny",
        -10.268624774223596
      ],
      [
        "Ġtip",
        -10.269043039584345
      ],
      [
        "diversity",
        -10.269065594011028
      ],
      [
        "Ġbill",
        -10.269094587788471
      ],
      [
        "Ġaccident",
        -10.26923126460763
      ],
      [
        "cra",
        -10.269636254000453
      ],
      [
        "cher",
        -10.270966005729004
      ],
      [
        "Ġquantit",
        -10.27097062492255
      ],
      [
        "Ġscenario",
        -10.271083141146228
      ],
      [
        "Ġyield",
        -10.27108314390075
      ],
      [
        "Ġfamiliar",
        -10.271085307983617
      ],
      [
        "Ġdomain",
        -10.27109658741414
      ],
      [
        "Ġwoman",
        -10.27125088700009
      ],
      [
        "En",
        -10.27182462259555
      ],
      [
        "productive",
        -10.272082819853228
      ],
      [
        "Ġreader",
        -10.273593257022078
      ],
      [
        "Ġvet",
        -10.273753847858206
      ],
      [
        "Ġshoes",
        -10.274631711734456
      ],
      [
        "Ġtraffic",
        -10.275488428056049
      ],
      [
        "Ġbloom",
        -10.275488573276894
      ],
      [
        "Ġtrauma",
        -10.275496132107993
      ],
      [
        "Ġinsulin",
        -10.275499383674893
      ],
      [
        "Ġscore",
        -10.275557579442616
      ],
      [
        "Ġpreparation",
        -10.27605482605786
      ],
      [
        "ĠInternational",
        -10.276411097624823
      ],
      [
        "Ġfo",
        -10.276434411889603
      ],
      [
        "tem",
        -10.276456522083937
      ],
      [
        "Ġwet",
        -10.276654575522716
      ],
      [
        "uk",
        -10.277902788775236
      ],
      [
        "Ġwindows",
        -10.277924961736908
      ],
      [
        "Ġcent",
        -10.278349471704402
      ],
      [
        "Ġnation",
        -10.279140929642368
      ],
      [
        "Ġcontrast",
        -10.279913609504408
      ],
      [
        "Ġpoison",
        -10.279918516823306
      ],
      [
        "Ġscene",
        -10.279940082037072
      ],
      [
        "Ġsight",
        -10.28124234517027
      ],
      [
        "ĠChoos",
        -10.28265717478747
      ],
      [
        "ĠFree",
        -10.28333687815567
      ],
      [
        "pm",
        -10.283416232974531
      ],
      [
        "?\"",
        -10.284235627304682
      ],
      [
        "Ġbeauty",
        -10.284358977902295
      ],
      [
        "Ġlimestone",
        -10.284384664294569
      ],
      [
        "Ġlisten",
        -10.284449681138996
      ],
      [
        "unk",
        -10.284452043663311
      ],
      [
        "Source",
        -10.284461467701984
      ],
      [
        "Ġgram",
        -10.284551534390246
      ],
      [
        "Ġobservation",
        -10.28543656775182
      ],
      [
        "ssistance",
        -10.286075758755755
      ],
      [
        "tail",
        -10.286592629269231
      ],
      [
        "According",
        -10.286650541427663
      ],
      [
        "pel",
        -10.286704980615967
      ],
      [
        "ĠSer",
        -10.286918698404635
      ],
      [
        "|Ċ",
        -10.287263374293058
      ],
      [
        "Ġmission",
        -10.2872740432297
      ],
      [
        "met",
        -10.28746708660472
      ],
      [
        "cut",
        -10.287797329342176
      ],
      [
        "PT",
        -10.28796521046372
      ],
      [
        "Ġinstitution",
        -10.28882193650004
      ],
      [
        "Ġpowder",
        -10.288821986785544
      ],
      [
        "Ġrespirator",
        -10.28882232233882
      ],
      [
        "Ġmobile",
        -10.288823985442187
      ],
      [
        "Ġmolecular",
        -10.2888409804565
      ],
      [
        "put",
[...]
